{
  "vocab": {
    " ": 0,
    "/": 1,
    "/03": 2,
    "/04": 3,
    "/04/2025": 4,
    "/05": 5,
    "/05/2025": 6,
    "/10": 7,
    "/2025": 8,
    "/2026": 9,
    "/25": 10,
    "/26": 11,
    "/7": 12,
    "/chiefs": 13,
    "/or": 14,
    "0": 15,
    "0/10": 16,
    "00": 17,
    "000": 18,
    "000th": 19,
    "01": 20,
    "02": 21,
    "03": 22,
    "04": 23,
    "05": 24,
    "06": 25,
    "07": 26,
    "08": 27,
    "09": 28,
    "0p": 29,
    "1": 30,
    "1/": 31,
    "1/2": 32,
    "10": 33,
    "10/05/2025": 34,
    "10/10": 35,
    "100": 36,
    "100/": 37,
    "1000": 38,
    "1000th": 39,
    "100k": 40,
    "100m": 41,
    "100mil": 42,
    "100mill": 43,
    "100million": 44,
    "100th": 45,
    "101": 46,
    "101m": 47,
    "102": 48,
    "103": 49,
    "104": 50,
    "105": 51,
    "106": 52,
    "107": 53,
    "1080": 54,
    "1080p": 55,
    "10m": 56,
    "10th": 57,
    "10x": 58,
    "11": 59,
    "11/": 60,
    "110": 61,
    "110m": 62,
    "111": 63,
    "116": 64,
    "117": 65,
    "11th": 66,
    "12": 67,
    "120": 68,
    "1200": 69,
    "125": 70,
    "12th": 71,
    "13": 72,
    "130": 73,
    "1300": 74,
    "138": 75,
    "13th": 76,
    "14": 77,
    "1400": 78,
    "14th": 79,
    "15": 80,
    "150": 81,
    "1500": 82,
    "15th": 83,
    "16": 84,
    "1600": 85,
    "1650": 86,
    "16th": 87,
    "17": 88,
    "1700": 89,
    "172": 90,
    "1750": 91,
    "17th": 92,
    "18": 93,
    "180": 94,
    "1800": 95,
    "1850": 96,
    "18th": 97,
    "19": 98,
    "1900": 99,
    "1950": 100,
    "1980": 101,
    "1986": 102,
    "1993": 103,
    "19th": 104,
    "1b": 105,
    "1billion": 106,
    "1k": 107,
    "1m": 108,
    "1st": 109,
    "2": 110,
    "2/": 111,
    "20": 112,
    "200": 113,
    "2000": 114,
    "2000s": 115,
    "2001": 116,
    "2002": 117,
    "2004": 118,
    "2005": 119,
    "2006": 120,
    "2007": 121,
    "2008": 122,
    "200m": 123,
    "2011": 124,
    "2012": 125,
    "2013": 126,
    "2014": 127,
    "2015": 128,
    "2016": 129,
    "2017": 130,
    "2018": 131,
    "2019": 132,
    "202": 133,
    "2020": 134,
    "2021": 135,
    "2022": 136,
    "2023": 137,
    "2024": 138,
    "2025": 139,
    "2026": 140,
    "2027": 141,
    "2028": 142,
    "2029": 143,
    "2030": 144,
    "2035": 145,
    "2040": 146,
    "2045": 147,
    "2050": 148,
    "2070": 149,
    "2077": 150,
    "2099": 151,
    "20s": 152,
    "20th": 153,
    "21": 154,
    "2100": 155,
    "2150": 156,
    "216": 157,
    "21st": 158,
    "22": 159,
    "2200": 160,
    "22nd": 161,
    "23": 162,
    "2300": 163,
    "23rd": 164,
    "24": 165,
    "24/25": 166,
    "24/7": 167,
    "2400": 168,
    "25": 169,
    "250": 170,
    "25th": 171,
    "26": 172,
    "26/05": 173,
    "26/05/2026": 174,
    "26th": 175,
    "27": 176,
    "27th": 177,
    "28": 178,
    "28th": 179,
    "29": 180,
    "2d": 181,
    "2k": 182,
    "2m": 183,
    "2nd": 184,
    "2pac": 185,
    "2x": 186,
    "3": 187,
    "3/": 188,
    "30": 189,
    "300": 190,
    "3000": 191,
    "30fps": 192,
    "30th": 193,
    "31": 194,
    "315": 195,
    "32": 196,
    "33": 197,
    "34": 198,
    "35": 199,
    "36": 200,
    "37": 201,
    "379": 202,
    "38": 203,
    "380": 204,
    "381": 205,
    "382": 206,
    "385": 207,
    "39": 208,
    "3d": 209,
    "3peat": 210,
    "3rd": 211,
    "3weeks": 212,
    "3x": 213,
    "4": 214,
    "4/": 215,
    "40": 216,
    "400": 217,
    "40th": 218,
    "41": 219,
    "42": 220,
    "43": 221,
    "44": 222,
    "445": 223,
    "45": 224,
    "46": 225,
    "47": 226,
    "48": 227,
    "49": 228,
    "49er": 229,
    "49ers": 230,
    "4days": 231,
    "4k": 232,
    "4m": 233,
    "4th": 234,
    "5": 235,
    "5/": 236,
    "5/2025": 237,
    "5/26": 238,
    "50": 239,
    "50/": 240,
    "50/50": 241,
    "500": 242,
    "5000": 243,
    "5090": 244,
    "50th": 245,
    "51": 246,
    "52": 247,
    "53": 248,
    "54": 249,
    "55": 250,
    "56": 251,
    "57": 252,
    "58": 253,
    "59": 254,
    "5m": 255,
    "5th": 256,
    "5x": 257,
    "6": 258,
    "60": 259,
    "600": 260,
    "60fps": 261,
    "60s": 262,
    "62": 263,
    "64": 264,
    "65": 265,
    "66": 266,
    "666": 267,
    "67": 268,
    "68": 269,
    "69": 270,
    "6m": 271,
    "6th": 272,
    "7": 273,
    "70": 274,
    "700": 275,
    "70s": 276,
    "71": 277,
    "73": 278,
    "74": 279,
    "75": 280,
    "76": 281,
    "77": 282,
    "78": 283,
    "79": 284,
    "7th": 285,
    "8": 286,
    "8/10": 287,
    "80": 288,
    "800": 289,
    "80s": 290,
    "81": 291,
    "83": 292,
    "84": 293,
    "85": 294,
    "86": 295,
    "87": 296,
    "88": 297,
    "89": 298,
    "8m": 299,
    "8th": 300,
    "9": 301,
    "90": 302,
    "900": 303,
    "90m": 304,
    "90s": 305,
    "91": 306,
    "92": 307,
    "93": 308,
    "94": 309,
    "95": 310,
    "95m": 311,
    "96": 312,
    "97": 313,
    "97m": 314,
    "98": 315,
    "99": 316,
    "999": 317,
    "99m": 318,
    "9ers": 319,
    "9th": 320,
    "<": 321,
    "<3": 322,
    "<3<3": 323,
    "<URL>": 324,
    "<unk>": 325,
    ">": 326,
    ">>": 327,
    ">>>": 328,
    "_": 329,
    "__": 330,
    "___": 331,
    "a": 332,
    "a1": 333,
    "aa": 334,
    "aaa": 335,
    "aaah": 336,
    "aaand": 337,
    "aaard": 338,
    "aaat": 339,
    "aahhh": 340,
    "aap": 341,
    "aapki": 342,
    "aapko": 343,
    "aar": 344,
    "aaron": 345,
    "aay": 346,
    "aayyy": 347,
    "ab": 348,
    "aband": 349,
    "abandoned": 350,
    "abble": 351,
    "abil": 352,
    "abilities": 353,
    "ability": 354,
    "able": 355,
    "ably": 356,
    "abo": 357,
    "aboo": 358,
    "abor": 359,
    "about": 360,
    "above": 361,
    "absent": 362,
    "absol": 363,
    "absolut": 364,
    "absolutamente": 365,
    "absolute": 366,
    "absolutely": 367,
    "absur": 368,
    "absurd": 369,
    "abt": 370,
    "abur": 371,
    "aburri": 372,
    "aburrido": 373,
    "abuse": 374,
    "aby": 375,
    "abysmal": 376,
    "ac": 377,
    "aca": 378,
    "acaba": 379,
    "acc": 380,
    "acce": 381,
    "accent": 382,
    "accept": 383,
    "acceptable": 384,
    "access": 385,
    "accident": 386,
    "accompl": 387,
    "accomplish": 388,
    "accomplished": 389,
    "accor": 390,
    "according": 391,
    "account": 392,
    "accounts": 393,
    "accur": 394,
    "accuracy": 395,
    "accurate": 396,
    "ace": 397,
    "ach": 398,
    "achei": 399,
    "achie": 400,
    "achieve": 401,
    "achieved": 402,
    "achievement": 403,
    "acho": 404,
    "acin": 405,
    "aciones": 406,
    "acity": 407,
    "ack": 408,
    "acknow": 409,
    "acknowledge": 410,
    "acor": 411,
    "acres": 412,
    "across": 413,
    "act": 414,
    "acting": 415,
    "action": 416,
    "actions": 417,
    "activ": 418,
    "active": 419,
    "activities": 420,
    "actor": 421,
    "actors": 422,
    "acts": 423,
    "actual": 424,
    "actually": 425,
    "ad": 426,
    "ada": 427,
    "adam": 428,
    "adas": 429,
    "add": 430,
    "added": 431,
    "addic": 432,
    "addict": 433,
    "addicted": 434,
    "addicting": 435,
    "addiction": 436,
    "addictive": 437,
    "adding": 438,
    "addition": 439,
    "additional": 440,
    "address": 441,
    "adds": 442,
    "ade": 443,
    "adh": 444,
    "adi": 445,
    "adjust": 446,
    "adm": 447,
    "admire": 448,
    "admit": 449,
    "admitted": 450,
    "ado": 451,
    "ador": 452,
    "adorable": 453,
    "adore": 454,
    "adores": 455,
    "ados": 456,
    "adrenaline": 457,
    "ads": 458,
    "adul": 459,
    "adult": 460,
    "adults": 461,
    "adv": 462,
    "advance": 463,
    "advanced": 464,
    "advant": 465,
    "advantage": 466,
    "advent": 467,
    "adver": 468,
    "adversity": 469,
    "advert": 470,
    "advertise": 471,
    "advertisement": 472,
    "advertising": 473,
    "advice": 474,
    "ae": 475,
    "aes": 476,
    "af": 477,
    "afc": 478,
    "aff": 479,
    "affe": 480,
    "affect": 481,
    "affected": 482,
    "affir": 483,
    "afford": 484,
    "afraid": 485,
    "africa": 486,
    "african": 487,
    "aft": 488,
    "after": 489,
    "afternoon": 490,
    "afterwards": 491,
    "ag": 492,
    "aga": 493,
    "again": 494,
    "againnn": 495,
    "against": 496,
    "age": 497,
    "aged": 498,
    "agem": 499,
    "agement": 500,
    "agency": 501,
    "agenda": 502,
    "agent": 503,
    "ager": 504,
    "ages": 505,
    "agger": 506,
    "aggressive": 507,
    "agian": 508,
    "agin": 509,
    "aging": 510,
    "agles": 511,
    "agne": 512,
    "ago": 513,
    "agon": 514,
    "agora": 515,
    "agra": 516,
    "agre": 517,
    "agree": 518,
    "agu": 519,
    "agus": 520,
    "ah": 521,
    "aha": 522,
    "ahead": 523,
    "ahh": 524,
    "ahhh": 525,
    "ahora": 526,
    "ahu": 527,
    "ai": 528,
    "aid": 529,
    "aight": 530,
    "ain": 531,
    "ainda": 532,
    "aint": 533,
    "air": 534,
    "aire": 535,
    "aired": 536,
    "airpods": 537,
    "ais": 538,
    "aj": 539,
    "aja": 540,
    "ak": 541,
    "aka": 542,
    "aked": 543,
    "aking": 544,
    "akk": 545,
    "ako": 546,
    "aks": 547,
    "aku": 548,
    "al": 549,
    "ala": 550,
    "alab": 551,
    "alabama": 552,
    "album": 553,
    "alco": 554,
    "alcohol": 555,
    "ald": 556,
    "ale": 557,
    "aled": 558,
    "aler": 559,
    "ales": 560,
    "alex": 561,
    "alg": 562,
    "algo": 563,
    "algor": 564,
    "algorith": 565,
    "algorithm": 566,
    "algu": 567,
    "alguien": 568,
    "algum": 569,
    "alguna": 570,
    "alho": 571,
    "ali": 572,
    "alien": 573,
    "aliens": 574,
    "alike": 575,
    "aling": 576,
    "ality": 577,
    "alive": 578,
    "alkatiri": 579,
    "all": 580,
    "alle": 581,
    "alleg": 582,
    "allen": 583,
    "aller": 584,
    "alli": 585,
    "alligator": 586,
    "alll": 587,
    "allly": 588,
    "allow": 589,
    "allowed": 590,
    "allowing": 591,
    "allstate": 592,
    "ally": 593,
    "alm": 594,
    "almost": 595,
    "alo": 596,
    "alone": 597,
    "along": 598,
    "alongside": 599,
    "alot": 600,
    "alpha": 601,
    "alr": 602,
    "already": 603,
    "alright": 604,
    "als": 605,
    "also": 606,
    "alt": 607,
    "alter": 608,
    "although": 609,
    "alto": 610,
    "alty": 611,
    "altyaz": 612,
    "alu": 613,
    "alv": 614,
    "always": 615,
    "aly": 616,
    "am": 617,
    "ama": 618,
    "aman": 619,
    "amar": 620,
    "amateur": 621,
    "amateurs": 622,
    "amaz": 623,
    "amazed": 624,
    "amazing": 625,
    "amazingly": 626,
    "amazon": 627,
    "amd": 628,
    "ame": 629,
    "amed": 630,
    "amen": 631,
    "amend": 632,
    "ament": 633,
    "amente": 634,
    "amento": 635,
    "amer": 636,
    "ameri": 637,
    "america": 638,
    "american": 639,
    "americanos": 640,
    "americans": 641,
    "americas": 642,
    "amerikkka": 643,
    "ames": 644,
    "ami": 645,
    "amigo": 646,
    "amigos": 647,
    "amina": 648,
    "aming": 649,
    "amm": 650,
    "ammun": 651,
    "ammunation": 652,
    "ammunition": 653,
    "amo": 654,
    "among": 655,
    "amos": 656,
    "amount": 657,
    "amp": 658,
    "ample": 659,
    "amps": 660,
    "ams": 661,
    "an": 662,
    "ana": 663,
    "anai": 664,
    "analy": 665,
    "analysis": 666,
    "analyst": 667,
    "ance": 668,
    "anced": 669,
    "ancestors": 670,
    "and": 671,
    "anda": 672,
    "anddd": 673,
    "andi": 674,
    "ando": 675,
    "andre": 676,
    "andreas": 677,
    "andro": 678,
    "android": 679,
    "andy": 680,
    "ane": 681,
    "anese": 682,
    "ang": 683,
    "ange": 684,
    "angel": 685,
    "angeles": 686,
    "angels": 687,
    "anger": 688,
    "angle": 689,
    "angles": 690,
    "ango": 691,
    "angola": 692,
    "angry": 693,
    "ani": 694,
    "anim": 695,
    "animal": 696,
    "animals": 697,
    "animated": 698,
    "animation": 699,
    "animations": 700,
    "anime": 701,
    "anity": 702,
    "ank": 703,
    "ann": 704,
    "anna": 705,
    "annah": 706,
    "annas": 707,
    "anne": 708,
    "anni": 709,
    "annihilated": 710,
    "annihilation": 711,
    "anniversary": 712,
    "annn": 713,
    "annnd": 714,
    "anno": 715,
    "announ": 716,
    "announce": 717,
    "announced": 718,
    "announcement": 719,
    "announcer": 720,
    "announcers": 721,
    "announcing": 722,
    "annoyed": 723,
    "annoying": 724,
    "ano": 725,
    "anos": 726,
    "another": 727,
    "ans": 728,
    "ansi": 729,
    "ansioso": 730,
    "answer": 731,
    "answered": 732,
    "answers": 733,
    "ant": 734,
    "anta": 735,
    "antagon": 736,
    "antagonists": 737,
    "ante": 738,
    "antes": 739,
    "anthem": 740,
    "anti": 741,
    "anticip": 742,
    "anticipated": 743,
    "anticipation": 744,
    "ants": 745,
    "anun": 746,
    "anunci": 747,
    "anx": 748,
    "anxiety": 749,
    "anxious": 750,
    "any": 751,
    "anybody": 752,
    "anymore": 753,
    "anyone": 754,
    "anything": 755,
    "anytime": 756,
    "anyway": 757,
    "anyways": 758,
    "anywhere": 759,
    "ao": 760,
    "aos": 761,
    "ap": 762,
    "apa": 763,
    "apare": 764,
    "aparece": 765,
    "apart": 766,
    "apenas": 767,
    "apo": 768,
    "apocalypse": 769,
    "apologi": 770,
    "apologize": 771,
    "apology": 772,
    "app": 773,
    "apparent": 774,
    "apparently": 775,
    "appe": 776,
    "appealing": 777,
    "appear": 778,
    "appearance": 779,
    "appearances": 780,
    "appeared": 781,
    "appears": 782,
    "appl": 783,
    "applause": 784,
    "apple": 785,
    "appo": 786,
    "appreci": 787,
    "appreciate": 788,
    "appreciated": 789,
    "appro": 790,
    "approach": 791,
    "appropriate": 792,
    "approve": 793,
    "approx": 794,
    "apr": 795,
    "apres": 796,
    "apresenta": 797,
    "apresentao": 798,
    "april": 799,
    "aps": 800,
    "aqu": 801,
    "aqui": 802,
    "ar": 803,
    "ara": 804,
    "arab": 805,
    "aram": 806,
    "arc": 807,
    "arch": 808,
    "ard": 809,
    "ards": 810,
    "are": 811,
    "area": 812,
    "ared": 813,
    "aren": 814,
    "arena": 815,
    "arent": 816,
    "ares": 817,
    "argent": 818,
    "argentina": 819,
    "argu": 820,
    "arguably": 821,
    "argue": 822,
    "argument": 823,
    "ari": 824,
    "aria": 825,
    "aries": 826,
    "arily": 827,
    "aring": 828,
    "ario": 829,
    "arios": 830,
    "ark": 831,
    "arm": 832,
    "armor": 833,
    "arms": 834,
    "army": 835,
    "aron": 836,
    "around": 837,
    "arr": 838,
    "arrddd": 839,
    "arre": 840,
    "arrested": 841,
    "arri": 842,
    "arriba": 843,
    "arrival": 844,
    "arrived": 845,
    "arro": 846,
    "arrogance": 847,
    "arrogant": 848,
    "arrow": 849,
    "arrr": 850,
    "arrrd": 851,
    "arrrddd": 852,
    "ars": 853,
    "arse": 854,
    "art": 855,
    "arte": 856,
    "arted": 857,
    "arten": 858,
    "arth": 859,
    "arthur": 860,
    "arti": 861,
    "artic": 862,
    "artifici": 863,
    "artist": 864,
    "artistic": 865,
    "artistry": 866,
    "artists": 867,
    "artk": 868,
    "arts": 869,
    "ary": 870,
    "as": 871,
    "asap": 872,
    "ase": 873,
    "asf": 874,
    "ash": 875,
    "ashamed": 876,
    "ashion": 877,
    "asi": 878,
    "asia": 879,
    "asian": 880,
    "asians": 881,
    "aside": 882,
    "ask": 883,
    "asked": 884,
    "asking": 885,
    "asks": 886,
    "asl": 887,
    "ason": 888,
    "aspect": 889,
    "aspects": 890,
    "ass": 891,
    "assassin": 892,
    "asse": 893,
    "assed": 894,
    "assemble": 895,
    "asses": 896,
    "assign": 897,
    "assignment": 898,
    "assim": 899,
    "assin": 900,
    "assis": 901,
    "assist": 902,
    "assistindo": 903,
    "assistir": 904,
    "associ": 905,
    "asss": 906,
    "assu": 907,
    "assume": 908,
    "assuming": 909,
    "ast": 910,
    "aste": 911,
    "aster": 912,
    "asure": 913,
    "aswell": 914,
    "at": 915,
    "ata": 916,
    "atable": 917,
    "ate": 918,
    "ated": 919,
    "ateee": 920,
    "ately": 921,
    "ater": 922,
    "ates": 923,
    "atest": 924,
    "ath": 925,
    "athletes": 926,
    "athletic": 927,
    "ati": 928,
    "atic": 929,
    "ating": 930,
    "ation": 931,
    "ational": 932,
    "ations": 933,
    "ativ": 934,
    "ative": 935,
    "ativity": 936,
    "atl": 937,
    "atleast": 938,
    "atmosphere": 939,
    "ato": 940,
    "ator": 941,
    "ators": 942,
    "atory": 943,
    "atp": 944,
    "atro": 945,
    "atrocious": 946,
    "ats": 947,
    "att": 948,
    "atta": 949,
    "attack": 950,
    "attacks": 951,
    "attem": 952,
    "attempt": 953,
    "attempting": 954,
    "attempts": 955,
    "atten": 956,
    "attend": 957,
    "attendance": 958,
    "attention": 959,
    "attitude": 960,
    "attra": 961,
    "attracted": 962,
    "attractive": 963,
    "ature": 964,
    "au": 965,
    "aubrey": 966,
    "aud": 967,
    "audi": 968,
    "audience": 969,
    "audio": 970,
    "auf": 971,
    "aun": 972,
    "aur": 973,
    "aura": 974,
    "aus": 975,
    "ause": 976,
    "auss": 977,
    "aussie": 978,
    "aust": 979,
    "australia": 980,
    "australian": 981,
    "aut": 982,
    "authen": 983,
    "authentic": 984,
    "autistic": 985,
    "auto": 986,
    "automatic": 987,
    "automatically": 988,
    "autos": 989,
    "autotune": 990,
    "aux": 991,
    "av": 992,
    "ava": 993,
    "avail": 994,
    "available": 995,
    "avant": 996,
    "ave": 997,
    "avec": 998,
    "aven": 999,
    "avenged": 1000,
    "avengers": 1001,
    "aver": 1002,
    "average": 1003,
    "avo": 1004,
    "avoid": 1005,
    "avoiding": 1006,
    "aw": 1007,
    "awa": 1008,
    "awaited": 1009,
    "awake": 1010,
    "awaken": 1011,
    "award": 1012,
    "awards": 1013,
    "aware": 1014,
    "away": 1015,
    "awe": 1016,
    "awesome": 1017,
    "awful": 1018,
    "awhile": 1019,
    "awkward": 1020,
    "awww": 1021,
    "ax": 1022,
    "ay": 1023,
    "aya": 1024,
    "aye": 1025,
    "ayeee": 1026,
    "ayisyen": 1027,
    "ayo": 1028,
    "ays": 1029,
    "az": 1030,
    "azchi": 1031,
    "azchike": 1032,
    "azz": 1033,
    "b": 1034,
    "b3": 1035,
    "b4": 1036,
    "b6": 1037,
    "ba": 1038,
    "baa": 1039,
    "baaa": 1040,
    "baaack": 1041,
    "bab": 1042,
    "babe": 1043,
    "babi": 1044,
    "babies": 1045,
    "baby": 1046,
    "babyyy": 1047,
    "bach": 1048,
    "back": 1049,
    "background": 1050,
    "backing": 1051,
    "backkk": 1052,
    "backlash": 1053,
    "backs": 1054,
    "backup": 1055,
    "backups": 1056,
    "bad": 1057,
    "badass": 1058,
    "badly": 1059,
    "bag": 1060,
    "bags": 1061,
    "bah": 1062,
    "bahut": 1063,
    "bai": 1064,
    "bail": 1065,
    "bailar": 1066,
    "bailarines": 1067,
    "bailed": 1068,
    "bailing": 1069,
    "bait": 1070,
    "baker": 1071,
    "bal": 1072,
    "balance": 1073,
    "balanced": 1074,
    "ball": 1075,
    "balled": 1076,
    "balls": 1077,
    "baltimore": 1078,
    "bam": 1079,
    "bama": 1080,
    "ban": 1081,
    "bana": 1082,
    "banan": 1083,
    "bananero": 1084,
    "band": 1085,
    "bands": 1086,
    "bandwagon": 1087,
    "bang": 1088,
    "banger": 1089,
    "bangers": 1090,
    "banget": 1091,
    "bank": 1092,
    "banks": 1093,
    "banter": 1094,
    "bar": 1095,
    "barber": 1096,
    "bare": 1097,
    "barely": 1098,
    "bark": 1099,
    "barkley": 1100,
    "bars": 1101,
    "baru": 1102,
    "bas": 1103,
    "base": 1104,
    "baseball": 1105,
    "based": 1106,
    "basement": 1107,
    "bases": 1108,
    "basic": 1109,
    "basically": 1110,
    "basis": 1111,
    "basket": 1112,
    "basketball": 1113,
    "bass": 1114,
    "basura": 1115,
    "bat": 1116,
    "bath": 1117,
    "batt": 1118,
    "battle": 1119,
    "bau": 1120,
    "baun": 1121,
    "bay": 1122,
    "bb": 1123,
    "bber": 1124,
    "bble": 1125,
    "bby": 1126,
    "bc": 1127,
    "bday": 1128,
    "be": 1129,
    "beach": 1130,
    "bean": 1131,
    "bear": 1132,
    "beard": 1133,
    "bears": 1134,
    "beast": 1135,
    "beat": 1136,
    "beatable": 1137,
    "beatdown": 1138,
    "beaten": 1139,
    "beating": 1140,
    "beats": 1141,
    "beau": 1142,
    "beaut": 1143,
    "beauti": 1144,
    "beautiful": 1145,
    "beautifully": 1146,
    "beauty": 1147,
    "became": 1148,
    "because": 1149,
    "become": 1150,
    "becomes": 1151,
    "becoming": 1152,
    "bed": 1153,
    "bee": 1154,
    "beee": 1155,
    "beef": 1156,
    "been": 1157,
    "beer": 1158,
    "beers": 1159,
    "before": 1160,
    "beg": 1161,
    "began": 1162,
    "begging": 1163,
    "begin": 1164,
    "begining": 1165,
    "beginner": 1166,
    "beginning": 1167,
    "beginnings": 1168,
    "begins": 1169,
    "beha": 1170,
    "behalf": 1171,
    "behavior": 1172,
    "behind": 1173,
    "behold": 1174,
    "being": 1175,
    "bek": 1176,
    "bekliyor": 1177,
    "bel": 1178,
    "beli": 1179,
    "belichick": 1180,
    "belie": 1181,
    "believ": 1182,
    "believe": 1183,
    "believed": 1184,
    "believes": 1185,
    "believing": 1186,
    "belive": 1187,
    "bell": 1188,
    "bellic": 1189,
    "bells": 1190,
    "belong": 1191,
    "beloved": 1192,
    "below": 1193,
    "belt": 1194,
    "bem": 1195,
    "ben": 1196,
    "bench": 1197,
    "benched": 1198,
    "benef": 1199,
    "beneran": 1200,
    "bengals": 1201,
    "ber": 1202,
    "bers": 1203,
    "bert": 1204,
    "bes": 1205,
    "beside": 1206,
    "besides": 1207,
    "best": 1208,
    "bet": 1209,
    "beta": 1210,
    "betraal": 1211,
    "betray": 1212,
    "betrayal": 1213,
    "betrayed": 1214,
    "bets": 1215,
    "better": 1216,
    "betting": 1217,
    "between": 1218,
    "bey": 1219,
    "beyon": 1220,
    "beyonc": 1221,
    "beyonce": 1222,
    "beyond": 1223,
    "bf": 1224,
    "bg": 1225,
    "bh": 1226,
    "bha": 1227,
    "bhai": 1228,
    "bhaint": 1229,
    "bi": 1230,
    "bia": 1231,
    "bian": 1232,
    "bias": 1233,
    "biased": 1234,
    "bible": 1235,
    "bid": 1236,
    "bie": 1237,
    "bien": 1238,
    "biera": 1239,
    "big": 1240,
    "bigger": 1241,
    "biggest": 1242,
    "biggie": 1243,
    "bigot": 1244,
    "bih": 1245,
    "bike": 1246,
    "bil": 1247,
    "bile": 1248,
    "bility": 1249,
    "bill": 1250,
    "billion": 1251,
    "billions": 1252,
    "bills": 1253,
    "bin": 1254,
    "bing": 1255,
    "bio": 1256,
    "bir": 1257,
    "bird": 1258,
    "birds": 1259,
    "birdsss": 1260,
    "birth": 1261,
    "birthday": 1262,
    "bis": 1263,
    "bish": 1264,
    "bishop": 1265,
    "bit": 1266,
    "bitch": 1267,
    "bitcoin": 1268,
    "bite": 1269,
    "biti": 1270,
    "bitter": 1271,
    "biz": 1272,
    "bl": 1273,
    "bla": 1274,
    "black": 1275,
    "blackout": 1276,
    "blacks": 1277,
    "blah": 1278,
    "blame": 1279,
    "blan": 1280,
    "bland": 1281,
    "blast": 1282,
    "blasting": 1283,
    "blatant": 1284,
    "blatantly": 1285,
    "ble": 1286,
    "bles": 1287,
    "bless": 1288,
    "blessed": 1289,
    "blessing": 1290,
    "blessings": 1291,
    "blew": 1292,
    "bli": 1293,
    "blind": 1294,
    "bling": 1295,
    "blink": 1296,
    "blit": 1297,
    "blitz": 1298,
    "blitzes": 1299,
    "blitzing": 1300,
    "blm": 1301,
    "blo": 1302,
    "block": 1303,
    "blockbuster": 1304,
    "blocked": 1305,
    "blocking": 1306,
    "blocks": 1307,
    "blon": 1308,
    "blonde": 1309,
    "blood": 1310,
    "bloody": 1311,
    "blow": 1312,
    "blowing": 1313,
    "blown": 1314,
    "blowout": 1315,
    "blowouts": 1316,
    "blows": 1317,
    "blox": 1318,
    "blu": 1319,
    "blud": 1320,
    "blue": 1321,
    "blueprint": 1322,
    "blunder": 1323,
    "blunders": 1324,
    "blur": 1325,
    "bly": 1326,
    "bo": 1327,
    "boa": 1328,
    "board": 1329,
    "boat": 1330,
    "bobby": 1331,
    "bod": 1332,
    "bodied": 1333,
    "bodies": 1334,
    "body": 1335,
    "bogus": 1336,
    "boi": 1337,
    "bol": 1338,
    "bold": 1339,
    "bom": 1340,
    "bomb": 1341,
    "bombing": 1342,
    "bon": 1343,
    "bonito": 1344,
    "bonnie": 1345,
    "bonny": 1346,
    "bonus": 1347,
    "boo": 1348,
    "boob": 1349,
    "boobs": 1350,
    "booed": 1351,
    "boogers": 1352,
    "boogey": 1353,
    "boogeyman": 1354,
    "boogie": 1355,
    "booing": 1356,
    "book": 1357,
    "bookies": 1358,
    "books": 1359,
    "boom": 1360,
    "boomers": 1361,
    "booo": 1362,
    "boost": 1363,
    "boot": 1364,
    "booth": 1365,
    "booty": 1366,
    "bop": 1367,
    "bopp": 1368,
    "bor": 1369,
    "border": 1370,
    "bore": 1371,
    "bored": 1372,
    "boring": 1373,
    "born": 1374,
    "bos": 1375,
    "boseman": 1376,
    "boss": 1377,
    "bot": 1378,
    "bote": 1379,
    "both": 1380,
    "bother": 1381,
    "bots": 1382,
    "bottle": 1383,
    "bottles": 1384,
    "bottom": 1385,
    "bottoms": 1386,
    "bought": 1387,
    "boun": 1388,
    "bounce": 1389,
    "bounced": 1390,
    "bound": 1391,
    "bout": 1392,
    "boutta": 1393,
    "bow": 1394,
    "bowl": 1395,
    "bowls": 1396,
    "box": 1397,
    "boy": 1398,
    "boyc": 1399,
    "boycott": 1400,
    "boyfriend": 1401,
    "boys": 1402,
    "boyz": 1403,
    "boz": 1404,
    "br": 1405,
    "bra": 1406,
    "brabo": 1407,
    "brace": 1408,
    "brad": 1409,
    "brady": 1410,
    "bradys": 1411,
    "brag": 1412,
    "bragging": 1413,
    "brain": 1414,
    "braindead": 1415,
    "brains": 1416,
    "brainwashed": 1417,
    "brakes": 1418,
    "brand": 1419,
    "brandon": 1420,
    "brands": 1421,
    "brap": 1422,
    "bras": 1423,
    "brasil": 1424,
    "brasile": 1425,
    "brasileiro": 1426,
    "bravo": 1427,
    "braz": 1428,
    "brazil": 1429,
    "brazilian": 1430,
    "bre": 1431,
    "brea": 1432,
    "bread": 1433,
    "break": 1434,
    "breakdown": 1435,
    "breakfast": 1436,
    "breaking": 1437,
    "breaks": 1438,
    "breakup": 1439,
    "breast": 1440,
    "breath": 1441,
    "breathe": 1442,
    "breathing": 1443,
    "brees": 1444,
    "brey": 1445,
    "bri": 1446,
    "brian": 1447,
    "brick": 1448,
    "bricked": 1449,
    "brid": 1450,
    "bridge": 1451,
    "bright": 1452,
    "brilli": 1453,
    "brilliant": 1454,
    "bring": 1455,
    "bringing": 1456,
    "brings": 1457,
    "brit": 1458,
    "british": 1459,
    "bro": 1460,
    "broad": 1461,
    "broadcast": 1462,
    "broadway": 1463,
    "broccoli": 1464,
    "brock": 1465,
    "broke": 1466,
    "broken": 1467,
    "bron": 1468,
    "broncos": 1469,
    "broo": 1470,
    "brooo": 1471,
    "bros": 1472,
    "brother": 1473,
    "brotherly": 1474,
    "brothers": 1475,
    "brought": 1476,
    "brown": 1477,
    "browns": 1478,
    "bru": 1479,
    "bruh": 1480,
    "bruhhh": 1481,
    "brut": 1482,
    "brutal": 1483,
    "bruv": 1484,
    "bry": 1485,
    "bryant": 1486,
    "bs": 1487,
    "bt": 1488,
    "bta": 1489,
    "bts": 1490,
    "btw": 1491,
    "bu": 1492,
    "buat": 1493,
    "bub": 1494,
    "bubble": 1495,
    "bubbles": 1496,
    "buc": 1497,
    "buccaneers": 1498,
    "buccs": 1499,
    "buck": 1500,
    "bucks": 1501,
    "bucs": 1502,
    "bud": 1503,
    "budd": 1504,
    "buddies": 1505,
    "buddy": 1506,
    "budget": 1507,
    "budunosti": 1508,
    "buen": 1509,
    "buena": 1510,
    "bueno": 1511,
    "buf": 1512,
    "buff": 1513,
    "buffalo": 1514,
    "bug": 1515,
    "bugs": 1516,
    "buh": 1517,
    "buick": 1518,
    "build": 1519,
    "building": 1520,
    "buildings": 1521,
    "built": 1522,
    "bul": 1523,
    "bull": 1524,
    "bulld": 1525,
    "bullet": 1526,
    "bullied": 1527,
    "bully": 1528,
    "bum": 1529,
    "bummer": 1530,
    "bump": 1531,
    "bumps": 1532,
    "bums": 1533,
    "bun": 1534,
    "bunch": 1535,
    "bund": 1536,
    "bundle": 1537,
    "bundler": 1538,
    "bundlerooski": 1539,
    "bunny": 1540,
    "bur": 1541,
    "burger": 1542,
    "buried": 1543,
    "burj": 1544,
    "burn": 1545,
    "burned": 1546,
    "burrow": 1547,
    "bury": 1548,
    "bus": 1549,
    "business": 1550,
    "bust": 1551,
    "buster": 1552,
    "busy": 1553,
    "but": 1554,
    "bute": 1555,
    "butt": 1556,
    "butter": 1557,
    "button": 1558,
    "buttons": 1559,
    "buy": 1560,
    "buying": 1561,
    "buzz": 1562,
    "bx": 1563,
    "by": 1564,
    "bye": 1565,
    "c": 1566,
    "c2": 1567,
    "c4": 1568,
    "c5": 1569,
    "ca": 1570,
    "cab": 1571,
    "cabe": 1572,
    "cable": 1573,
    "cad": 1574,
    "cada": 1575,
    "cade": 1576,
    "cadveres": 1577,
    "cag": 1578,
    "cake": 1579,
    "cakes": 1580,
    "cal": 1581,
    "calcul": 1582,
    "caleb": 1583,
    "cali": 1584,
    "california": 1585,
    "call": 1586,
    "called": 1587,
    "calling": 1588,
    "calls": 1589,
    "calm": 1590,
    "cam": 1591,
    "camara": 1592,
    "came": 1593,
    "cameo": 1594,
    "camer": 1595,
    "camera": 1596,
    "cameraman": 1597,
    "cameramen": 1598,
    "cameras": 1599,
    "caminos": 1600,
    "camp": 1601,
    "campa": 1602,
    "campaign": 1603,
    "can": 1604,
    "canad": 1605,
    "canada": 1606,
    "canadian": 1607,
    "canc": 1608,
    "cance": 1609,
    "cancel": 1610,
    "cancin": 1611,
    "canciones": 1612,
    "cand": 1613,
    "cando": 1614,
    "cane": 1615,
    "cannot": 1616,
    "cans": 1617,
    "canso": 1618,
    "cant": 1619,
    "canta": 1620,
    "canto": 1621,
    "cap": 1622,
    "capable": 1623,
    "cape": 1624,
    "capital": 1625,
    "caption": 1626,
    "captions": 1627,
    "captiv": 1628,
    "captu": 1629,
    "capture": 1630,
    "captured": 1631,
    "car": 1632,
    "cara": 1633,
    "carbon": 1634,
    "card": 1635,
    "cardio": 1636,
    "cards": 1637,
    "care": 1638,
    "career": 1639,
    "cares": 1640,
    "carl": 1641,
    "carried": 1642,
    "carries": 1643,
    "carro": 1644,
    "carry": 1645,
    "carrying": 1646,
    "cars": 1647,
    "carson": 1648,
    "carter": 1649,
    "carti": 1650,
    "carto": 1651,
    "cartoon": 1652,
    "cartoonish": 1653,
    "cas": 1654,
    "casa": 1655,
    "case": 1656,
    "cash": 1657,
    "casi": 1658,
    "cassidy": 1659,
    "cast": 1660,
    "castle": 1661,
    "castles": 1662,
    "castling": 1663,
    "casual": 1664,
    "casually": 1665,
    "cat": 1666,
    "catalina": 1667,
    "catalo": 1668,
    "catalog": 1669,
    "catch": 1670,
    "catches": 1671,
    "catching": 1672,
    "cau": 1673,
    "caught": 1674,
    "cause": 1675,
    "caused": 1676,
    "cb": 1677,
    "cc": 1678,
    "ccp": 1679,
    "cd": 1680,
    "ce": 1681,
    "cease": 1682,
    "ced": 1683,
    "cei": 1684,
    "cek": 1685,
    "cel": 1686,
    "celeb": 1687,
    "celebr": 1688,
    "celebrate": 1689,
    "celebrating": 1690,
    "celebration": 1691,
    "celebrities": 1692,
    "celebrity": 1693,
    "cell": 1694,
    "cement": 1695,
    "cemented": 1696,
    "cen": 1697,
    "censor": 1698,
    "censored": 1699,
    "censoring": 1700,
    "censorship": 1701,
    "cent": 1702,
    "center": 1703,
    "century": 1704,
    "cer": 1705,
    "cere": 1706,
    "cers": 1707,
    "certain": 1708,
    "certainly": 1709,
    "certe": 1710,
    "certeza": 1711,
    "certified": 1712,
    "ces": 1713,
    "cess": 1714,
    "cest": 1715,
    "cet": 1716,
    "cette": 1717,
    "cg": 1718,
    "cgi": 1719,
    "ch": 1720,
    "cha": 1721,
    "chack": 1722,
    "chad": 1723,
    "chadwick": 1724,
    "chain": 1725,
    "chair": 1726,
    "chak": 1727,
    "chal": 1728,
    "chall": 1729,
    "challeng": 1730,
    "challenge": 1731,
    "challenges": 1732,
    "champ": 1733,
    "champion": 1734,
    "champions": 1735,
    "championship": 1736,
    "championships": 1737,
    "champs": 1738,
    "chan": 1739,
    "chana": 1740,
    "chance": 1741,
    "chances": 1742,
    "change": 1743,
    "changed": 1744,
    "changes": 1745,
    "changing": 1746,
    "channel": 1747,
    "channing": 1748,
    "chant": 1749,
    "chaos": 1750,
    "chap": 1751,
    "chapter": 1752,
    "char": 1753,
    "charac": 1754,
    "character": 1755,
    "characters": 1756,
    "charge": 1757,
    "charged": 1758,
    "chargers": 1759,
    "charis": 1760,
    "charm": 1761,
    "charming": 1762,
    "charts": 1763,
    "chas": 1764,
    "chase": 1765,
    "chases": 1766,
    "chasing": 1767,
    "chass": 1768,
    "chat": 1769,
    "chatting": 1770,
    "che": 1771,
    "cheap": 1772,
    "cheat": 1773,
    "cheated": 1774,
    "cheaters": 1775,
    "cheating": 1776,
    "cheats": 1777,
    "check": 1778,
    "checked": 1779,
    "checking": 1780,
    "checkmate": 1781,
    "checkpoint": 1782,
    "checks": 1783,
    "ched": 1784,
    "chee": 1785,
    "cheek": 1786,
    "cheeks": 1787,
    "cheer": 1788,
    "cheered": 1789,
    "cheering": 1790,
    "cheers": 1791,
    "cheese": 1792,
    "cheesesteak": 1793,
    "cheetah": 1794,
    "chef": 1795,
    "chefs": 1796,
    "chega": 1797,
    "chei": 1798,
    "cheifs": 1799,
    "chemist": 1800,
    "chemistry": 1801,
    "cheng": 1802,
    "cher": 1803,
    "cherry": 1804,
    "ches": 1805,
    "chess": 1806,
    "chessboard": 1807,
    "chest": 1808,
    "chez": 1809,
    "chi": 1810,
    "chic": 1811,
    "chicago": 1812,
    "chick": 1813,
    "chicken": 1814,
    "chie": 1815,
    "chief": 1816,
    "chiefs": 1817,
    "chil": 1818,
    "child": 1819,
    "childhood": 1820,
    "children": 1821,
    "chill": 1822,
    "chilling": 1823,
    "chills": 1824,
    "china": 1825,
    "chinese": 1826,
    "chip": 1827,
    "chips": 1828,
    "chis": 1829,
    "cho": 1830,
    "choice": 1831,
    "choices": 1832,
    "chok": 1833,
    "choke": 1834,
    "choked": 1835,
    "chokehold": 1836,
    "chokes": 1837,
    "choking": 1838,
    "chol": 1839,
    "choose": 1840,
    "chooses": 1841,
    "choosing": 1842,
    "chop": 1843,
    "chor": 1844,
    "chord": 1845,
    "choreo": 1846,
    "choreograph": 1847,
    "choreographed": 1848,
    "choreographer": 1849,
    "choreography": 1850,
    "chos": 1851,
    "chose": 1852,
    "chr": 1853,
    "chris": 1854,
    "christ": 1855,
    "christi": 1856,
    "christmas": 1857,
    "chron": 1858,
    "cht": 1859,
    "chu": 1860,
    "chuck": 1861,
    "chumps": 1862,
    "chun": 1863,
    "chung": 1864,
    "chur": 1865,
    "church": 1866,
    "ci": 1867,
    "cia": 1868,
    "cial": 1869,
    "cially": 1870,
    "cials": 1871,
    "cias": 1872,
    "cide": 1873,
    "cies": 1874,
    "cija": 1875,
    "cije": 1876,
    "cil": 1877,
    "cima": 1878,
    "cin": 1879,
    "cine": 1880,
    "cinema": 1881,
    "cinemat": 1882,
    "cinematic": 1883,
    "cinematics": 1884,
    "cinemato": 1885,
    "cinematography": 1886,
    "cing": 1887,
    "cio": 1888,
    "cion": 1889,
    "cional": 1890,
    "cious": 1891,
    "cip": 1892,
    "cipating": 1893,
    "cir": 1894,
    "circle": 1895,
    "circus": 1896,
    "cis": 1897,
    "cise": 1898,
    "ciss": 1899,
    "cit": 1900,
    "cities": 1901,
    "citiz": 1902,
    "citizens": 1903,
    "city": 1904,
    "civil": 1905,
    "cj": 1906,
    "ck": 1907,
    "ckck": 1908,
    "cked": 1909,
    "cket": 1910,
    "ckets": 1911,
    "ckey": 1912,
    "cking": 1913,
    "ckkk": 1914,
    "cks": 1915,
    "cky": 1916,
    "cl": 1917,
    "cla": 1918,
    "claim": 1919,
    "claiming": 1920,
    "claims": 1921,
    "clar": 1922,
    "claro": 1923,
    "class": 1924,
    "classed": 1925,
    "classic": 1926,
    "classics": 1927,
    "classy": 1928,
    "cle": 1929,
    "clean": 1930,
    "cleaning": 1931,
    "cleanse": 1932,
    "clear": 1933,
    "cleared": 1934,
    "clearly": 1935,
    "cleavage": 1936,
    "cles": 1937,
    "cleveland": 1938,
    "clever": 1939,
    "cli": 1940,
    "click": 1941,
    "clickbait": 1942,
    "clicked": 1943,
    "clicks": 1944,
    "cliff": 1945,
    "clin": 1946,
    "clinic": 1947,
    "clip": 1948,
    "clips": 1949,
    "clo": 1950,
    "clock": 1951,
    "close": 1952,
    "closed": 1953,
    "closely": 1954,
    "closer": 1955,
    "closest": 1956,
    "closet": 1957,
    "clothes": 1958,
    "clothing": 1959,
    "clown": 1960,
    "clowns": 1961,
    "clu": 1962,
    "club": 1963,
    "clubs": 1964,
    "clue": 1965,
    "clus": 1966,
    "clutch": 1967,
    "cly": 1968,
    "clyde": 1969,
    "cmo": 1970,
    "cmon": 1971,
    "co": 1972,
    "coach": 1973,
    "coached": 1974,
    "coaches": 1975,
    "coaching": 1976,
    "coast": 1977,
    "coba": 1978,
    "cocky": 1979,
    "cod": 1980,
    "code": 1981,
    "codes": 1982,
    "cof": 1983,
    "coffee": 1984,
    "coffin": 1985,
    "coin": 1986,
    "coinc": 1987,
    "coisa": 1988,
    "coisas": 1989,
    "col": 1990,
    "cold": 1991,
    "coldplay": 1992,
    "cole": 1993,
    "coli": 1994,
    "coll": 1995,
    "collab": 1996,
    "collabor": 1997,
    "collap": 1998,
    "collaps": 1999,
    "collapse": 2000,
    "collapsed": 2001,
    "colle": 2002,
    "collect": 2003,
    "collecting": 2004,
    "collection": 2005,
    "collective": 2006,
    "college": 2007,
    "collins": 2008,
    "collinsworth": 2009,
    "colo": 2010,
    "colon": 2011,
    "colonizer": 2012,
    "coloque": 2013,
    "color": 2014,
    "colors": 2015,
    "colour": 2016,
    "com": 2017,
    "comb": 2018,
    "combination": 2019,
    "combined": 2020,
    "combo": 2021,
    "come": 2022,
    "comeback": 2023,
    "comedy": 2024,
    "comen": 2025,
    "coment": 2026,
    "comentar": 2027,
    "comentario": 2028,
    "comentrio": 2029,
    "comer": 2030,
    "comercial": 2031,
    "comes": 2032,
    "comfortable": 2033,
    "comin": 2034,
    "coming": 2035,
    "comm": 2036,
    "command": 2037,
    "commanders": 2038,
    "comme": 2039,
    "commen": 2040,
    "commend": 2041,
    "comment": 2042,
    "commentary": 2043,
    "commentating": 2044,
    "commentator": 2045,
    "commentators": 2046,
    "commented": 2047,
    "commenting": 2048,
    "comments": 2049,
    "commer": 2050,
    "commercial": 2051,
    "commercials": 2052,
    "comming": 2053,
    "commissioner": 2054,
    "commit": 2055,
    "committed": 2056,
    "common": 2057,
    "commun": 2058,
    "community": 2059,
    "como": 2060,
    "comp": 2061,
    "compan": 2062,
    "companies": 2063,
    "company": 2064,
    "compar": 2065,
    "compare": 2066,
    "compared": 2067,
    "comparing": 2068,
    "comparison": 2069,
    "comparisons": 2070,
    "compe": 2071,
    "compet": 2072,
    "compete": 2073,
    "competing": 2074,
    "competit": 2075,
    "competition": 2076,
    "competitive": 2077,
    "compil": 2078,
    "compl": 2079,
    "complain": 2080,
    "complained": 2081,
    "complaining": 2082,
    "complaints": 2083,
    "comple": 2084,
    "complet": 2085,
    "complete": 2086,
    "completed": 2087,
    "completely": 2088,
    "completion": 2089,
    "complex": 2090,
    "compli": 2091,
    "complic": 2092,
    "compr": 2093,
    "comprar": 2094,
    "compre": 2095,
    "comprehend": 2096,
    "compro": 2097,
    "compton": 2098,
    "comput": 2099,
    "computer": 2100,
    "con": 2101,
    "conce": 2102,
    "concent": 2103,
    "concentrate": 2104,
    "concentration": 2105,
    "concept": 2106,
    "concer": 2107,
    "concerned": 2108,
    "concert": 2109,
    "concrete": 2110,
    "conden": 2111,
    "condescending": 2112,
    "condition": 2113,
    "conf": 2114,
    "conference": 2115,
    "confess": 2116,
    "confidence": 2117,
    "confident": 2118,
    "confir": 2119,
    "confirm": 2120,
    "confirmed": 2121,
    "confli": 2122,
    "confuse": 2123,
    "confused": 2124,
    "congr": 2125,
    "congrat": 2126,
    "congrats": 2127,
    "congratul": 2128,
    "congratulate": 2129,
    "congratulation": 2130,
    "congratulations": 2131,
    "conne": 2132,
    "connected": 2133,
    "connection": 2134,
    "cons": 2135,
    "conscious": 2136,
    "consecu": 2137,
    "consecutive": 2138,
    "consegu": 2139,
    "conseguir": 2140,
    "conservative": 2141,
    "consider": 2142,
    "considered": 2143,
    "considering": 2144,
    "consigo": 2145,
    "consistency": 2146,
    "consistent": 2147,
    "consistently": 2148,
    "conso": 2149,
    "consol": 2150,
    "console": 2151,
    "consoles": 2152,
    "consp": 2153,
    "conspiracy": 2154,
    "const": 2155,
    "constant": 2156,
    "constantly": 2157,
    "constru": 2158,
    "consu": 2159,
    "cont": 2160,
    "conta": 2161,
    "contact": 2162,
    "contag": 2163,
    "contagious": 2164,
    "contain": 2165,
    "contained": 2166,
    "contains": 2167,
    "contend": 2168,
    "content": 2169,
    "contest": 2170,
    "context": 2171,
    "contin": 2172,
    "continu": 2173,
    "continuation": 2174,
    "continue": 2175,
    "continued": 2176,
    "continues": 2177,
    "contra": 2178,
    "contract": 2179,
    "contri": 2180,
    "contribut": 2181,
    "contributed": 2182,
    "contro": 2183,
    "control": 2184,
    "controlled": 2185,
    "controller": 2186,
    "controver": 2187,
    "controversial": 2188,
    "controversy": 2189,
    "conven": 2190,
    "conveni": 2191,
    "conver": 2192,
    "convers": 2193,
    "conversation": 2194,
    "convin": 2195,
    "convinced": 2196,
    "convo": 2197,
    "coo": 2198,
    "cook": 2199,
    "cooked": 2200,
    "cooking": 2201,
    "cool": 2202,
    "coolest": 2203,
    "coon": 2204,
    "coop": 2205,
    "cooper": 2206,
    "coordin": 2207,
    "coordinator": 2208,
    "cop": 2209,
    "cope": 2210,
    "copies": 2211,
    "cops": 2212,
    "copy": 2213,
    "copyright": 2214,
    "cor": 2215,
    "cord": 2216,
    "core": 2217,
    "coreo": 2218,
    "corinth": 2219,
    "corinthians": 2220,
    "corn": 2221,
    "corner": 2222,
    "cornerback": 2223,
    "corny": 2224,
    "corpor": 2225,
    "corre": 2226,
    "correct": 2227,
    "correctly": 2228,
    "correr": 2229,
    "corrup": 2230,
    "corrupt": 2231,
    "cos": 2232,
    "cosm": 2233,
    "cosmic": 2234,
    "cost": 2235,
    "costs": 2236,
    "cou": 2237,
    "couch": 2238,
    "could": 2239,
    "couldn": 2240,
    "couldnt": 2241,
    "couldve": 2242,
    "coun": 2243,
    "count": 2244,
    "countdown": 2245,
    "counted": 2246,
    "counter": 2247,
    "counting": 2248,
    "countless": 2249,
    "countries": 2250,
    "country": 2251,
    "county": 2252,
    "couple": 2253,
    "cour": 2254,
    "course": 2255,
    "court": 2256,
    "cous": 2257,
    "cousin": 2258,
    "cover": 2259,
    "coverage": 2260,
    "covered": 2261,
    "covid": 2262,
    "cow": 2263,
    "cowboy": 2264,
    "cowboys": 2265,
    "coy": 2266,
    "coz": 2267,
    "cr": 2268,
    "cra": 2269,
    "crack": 2270,
    "crackin": 2271,
    "cracking": 2272,
    "cracy": 2273,
    "craft": 2274,
    "cram": 2275,
    "cramling": 2276,
    "crap": 2277,
    "crash": 2278,
    "crashing": 2279,
    "crat": 2280,
    "craz": 2281,
    "craziest": 2282,
    "crazy": 2283,
    "crazyyy": 2284,
    "cre": 2285,
    "cream": 2286,
    "create": 2287,
    "created": 2288,
    "creating": 2289,
    "creative": 2290,
    "creativity": 2291,
    "creator": 2292,
    "creators": 2293,
    "cred": 2294,
    "credi": 2295,
    "credit": 2296,
    "credits": 2297,
    "creep": 2298,
    "creepy": 2299,
    "creo": 2300,
    "crew": 2301,
    "cri": 2302,
    "crick": 2303,
    "cried": 2304,
    "cries": 2305,
    "crime": 2306,
    "crimes": 2307,
    "crimin": 2308,
    "criminal": 2309,
    "criminals": 2310,
    "cring": 2311,
    "cringe": 2312,
    "crip": 2313,
    "cris": 2314,
    "crisp": 2315,
    "crit": 2316,
    "critic": 2317,
    "critical": 2318,
    "criticism": 2319,
    "cro": 2320,
    "crook": 2321,
    "cross": 2322,
    "crossed": 2323,
    "crow": 2324,
    "crowd": 2325,
    "crown": 2326,
    "crs": 2327,
    "cru": 2328,
    "crucial": 2329,
    "cruise": 2330,
    "crumble": 2331,
    "crun": 2332,
    "crush": 2333,
    "crushed": 2334,
    "crushing": 2335,
    "cry": 2336,
    "crying": 2337,
    "crypto": 2338,
    "cs": 2339,
    "ct": 2340,
    "cta": 2341,
    "ctable": 2342,
    "cted": 2343,
    "cti": 2344,
    "cting": 2345,
    "ction": 2346,
    "ctions": 2347,
    "ctiv": 2348,
    "ctive": 2349,
    "ctor": 2350,
    "cts": 2351,
    "cu": 2352,
    "cuando": 2353,
    "cube": 2354,
    "cuck": 2355,
    "cuer": 2356,
    "cuerpos": 2357,
    "cul": 2358,
    "cula": 2359,
    "cular": 2360,
    "culate": 2361,
    "culo": 2362,
    "culos": 2363,
    "cult": 2364,
    "cultu": 2365,
    "cultura": 2366,
    "cultural": 2367,
    "culture": 2368,
    "cum": 2369,
    "cup": 2370,
    "cur": 2371,
    "cura": 2372,
    "curb": 2373,
    "curios": 2374,
    "curious": 2375,
    "current": 2376,
    "currently": 2377,
    "curse": 2378,
    "cus": 2379,
    "cuss": 2380,
    "cussed": 2381,
    "cust": 2382,
    "custo": 2383,
    "custom": 2384,
    "cut": 2385,
    "cute": 2386,
    "cutie": 2387,
    "cutscene": 2388,
    "cutscenes": 2389,
    "cuz": 2390,
    "cy": 2391,
    "cyber": 2392,
    "cyberpunk": 2393,
    "cycle": 2394,
    "cylinders": 2395,
    "cz": 2396,
    "d": 2397,
    "d3": 2398,
    "da": 2399,
    "daa": 2400,
    "daaam": 2401,
    "dad": 2402,
    "daddy": 2403,
    "dagger": 2404,
    "dah": 2405,
    "daha": 2406,
    "daily": 2407,
    "dak": 2408,
    "dal": 2409,
    "dale": 2410,
    "dall": 2411,
    "dallas": 2412,
    "dam": 2413,
    "damage": 2414,
    "dame": 2415,
    "damm": 2416,
    "dammit": 2417,
    "damn": 2418,
    "damnnn": 2419,
    "dan": 2420,
    "danc": 2421,
    "dance": 2422,
    "dancer": 2423,
    "dancers": 2424,
    "dances": 2425,
    "dancing": 2426,
    "dang": 2427,
    "danger": 2428,
    "dangerous": 2429,
    "dann": 2430,
    "danny": 2431,
    "dans": 2432,
    "daqui": 2433,
    "dar": 2434,
    "dare": 2435,
    "dark": 2436,
    "darling": 2437,
    "darn": 2438,
    "darnold": 2439,
    "das": 2440,
    "dat": 2441,
    "date": 2442,
    "dated": 2443,
    "dating": 2444,
    "dats": 2445,
    "dau": 2446,
    "daughter": 2447,
    "dav": 2448,
    "dave": 2449,
    "david": 2450,
    "daw": 2451,
    "dawg": 2452,
    "dawgs": 2453,
    "day": 2454,
    "days": 2455,
    "dayum": 2456,
    "db": 2457,
    "dc": 2458,
    "dd": 2459,
    "ddd": 2460,
    "dden": 2461,
    "ddle": 2462,
    "de": 2463,
    "dead": 2464,
    "deal": 2465,
    "dealer": 2466,
    "dealing": 2467,
    "deandre": 2468,
    "dear": 2469,
    "death": 2470,
    "deb": 2471,
    "debate": 2472,
    "debbie": 2473,
    "deber": 2474,
    "dec": 2475,
    "decade": 2476,
    "decades": 2477,
    "dece": 2478,
    "december": 2479,
    "decent": 2480,
    "decepcion": 2481,
    "deci": 2482,
    "decide": 2483,
    "decided": 2484,
    "decides": 2485,
    "decir": 2486,
    "decis": 2487,
    "decision": 2488,
    "decisions": 2489,
    "decked": 2490,
    "decl": 2491,
    "decline": 2492,
    "ded": 2493,
    "dedic": 2494,
    "dedicated": 2495,
    "dedication": 2496,
    "dedu": 2497,
    "deduct": 2498,
    "dee": 2499,
    "deep": 2500,
    "deeper": 2501,
    "deeply": 2502,
    "def": 2503,
    "defe": 2504,
    "defeat": 2505,
    "defeated": 2506,
    "defeats": 2507,
    "defen": 2508,
    "defence": 2509,
    "defend": 2510,
    "defending": 2511,
    "defense": 2512,
    "defenses": 2513,
    "defensive": 2514,
    "defensively": 2515,
    "deficit": 2516,
    "defin": 2517,
    "define": 2518,
    "defined": 2519,
    "definit": 2520,
    "definitely": 2521,
    "definition": 2522,
    "definitivamente": 2523,
    "definitive": 2524,
    "dei": 2525,
    "deix": 2526,
    "deixar": 2527,
    "deja": 2528,
    "dejar": 2529,
    "dejean": 2530,
    "dejo": 2531,
    "del": 2532,
    "delay": 2533,
    "delayed": 2534,
    "delaying": 2535,
    "delays": 2536,
    "dele": 2537,
    "delete": 2538,
    "deleted": 2539,
    "deli": 2540,
    "deliber": 2541,
    "delight": 2542,
    "deliver": 2543,
    "delivered": 2544,
    "delivering": 2545,
    "dell": 2546,
    "delphia": 2547,
    "delus": 2548,
    "delusional": 2549,
    "dem": 2550,
    "demais": 2551,
    "demand": 2552,
    "demasi": 2553,
    "demo": 2554,
    "democracy": 2555,
    "democrat": 2556,
    "demol": 2557,
    "demolished": 2558,
    "demon": 2559,
    "demonic": 2560,
    "demonst": 2561,
    "den": 2562,
    "denied": 2563,
    "dent": 2564,
    "dentro": 2565,
    "denver": 2566,
    "deny": 2567,
    "denying": 2568,
    "dep": 2569,
    "department": 2570,
    "depois": 2571,
    "depressed": 2572,
    "depression": 2573,
    "depth": 2574,
    "der": 2575,
    "ders": 2576,
    "des": 2577,
    "descri": 2578,
    "describe": 2579,
    "description": 2580,
    "desde": 2581,
    "deser": 2582,
    "deserve": 2583,
    "deserved": 2584,
    "deserves": 2585,
    "deserving": 2586,
    "desi": 2587,
    "design": 2588,
    "designed": 2589,
    "designing": 2590,
    "desp": 2591,
    "desper": 2592,
    "desperately": 2593,
    "despite": 2594,
    "despus": 2595,
    "dess": 2596,
    "dessa": 2597,
    "desse": 2598,
    "dest": 2599,
    "destroy": 2600,
    "destroyed": 2601,
    "destroying": 2602,
    "destruction": 2603,
    "detail": 2604,
    "detailed": 2605,
    "details": 2606,
    "detal": 2607,
    "dete": 2608,
    "determin": 2609,
    "determine": 2610,
    "determined": 2611,
    "dethr": 2612,
    "detroit": 2613,
    "deus": 2614,
    "deut": 2615,
    "dev": 2616,
    "devast": 2617,
    "devastating": 2618,
    "deve": 2619,
    "develo": 2620,
    "develop": 2621,
    "developed": 2622,
    "developers": 2623,
    "development": 2624,
    "device": 2625,
    "devil": 2626,
    "devils": 2627,
    "devious": 2628,
    "devon": 2629,
    "devonta": 2630,
    "devonte": 2631,
    "devs": 2632,
    "dexter": 2633,
    "dey": 2634,
    "dez": 2635,
    "df": 2636,
    "dha": 2637,
    "di": 2638,
    "dia": 2639,
    "diabo": 2640,
    "diabolical": 2641,
    "dial": 2642,
    "dialo": 2643,
    "dialogue": 2644,
    "diam": 2645,
    "diamond": 2646,
    "dias": 2647,
    "dic": 2648,
    "dick": 2649,
    "dictate": 2650,
    "did": 2651,
    "diddy": 2652,
    "didn": 2653,
    "didnt": 2654,
    "die": 2655,
    "died": 2656,
    "diego": 2657,
    "diehard": 2658,
    "dies": 2659,
    "dif": 2660,
    "difer": 2661,
    "differ": 2662,
    "difference": 2663,
    "differences": 2664,
    "different": 2665,
    "differently": 2666,
    "difficult": 2667,
    "difficulty": 2668,
    "dig": 2669,
    "digital": 2670,
    "dignity": 2671,
    "dijamin": 2672,
    "dil": 2673,
    "dile": 2674,
    "dim": 2675,
    "dime": 2676,
    "dimen": 2677,
    "din": 2678,
    "dinero": 2679,
    "ding": 2680,
    "dinheiro": 2681,
    "dinner": 2682,
    "dint": 2683,
    "dio": 2684,
    "dios": 2685,
    "dip": 2686,
    "dire": 2687,
    "direct": 2688,
    "directed": 2689,
    "direction": 2690,
    "directly": 2691,
    "director": 2692,
    "dirt": 2693,
    "dirty": 2694,
    "dis": 2695,
    "disagree": 2696,
    "disappear": 2697,
    "disappoint": 2698,
    "disappointed": 2699,
    "disappointing": 2700,
    "disappointment": 2701,
    "disappoints": 2702,
    "disaster": 2703,
    "discipl": 2704,
    "disco": 2705,
    "discover": 2706,
    "discovered": 2707,
    "discus": 2708,
    "discuss": 2709,
    "discussion": 2710,
    "disfr": 2711,
    "disfrut": 2712,
    "disgrace": 2713,
    "disgraceful": 2714,
    "disgust": 2715,
    "disgusting": 2716,
    "dish": 2717,
    "dislike": 2718,
    "disliked": 2719,
    "dislikes": 2720,
    "disman": 2721,
    "dismantled": 2722,
    "disney": 2723,
    "display": 2724,
    "disput": 2725,
    "disputed": 2726,
    "disrespect": 2727,
    "disrespectful": 2728,
    "disrup": 2729,
    "diss": 2730,
    "dissa": 2731,
    "disse": 2732,
    "dissect": 2733,
    "dissed": 2734,
    "dissing": 2735,
    "dist": 2736,
    "distance": 2737,
    "distra": 2738,
    "distract": 2739,
    "distracted": 2740,
    "distracting": 2741,
    "distraction": 2742,
    "distracts": 2743,
    "dit": 2744,
    "dition": 2745,
    "div": 2746,
    "dive": 2747,
    "diversity": 2748,
    "divid": 2749,
    "divide": 2750,
    "divided": 2751,
    "divine": 2752,
    "divis": 2753,
    "division": 2754,
    "divor": 2755,
    "dix": 2756,
    "dj": 2757,
    "dl": 2758,
    "dle": 2759,
    "dline": 2760,
    "dn": 2761,
    "dna": 2762,
    "do": 2763,
    "doctor": 2764,
    "document": 2765,
    "documentary": 2766,
    "dod": 2767,
    "dodat": 2768,
    "does": 2769,
    "doesn": 2770,
    "doesnt": 2771,
    "dog": 2772,
    "dogg": 2773,
    "dogs": 2774,
    "dogshit": 2775,
    "doin": 2776,
    "doing": 2777,
    "dol": 2778,
    "doll": 2779,
    "dollar": 2780,
    "dollars": 2781,
    "dolph": 2782,
    "dolphins": 2783,
    "dom": 2784,
    "dome": 2785,
    "domin": 2786,
    "dominance": 2787,
    "dominant": 2788,
    "dominate": 2789,
    "dominated": 2790,
    "dominating": 2791,
    "domination": 2792,
    "dominican": 2793,
    "don": 2794,
    "dona": 2795,
    "donald": 2796,
    "donde": 2797,
    "done": 2798,
    "donk": 2799,
    "donna": 2800,
    "dono": 2801,
    "dont": 2802,
    "doo": 2803,
    "doomed": 2804,
    "doomsday": 2805,
    "door": 2806,
    "doors": 2807,
    "dopamine": 2808,
    "dope": 2809,
    "dor": 2810,
    "dos": 2811,
    "dose": 2812,
    "dot": 2813,
    "dotson": 2814,
    "dou": 2815,
    "doub": 2816,
    "double": 2817,
    "doubt": 2818,
    "doubted": 2819,
    "doubters": 2820,
    "douche": 2821,
    "down": 2822,
    "downfall": 2823,
    "download": 2824,
    "downloaded": 2825,
    "downs": 2826,
    "dozen": 2827,
    "dr": 2828,
    "dra": 2829,
    "draft": 2830,
    "drafted": 2831,
    "drag": 2832,
    "dragged": 2833,
    "dragon": 2834,
    "drak": 2835,
    "drake": 2836,
    "drakeee": 2837,
    "drakes": 2838,
    "drama": 2839,
    "dramatic": 2840,
    "drank": 2841,
    "draw": 2842,
    "dre": 2843,
    "dread": 2844,
    "dream": 2845,
    "dreaming": 2846,
    "dreams": 2847,
    "dress": 2848,
    "dressed": 2849,
    "drew": 2850,
    "dri": 2851,
    "drink": 2852,
    "drinking": 2853,
    "drinks": 2854,
    "drive": 2855,
    "driver": 2856,
    "drivers": 2857,
    "drives": 2858,
    "driving": 2859,
    "drizzy": 2860,
    "dro": 2861,
    "drop": 2862,
    "dropped": 2863,
    "dropping": 2864,
    "drops": 2865,
    "drug": 2866,
    "drum": 2867,
    "drun": 2868,
    "drunk": 2869,
    "dry": 2870,
    "ds": 2871,
    "du": 2872,
    "dual": 2873,
    "dub": 2874,
    "dubbing": 2875,
    "dubl": 2876,
    "dublado": 2877,
    "dublagem": 2878,
    "duck": 2879,
    "dude": 2880,
    "dudes": 2881,
    "due": 2882,
    "dull": 2883,
    "dum": 2884,
    "dumb": 2885,
    "dumbest": 2886,
    "dump": 2887,
    "dun": 2888,
    "duni": 2889,
    "duniya": 2890,
    "dunno": 2891,
    "duo": 2892,
    "dup": 2893,
    "dur": 2894,
    "during": 2895,
    "dust": 2896,
    "dutch": 2897,
    "duval": 2898,
    "dx": 2899,
    "dy": 2900,
    "dying": 2901,
    "dynam": 2902,
    "dynamic": 2903,
    "dynasty": 2904,
    "dz": 2905,
    "e": 2906,
    "e4": 2907,
    "e6": 2908,
    "e8": 2909,
    "e8o": 2910,
    "each": 2911,
    "eachother": 2912,
    "eag": 2913,
    "eager": 2914,
    "eagle": 2915,
    "eagles": 2916,
    "eaglesss": 2917,
    "ear": 2918,
    "earlier": 2919,
    "early": 2920,
    "earn": 2921,
    "earned": 2922,
    "ears": 2923,
    "earth": 2924,
    "eas": 2925,
    "ease": 2926,
    "eased": 2927,
    "easier": 2928,
    "easily": 2929,
    "east": 2930,
    "easter": 2931,
    "easy": 2932,
    "eat": 2933,
    "eating": 2934,
    "ec": 2935,
    "ech": 2936,
    "echo": 2937,
    "economic": 2938,
    "economy": 2939,
    "ecstatic": 2940,
    "ect": 2941,
    "ed": 2942,
    "eder": 2943,
    "edge": 2944,
    "edging": 2945,
    "edit": 2946,
    "edited": 2947,
    "editing": 2948,
    "edition": 2949,
    "editor": 2950,
    "edp": 2951,
    "eds": 2952,
    "edu": 2953,
    "educ": 2954,
    "ee": 2955,
    "eee": 2956,
    "ef": 2957,
    "eff": 2958,
    "effe": 2959,
    "effect": 2960,
    "effective": 2961,
    "effects": 2962,
    "effici": 2963,
    "efficiency": 2964,
    "effort": 2965,
    "efforts": 2966,
    "egal": 2967,
    "egg": 2968,
    "eggs": 2969,
    "ego": 2970,
    "egos": 2971,
    "eh": 2972,
    "ei": 2973,
    "eight": 2974,
    "ein": 2975,
    "eine": 2976,
    "einfach": 2977,
    "either": 2978,
    "ej": 2979,
    "ek": 2980,
    "el": 2981,
    "ela": 2982,
    "elabor": 2983,
    "eld": 2984,
    "elder": 2985,
    "ele": 2986,
    "elect": 2987,
    "election": 2988,
    "electri": 2989,
    "electric": 2990,
    "electrifying": 2991,
    "element": 2992,
    "elementary": 2993,
    "elements": 2994,
    "eles": 2995,
    "elev": 2996,
    "elevate": 2997,
    "eleven": 2998,
    "eli": 2999,
    "elimin": 3000,
    "eliminated": 3001,
    "elite": 3002,
    "elli": 3003,
    "elliot": 3004,
    "elliott": 3005,
    "ello": 3006,
    "elo": 3007,
    "elon": 3008,
    "els": 3009,
    "else": 3010,
    "elsewhere": 3011,
    "em": 3012,
    "email": 3013,
    "embar": 3014,
    "embarrass": 3015,
    "embarrassed": 3016,
    "embarrassing": 3017,
    "embarrassment": 3018,
    "embrace": 3019,
    "emer": 3020,
    "emin": 3021,
    "eminem": 3022,
    "emmy": 3023,
    "emo": 3024,
    "emocion": 3025,
    "emocional": 3026,
    "emos": 3027,
    "emotion": 3028,
    "emotional": 3029,
    "emotionally": 3030,
    "emotions": 3031,
    "empe": 3032,
    "emph": 3033,
    "emphas": 3034,
    "empire": 3035,
    "emplo": 3036,
    "employees": 3037,
    "empre": 3038,
    "empty": 3039,
    "en": 3040,
    "ena": 3041,
    "enak": 3042,
    "enas": 3043,
    "encant": 3044,
    "encanto": 3045,
    "ence": 3046,
    "enced": 3047,
    "enci": 3048,
    "encia": 3049,
    "encore": 3050,
    "encour": 3051,
    "ency": 3052,
    "end": 3053,
    "enda": 3054,
    "ended": 3055,
    "ender": 3056,
    "endgame": 3057,
    "ending": 3058,
    "endo": 3059,
    "endrick": 3060,
    "ends": 3061,
    "ene": 3062,
    "ened": 3063,
    "enemy": 3064,
    "enen": 3065,
    "ener": 3066,
    "energy": 3067,
    "eness": 3068,
    "enforce": 3069,
    "eng": 3070,
    "engaged": 3071,
    "engaging": 3072,
    "engine": 3073,
    "engl": 3074,
    "england": 3075,
    "english": 3076,
    "eni": 3077,
    "ening": 3078,
    "enjoy": 3079,
    "enjoyable": 3080,
    "enjoyed": 3081,
    "enjoying": 3082,
    "enjoyment": 3083,
    "enjoys": 3084,
    "enler": 3085,
    "enlight": 3086,
    "enlightening": 3087,
    "eno": 3088,
    "enough": 3089,
    "ens": 3090,
    "ense": 3091,
    "ent": 3092,
    "enta": 3093,
    "ente": 3094,
    "entend": 3095,
    "enter": 3096,
    "entered": 3097,
    "entering": 3098,
    "entertain": 3099,
    "entertained": 3100,
    "entertaining": 3101,
    "entertainment": 3102,
    "entes": 3103,
    "enthus": 3104,
    "enti": 3105,
    "ential": 3106,
    "ention": 3107,
    "entire": 3108,
    "entirely": 3109,
    "entitled": 3110,
    "ently": 3111,
    "ento": 3112,
    "entr": 3113,
    "entrance": 3114,
    "entre": 3115,
    "entry": 3116,
    "ents": 3117,
    "environ": 3118,
    "environment": 3119,
    "envy": 3120,
    "ep": 3121,
    "epic": 3122,
    "episode": 3123,
    "equ": 3124,
    "equal": 3125,
    "equally": 3126,
    "equals": 3127,
    "equi": 3128,
    "er": 3129,
    "era": 3130,
    "eral": 3131,
    "erd": 3132,
    "erda": 3133,
    "ere": 3134,
    "ered": 3135,
    "eremos": 3136,
    "eren": 3137,
    "eres": 3138,
    "eria": 3139,
    "ering": 3140,
    "ero": 3141,
    "eron": 3142,
    "err": 3143,
    "errors": 3144,
    "errr": 3145,
    "ers": 3146,
    "erto": 3147,
    "ery": 3148,
    "es": 3149,
    "esa": 3150,
    "escape": 3151,
    "escu": 3152,
    "escuchar": 3153,
    "ese": 3154,
    "esh": 3155,
    "eso": 3156,
    "espa": 3157,
    "espaol": 3158,
    "espe": 3159,
    "especially": 3160,
    "espect": 3161,
    "especta": 3162,
    "espectacular": 3163,
    "espectculo": 3164,
    "esper": 3165,
    "espera": 3166,
    "esperando": 3167,
    "esperar": 3168,
    "espero": 3169,
    "espn": 3170,
    "esque": 3171,
    "ess": 3172,
    "essa": 3173,
    "esse": 3174,
    "essenti": 3175,
    "esses": 3176,
    "essncia": 3177,
    "esss": 3178,
    "est": 3179,
    "esta": 3180,
    "estamos": 3181,
    "estar": 3182,
    "estara": 3183,
    "este": 3184,
    "estive": 3185,
    "estn": 3186,
    "esto": 3187,
    "estos": 3188,
    "estou": 3189,
    "estoy": 3190,
    "ests": 3191,
    "estuve": 3192,
    "et": 3193,
    "etc": 3194,
    "eter": 3195,
    "etern": 3196,
    "eternal": 3197,
    "eternity": 3198,
    "eth": 3199,
    "eti": 3200,
    "eting": 3201,
    "etiquette": 3202,
    "ets": 3203,
    "eu": 3204,
    "euphor": 3205,
    "euphoria": 3206,
    "euro": 3207,
    "europe": 3208,
    "european": 3209,
    "europeans": 3210,
    "ev": 3211,
    "eva": 3212,
    "even": 3213,
    "evening": 3214,
    "evenly": 3215,
    "event": 3216,
    "events": 3217,
    "eventually": 3218,
    "ever": 3219,
    "everrr": 3220,
    "every": 3221,
    "everybody": 3222,
    "everyday": 3223,
    "everyone": 3224,
    "everyones": 3225,
    "everything": 3226,
    "everytime": 3227,
    "everywhere": 3228,
    "evidence": 3229,
    "evil": 3230,
    "evol": 3231,
    "evolution": 3232,
    "ex": 3233,
    "exact": 3234,
    "exactly": 3235,
    "exam": 3236,
    "example": 3237,
    "exc": 3238,
    "exce": 3239,
    "excelente": 3240,
    "excellence": 3241,
    "excellent": 3242,
    "except": 3243,
    "exception": 3244,
    "exceptional": 3245,
    "excerpt": 3246,
    "exchange": 3247,
    "excite": 3248,
    "excited": 3249,
    "excitement": 3250,
    "exciting": 3251,
    "exclu": 3252,
    "exclusi": 3253,
    "exclusive": 3254,
    "exclusiveness": 3255,
    "excuse": 3256,
    "excuses": 3257,
    "execu": 3258,
    "executed": 3259,
    "execution": 3260,
    "exer": 3261,
    "exercise": 3262,
    "exes": 3263,
    "exha": 3264,
    "exhi": 3265,
    "exhib": 3266,
    "exist": 3267,
    "existence": 3268,
    "existent": 3269,
    "exit": 3270,
    "exited": 3271,
    "exp": 3272,
    "expect": 3273,
    "expectations": 3274,
    "expected": 3275,
    "expecting": 3276,
    "expen": 3277,
    "exper": 3278,
    "experi": 3279,
    "experience": 3280,
    "experienced": 3281,
    "expert": 3282,
    "explain": 3283,
    "explained": 3284,
    "explaining": 3285,
    "explains": 3286,
    "explan": 3287,
    "explanation": 3288,
    "explanations": 3289,
    "explo": 3290,
    "explode": 3291,
    "explore": 3292,
    "explosion": 3293,
    "expo": 3294,
    "exposed": 3295,
    "exposicin": 3296,
    "exposiciones": 3297,
    "exposing": 3298,
    "exposure": 3299,
    "express": 3300,
    "exs": 3301,
    "ext": 3302,
    "extend": 3303,
    "extended": 3304,
    "extra": 3305,
    "extraordinary": 3306,
    "extre": 3307,
    "extreme": 3308,
    "extremely": 3309,
    "ey": 3310,
    "eye": 3311,
    "eyes": 3312,
    "ez": 3313,
    "f": 3314,
    "f2": 3315,
    "f3": 3316,
    "f6": 3317,
    "fa": 3318,
    "faa": 3319,
    "fab": 3320,
    "fabulous": 3321,
    "face": 3322,
    "faced": 3323,
    "facemask": 3324,
    "faces": 3325,
    "facial": 3326,
    "facing": 3327,
    "fact": 3328,
    "factor": 3329,
    "facts": 3330,
    "fad": 3331,
    "fail": 3332,
    "failed": 3333,
    "fails": 3334,
    "fair": 3335,
    "faire": 3336,
    "fairly": 3337,
    "fait": 3338,
    "faites": 3339,
    "faith": 3340,
    "fake": 3341,
    "fal": 3342,
    "falando": 3343,
    "falcons": 3344,
    "fall": 3345,
    "fallen": 3346,
    "falling": 3347,
    "falls": 3348,
    "false": 3349,
    "falta": 3350,
    "falun": 3351,
    "fam": 3352,
    "fame": 3353,
    "famil": 3354,
    "famili": 3355,
    "familiar": 3356,
    "families": 3357,
    "family": 3358,
    "famous": 3359,
    "fan": 3360,
    "fanbase": 3361,
    "fancy": 3362,
    "fangio": 3363,
    "fans": 3364,
    "fanta": 3365,
    "fantastic": 3366,
    "fantasy": 3367,
    "far": 3368,
    "farcry": 3369,
    "fare": 3370,
    "farewell": 3371,
    "farm": 3372,
    "fart": 3373,
    "fas": 3374,
    "fascinated": 3375,
    "fascinating": 3376,
    "fashion": 3377,
    "fast": 3378,
    "faster": 3379,
    "fat": 3380,
    "fate": 3381,
    "father": 3382,
    "fault": 3383,
    "fav": 3384,
    "favo": 3385,
    "favor": 3386,
    "favorable": 3387,
    "favored": 3388,
    "favoring": 3389,
    "favorite": 3390,
    "favorites": 3391,
    "favoritism": 3392,
    "favour": 3393,
    "favourite": 3394,
    "faz": 3395,
    "faze": 3396,
    "fazendo": 3397,
    "fazer": 3398,
    "fbi": 3399,
    "fc": 3400,
    "fcc": 3401,
    "fck": 3402,
    "fd": 3403,
    "fe": 3404,
    "fear": 3405,
    "feat": 3406,
    "feature": 3407,
    "featured": 3408,
    "featuring": 3409,
    "feb": 3410,
    "february": 3411,
    "fec": 3412,
    "fecha": 3413,
    "fed": 3414,
    "fee": 3415,
    "feed": 3416,
    "feel": 3417,
    "feeling": 3418,
    "feelings": 3419,
    "feels": 3420,
    "feet": 3421,
    "felic": 3422,
    "fell": 3423,
    "fellas": 3424,
    "fellow": 3425,
    "felt": 3426,
    "female": 3427,
    "females": 3428,
    "femin": 3429,
    "feminine": 3430,
    "feminist": 3431,
    "fen": 3432,
    "fer": 3433,
    "ference": 3434,
    "fest": 3435,
    "fet": 3436,
    "few": 3437,
    "ff": 3438,
    "ffe": 3439,
    "fff": 3440,
    "ffs": 3441,
    "fg": 3442,
    "fh": 3443,
    "fi": 3444,
    "fic": 3445,
    "fica": 3446,
    "ficar": 3447,
    "fice": 3448,
    "fici": 3449,
    "ficou": 3450,
    "fiction": 3451,
    "fide": 3452,
    "fied": 3453,
    "field": 3454,
    "fif": 3455,
    "fifa": 3456,
    "fifth": 3457,
    "fight": 3458,
    "fighter": 3459,
    "fighting": 3460,
    "figu": 3461,
    "figure": 3462,
    "figured": 3463,
    "fil": 3464,
    "file": 3465,
    "filho": 3466,
    "fill": 3467,
    "filled": 3468,
    "filling": 3469,
    "film": 3470,
    "filme": 3471,
    "filmed": 3472,
    "fin": 3473,
    "final": 3474,
    "finally": 3475,
    "finalmente": 3476,
    "finals": 3477,
    "finan": 3478,
    "find": 3479,
    "finding": 3480,
    "finds": 3481,
    "fine": 3482,
    "finesse": 3483,
    "finest": 3484,
    "fing": 3485,
    "finger": 3486,
    "fingers": 3487,
    "finish": 3488,
    "finished": 3489,
    "finishing": 3490,
    "finna": 3491,
    "fir": 3492,
    "fire": 3493,
    "fired": 3494,
    "fireee": 3495,
    "fireworks": 3496,
    "firing": 3497,
    "first": 3498,
    "fis": 3499,
    "fish": 3500,
    "fishing": 3501,
    "fist": 3502,
    "fit": 3503,
    "fits": 3504,
    "fitting": 3505,
    "five": 3506,
    "fix": 3507,
    "fixed": 3508,
    "fixing": 3509,
    "fkin": 3510,
    "fking": 3511,
    "fl": 3512,
    "fla": 3513,
    "flag": 3514,
    "flagged": 3515,
    "flags": 3516,
    "flas": 3517,
    "flash": 3518,
    "flashbacks": 3519,
    "flashing": 3520,
    "flat": 3521,
    "flattered": 3522,
    "flaw": 3523,
    "flawless": 3524,
    "fle": 3525,
    "flex": 3526,
    "fli": 3527,
    "flies": 3528,
    "flight": 3529,
    "flip": 3530,
    "flipped": 3531,
    "flir": 3532,
    "flirt": 3533,
    "flirting": 3534,
    "flo": 3535,
    "floor": 3536,
    "flop": 3537,
    "flor": 3538,
    "florida": 3539,
    "flow": 3540,
    "flowers": 3541,
    "flu": 3542,
    "fly": 3543,
    "flyeaglesfly": 3544,
    "flying": 3545,
    "flyyy": 3546,
    "fm": 3547,
    "fo": 3548,
    "foc": 3549,
    "focus": 3550,
    "focused": 3551,
    "focusing": 3552,
    "fod": 3553,
    "foda": 3554,
    "foi": 3555,
    "fol": 3556,
    "fold": 3557,
    "folded": 3558,
    "folk": 3559,
    "folks": 3560,
    "follow": 3561,
    "followed": 3562,
    "followers": 3563,
    "following": 3564,
    "fon": 3565,
    "font": 3566,
    "foo": 3567,
    "food": 3568,
    "fool": 3569,
    "fooled": 3570,
    "foolish": 3571,
    "fools": 3572,
    "foot": 3573,
    "footage": 3574,
    "football": 3575,
    "for": 3576,
    "force": 3577,
    "forced": 3578,
    "forcing": 3579,
    "ford": 3580,
    "fore": 3581,
    "foreign": 3582,
    "forever": 3583,
    "forget": 3584,
    "forgettable": 3585,
    "forgetting": 3586,
    "forgive": 3587,
    "forgiven": 3588,
    "forgot": 3589,
    "form": 3590,
    "forma": 3591,
    "formance": 3592,
    "format": 3593,
    "formation": 3594,
    "formed": 3595,
    "former": 3596,
    "formid": 3597,
    "formidable": 3598,
    "forms": 3599,
    "formula": 3600,
    "fort": 3601,
    "forth": 3602,
    "fortnite": 3603,
    "fortun": 3604,
    "forward": 3605,
    "fou": 3606,
    "fought": 3607,
    "foul": 3608,
    "found": 3609,
    "four": 3610,
    "fourth": 3611,
    "fox": 3612,
    "fps": 3613,
    "fr": 3614,
    "fra": 3615,
    "frag": 3616,
    "frame": 3617,
    "fran": 3618,
    "franais": 3619,
    "france": 3620,
    "franch": 3621,
    "franchise": 3622,
    "francis": 3623,
    "francisco": 3624,
    "frank": 3625,
    "franklin": 3626,
    "frau": 3627,
    "fraud": 3628,
    "frauds": 3629,
    "fraudulent": 3630,
    "fre": 3631,
    "freak": 3632,
    "freakin": 3633,
    "freaking": 3634,
    "freaky": 3635,
    "free": 3636,
    "freed": 3637,
    "freedom": 3638,
    "freestyle": 3639,
    "french": 3640,
    "frequ": 3641,
    "fresh": 3642,
    "frfr": 3643,
    "fri": 3644,
    "friday": 3645,
    "fridge": 3646,
    "fried": 3647,
    "friend": 3648,
    "friendly": 3649,
    "friends": 3650,
    "fro": 3651,
    "frog": 3652,
    "from": 3653,
    "front": 3654,
    "fru": 3655,
    "frust": 3656,
    "frustrating": 3657,
    "frustration": 3658,
    "fs": 3659,
    "fsicas": 3660,
    "ft": 3661,
    "fts": 3662,
    "fu": 3663,
    "fuc": 3664,
    "fuches": 3665,
    "fuck": 3666,
    "fue": 3667,
    "fuer": 3668,
    "fuera": 3669,
    "ful": 3670,
    "full": 3671,
    "fully": 3672,
    "fum": 3673,
    "fumble": 3674,
    "fumbled": 3675,
    "fun": 3676,
    "fund": 3677,
    "funeral": 3678,
    "funk": 3679,
    "funny": 3680,
    "fur": 3681,
    "furious": 3682,
    "further": 3683,
    "fury": 3684,
    "fuse": 3685,
    "fut": 3686,
    "futher": 3687,
    "future": 3688,
    "futuro": 3689,
    "fy": 3690,
    "fying": 3691,
    "g": 3692,
    "ga": 3693,
    "gachor": 3694,
    "gad": 3695,
    "gadge": 3696,
    "gag": 3697,
    "gaga": 3698,
    "gah": 3699,
    "gain": 3700,
    "gained": 3701,
    "gains": 3702,
    "gal": 3703,
    "galax": 3704,
    "galera": 3705,
    "gam": 3706,
    "gambit": 3707,
    "gambling": 3708,
    "game": 3709,
    "gameplan": 3710,
    "gameplay": 3711,
    "gamer": 3712,
    "gamers": 3713,
    "games": 3714,
    "gaming": 3715,
    "gan": 3716,
    "ganas": 3717,
    "gando": 3718,
    "gang": 3719,
    "gangs": 3720,
    "gangster": 3721,
    "gangsters": 3722,
    "gao": 3723,
    "gar": 3724,
    "garb": 3725,
    "garbage": 3726,
    "gard": 3727,
    "garden": 3728,
    "garrett": 3729,
    "gas": 3730,
    "gat": 3731,
    "gate": 3732,
    "gather": 3733,
    "gator": 3734,
    "gave": 3735,
    "gawd": 3736,
    "gay": 3737,
    "gaza": 3738,
    "gb": 3739,
    "ge": 3740,
    "ged": 3741,
    "gee": 3742,
    "geez": 3743,
    "gel": 3744,
    "gem": 3745,
    "gemini": 3746,
    "gen": 3747,
    "gence": 3748,
    "gender": 3749,
    "gene": 3750,
    "gener": 3751,
    "general": 3752,
    "generally": 3753,
    "generate": 3754,
    "generated": 3755,
    "generation": 3756,
    "generational": 3757,
    "generations": 3758,
    "generic": 3759,
    "geni": 3760,
    "genius": 3761,
    "genre": 3762,
    "gent": 3763,
    "gente": 3764,
    "gentle": 3765,
    "gentleman": 3766,
    "gentlemen": 3767,
    "genu": 3768,
    "genuine": 3769,
    "genuinely": 3770,
    "geon": 3771,
    "geor": 3772,
    "ger": 3773,
    "german": 3774,
    "germany": 3775,
    "gers": 3776,
    "ges": 3777,
    "gest": 3778,
    "get": 3779,
    "gether": 3780,
    "getic": 3781,
    "gets": 3782,
    "gettin": 3783,
    "getting": 3784,
    "gey": 3785,
    "gf": 3786,
    "gg": 3787,
    "gged": 3788,
    "gger": 3789,
    "ggers": 3790,
    "ggg": 3791,
    "ggin": 3792,
    "gging": 3793,
    "ggs": 3794,
    "gh": 3795,
    "gha": 3796,
    "ghais": 3797,
    "ghet": 3798,
    "ghetto": 3799,
    "ghost": 3800,
    "ght": 3801,
    "ghter": 3802,
    "ghters": 3803,
    "ghts": 3804,
    "gi": 3805,
    "gia": 3806,
    "giant": 3807,
    "giants": 3808,
    "gibi": 3809,
    "gie": 3810,
    "gif": 3811,
    "gift": 3812,
    "gifted": 3813,
    "gig": 3814,
    "gigg": 3815,
    "giggle": 3816,
    "giggling": 3817,
    "gil": 3818,
    "gim": 3819,
    "gin": 3820,
    "ging": 3821,
    "gio": 3822,
    "gir": 3823,
    "girl": 3824,
    "girlfriend": 3825,
    "girlfriends": 3826,
    "girls": 3827,
    "give": 3828,
    "giveaway": 3829,
    "given": 3830,
    "gives": 3831,
    "giving": 3832,
    "gk": 3833,
    "gl": 3834,
    "gla": 3835,
    "glad": 3836,
    "glass": 3837,
    "glasses": 3838,
    "glaze": 3839,
    "glazing": 3840,
    "gle": 3841,
    "gles": 3842,
    "gling": 3843,
    "glitch": 3844,
    "glo": 3845,
    "global": 3846,
    "glor": 3847,
    "gloria": 3848,
    "glorifying": 3849,
    "glorious": 3850,
    "glory": 3851,
    "glow": 3852,
    "glu": 3853,
    "glued": 3854,
    "gm": 3855,
    "gn": 3856,
    "gng": 3857,
    "gnx": 3858,
    "go": 3859,
    "goal": 3860,
    "goals": 3861,
    "goat": 3862,
    "goated": 3863,
    "goats": 3864,
    "god": 3865,
    "godell": 3866,
    "gods": 3867,
    "goes": 3868,
    "goin": 3869,
    "going": 3870,
    "gold": 3871,
    "golden": 3872,
    "golf": 3873,
    "gon": 3874,
    "gona": 3875,
    "gone": 3876,
    "gong": 3877,
    "gonna": 3878,
    "goo": 3879,
    "good": 3880,
    "goodbye": 3881,
    "goodell": 3882,
    "goodness": 3883,
    "goof": 3884,
    "goofy": 3885,
    "google": 3886,
    "googling": 3887,
    "goon": 3888,
    "gooner": 3889,
    "gooners": 3890,
    "gooning": 3891,
    "gooo": 3892,
    "goood": 3893,
    "goose": 3894,
    "goosebumps": 3895,
    "gor": 3896,
    "gorgeous": 3897,
    "gorilla": 3898,
    "gosh": 3899,
    "got": 3900,
    "gotham": 3901,
    "goti": 3902,
    "gotta": 3903,
    "gotten": 3904,
    "goty": 3905,
    "gover": 3906,
    "govern": 3907,
    "government": 3908,
    "gr": 3909,
    "gra": 3910,
    "grab": 3911,
    "grace": 3912,
    "gracias": 3913,
    "gracious": 3914,
    "grade": 3915,
    "gradu": 3916,
    "graduate": 3917,
    "graduated": 3918,
    "grafi": 3919,
    "graham": 3920,
    "grahams": 3921,
    "gram": 3922,
    "gramm": 3923,
    "grammy": 3924,
    "grammys": 3925,
    "gran": 3926,
    "grand": 3927,
    "grandad": 3928,
    "grandchildren": 3929,
    "grande": 3930,
    "grandfather": 3931,
    "grandkids": 3932,
    "grandma": 3933,
    "grandmaster": 3934,
    "grandpa": 3935,
    "grandson": 3936,
    "grant": 3937,
    "graph": 3938,
    "grapher": 3939,
    "graphic": 3940,
    "graphics": 3941,
    "graphy": 3942,
    "gras": 3943,
    "grass": 3944,
    "grat": 3945,
    "grate": 3946,
    "grateful": 3947,
    "grave": 3948,
    "gre": 3949,
    "great": 3950,
    "greater": 3951,
    "greatest": 3952,
    "greatly": 3953,
    "greatness": 3954,
    "gree": 3955,
    "greed": 3956,
    "greedy": 3957,
    "green": 3958,
    "greeting": 3959,
    "greetings": 3960,
    "gress": 3961,
    "gressive": 3962,
    "grew": 3963,
    "grey": 3964,
    "grfi": 3965,
    "grficos": 3966,
    "gri": 3967,
    "grif": 3968,
    "grin": 3969,
    "grind": 3970,
    "grinding": 3971,
    "grip": 3972,
    "grit": 3973,
    "gro": 3974,
    "gronk": 3975,
    "ground": 3976,
    "group": 3977,
    "groups": 3978,
    "grow": 3979,
    "growing": 3980,
    "grown": 3981,
    "gs": 3982,
    "gt": 3983,
    "gt6": 3984,
    "gta": 3985,
    "gta4": 3986,
    "gta5": 3987,
    "gta6": 3988,
    "gta7": 3989,
    "gtaiv": 3990,
    "gtas": 3991,
    "gtav": 3992,
    "gtavi": 3993,
    "gtx": 3994,
    "gu": 3995,
    "gua": 3996,
    "guar": 3997,
    "guarantee": 3998,
    "guaranteed": 3999,
    "guard": 4000,
    "gue": 4001,
    "guer": 4002,
    "guess": 4003,
    "guessing": 4004,
    "guevara": 4005,
    "guil": 4006,
    "guilty": 4007,
    "gul": 4008,
    "gulf": 4009,
    "gun": 4010,
    "gunna": 4011,
    "gunplay": 4012,
    "guns": 4013,
    "gunt": 4014,
    "gur": 4015,
    "gurt": 4016,
    "gus": 4017,
    "gust": 4018,
    "gusta": 4019,
    "gut": 4020,
    "guy": 4021,
    "guys": 4022,
    "gy": 4023,
    "gyat": 4024,
    "gyatt": 4025,
    "gyattt": 4026,
    "gym": 4027,
    "h": 4028,
    "ha": 4029,
    "hab": 4030,
    "habit": 4031,
    "hable": 4032,
    "hace": 4033,
    "hacer": 4034,
    "had": 4035,
    "hadn": 4036,
    "hah": 4037,
    "haha": 4038,
    "hahah": 4039,
    "hahaha": 4040,
    "hahahah": 4041,
    "hahahaha": 4042,
    "hahahahah": 4043,
    "hahahahaha": 4044,
    "hahahahahaha": 4045,
    "hahahahahahaha": 4046,
    "hahahahahahahaha": 4047,
    "hahahahahahahahaha": 4048,
    "hai": 4049,
    "hail": 4050,
    "hair": 4051,
    "hairs": 4052,
    "hait": 4053,
    "haiti": 4054,
    "haitian": 4055,
    "haitians": 4056,
    "hal": 4057,
    "half": 4058,
    "halftime": 4059,
    "halftimes": 4060,
    "halfway": 4061,
    "halif": 4062,
    "hall": 4063,
    "ham": 4064,
    "hammer": 4065,
    "hammered": 4066,
    "hams": 4067,
    "han": 4068,
    "hand": 4069,
    "handed": 4070,
    "handedly": 4071,
    "handegg": 4072,
    "handing": 4073,
    "handle": 4074,
    "handled": 4075,
    "handling": 4076,
    "hando": 4077,
    "hands": 4078,
    "handsome": 4079,
    "hang": 4080,
    "hanging": 4081,
    "happ": 4082,
    "happen": 4083,
    "happend": 4084,
    "happened": 4085,
    "happening": 4086,
    "happens": 4087,
    "happier": 4088,
    "happiest": 4089,
    "happily": 4090,
    "happiness": 4091,
    "happy": 4092,
    "har": 4093,
    "hard": 4094,
    "hardcore": 4095,
    "harder": 4096,
    "hardest": 4097,
    "hardly": 4098,
    "hardt": 4099,
    "harmon": 4100,
    "harsh": 4101,
    "hart": 4102,
    "has": 4103,
    "hasn": 4104,
    "hasnt": 4105,
    "hasta": 4106,
    "hat": 4107,
    "hate": 4108,
    "hated": 4109,
    "hater": 4110,
    "haters": 4111,
    "hates": 4112,
    "hati": 4113,
    "hatien": 4114,
    "hating": 4115,
    "hatred": 4116,
    "hats": 4117,
    "hav": 4118,
    "have": 4119,
    "haven": 4120,
    "havent": 4121,
    "having": 4122,
    "haw": 4123,
    "hawa": 4124,
    "hay": 4125,
    "hd": 4126,
    "he": 4127,
    "hea": 4128,
    "head": 4129,
    "heading": 4130,
    "headline": 4131,
    "headphones": 4132,
    "heads": 4133,
    "heal": 4134,
    "healing": 4135,
    "health": 4136,
    "healthy": 4137,
    "hear": 4138,
    "heard": 4139,
    "hearing": 4140,
    "heart": 4141,
    "hearts": 4142,
    "heat": 4143,
    "heaven": 4144,
    "heavily": 4145,
    "heavy": 4146,
    "heck": 4147,
    "hed": 4148,
    "hee": 4149,
    "heh": 4150,
    "hehe": 4151,
    "hei": 4152,
    "heist": 4153,
    "hel": 4154,
    "held": 4155,
    "helicop": 4156,
    "helicopter": 4157,
    "hell": 4158,
    "hella": 4159,
    "hello": 4160,
    "helmet": 4161,
    "helmets": 4162,
    "help": 4163,
    "helped": 4164,
    "helpful": 4165,
    "helping": 4166,
    "helps": 4167,
    "hem": 4168,
    "hen": 4169,
    "hend": 4170,
    "her": 4171,
    "herbert": 4172,
    "here": 4173,
    "hereee": 4174,
    "heres": 4175,
    "hermano": 4176,
    "hermo": 4177,
    "hermoso": 4178,
    "hero": 4179,
    "heroes": 4180,
    "hers": 4181,
    "herself": 4182,
    "hertz": 4183,
    "hes": 4184,
    "hesit": 4185,
    "hest": 4186,
    "het": 4187,
    "heter": 4188,
    "hey": 4189,
    "hh": 4190,
    "hhh": 4191,
    "hi": 4192,
    "hiber": 4193,
    "hic": 4194,
    "hid": 4195,
    "hidden": 4196,
    "hide": 4197,
    "hiding": 4198,
    "hier": 4199,
    "high": 4200,
    "higher": 4201,
    "highest": 4202,
    "highlight": 4203,
    "highlights": 4204,
    "highly": 4205,
    "hii": 4206,
    "hiii": 4207,
    "hikaru": 4208,
    "hil": 4209,
    "hilar": 4210,
    "hilarious": 4211,
    "hill": 4212,
    "him": 4213,
    "himself": 4214,
    "hin": 4215,
    "hind": 4216,
    "hindi": 4217,
    "hint": 4218,
    "hip": 4219,
    "hiphop": 4220,
    "hips": 4221,
    "hire": 4222,
    "hired": 4223,
    "his": 4224,
    "hist": 4225,
    "histoire": 4226,
    "histor": 4227,
    "historia": 4228,
    "historic": 4229,
    "historical": 4230,
    "history": 4231,
    "histri": 4232,
    "histria": 4233,
    "histrico": 4234,
    "hit": 4235,
    "hits": 4236,
    "hitting": 4237,
    "hizo": 4238,
    "hm": 4239,
    "hmm": 4240,
    "hmmm": 4241,
    "hn": 4242,
    "ho": 4243,
    "hockey": 4244,
    "hoe": 4245,
    "hoes": 4246,
    "hof": 4247,
    "hog": 4248,
    "hogy": 4249,
    "hoje": 4250,
    "hol": 4251,
    "hola": 4252,
    "hold": 4253,
    "holding": 4254,
    "holds": 4255,
    "hole": 4256,
    "holes": 4257,
    "holi": 4258,
    "holiday": 4259,
    "holly": 4260,
    "hollywood": 4261,
    "holy": 4262,
    "hom": 4263,
    "hombre": 4264,
    "home": 4265,
    "homes": 4266,
    "hometown": 4267,
    "homework": 4268,
    "homie": 4269,
    "homies": 4270,
    "homo": 4271,
    "hon": 4272,
    "hone": 4273,
    "honest": 4274,
    "honestly": 4275,
    "honey": 4276,
    "honor": 4277,
    "honour": 4278,
    "hoo": 4279,
    "hood": 4280,
    "hoods": 4281,
    "hook": 4282,
    "hooked": 4283,
    "hooo": 4284,
    "hop": 4285,
    "hope": 4286,
    "hopefully": 4287,
    "hoping": 4288,
    "hopkins": 4289,
    "hor": 4290,
    "hora": 4291,
    "horrendous": 4292,
    "horri": 4293,
    "horrible": 4294,
    "horribly": 4295,
    "horse": 4296,
    "hosp": 4297,
    "hospital": 4298,
    "host": 4299,
    "hot": 4300,
    "hou": 4301,
    "hour": 4302,
    "hours": 4303,
    "house": 4304,
    "houses": 4305,
    "houston": 4306,
    "how": 4307,
    "however": 4308,
    "howie": 4309,
    "hows": 4310,
    "hre": 4311,
    "hs": 4312,
    "ht": 4313,
    "hu": 4314,
    "hub": 4315,
    "hue": 4316,
    "huge": 4317,
    "huh": 4318,
    "huhhh": 4319,
    "hul": 4320,
    "hulk": 4321,
    "hum": 4322,
    "human": 4323,
    "humanity": 4324,
    "humanos": 4325,
    "humans": 4326,
    "humble": 4327,
    "humbled": 4328,
    "humbling": 4329,
    "humil": 4330,
    "humiliate": 4331,
    "humiliated": 4332,
    "humiliating": 4333,
    "humiliation": 4334,
    "humility": 4335,
    "humming": 4336,
    "humor": 4337,
    "hun": 4338,
    "hund": 4339,
    "hundred": 4340,
    "hundreds": 4341,
    "hung": 4342,
    "hungry": 4343,
    "hunt": 4344,
    "hunting": 4345,
    "hur": 4346,
    "hurry": 4347,
    "hurst": 4348,
    "hurt": 4349,
    "hurts": 4350,
    "hurtz": 4351,
    "husband": 4352,
    "hust": 4353,
    "hustler": 4354,
    "hy": 4355,
    "hyp": 4356,
    "hype": 4357,
    "hyped": 4358,
    "hyper": 4359,
    "hyster": 4360,
    "i": 4361,
    "ia": 4362,
    "iad": 4363,
    "ial": 4364,
    "iam": 4365,
    "ian": 4366,
    "ians": 4367,
    "ias": 4368,
    "ible": 4369,
    "ic": 4370,
    "ica": 4371,
    "ical": 4372,
    "ically": 4373,
    "ican": 4374,
    "icant": 4375,
    "icas": 4376,
    "ice": 4377,
    "iced": 4378,
    "icer": 4379,
    "ich": 4380,
    "ici": 4381,
    "icide": 4382,
    "icing": 4383,
    "ick": 4384,
    "ico": 4385,
    "icon": 4386,
    "iconic": 4387,
    "ics": 4388,
    "id": 4389,
    "ida": 4390,
    "idad": 4391,
    "idade": 4392,
    "idades": 4393,
    "idal": 4394,
    "idc": 4395,
    "ide": 4396,
    "idea": 4397,
    "ideas": 4398,
    "ided": 4399,
    "iden": 4400,
    "idence": 4401,
    "ident": 4402,
    "ideo": 4403,
    "ideology": 4404,
    "ider": 4405,
    "idgaf": 4406,
    "idi": 4407,
    "iding": 4408,
    "idio": 4409,
    "idiot": 4410,
    "idiotic": 4411,
    "idiots": 4412,
    "idk": 4413,
    "ido": 4414,
    "idos": 4415,
    "ids": 4416,
    "idy": 4417,
    "ie": 4418,
    "ied": 4419,
    "iee": 4420,
    "iel": 4421,
    "ield": 4422,
    "ien": 4423,
    "ier": 4424,
    "ies": 4425,
    "iest": 4426,
    "iety": 4427,
    "if": 4428,
    "iff": 4429,
    "ific": 4430,
    "ified": 4431,
    "iful": 4432,
    "ify": 4433,
    "ifying": 4434,
    "ig": 4435,
    "igans": 4436,
    "igg": 4437,
    "igh": 4438,
    "ighdiir": 4439,
    "ight": 4440,
    "ign": 4441,
    "igned": 4442,
    "igning": 4443,
    "igno": 4444,
    "ignor": 4445,
    "ignorant": 4446,
    "ignore": 4447,
    "ignored": 4448,
    "ignoring": 4449,
    "igra": 4450,
    "igru": 4451,
    "igu": 4452,
    "igual": 4453,
    "igur": 4454,
    "ii": 4455,
    "iii": 4456,
    "iin": 4457,
    "ik": 4458,
    "il": 4459,
    "ila": 4460,
    "iland": 4461,
    "ilar": 4462,
    "ild": 4463,
    "ile": 4464,
    "iled": 4465,
    "iler": 4466,
    "ili": 4467,
    "ilig": 4468,
    "iling": 4469,
    "ill": 4470,
    "illa": 4471,
    "ille": 4472,
    "illed": 4473,
    "illegal": 4474,
    "iller": 4475,
    "illi": 4476,
    "illing": 4477,
    "illion": 4478,
    "ills": 4479,
    "illumin": 4480,
    "illuminati": 4481,
    "ilo": 4482,
    "ilove": 4483,
    "ils": 4484,
    "ilt": 4485,
    "ily": 4486,
    "im": 4487,
    "ima": 4488,
    "imag": 4489,
    "image": 4490,
    "imagin": 4491,
    "imagination": 4492,
    "imagine": 4493,
    "imate": 4494,
    "imed": 4495,
    "imho": 4496,
    "imma": 4497,
    "immaculate": 4498,
    "immedi": 4499,
    "immediately": 4500,
    "immense": 4501,
    "immensely": 4502,
    "immers": 4503,
    "immersive": 4504,
    "immortal": 4505,
    "imo": 4506,
    "imp": 4507,
    "impact": 4508,
    "impactful": 4509,
    "impe": 4510,
    "impecc": 4511,
    "impeccable": 4512,
    "imple": 4513,
    "import": 4514,
    "important": 4515,
    "importantly": 4516,
    "impossible": 4517,
    "impress": 4518,
    "impressed": 4519,
    "impression": 4520,
    "impressive": 4521,
    "improve": 4522,
    "improved": 4523,
    "improvements": 4524,
    "in": 4525,
    "ina": 4526,
    "inal": 4527,
    "inals": 4528,
    "inappropriate": 4529,
    "inas": 4530,
    "ination": 4531,
    "inc": 4532,
    "incar": 4533,
    "incarn": 4534,
    "ince": 4535,
    "inch": 4536,
    "inclu": 4537,
    "include": 4538,
    "included": 4539,
    "including": 4540,
    "inclus": 4541,
    "incoming": 4542,
    "inconsistent": 4543,
    "incre": 4544,
    "increas": 4545,
    "increases": 4546,
    "increble": 4547,
    "incredi": 4548,
    "incredible": 4549,
    "incredibly": 4550,
    "increible": 4551,
    "incrvel": 4552,
    "ind": 4553,
    "inde": 4554,
    "indeed": 4555,
    "indescri": 4556,
    "indi": 4557,
    "india": 4558,
    "indian": 4559,
    "indians": 4560,
    "indic": 4561,
    "individ": 4562,
    "indo": 4563,
    "indones": 4564,
    "indonesia": 4565,
    "indust": 4566,
    "industry": 4567,
    "ine": 4568,
    "ined": 4569,
    "ines": 4570,
    "iness": 4571,
    "inevit": 4572,
    "inevitable": 4573,
    "infe": 4574,
    "infectious": 4575,
    "infer": 4576,
    "infin": 4577,
    "influ": 4578,
    "influence": 4579,
    "info": 4580,
    "infor": 4581,
    "information": 4582,
    "informative": 4583,
    "infront": 4584,
    "ing": 4585,
    "ingame": 4586,
    "ingls": 4587,
    "ings": 4588,
    "ingu": 4589,
    "ini": 4590,
    "ining": 4591,
    "initi": 4592,
    "initial": 4593,
    "initially": 4594,
    "injured": 4595,
    "injuries": 4596,
    "injury": 4597,
    "ink": 4598,
    "inlove": 4599,
    "inn": 4600,
    "inner": 4601,
    "inno": 4602,
    "innocent": 4603,
    "ino": 4604,
    "inos": 4605,
    "ins": 4606,
    "insan": 4607,
    "insane": 4608,
    "insaneee": 4609,
    "insanely": 4610,
    "insanity": 4611,
    "insano": 4612,
    "insecure": 4613,
    "insi": 4614,
    "inside": 4615,
    "insight": 4616,
    "insights": 4617,
    "insp": 4618,
    "inspi": 4619,
    "inspir": 4620,
    "inspiration": 4621,
    "inspirational": 4622,
    "inspired": 4623,
    "inspires": 4624,
    "inspiring": 4625,
    "inspiringkeep": 4626,
    "inst": 4627,
    "instagram": 4628,
    "install": 4629,
    "instant": 4630,
    "instantly": 4631,
    "instead": 4632,
    "instru": 4633,
    "instructive": 4634,
    "insu": 4635,
    "insufferable": 4636,
    "insult": 4637,
    "insurance": 4638,
    "int": 4639,
    "inta": 4640,
    "intact": 4641,
    "inte": 4642,
    "inted": 4643,
    "integrity": 4644,
    "intel": 4645,
    "intelli": 4646,
    "intelligence": 4647,
    "intelligent": 4648,
    "inten": 4649,
    "intended": 4650,
    "intens": 4651,
    "intense": 4652,
    "intention": 4653,
    "intentionally": 4654,
    "inter": 4655,
    "interact": 4656,
    "interaction": 4657,
    "interactions": 4658,
    "interce": 4659,
    "intercept": 4660,
    "intercepted": 4661,
    "interception": 4662,
    "interceptions": 4663,
    "interest": 4664,
    "interested": 4665,
    "interesting": 4666,
    "interference": 4667,
    "interlu": 4668,
    "international": 4669,
    "internet": 4670,
    "interrup": 4671,
    "interval": 4672,
    "intervalo": 4673,
    "interven": 4674,
    "interview": 4675,
    "interviews": 4676,
    "inti": 4677,
    "intimid": 4678,
    "intimidate": 4679,
    "intimidated": 4680,
    "intimidating": 4681,
    "inting": 4682,
    "into": 4683,
    "intrigu": 4684,
    "intro": 4685,
    "introdu": 4686,
    "introduced": 4687,
    "introduction": 4688,
    "ints": 4689,
    "inv": 4690,
    "invent": 4691,
    "invest": 4692,
    "invested": 4693,
    "investig": 4694,
    "investing": 4695,
    "investment": 4696,
    "invinci": 4697,
    "invincible": 4698,
    "invite": 4699,
    "invited": 4700,
    "invol": 4701,
    "involved": 4702,
    "iny": 4703,
    "io": 4704,
    "ion": 4705,
    "ional": 4706,
    "ionchisithe": 4707,
    "iones": 4708,
    "ions": 4709,
    "ior": 4710,
    "ious": 4711,
    "iphone": 4712,
    "iq": 4713,
    "ique": 4714,
    "ir": 4715,
    "ira": 4716,
    "iran": 4717,
    "iraq": 4718,
    "ird": 4719,
    "ire": 4720,
    "iri": 4721,
    "irish": 4722,
    "irl": 4723,
    "irler": 4724,
    "iro": 4725,
    "iron": 4726,
    "ironic": 4727,
    "iros": 4728,
    "irrelevant": 4729,
    "irrit": 4730,
    "irritating": 4731,
    "irt": 4732,
    "irts": 4733,
    "is": 4734,
    "isa": 4735,
    "ise": 4736,
    "ised": 4737,
    "iser": 4738,
    "ises": 4739,
    "ish": 4740,
    "ished": 4741,
    "ishing": 4742,
    "ishment": 4743,
    "ishow": 4744,
    "ishowspeed": 4745,
    "ising": 4746,
    "islam": 4747,
    "island": 4748,
    "ism": 4749,
    "isn": 4750,
    "isnt": 4751,
    "ison": 4752,
    "isons": 4753,
    "isra": 4754,
    "israel": 4755,
    "iss": 4756,
    "isso": 4757,
    "issu": 4758,
    "issue": 4759,
    "issues": 4760,
    "ist": 4761,
    "ista": 4762,
    "istas": 4763,
    "iste": 4764,
    "ister": 4765,
    "istg": 4766,
    "istic": 4767,
    "ists": 4768,
    "it": 4769,
    "ita": 4770,
    "ital": 4771,
    "italia": 4772,
    "itar": 4773,
    "itch": 4774,
    "itches": 4775,
    "ite": 4776,
    "ited": 4777,
    "itely": 4778,
    "ites": 4779,
    "ith": 4780,
    "ithe": 4781,
    "iti": 4782,
    "ities": 4783,
    "iting": 4784,
    "ition": 4785,
    "itions": 4786,
    "itled": 4787,
    "itll": 4788,
    "ito": 4789,
    "its": 4790,
    "itself": 4791,
    "ittt": 4792,
    "ity": 4793,
    "iu": 4794,
    "ium": 4795,
    "ius": 4796,
    "iv": 4797,
    "ive": 4798,
    "ivo": 4799,
    "iw": 4800,
    "ix": 4801,
    "iy": 4802,
    "iyi": 4803,
    "iykyk": 4804,
    "iz": 4805,
    "iza": 4806,
    "izaciones": 4807,
    "ization": 4808,
    "ize": 4809,
    "ized": 4810,
    "izer": 4811,
    "izes": 4812,
    "izing": 4813,
    "j": 4814,
    "ja": 4815,
    "jab": 4816,
    "jack": 4817,
    "jacket": 4818,
    "jackson": 4819,
    "jacksons": 4820,
    "jadi": 4821,
    "jag": 4822,
    "jaguars": 4823,
    "jah": 4824,
    "jai": 4825,
    "jail": 4826,
    "jaja": 4827,
    "jajaja": 4828,
    "jajajaja": 4829,
    "jake": 4830,
    "jal": 4831,
    "jalen": 4832,
    "jam": 4833,
    "james": 4834,
    "jamming": 4835,
    "jams": 4836,
    "jan": 4837,
    "janu": 4838,
    "japan": 4839,
    "jar": 4840,
    "jas": 4841,
    "jason": 4842,
    "jasonnn": 4843,
    "jasons": 4844,
    "jasooon": 4845,
    "jaw": 4846,
    "jay": 4847,
    "jaylen": 4848,
    "jayz": 4849,
    "jazz": 4850,
    "jd": 4851,
    "je": 4852,
    "jealous": 4853,
    "jealousy": 4854,
    "jean": 4855,
    "jeans": 4856,
    "ject": 4857,
    "jed": 4858,
    "jeez": 4859,
    "jeff": 4860,
    "jem": 4861,
    "jen": 4862,
    "jepe": 4863,
    "jer": 4864,
    "jerk": 4865,
    "jerry": 4866,
    "jersey": 4867,
    "jerseys": 4868,
    "jes": 4869,
    "jesus": 4870,
    "jet": 4871,
    "jets": 4872,
    "jeu": 4873,
    "jh": 4874,
    "jhe": 4875,
    "ji": 4876,
    "jig": 4877,
    "jigg": 4878,
    "jiggle": 4879,
    "jiggles": 4880,
    "jim": 4881,
    "jimmy": 4882,
    "jin": 4883,
    "jinx": 4884,
    "jis": 4885,
    "jj": 4886,
    "jk": 4887,
    "jo": 4888,
    "job": 4889,
    "jobs": 4890,
    "jod": 4891,
    "joe": 4892,
    "joel": 4893,
    "jogar": 4894,
    "jogo": 4895,
    "john": 4896,
    "johnny": 4897,
    "johnson": 4898,
    "join": 4899,
    "joke": 4900,
    "joker": 4901,
    "jokes": 4902,
    "joking": 4903,
    "jom": 4904,
    "jon": 4905,
    "jones": 4906,
    "jor": 4907,
    "jordan": 4908,
    "jos": 4909,
    "josh": 4910,
    "jou": 4911,
    "jour": 4912,
    "journey": 4913,
    "jours": 4914,
    "joy": 4915,
    "jr": 4916,
    "js": 4917,
    "jt": 4918,
    "ju": 4919,
    "jud": 4920,
    "judg": 4921,
    "judge": 4922,
    "judged": 4923,
    "judgement": 4924,
    "judges": 4925,
    "jue": 4926,
    "juegazo": 4927,
    "juego": 4928,
    "juegos": 4929,
    "jugar": 4930,
    "jugarlo": 4931,
    "juice": 4932,
    "july": 4933,
    "jump": 4934,
    "jumped": 4935,
    "jumping": 4936,
    "jumps": 4937,
    "jun": 4938,
    "june": 4939,
    "juni": 4940,
    "junk": 4941,
    "junt": 4942,
    "jus": 4943,
    "just": 4944,
    "justice": 4945,
    "justin": 4946,
    "jut": 4947,
    "juta": 4948,
    "k": 4949,
    "ka": 4950,
    "kab": 4951,
    "kaboo": 4952,
    "kad": 4953,
    "kah": 4954,
    "kai": 4955,
    "kal": 4956,
    "kalo": 4957,
    "kam": 4958,
    "kan": 4959,
    "kand": 4960,
    "kans": 4961,
    "kansas": 4962,
    "kanye": 4963,
    "kar": 4964,
    "kare": 4965,
    "kareem": 4966,
    "karen": 4967,
    "karma": 4968,
    "karo": 4969,
    "kas": 4970,
    "kat": 4971,
    "katy": 4972,
    "kaw": 4973,
    "kay": 4974,
    "kc": 4975,
    "kcs": 4976,
    "kd": 4977,
    "kdot": 4978,
    "ke": 4979,
    "ked": 4980,
    "kee": 4981,
    "keen": 4982,
    "keep": 4983,
    "keeper": 4984,
    "keeping": 4985,
    "keeps": 4986,
    "kel": 4987,
    "kelce": 4988,
    "kelces": 4989,
    "kellen": 4990,
    "kelse": 4991,
    "kelsey": 4992,
    "kem": 4993,
    "ken": 4994,
    "kend": 4995,
    "kendick": 4996,
    "kendri": 4997,
    "kendric": 4998,
    "kendrick": 4999,
    "kendricklamar": 5000,
    "kendricks": 5001,
    "kendrik": 5002,
    "kenfolk": 5003,
    "kenny": 5004,
    "kenya": 5005,
    "kept": 5006,
    "ker": 5007,
    "keren": 5008,
    "kermit": 5009,
    "kers": 5010,
    "kes": 5011,
    "kest": 5012,
    "ket": 5013,
    "kevin": 5014,
    "key": 5015,
    "keyboard": 5016,
    "keys": 5017,
    "kg": 5018,
    "kh": 5019,
    "kha": 5020,
    "khalifa": 5021,
    "khat": 5022,
    "khatam": 5023,
    "ki": 5024,
    "kia": 5025,
    "kick": 5026,
    "kicked": 5027,
    "kicker": 5028,
    "kicking": 5029,
    "kickoff": 5030,
    "kicks": 5031,
    "kid": 5032,
    "kida": 5033,
    "kidding": 5034,
    "kids": 5035,
    "kie": 5036,
    "kill": 5037,
    "killed": 5038,
    "killer": 5039,
    "killers": 5040,
    "killing": 5041,
    "kim": 5042,
    "kin": 5043,
    "kind": 5044,
    "kinda": 5045,
    "kinder": 5046,
    "kindly": 5047,
    "king": 5048,
    "kingdom": 5049,
    "kings": 5050,
    "kins": 5051,
    "kira": 5052,
    "kirain": 5053,
    "kis": 5054,
    "kish": 5055,
    "kiss": 5056,
    "kit": 5057,
    "kj": 5058,
    "kk": 5059,
    "kkk": 5060,
    "kl": 5061,
    "kler": 5062,
    "km": 5063,
    "kn": 5064,
    "kne": 5065,
    "knee": 5066,
    "kneel": 5067,
    "knees": 5068,
    "knew": 5069,
    "knight": 5070,
    "kno": 5071,
    "knock": 5072,
    "knocked": 5073,
    "know": 5074,
    "knowing": 5075,
    "knowledge": 5076,
    "known": 5077,
    "knows": 5078,
    "ko": 5079,
    "kobe": 5080,
    "kodak": 5081,
    "kom": 5082,
    "kompa": 5083,
    "kon": 5084,
    "koncept": 5085,
    "konpa": 5086,
    "kor": 5087,
    "korea": 5088,
    "kr": 5089,
    "kra": 5090,
    "ks": 5091,
    "kt": 5092,
    "ku": 5093,
    "kudos": 5094,
    "kun": 5095,
    "kur": 5096,
    "ky": 5097,
    "kya": 5098,
    "kyk": 5099,
    "l": 5100,
    "la": 5101,
    "labe": 5102,
    "lace": 5103,
    "lack": 5104,
    "lad": 5105,
    "ladies": 5106,
    "lado": 5107,
    "lads": 5108,
    "lady": 5109,
    "lag": 5110,
    "lagi": 5111,
    "lagu": 5112,
    "laid": 5113,
    "lake": 5114,
    "lam": 5115,
    "lama": 5116,
    "lamar": 5117,
    "lamars": 5118,
    "lame": 5119,
    "lamest": 5120,
    "lamp": 5121,
    "lamps": 5122,
    "lan": 5123,
    "lana": 5124,
    "lanamento": 5125,
    "lance": 5126,
    "land": 5127,
    "landed": 5128,
    "lang": 5129,
    "langu": 5130,
    "language": 5131,
    "langwe": 5132,
    "lap": 5133,
    "laptop": 5134,
    "lar": 5135,
    "large": 5136,
    "largest": 5137,
    "las": 5138,
    "lash": 5139,
    "last": 5140,
    "lat": 5141,
    "late": 5142,
    "lately": 5143,
    "later": 5144,
    "lateral": 5145,
    "latina": 5146,
    "latino": 5147,
    "latinos": 5148,
    "laugh": 5149,
    "laughed": 5150,
    "laughing": 5151,
    "laughs": 5152,
    "laught": 5153,
    "laughter": 5154,
    "launch": 5155,
    "launched": 5156,
    "law": 5157,
    "lawd": 5158,
    "laws": 5159,
    "lawsuit": 5160,
    "lay": 5161,
    "layered": 5162,
    "layers": 5163,
    "laying": 5164,
    "laz": 5165,
    "lazy": 5166,
    "ld": 5167,
    "le": 5168,
    "lea": 5169,
    "lead": 5170,
    "leader": 5171,
    "leading": 5172,
    "league": 5173,
    "leagues": 5174,
    "leak": 5175,
    "leaked": 5176,
    "leaks": 5177,
    "lean": 5178,
    "learn": 5179,
    "learned": 5180,
    "learning": 5181,
    "learnt": 5182,
    "leas": 5183,
    "least": 5184,
    "leata": 5185,
    "leave": 5186,
    "leaves": 5187,
    "leaving": 5188,
    "lebron": 5189,
    "lect": 5190,
    "led": 5191,
    "ledge": 5192,
    "ledi": 5193,
    "lee": 5194,
    "leee": 5195,
    "leep": 5196,
    "left": 5197,
    "lefty": 5198,
    "leg": 5199,
    "legac": 5200,
    "legacy": 5201,
    "legal": 5202,
    "legally": 5203,
    "legend": 5204,
    "legendary": 5205,
    "legends": 5206,
    "legit": 5207,
    "legs": 5208,
    "leite": 5209,
    "lem": 5210,
    "lemme": 5211,
    "len": 5212,
    "lena": 5213,
    "lend": 5214,
    "leng": 5215,
    "length": 5216,
    "leon": 5217,
    "leonida": 5218,
    "ler": 5219,
    "lers": 5220,
    "les": 5221,
    "lesgooo": 5222,
    "less": 5223,
    "lessly": 5224,
    "lesson": 5225,
    "lest": 5226,
    "lester": 5227,
    "let": 5228,
    "lete": 5229,
    "lets": 5230,
    "letsss": 5231,
    "letter": 5232,
    "letters": 5233,
    "letting": 5234,
    "lev": 5235,
    "leve": 5236,
    "level": 5237,
    "leveled": 5238,
    "levels": 5239,
    "levi": 5240,
    "levy": 5241,
    "ley": 5242,
    "lf": 5243,
    "lfg": 5244,
    "lg": 5245,
    "lgbt": 5246,
    "lgbtq": 5247,
    "li": 5248,
    "liber": 5249,
    "liberal": 5250,
    "liberals": 5251,
    "liberty": 5252,
    "lic": 5253,
    "lical": 5254,
    "lically": 5255,
    "lick": 5256,
    "lie": 5257,
    "lied": 5258,
    "lier": 5259,
    "lies": 5260,
    "lif": 5261,
    "life": 5262,
    "lifelong": 5263,
    "lifes": 5264,
    "lifetime": 5265,
    "lift": 5266,
    "lifting": 5267,
    "light": 5268,
    "lighting": 5269,
    "lights": 5270,
    "lii": 5271,
    "lik": 5272,
    "like": 5273,
    "liked": 5274,
    "likely": 5275,
    "likes": 5276,
    "liking": 5277,
    "lil": 5278,
    "lim": 5279,
    "limit": 5280,
    "limited": 5281,
    "limp": 5282,
    "lin": 5283,
    "lindo": 5284,
    "line": 5285,
    "lineback": 5286,
    "lineman": 5287,
    "linemen": 5288,
    "lines": 5289,
    "ling": 5290,
    "link": 5291,
    "lio": 5292,
    "lion": 5293,
    "lions": 5294,
    "liotta": 5295,
    "lip": 5296,
    "liqu": 5297,
    "list": 5298,
    "listen": 5299,
    "listened": 5300,
    "listening": 5301,
    "lit": 5302,
    "liter": 5303,
    "literal": 5304,
    "literally": 5305,
    "lito": 5306,
    "little": 5307,
    "live": 5308,
    "lived": 5309,
    "lives": 5310,
    "living": 5311,
    "lix": 5312,
    "liye": 5313,
    "liyor": 5314,
    "lju": 5315,
    "ljudi": 5316,
    "lk": 5317,
    "ll": 5318,
    "lla": 5319,
    "llama": 5320,
    "llar": 5321,
    "lle": 5322,
    "lled": 5323,
    "llegue": 5324,
    "llen": 5325,
    "ller": 5326,
    "lling": 5327,
    "lll": 5328,
    "llow": 5329,
    "lls": 5330,
    "lly": 5331,
    "lm": 5332,
    "lma": 5333,
    "lmao": 5334,
    "lmaooo": 5335,
    "lmfa": 5336,
    "lmfao": 5337,
    "lmfaooo": 5338,
    "lo": 5339,
    "load": 5340,
    "loaded": 5341,
    "loads": 5342,
    "loc": 5343,
    "local": 5344,
    "location": 5345,
    "lock": 5346,
    "locked": 5347,
    "locker": 5348,
    "loco": 5349,
    "locura": 5350,
    "log": 5351,
    "logan": 5352,
    "logic": 5353,
    "logical": 5354,
    "logo": 5355,
    "logy": 5356,
    "lol": 5357,
    "lolo": 5358,
    "lololol": 5359,
    "lomb": 5360,
    "lombardi": 5361,
    "lon": 5362,
    "london": 5363,
    "long": 5364,
    "longer": 5365,
    "longest": 5366,
    "loo": 5367,
    "look": 5368,
    "looked": 5369,
    "lookin": 5370,
    "looking": 5371,
    "looks": 5372,
    "looo": 5373,
    "looong": 5374,
    "loop": 5375,
    "looping": 5376,
    "loose": 5377,
    "loosing": 5378,
    "lopsided": 5379,
    "lor": 5380,
    "lord": 5381,
    "los": 5382,
    "lose": 5383,
    "loser": 5384,
    "losers": 5385,
    "loses": 5386,
    "losing": 5387,
    "losion": 5388,
    "loss": 5389,
    "losses": 5390,
    "lost": 5391,
    "lot": 5392,
    "lots": 5393,
    "lottery": 5394,
    "lou": 5395,
    "louco": 5396,
    "loucura": 5397,
    "loud": 5398,
    "louder": 5399,
    "lousy": 5400,
    "love": 5401,
    "loved": 5402,
    "lovely": 5403,
    "lover": 5404,
    "loves": 5405,
    "loving": 5406,
    "low": 5407,
    "lower": 5408,
    "lowkey": 5409,
    "loyal": 5410,
    "ls": 5411,
    "lt": 5412,
    "lti": 5413,
    "lu": 5414,
    "luc": 5415,
    "lucia": 5416,
    "lucias": 5417,
    "luck": 5418,
    "lucky": 5419,
    "luke": 5420,
    "lunch": 5421,
    "lung": 5422,
    "lut": 5423,
    "luther": 5424,
    "luv": 5425,
    "luxury": 5426,
    "lv": 5427,
    "ly": 5428,
    "lying": 5429,
    "lyri": 5430,
    "lyric": 5431,
    "lyrical": 5432,
    "lyricist": 5433,
    "lyrics": 5434,
    "lyte": 5435,
    "m": 5436,
    "m3": 5437,
    "ma": 5438,
    "maa": 5439,
    "maaan": 5440,
    "mac": 5441,
    "mace": 5442,
    "mach": 5443,
    "machine": 5444,
    "mad": 5445,
    "madad": 5446,
    "madden": 5447,
    "made": 5448,
    "madness": 5449,
    "madrid": 5450,
    "mafia": 5451,
    "mag": 5452,
    "magic": 5453,
    "magical": 5454,
    "magn": 5455,
    "magnificent": 5456,
    "magnus": 5457,
    "mah": 5458,
    "maho": 5459,
    "mahol": 5460,
    "maholmes": 5461,
    "mahom": 5462,
    "mahome": 5463,
    "mahomes": 5464,
    "mahomie": 5465,
    "mahommes": 5466,
    "mahomo": 5467,
    "mahoms": 5468,
    "mahone": 5469,
    "mahones": 5470,
    "mai": 5471,
    "mail": 5472,
    "mailata": 5473,
    "main": 5474,
    "mainly": 5475,
    "mainstream": 5476,
    "maintain": 5477,
    "maio": 5478,
    "maior": 5479,
    "mais": 5480,
    "maje": 5481,
    "majestic": 5482,
    "major": 5483,
    "majority": 5484,
    "mak": 5485,
    "make": 5486,
    "maker": 5487,
    "makers": 5488,
    "makes": 5489,
    "makeup": 5490,
    "making": 5491,
    "mal": 5492,
    "malah": 5493,
    "male": 5494,
    "males": 5495,
    "mali": 5496,
    "mall": 5497,
    "mam": 5498,
    "mama": 5499,
    "mamat": 5500,
    "man": 5501,
    "mana": 5502,
    "managed": 5503,
    "management": 5504,
    "manager": 5505,
    "mance": 5506,
    "mand": 5507,
    "mane": 5508,
    "mango": 5509,
    "manhandled": 5510,
    "mani": 5511,
    "manipula": 5512,
    "manipulate": 5513,
    "manipulative": 5514,
    "mankind": 5515,
    "manner": 5516,
    "manning": 5517,
    "mannn": 5518,
    "mano": 5519,
    "mans": 5520,
    "manship": 5521,
    "mansplain": 5522,
    "mansplaining": 5523,
    "many": 5524,
    "map": 5525,
    "maps": 5526,
    "mar": 5527,
    "marav": 5528,
    "maravil": 5529,
    "maravilho": 5530,
    "marca": 5531,
    "marcando": 5532,
    "march": 5533,
    "marching": 5534,
    "margin": 5535,
    "marino": 5536,
    "mark": 5537,
    "marke": 5538,
    "market": 5539,
    "marketing": 5540,
    "marks": 5541,
    "marriage": 5542,
    "married": 5543,
    "marry": 5544,
    "mars": 5545,
    "mart": 5546,
    "martial": 5547,
    "martin": 5548,
    "marvel": 5549,
    "marvelous": 5550,
    "mary": 5551,
    "mas": 5552,
    "masakini": 5553,
    "masi": 5554,
    "mask": 5555,
    "mason": 5556,
    "mass": 5557,
    "massa": 5558,
    "massacre": 5559,
    "masses": 5560,
    "massive": 5561,
    "master": 5562,
    "masterclass": 5563,
    "masterful": 5564,
    "masterpiece": 5565,
    "mat": 5566,
    "matar": 5567,
    "match": 5568,
    "matched": 5569,
    "matches": 5570,
    "matchup": 5571,
    "mate": 5572,
    "mated": 5573,
    "mater": 5574,
    "material": 5575,
    "mates": 5576,
    "matic": 5577,
    "matrix": 5578,
    "matt": 5579,
    "matter": 5580,
    "mattered": 5581,
    "matters": 5582,
    "matthew": 5583,
    "mature": 5584,
    "mau": 5585,
    "maul": 5586,
    "max": 5587,
    "maxim": 5588,
    "may": 5589,
    "maybe": 5590,
    "mayo": 5591,
    "mayor": 5592,
    "maz": 5593,
    "mb": 5594,
    "mber": 5595,
    "mc": 5596,
    "mcdu": 5597,
    "mcduff": 5598,
    "mcduffie": 5599,
    "mcho": 5600,
    "mcholmes": 5601,
    "mchomes": 5602,
    "mcnab": 5603,
    "mcnabb": 5604,
    "md": 5605,
    "me": 5606,
    "me7": 5607,
    "mean": 5608,
    "meaning": 5609,
    "meaningful": 5610,
    "meanings": 5611,
    "means": 5612,
    "meant": 5613,
    "meanwhile": 5614,
    "measure": 5615,
    "meat": 5616,
    "mechan": 5617,
    "mechanics": 5618,
    "med": 5619,
    "medi": 5620,
    "media": 5621,
    "medic": 5622,
    "medicine": 5623,
    "medio": 5624,
    "mediocre": 5625,
    "meee": 5626,
    "meek": 5627,
    "meet": 5628,
    "meeting": 5629,
    "meets": 5630,
    "mega": 5631,
    "meh": 5632,
    "mehani": 5633,
    "meille": 5634,
    "mein": 5635,
    "mejor": 5636,
    "mejores": 5637,
    "mel": 5638,
    "melan": 5639,
    "melanated": 5640,
    "melhor": 5641,
    "melo": 5642,
    "mem": 5643,
    "member": 5644,
    "members": 5645,
    "meme": 5646,
    "memes": 5647,
    "memor": 5648,
    "memorable": 5649,
    "memories": 5650,
    "memory": 5651,
    "men": 5652,
    "menang": 5653,
    "mend": 5654,
    "menos": 5655,
    "ment": 5656,
    "mental": 5657,
    "mentality": 5658,
    "mentally": 5659,
    "mente": 5660,
    "mented": 5661,
    "menti": 5662,
    "mention": 5663,
    "mentioned": 5664,
    "mentioning": 5665,
    "mentions": 5666,
    "ments": 5667,
    "meow": 5668,
    "mer": 5669,
    "mera": 5670,
    "merci": 5671,
    "mercy": 5672,
    "merda": 5673,
    "mere": 5674,
    "merit": 5675,
    "mers": 5676,
    "mes": 5677,
    "mesmer": 5678,
    "mesmerizing": 5679,
    "mesmo": 5680,
    "mess": 5681,
    "message": 5682,
    "messages": 5683,
    "messed": 5684,
    "messi": 5685,
    "messing": 5686,
    "met": 5687,
    "meta": 5688,
    "metal": 5689,
    "mete": 5690,
    "meteor": 5691,
    "meth": 5692,
    "mets": 5693,
    "meu": 5694,
    "meus": 5695,
    "mexican": 5696,
    "mexico": 5697,
    "mez": 5698,
    "mf": 5699,
    "mfs": 5700,
    "mg": 5701,
    "mh": 5702,
    "mi": 5703,
    "miah": 5704,
    "miami": 5705,
    "mic": 5706,
    "micd": 5707,
    "mich": 5708,
    "michael": 5709,
    "michaels": 5710,
    "micheal": 5711,
    "micheals": 5712,
    "michel": 5713,
    "michele": 5714,
    "micro": 5715,
    "microphone": 5716,
    "mid": 5717,
    "middle": 5718,
    "midnight": 5719,
    "mie": 5720,
    "mierda": 5721,
    "might": 5722,
    "mighty": 5723,
    "mike": 5724,
    "mil": 5725,
    "mile": 5726,
    "miles": 5727,
    "milhes": 5728,
    "milion": 5729,
    "military": 5730,
    "milk": 5731,
    "mill": 5732,
    "milli": 5733,
    "million": 5734,
    "millionaire": 5735,
    "millions": 5736,
    "millionth": 5737,
    "millones": 5738,
    "milyon": 5739,
    "mim": 5740,
    "min": 5741,
    "mind": 5742,
    "minds": 5743,
    "mine": 5744,
    "minecraft": 5745,
    "ming": 5746,
    "minha": 5747,
    "mini": 5748,
    "minim": 5749,
    "minimal": 5750,
    "minimum": 5751,
    "minist": 5752,
    "ministro": 5753,
    "mino": 5754,
    "minooor": 5755,
    "minooorrr": 5756,
    "minor": 5757,
    "minorrr": 5758,
    "mins": 5759,
    "minute": 5760,
    "minutes": 5761,
    "minuto": 5762,
    "minutos": 5763,
    "mio": 5764,
    "mir": 5765,
    "mira": 5766,
    "miracle": 5767,
    "mire": 5768,
    "mirror": 5769,
    "mis": 5770,
    "miser": 5771,
    "miserable": 5772,
    "misin": 5773,
    "misleading": 5774,
    "mismo": 5775,
    "misogy": 5776,
    "miss": 5777,
    "missed": 5778,
    "missing": 5779,
    "mission": 5780,
    "missions": 5781,
    "mist": 5782,
    "mistake": 5783,
    "mistaken": 5784,
    "mistakenly": 5785,
    "mistakes": 5786,
    "mister": 5787,
    "mit": 5788,
    "mix": 5789,
    "mixed": 5790,
    "mixing": 5791,
    "miz": 5792,
    "mize": 5793,
    "mj": 5794,
    "mk": 5795,
    "ml": 5796,
    "mleata": 5797,
    "mln": 5798,
    "mm": 5799,
    "mmage": 5800,
    "mmm": 5801,
    "mn": 5802,
    "mo": 5803,
    "moan": 5804,
    "mob": 5805,
    "mobile": 5806,
    "mocking": 5807,
    "mode": 5808,
    "model": 5809,
    "modelo": 5810,
    "models": 5811,
    "moder": 5812,
    "modern": 5813,
    "modo": 5814,
    "moe": 5815,
    "mogao": 5816,
    "mole": 5817,
    "molly": 5818,
    "mom": 5819,
    "momen": 5820,
    "moment": 5821,
    "momento": 5822,
    "moments": 5823,
    "momentum": 5824,
    "momma": 5825,
    "mon": 5826,
    "monday": 5827,
    "monde": 5828,
    "money": 5829,
    "monk": 5830,
    "monster": 5831,
    "mont": 5832,
    "montana": 5833,
    "month": 5834,
    "monthly": 5835,
    "months": 5836,
    "monu": 5837,
    "monumental": 5838,
    "mood": 5839,
    "moon": 5840,
    "moore": 5841,
    "mor": 5842,
    "mora": 5843,
    "moral": 5844,
    "morale": 5845,
    "more": 5846,
    "morgan": 5847,
    "morning": 5848,
    "moron": 5849,
    "morrer": 5850,
    "mortal": 5851,
    "mos": 5852,
    "moss": 5853,
    "most": 5854,
    "mostly": 5855,
    "mot": 5856,
    "mother": 5857,
    "motion": 5858,
    "motiv": 5859,
    "motivated": 5860,
    "motivation": 5861,
    "mou": 5862,
    "moun": 5863,
    "mount": 5864,
    "mouth": 5865,
    "move": 5866,
    "moved": 5867,
    "movement": 5868,
    "movements": 5869,
    "moves": 5870,
    "movie": 5871,
    "movies": 5872,
    "moving": 5873,
    "mp": 5874,
    "mr": 5875,
    "mrs": 5876,
    "ms": 5877,
    "msica": 5878,
    "mt": 5879,
    "mu": 5880,
    "much": 5881,
    "mucho": 5882,
    "muito": 5883,
    "mujhe": 5884,
    "mul": 5885,
    "mule": 5886,
    "multi": 5887,
    "multiplayer": 5888,
    "multiple": 5889,
    "mum": 5890,
    "mun": 5891,
    "mundial": 5892,
    "mundo": 5893,
    "mur": 5894,
    "murals": 5895,
    "murder": 5896,
    "murdered": 5897,
    "mus": 5898,
    "muscle": 5899,
    "muscles": 5900,
    "muscular": 5901,
    "muse": 5902,
    "music": 5903,
    "musica": 5904,
    "musical": 5905,
    "musk": 5906,
    "muss": 5907,
    "mussst": 5908,
    "must": 5909,
    "mustaa": 5910,
    "mustaaard": 5911,
    "mustaaarddd": 5912,
    "mustaaarrrd": 5913,
    "mustaaarrrddd": 5914,
    "mustard": 5915,
    "mustarddd": 5916,
    "mustarrrd": 5917,
    "mustarrrddd": 5918,
    "muster": 5919,
    "mustve": 5920,
    "mut": 5921,
    "mute": 5922,
    "muuuss": 5923,
    "muuussst": 5924,
    "muuust": 5925,
    "muuustaaard": 5926,
    "muy": 5927,
    "mv": 5928,
    "mvp": 5929,
    "mvps": 5930,
    "mx": 5931,
    "my": 5932,
    "myles": 5933,
    "myself": 5934,
    "myster": 5935,
    "mysterious": 5936,
    "n": 5937,
    "na": 5938,
    "naaa": 5939,
    "nab": 5940,
    "nach": 5941,
    "nad": 5942,
    "nada": 5943,
    "nag": 5944,
    "nagy": 5945,
    "nah": 5946,
    "nahh": 5947,
    "nahhh": 5948,
    "nahi": 5949,
    "nail": 5950,
    "nailed": 5951,
    "naked": 5952,
    "nal": 5953,
    "nam": 5954,
    "name": 5955,
    "named": 5956,
    "nament": 5957,
    "names": 5958,
    "nan": 5959,
    "nao": 5960,
    "nar": 5961,
    "narciss": 5962,
    "narcissistic": 5963,
    "narrat": 5964,
    "narration": 5965,
    "narrative": 5966,
    "narratives": 5967,
    "nas": 5968,
    "nasty": 5969,
    "nat": 5970,
    "nate": 5971,
    "nation": 5972,
    "national": 5973,
    "nations": 5974,
    "native": 5975,
    "natur": 5976,
    "natural": 5977,
    "nature": 5978,
    "naught": 5979,
    "naw": 5980,
    "nay": 5981,
    "nba": 5982,
    "nc": 5983,
    "ncia": 5984,
    "nd": 5985,
    "ne": 5986,
    "near": 5987,
    "nearly": 5988,
    "neat": 5989,
    "necesit": 5990,
    "necesito": 5991,
    "necessarily": 5992,
    "necessary": 5993,
    "neck": 5994,
    "necklace": 5995,
    "ned": 5996,
    "need": 5997,
    "needed": 5998,
    "needs": 5999,
    "neg": 6000,
    "negative": 6001,
    "negoti": 6002,
    "nei": 6003,
    "neigh": 6004,
    "neighbor": 6005,
    "neither": 6006,
    "nel": 6007,
    "nem": 6008,
    "neon": 6009,
    "ner": 6010,
    "nerds": 6011,
    "ners": 6012,
    "nervous": 6013,
    "nes": 6014,
    "ness": 6015,
    "nesse": 6016,
    "net": 6017,
    "neta": 6018,
    "netflix": 6019,
    "neut": 6020,
    "neutral": 6021,
    "neutralize": 6022,
    "never": 6023,
    "new": 6024,
    "newbie": 6025,
    "newest": 6026,
    "news": 6027,
    "next": 6028,
    "ney": 6029,
    "nfc": 6030,
    "nfl": 6031,
    "ng": 6032,
    "ngl": 6033,
    "nh": 6034,
    "nhl": 6035,
    "ni": 6036,
    "nia": 6037,
    "nic": 6038,
    "nice": 6039,
    "nicely": 6040,
    "nichol": 6041,
    "nicht": 6042,
    "nick": 6043,
    "nicki": 6044,
    "nico": 6045,
    "nie": 6046,
    "niest": 6047,
    "nig": 6048,
    "night": 6049,
    "nightma": 6050,
    "nightmare": 6051,
    "nights": 6052,
    "nih": 6053,
    "niko": 6054,
    "nin": 6055,
    "nine": 6056,
    "niners": 6057,
    "ning": 6058,
    "nintendo": 6059,
    "nip": 6060,
    "nis": 6061,
    "nit": 6062,
    "nite": 6063,
    "nn": 6064,
    "nnn": 6065,
    "no": 6066,
    "nobody": 6067,
    "noch": 6068,
    "nod": 6069,
    "noise": 6070,
    "nokia": 6071,
    "nold": 6072,
    "nolo": 6073,
    "nom": 6074,
    "non": 6075,
    "none": 6076,
    "nonetheless": 6077,
    "nonsense": 6078,
    "noo": 6079,
    "noob": 6080,
    "noon": 6081,
    "noone": 6082,
    "nooo": 6083,
    "nope": 6084,
    "nor": 6085,
    "norm": 6086,
    "normal": 6087,
    "normally": 6088,
    "north": 6089,
    "nos": 6090,
    "nose": 6091,
    "nosotros": 6092,
    "nostalgia": 6093,
    "nostalgic": 6094,
    "not": 6095,
    "notch": 6096,
    "note": 6097,
    "notes": 6098,
    "nothing": 6099,
    "noti": 6100,
    "notic": 6101,
    "notice": 6102,
    "noticed": 6103,
    "noticing": 6104,
    "notific": 6105,
    "notlike": 6106,
    "notre": 6107,
    "nou": 6108,
    "nous": 6109,
    "novice": 6110,
    "novo": 6111,
    "now": 6112,
    "nowadays": 6113,
    "nowhere": 6114,
    "nox": 6115,
    "npc": 6116,
    "nr": 6117,
    "ns": 6118,
    "nt": 6119,
    "nte": 6120,
    "nu": 6121,
    "nuclear": 6122,
    "nudity": 6123,
    "nue": 6124,
    "nueva": 6125,
    "num": 6126,
    "numb": 6127,
    "number": 6128,
    "numbers": 6129,
    "nun": 6130,
    "nunca": 6131,
    "nut": 6132,
    "nuts": 6133,
    "nv": 6134,
    "nvidia": 6135,
    "nvm": 6136,
    "ny": 6137,
    "nya": 6138,
    "nyc": 6139,
    "nz": 6140,
    "o": 6141,
    "oak": 6142,
    "oakland": 6143,
    "oat": 6144,
    "ob": 6145,
    "obey": 6146,
    "obje": 6147,
    "objecti": 6148,
    "objective": 6149,
    "objectives": 6150,
    "objetivo": 6151,
    "obli": 6152,
    "obliter": 6153,
    "obliterated": 6154,
    "oblivion": 6155,
    "obnoxious": 6156,
    "obra": 6157,
    "observ": 6158,
    "obsess": 6159,
    "obsessed": 6160,
    "obvious": 6161,
    "obviously": 6162,
    "oc": 6163,
    "occas": 6164,
    "occur": 6165,
    "occurred": 6166,
    "oce": 6167,
    "ocean": 6168,
    "och": 6169,
    "octo": 6170,
    "october": 6171,
    "od": 6172,
    "odd": 6173,
    "odds": 6174,
    "ode": 6175,
    "of": 6176,
    "ofc": 6177,
    "off": 6178,
    "offen": 6179,
    "offence": 6180,
    "offense": 6181,
    "offensive": 6182,
    "offensively": 6183,
    "offer": 6184,
    "offf": 6185,
    "office": 6186,
    "officer": 6187,
    "offici": 6188,
    "official": 6189,
    "officially": 6190,
    "officials": 6191,
    "officiating": 6192,
    "offs": 6193,
    "offseason": 6194,
    "offsides": 6195,
    "oft": 6196,
    "often": 6197,
    "og": 6198,
    "ogs": 6199,
    "oh": 6200,
    "ohh": 6201,
    "ohhh": 6202,
    "ohi": 6203,
    "ohio": 6204,
    "oi": 6205,
    "oil": 6206,
    "oine": 6207,
    "oir": 6208,
    "ojal": 6209,
    "ok": 6210,
    "okay": 6211,
    "oken": 6212,
    "oko": 6213,
    "ol": 6214,
    "ola": 6215,
    "olaochta": 6216,
    "old": 6217,
    "older": 6218,
    "ole": 6219,
    "olin": 6220,
    "oline": 6221,
    "oll": 6222,
    "olmaz": 6223,
    "olo": 6224,
    "oly": 6225,
    "olymp": 6226,
    "olympic": 6227,
    "olympics": 6228,
    "om": 6229,
    "ome": 6230,
    "omfg": 6231,
    "omg": 6232,
    "omggg": 6233,
    "oms": 6234,
    "omy": 6235,
    "on": 6236,
    "ona": 6237,
    "once": 6238,
    "ond": 6239,
    "one": 6240,
    "oned": 6241,
    "ones": 6242,
    "oney": 6243,
    "ong": 6244,
    "onic": 6245,
    "oning": 6246,
    "onk": 6247,
    "online": 6248,
    "only": 6249,
    "ons": 6250,
    "ont": 6251,
    "onto": 6252,
    "onwards": 6253,
    "ony": 6254,
    "oo": 6255,
    "ool": 6256,
    "oon": 6257,
    "ooo": 6258,
    "oooh": 6259,
    "ooohhh": 6260,
    "ooon": 6261,
    "ooor": 6262,
    "oops": 6263,
    "ooski": 6264,
    "op": 6265,
    "open": 6266,
    "opened": 6267,
    "opening": 6268,
    "openings": 6269,
    "opens": 6270,
    "oper": 6271,
    "opi": 6272,
    "opin": 6273,
    "opinion": 6274,
    "opinions": 6275,
    "opp": 6276,
    "oppo": 6277,
    "opponent": 6278,
    "opponents": 6279,
    "opportunities": 6280,
    "opportunity": 6281,
    "opposing": 6282,
    "opposite": 6283,
    "oppress": 6284,
    "oppressor": 6285,
    "opps": 6286,
    "ops": 6287,
    "opted": 6288,
    "opti": 6289,
    "option": 6290,
    "options": 6291,
    "or": 6292,
    "ora": 6293,
    "orable": 6294,
    "orada": 6295,
    "orang": 6296,
    "orange": 6297,
    "ord": 6298,
    "order": 6299,
    "ordered": 6300,
    "ordering": 6301,
    "ordin": 6302,
    "ordinary": 6303,
    "ore": 6304,
    "org": 6305,
    "organ": 6306,
    "organization": 6307,
    "organized": 6308,
    "orgul": 6309,
    "orgullo": 6310,
    "ori": 6311,
    "ories": 6312,
    "orig": 6313,
    "origin": 6314,
    "original": 6315,
    "originally": 6316,
    "oring": 6317,
    "orle": 6318,
    "orleans": 6319,
    "orrr": 6320,
    "ors": 6321,
    "ort": 6322,
    "orts": 6323,
    "ory": 6324,
    "os": 6325,
    "osc": 6326,
    "oscar": 6327,
    "ose": 6328,
    "oso": 6329,
    "ost": 6330,
    "ot": 6331,
    "ota": 6332,
    "ote": 6333,
    "oth": 6334,
    "other": 6335,
    "others": 6336,
    "otherwise": 6337,
    "otic": 6338,
    "otra": 6339,
    "otro": 6340,
    "otros": 6341,
    "ots": 6342,
    "ott": 6343,
    "ou": 6344,
    "ouch": 6345,
    "oud": 6346,
    "ough": 6347,
    "ought": 6348,
    "ould": 6349,
    "oun": 6350,
    "ounce": 6351,
    "ound": 6352,
    "ount": 6353,
    "our": 6354,
    "ours": 6355,
    "ourselves": 6356,
    "ous": 6357,
    "ouse": 6358,
    "ously": 6359,
    "out": 6360,
    "outcome": 6361,
    "outcomes": 6362,
    "outfit": 6363,
    "outplayed": 6364,
    "outro": 6365,
    "outs": 6366,
    "outside": 6367,
    "outstanding": 6368,
    "outta": 6369,
    "ouuu": 6370,
    "ov": 6371,
    "over": 6372,
    "overall": 6373,
    "overcome": 6374,
    "overconfidence": 6375,
    "overconfident": 6376,
    "overhyped": 6377,
    "overlay": 6378,
    "overly": 6379,
    "overrated": 6380,
    "overs": 6381,
    "overwhelmed": 6382,
    "overwhelming": 6383,
    "ovhoes": 6384,
    "ovo": 6385,
    "ow": 6386,
    "owe": 6387,
    "owed": 6388,
    "own": 6389,
    "owned": 6390,
    "owner": 6391,
    "owners": 6392,
    "owning": 6393,
    "ows": 6394,
    "oy": 6395,
    "oynay": 6396,
    "oyun": 6397,
    "oyunu": 6398,
    "oz": 6399,
    "p": 6400,
    "pa": 6401,
    "pable": 6402,
    "pac": 6403,
    "pace": 6404,
    "pacheco": 6405,
    "pack": 6406,
    "package": 6407,
    "packed": 6408,
    "packers": 6409,
    "pad": 6410,
    "padding": 6411,
    "pag": 6412,
    "page": 6413,
    "pai": 6414,
    "paid": 6415,
    "pain": 6416,
    "painful": 6417,
    "paint": 6418,
    "pair": 6419,
    "pak": 6420,
    "pakistan": 6421,
    "pal": 6422,
    "palest": 6423,
    "palestin": 6424,
    "palestine": 6425,
    "palestinian": 6426,
    "pam": 6427,
    "pan": 6428,
    "panam": 6429,
    "panama": 6430,
    "pand": 6431,
    "pandemic": 6432,
    "panic": 6433,
    "pantesan": 6434,
    "panther": 6435,
    "panthers": 6436,
    "pants": 6437,
    "paper": 6438,
    "par": 6439,
    "para": 6440,
    "parabns": 6441,
    "parade": 6442,
    "paralle": 6443,
    "pare": 6444,
    "parec": 6445,
    "parece": 6446,
    "parent": 6447,
    "parents": 6448,
    "park": 6449,
    "part": 6450,
    "parte": 6451,
    "parti": 6452,
    "partic": 6453,
    "particip": 6454,
    "particular": 6455,
    "particularly": 6456,
    "partido": 6457,
    "partner": 6458,
    "partnership": 6459,
    "parts": 6460,
    "party": 6461,
    "pas": 6462,
    "pass": 6463,
    "passe": 6464,
    "passed": 6465,
    "passer": 6466,
    "passes": 6467,
    "passing": 6468,
    "passion": 6469,
    "passionate": 6470,
    "past": 6471,
    "pasti": 6472,
    "pat": 6473,
    "patch": 6474,
    "path": 6475,
    "pathetic": 6476,
    "pathy": 6477,
    "pati": 6478,
    "patience": 6479,
    "patient": 6480,
    "patri": 6481,
    "patricia": 6482,
    "patrick": 6483,
    "patriots": 6484,
    "pats": 6485,
    "patty": 6486,
    "paul": 6487,
    "pause": 6488,
    "paused": 6489,
    "pawn": 6490,
    "pawns": 6491,
    "pay": 6492,
    "payback": 6493,
    "payed": 6494,
    "paying": 6495,
    "payment": 6496,
    "pc": 6497,
    "pcion": 6498,
    "pcs": 6499,
    "pd": 6500,
    "pdf": 6501,
    "pe": 6502,
    "peace": 6503,
    "peaceful": 6504,
    "peacefully": 6505,
    "peak": 6506,
    "peakaboo": 6507,
    "peat": 6508,
    "peating": 6509,
    "pect": 6510,
    "pects": 6511,
    "ped": 6512,
    "pedrada": 6513,
    "pee": 6514,
    "peek": 6515,
    "peekaboo": 6516,
    "peekabooo": 6517,
    "peep": 6518,
    "pel": 6519,
    "pela": 6520,
    "pelcula": 6521,
    "pelo": 6522,
    "pen": 6523,
    "pena": 6524,
    "penal": 6525,
    "penalties": 6526,
    "penalty": 6527,
    "pend": 6528,
    "penet": 6529,
    "pennsylvania": 6530,
    "pensa": 6531,
    "peo": 6532,
    "people": 6533,
    "peoples": 6534,
    "peor": 6535,
    "pep": 6536,
    "pepsi": 6537,
    "per": 6538,
    "perc": 6539,
    "perce": 6540,
    "percent": 6541,
    "perfe": 6542,
    "perfect": 6543,
    "perfection": 6544,
    "perfectly": 6545,
    "perfo": 6546,
    "perfomance": 6547,
    "perfor": 6548,
    "perform": 6549,
    "performance": 6550,
    "performances": 6551,
    "performed": 6552,
    "performer": 6553,
    "performers": 6554,
    "performing": 6555,
    "performs": 6556,
    "perhaps": 6557,
    "peri": 6558,
    "period": 6559,
    "perish": 6560,
    "pero": 6561,
    "perro": 6562,
    "perry": 6563,
    "pers": 6564,
    "persi": 6565,
    "persian": 6566,
    "person": 6567,
    "persona": 6568,
    "personal": 6569,
    "personality": 6570,
    "personally": 6571,
    "perspective": 6572,
    "pes": 6573,
    "pesso": 6574,
    "pet": 6575,
    "pettiness": 6576,
    "petty": 6577,
    "peyton": 6578,
    "pg": 6579,
    "pgl": 6580,
    "pglang": 6581,
    "ph": 6582,
    "phan": 6583,
    "phantom": 6584,
    "phe": 6585,
    "phenomen": 6586,
    "phenomenal": 6587,
    "phenomenon": 6588,
    "phew": 6589,
    "phi": 6590,
    "phia": 6591,
    "phil": 6592,
    "phila": 6593,
    "philadelphia": 6594,
    "phili": 6595,
    "philipp": 6596,
    "philippines": 6597,
    "phill": 6598,
    "phillies": 6599,
    "philly": 6600,
    "phillys": 6601,
    "phils": 6602,
    "phis": 6603,
    "pho": 6604,
    "phone": 6605,
    "phones": 6606,
    "photo": 6607,
    "phrase": 6608,
    "phy": 6609,
    "phys": 6610,
    "physic": 6611,
    "physical": 6612,
    "physically": 6613,
    "physics": 6614,
    "pi": 6615,
    "pia": 6616,
    "pic": 6617,
    "pick": 6618,
    "picked": 6619,
    "picket": 6620,
    "pickett": 6621,
    "picking": 6622,
    "picks": 6623,
    "pickup": 6624,
    "pico": 6625,
    "picture": 6626,
    "pie": 6627,
    "piece": 6628,
    "pieces": 6629,
    "pig": 6630,
    "pil": 6631,
    "pill": 6632,
    "pin": 6633,
    "ping": 6634,
    "pink": 6635,
    "pinned": 6636,
    "pint": 6637,
    "pir": 6638,
    "pire": 6639,
    "pis": 6640,
    "piss": 6641,
    "pissed": 6642,
    "pit": 6643,
    "pitch": 6644,
    "pitiful": 6645,
    "pittsburgh": 6646,
    "pity": 6647,
    "pix": 6648,
    "pixel": 6649,
    "pizza": 6650,
    "pl": 6651,
    "plac": 6652,
    "place": 6653,
    "placed": 6654,
    "places": 6655,
    "plain": 6656,
    "plan": 6657,
    "plane": 6658,
    "planet": 6659,
    "planned": 6660,
    "planning": 6661,
    "plans": 6662,
    "plant": 6663,
    "plat": 6664,
    "plate": 6665,
    "platform": 6666,
    "platforms": 6667,
    "play": 6668,
    "playable": 6669,
    "playback": 6670,
    "playbook": 6671,
    "played": 6672,
    "player": 6673,
    "players": 6674,
    "playin": 6675,
    "playing": 6676,
    "playlist": 6677,
    "playoff": 6678,
    "playoffs": 6679,
    "plays": 6680,
    "playstation": 6681,
    "ple": 6682,
    "pleas": 6683,
    "pleasant": 6684,
    "please": 6685,
    "pleased": 6686,
    "pleaseee": 6687,
    "pleasing": 6688,
    "pleasure": 6689,
    "plenty": 6690,
    "pler": 6691,
    "pless": 6692,
    "plis": 6693,
    "plo": 6694,
    "plot": 6695,
    "ployed": 6696,
    "pls": 6697,
    "plsss": 6698,
    "plug": 6699,
    "plus": 6700,
    "ply": 6701,
    "plz": 6702,
    "pm": 6703,
    "pn": 6704,
    "po": 6705,
    "pocket": 6706,
    "poco": 6707,
    "pod": 6708,
    "podcast": 6709,
    "pode": 6710,
    "poder": 6711,
    "podr": 6712,
    "pods": 6713,
    "poe": 6714,
    "poet": 6715,
    "poetic": 6716,
    "poetry": 6717,
    "poha": 6718,
    "point": 6719,
    "pointed": 6720,
    "pointer": 6721,
    "pointing": 6722,
    "points": 6723,
    "pois": 6724,
    "poised": 6725,
    "poison": 6726,
    "pok": 6727,
    "poker": 6728,
    "pol": 6729,
    "pole": 6730,
    "poles": 6731,
    "poli": 6732,
    "police": 6733,
    "polished": 6734,
    "polit": 6735,
    "polite": 6736,
    "political": 6737,
    "politically": 6738,
    "politics": 6739,
    "pon": 6740,
    "pone": 6741,
    "poo": 6742,
    "pool": 6743,
    "pools": 6744,
    "poor": 6745,
    "poorly": 6746,
    "pop": 6747,
    "pope": 6748,
    "popped": 6749,
    "popping": 6750,
    "pops": 6751,
    "popul": 6752,
    "popular": 6753,
    "population": 6754,
    "por": 6755,
    "porn": 6756,
    "porno": 6757,
    "pornographic": 6758,
    "pornography": 6759,
    "porque": 6760,
    "port": 6761,
    "portal": 6762,
    "portfolio": 6763,
    "portu": 6764,
    "portugu": 6765,
    "portuguese": 6766,
    "portugus": 6767,
    "pos": 6768,
    "pose": 6769,
    "posit": 6770,
    "posite": 6771,
    "position": 6772,
    "positional": 6773,
    "positions": 6774,
    "positive": 6775,
    "possession": 6776,
    "possi": 6777,
    "possibil": 6778,
    "possibilities": 6779,
    "possible": 6780,
    "possibly": 6781,
    "post": 6782,
    "posted": 6783,
    "poster": 6784,
    "posting": 6785,
    "postpon": 6786,
    "postpone": 6787,
    "postponed": 6788,
    "posts": 6789,
    "postseason": 6790,
    "pot": 6791,
    "potential": 6792,
    "pound": 6793,
    "pour": 6794,
    "pov": 6795,
    "pow": 6796,
    "power": 6797,
    "powered": 6798,
    "powerful": 6799,
    "powers": 6800,
    "pp": 6801,
    "pped": 6802,
    "pping": 6803,
    "ppl": 6804,
    "ppp": 6805,
    "ppy": 6806,
    "pq": 6807,
    "pqp": 6808,
    "pr": 6809,
    "pra": 6810,
    "prac": 6811,
    "practic": 6812,
    "practice": 6813,
    "praise": 6814,
    "pray": 6815,
    "praying": 6816,
    "pre": 6817,
    "preach": 6818,
    "precis": 6819,
    "precision": 6820,
    "preciso": 6821,
    "pred": 6822,
    "predic": 6823,
    "predict": 6824,
    "predictable": 6825,
    "predicted": 6826,
    "prediction": 6827,
    "prefer": 6828,
    "prefor": 6829,
    "preform": 6830,
    "preformance": 6831,
    "pregn": 6832,
    "pregnant": 6833,
    "pregunt": 6834,
    "pregunta": 6835,
    "premi": 6836,
    "premier": 6837,
    "premium": 6838,
    "prend": 6839,
    "preorder": 6840,
    "prep": 6841,
    "prepar": 6842,
    "preparation": 6843,
    "prepared": 6844,
    "preparing": 6845,
    "pres": 6846,
    "presale": 6847,
    "presena": 6848,
    "presence": 6849,
    "present": 6850,
    "presentacin": 6851,
    "presentation": 6852,
    "presents": 6853,
    "presid": 6854,
    "president": 6855,
    "press": 6856,
    "pressing": 6857,
    "pressure": 6858,
    "pressured": 6859,
    "pret": 6860,
    "pretend": 6861,
    "pretending": 6862,
    "pretty": 6863,
    "prevent": 6864,
    "preview": 6865,
    "previous": 6866,
    "pri": 6867,
    "price": 6868,
    "priceless": 6869,
    "prick": 6870,
    "pride": 6871,
    "prime": 6872,
    "primeiro": 6873,
    "primer": 6874,
    "prin": 6875,
    "prince": 6876,
    "princi": 6877,
    "principal": 6878,
    "print": 6879,
    "prior": 6880,
    "prison": 6881,
    "privi": 6882,
    "privilege": 6883,
    "prize": 6884,
    "pro": 6885,
    "prob": 6886,
    "proba": 6887,
    "probably": 6888,
    "proble": 6889,
    "problem": 6890,
    "problems": 6891,
    "probo": 6892,
    "proced": 6893,
    "proceed": 6894,
    "process": 6895,
    "produ": 6896,
    "produced": 6897,
    "producer": 6898,
    "producers": 6899,
    "product": 6900,
    "production": 6901,
    "productions": 6902,
    "productivity": 6903,
    "prof": 6904,
    "profess": 6905,
    "professional": 6906,
    "profile": 6907,
    "profit": 6908,
    "profits": 6909,
    "program": 6910,
    "progress": 6911,
    "proje": 6912,
    "project": 6913,
    "projects": 6914,
    "prolly": 6915,
    "prom": 6916,
    "promise": 6917,
    "promised": 6918,
    "promot": 6919,
    "promoting": 6920,
    "pron": 6921,
    "prone": 6922,
    "pronoun": 6923,
    "proof": 6924,
    "prop": 6925,
    "proper": 6926,
    "properly": 6927,
    "properties": 6928,
    "property": 6929,
    "prophe": 6930,
    "prophecy": 6931,
    "prophet": 6932,
    "prophetic": 6933,
    "propo": 6934,
    "proposal": 6935,
    "propose": 6936,
    "props": 6937,
    "prostit": 6938,
    "prot": 6939,
    "protagon": 6940,
    "protagonist": 6941,
    "protagonista": 6942,
    "protagonists": 6943,
    "prote": 6944,
    "protect": 6945,
    "protected": 6946,
    "protecting": 6947,
    "protection": 6948,
    "protein": 6949,
    "protest": 6950,
    "protester": 6951,
    "proud": 6952,
    "prout": 6953,
    "prove": 6954,
    "proved": 6955,
    "proven": 6956,
    "proves": 6957,
    "provide": 6958,
    "proving": 6959,
    "prx": 6960,
    "prximo": 6961,
    "ps": 6962,
    "ps2": 6963,
    "ps4": 6964,
    "ps5": 6965,
    "ps6": 6966,
    "psy": 6967,
    "psycho": 6968,
    "psychological": 6969,
    "psychology": 6970,
    "pt": 6971,
    "pted": 6972,
    "pting": 6973,
    "ption": 6974,
    "pto": 6975,
    "pts": 6976,
    "pty": 6977,
    "pu": 6978,
    "pub": 6979,
    "publ": 6980,
    "publi": 6981,
    "public": 6982,
    "pudim": 6983,
    "pued": 6984,
    "puede": 6985,
    "puedo": 6986,
    "puis": 6987,
    "pul": 6988,
    "pulitzer": 6989,
    "pull": 6990,
    "pulled": 6991,
    "pulling": 6992,
    "pulls": 6993,
    "pum": 6994,
    "pump": 6995,
    "pumped": 6996,
    "pun": 6997,
    "punch": 6998,
    "punched": 6999,
    "punching": 7000,
    "punk": 7001,
    "punt": 7002,
    "pup": 7003,
    "puppy": 7004,
    "pur": 7005,
    "purchase": 7006,
    "purdy": 7007,
    "pure": 7008,
    "puro": 7009,
    "purple": 7010,
    "purpose": 7011,
    "purposely": 7012,
    "pus": 7013,
    "push": 7014,
    "pushed": 7015,
    "pushing": 7016,
    "put": 7017,
    "putin": 7018,
    "puts": 7019,
    "putting": 7020,
    "py": 7021,
    "q": 7022,
    "qb": 7023,
    "qbs": 7024,
    "qg": 7025,
    "qtr": 7026,
    "qu": 7027,
    "qua": 7028,
    "quad": 7029,
    "qual": 7030,
    "quality": 7031,
    "quan": 7032,
    "quando": 7033,
    "quant": 7034,
    "quanto": 7035,
    "quar": 7036,
    "quarter": 7037,
    "quarterback": 7038,
    "quarterbacks": 7039,
    "quarters": 7040,
    "quase": 7041,
    "que": 7042,
    "qued": 7043,
    "quee": 7044,
    "queefs": 7045,
    "queen": 7046,
    "queens": 7047,
    "quel": 7048,
    "quem": 7049,
    "quer": 7050,
    "quera": 7051,
    "quest": 7052,
    "question": 7053,
    "questionable": 7054,
    "questions": 7055,
    "questo": 7056,
    "quette": 7057,
    "qui": 7058,
    "quick": 7059,
    "quicker": 7060,
    "quickly": 7061,
    "quie": 7062,
    "quien": 7063,
    "quiero": 7064,
    "quiet": 7065,
    "quis": 7066,
    "quit": 7067,
    "quite": 7068,
    "quoi": 7069,
    "quot": 7070,
    "quote": 7071,
    "qx": 7072,
    "r": 7073,
    "ra": 7074,
    "rac": 7075,
    "race": 7076,
    "racism": 7077,
    "racist": 7078,
    "rad": 7079,
    "rada": 7080,
    "radbrad": 7081,
    "radio": 7082,
    "rado": 7083,
    "rag": 7084,
    "rage": 7085,
    "rah": 7086,
    "rai": 7087,
    "raid": 7088,
    "raider": 7089,
    "raiders": 7090,
    "rain": 7091,
    "rainbow": 7092,
    "raise": 7093,
    "raised": 7094,
    "raising": 7095,
    "ral": 7096,
    "rally": 7097,
    "ram": 7098,
    "rame": 7099,
    "rams": 7100,
    "ran": 7101,
    "rand": 7102,
    "randers": 7103,
    "random": 7104,
    "randomly": 7105,
    "rank": 7106,
    "ranked": 7107,
    "rap": 7108,
    "rap/": 7109,
    "rappers": 7110,
    "raps": 7111,
    "rar": 7112,
    "rare": 7113,
    "rarely": 7114,
    "ras": 7115,
    "rass": 7116,
    "rat": 7117,
    "rate": 7118,
    "rated": 7119,
    "rates": 7120,
    "rather": 7121,
    "rating": 7122,
    "ratings": 7123,
    "ration": 7124,
    "rattled": 7125,
    "ravens": 7126,
    "raw": 7127,
    "ray": 7128,
    "raz": 7129,
    "rb": 7130,
    "rbs": 7131,
    "rc": 7132,
    "rck": 7133,
    "rckstar": 7134,
    "rckstargames": 7135,
    "rd": 7136,
    "rd2": 7137,
    "re": 7138,
    "rea": 7139,
    "reach": 7140,
    "reached": 7141,
    "reaches": 7142,
    "reaching": 7143,
    "react": 7144,
    "reaction": 7145,
    "reactions": 7146,
    "read": 7147,
    "reading": 7148,
    "reads": 7149,
    "ready": 7150,
    "reais": 7151,
    "real": 7152,
    "realease": 7153,
    "realese": 7154,
    "realise": 7155,
    "realised": 7156,
    "realism": 7157,
    "realista": 7158,
    "realistic": 7159,
    "reality": 7160,
    "realize": 7161,
    "realized": 7162,
    "realizes": 7163,
    "realizing": 7164,
    "really": 7165,
    "realy": 7166,
    "reason": 7167,
    "reasons": 7168,
    "rec": 7169,
    "recall": 7170,
    "recap": 7171,
    "rece": 7172,
    "recei": 7173,
    "received": 7174,
    "receiver": 7175,
    "receivers": 7176,
    "receiving": 7177,
    "recent": 7178,
    "recently": 7179,
    "reci": 7180,
    "recie": 7181,
    "recievers": 7182,
    "recipe": 7183,
    "reck": 7184,
    "reckless": 7185,
    "reckon": 7186,
    "reco": 7187,
    "recogn": 7188,
    "recogni": 7189,
    "recognition": 7190,
    "recognize": 7191,
    "recognized": 7192,
    "recommend": 7193,
    "recommended": 7194,
    "recor": 7195,
    "record": 7196,
    "recorded": 7197,
    "recording": 7198,
    "records": 7199,
    "recover": 7200,
    "recovering": 7201,
    "recru": 7202,
    "rect": 7203,
    "red": 7204,
    "redemption": 7205,
    "redi": 7206,
    "reds": 7207,
    "redskins": 7208,
    "redu": 7209,
    "ree": 7210,
    "reed": 7211,
    "reee": 7212,
    "reel": 7213,
    "reels": 7214,
    "ref": 7215,
    "refer": 7216,
    "refere": 7217,
    "referee": 7218,
    "referees": 7219,
    "reference": 7220,
    "references": 7221,
    "referencia": 7222,
    "reffs": 7223,
    "refle": 7224,
    "reflecting": 7225,
    "reflection": 7226,
    "refre": 7227,
    "refresh": 7228,
    "refreshing": 7229,
    "refs": 7230,
    "refuse": 7231,
    "refused": 7232,
    "reg": 7233,
    "regard": 7234,
    "regarding": 7235,
    "regardless": 7236,
    "regards": 7237,
    "reginald": 7238,
    "regre": 7239,
    "regret": 7240,
    "regular": 7241,
    "regularly": 7242,
    "reid": 7243,
    "reign": 7244,
    "reincarn": 7245,
    "reincarnated": 7246,
    "rel": 7247,
    "rela": 7248,
    "relatable": 7249,
    "relate": 7250,
    "related": 7251,
    "relation": 7252,
    "relationship": 7253,
    "relationships": 7254,
    "relative": 7255,
    "relatively": 7256,
    "relax": 7257,
    "relaxed": 7258,
    "release": 7259,
    "released": 7260,
    "releases": 7261,
    "releasing": 7262,
    "relent": 7263,
    "relentless": 7264,
    "relevant": 7265,
    "reli": 7266,
    "relie": 7267,
    "relief": 7268,
    "relive": 7269,
    "remain": 7270,
    "remaining": 7271,
    "remains": 7272,
    "remake": 7273,
    "remark": 7274,
    "remaster": 7275,
    "rematch": 7276,
    "remember": 7277,
    "remembered": 7278,
    "remembers": 7279,
    "remin": 7280,
    "remind": 7281,
    "reminded": 7282,
    "reminder": 7283,
    "reminds": 7284,
    "reminis": 7285,
    "reminiscent": 7286,
    "remix": 7287,
    "remove": 7288,
    "removed": 7289,
    "ren": 7290,
    "rench": 7291,
    "rend": 7292,
    "renounce": 7293,
    "rent": 7294,
    "reo": 7295,
    "rep": 7296,
    "reparations": 7297,
    "repe": 7298,
    "repeat": 7299,
    "repeated": 7300,
    "repeatedly": 7301,
    "repeating": 7302,
    "repent": 7303,
    "replace": 7304,
    "replaced": 7305,
    "replay": 7306,
    "replayed": 7307,
    "replaying": 7308,
    "replays": 7309,
    "reply": 7310,
    "repor": 7311,
    "report": 7312,
    "represent": 7313,
    "representation": 7314,
    "represented": 7315,
    "representing": 7316,
    "represents": 7317,
    "republi": 7318,
    "request": 7319,
    "requi": 7320,
    "require": 7321,
    "required": 7322,
    "requirements": 7323,
    "rer": 7324,
    "res": 7325,
    "research": 7326,
    "resemble": 7327,
    "reset": 7328,
    "resign": 7329,
    "resili": 7330,
    "resist": 7331,
    "resmi": 7332,
    "resources": 7333,
    "resp": 7334,
    "respe": 7335,
    "respect": 7336,
    "respectable": 7337,
    "respected": 7338,
    "respon": 7339,
    "respond": 7340,
    "response": 7341,
    "responsi": 7342,
    "responsibility": 7343,
    "responsible": 7344,
    "ress": 7345,
    "rest": 7346,
    "rested": 7347,
    "resto": 7348,
    "restored": 7349,
    "restri": 7350,
    "resu": 7351,
    "resul": 7352,
    "result": 7353,
    "results": 7354,
    "resume": 7355,
    "resur": 7356,
    "resurre": 7357,
    "ret": 7358,
    "reti": 7359,
    "retire": 7360,
    "retired": 7361,
    "retirement": 7362,
    "retires": 7363,
    "retiring": 7364,
    "retras": 7365,
    "retro": 7366,
    "rett": 7367,
    "return": 7368,
    "returned": 7369,
    "returns": 7370,
    "reve": 7371,
    "revealed": 7372,
    "revel": 7373,
    "revenge": 7374,
    "revenue": 7375,
    "rever": 7376,
    "review": 7377,
    "reviews": 7378,
    "revolution": 7379,
    "revolutionary": 7380,
    "reward": 7381,
    "rewatch": 7382,
    "rewatchable": 7383,
    "rewatched": 7384,
    "rewatching": 7385,
    "rework": 7386,
    "rhy": 7387,
    "rhyme": 7388,
    "rhyth": 7389,
    "rhythm": 7390,
    "ri": 7391,
    "ria": 7392,
    "rian": 7393,
    "ric": 7394,
    "rica": 7395,
    "rice": 7396,
    "rich": 7397,
    "rick": 7398,
    "rid": 7399,
    "ride": 7400,
    "ridic": 7401,
    "ridiculous": 7402,
    "ridiculously": 7403,
    "riding": 7404,
    "ried": 7405,
    "rier": 7406,
    "ries": 7407,
    "rig": 7408,
    "rigg": 7409,
    "rigged": 7410,
    "rigging": 7411,
    "right": 7412,
    "righteous": 7413,
    "rights": 7414,
    "rih": 7415,
    "rihanna": 7416,
    "ril": 7417,
    "rin": 7418,
    "ring": 7419,
    "rings": 7420,
    "rint": 7421,
    "rio": 7422,
    "rios": 7423,
    "rip": 7424,
    "ripped": 7425,
    "ris": 7426,
    "rise": 7427,
    "rising": 7428,
    "rit": 7429,
    "ritual": 7430,
    "rival": 7431,
    "rivalry": 7432,
    "rivals": 7433,
    "rive": 7434,
    "rix": 7435,
    "rn": 7436,
    "rne": 7437,
    "ro": 7438,
    "road": 7439,
    "roast": 7440,
    "roasted": 7441,
    "rob": 7442,
    "robbed": 7443,
    "robber": 7444,
    "robbery": 7445,
    "roblox": 7446,
    "robot": 7447,
    "rock": 7448,
    "rocked": 7449,
    "rocket": 7450,
    "rocking": 7451,
    "rocks": 7452,
    "rocksore": 7453,
    "rockstar": 7454,
    "rockstargame": 7455,
    "rockstargames": 7456,
    "rockstargamescrs": 7457,
    "rockstars": 7458,
    "rockstoned": 7459,
    "rocky": 7460,
    "rod": 7461,
    "rodgers": 7462,
    "rog": 7463,
    "roger": 7464,
    "rok": 7465,
    "rokstar": 7466,
    "rol": 7467,
    "role": 7468,
    "roles": 7469,
    "roll": 7470,
    "rolled": 7471,
    "rolling": 7472,
    "rom": 7473,
    "roman": 7474,
    "romance": 7475,
    "romans": 7476,
    "romantic": 7477,
    "rome": 7478,
    "romo": 7479,
    "ron": 7480,
    "roof": 7481,
    "rook": 7482,
    "rookie": 7483,
    "rooks": 7484,
    "room": 7485,
    "rooms": 7486,
    "roos": 7487,
    "rooski": 7488,
    "root": 7489,
    "rooted": 7490,
    "rooting": 7491,
    "roots": 7492,
    "ror": 7493,
    "ros": 7494,
    "rose": 7495,
    "roseman": 7496,
    "ross": 7497,
    "roster": 7498,
    "rot": 7499,
    "rough": 7500,
    "roughing": 7501,
    "roughness": 7502,
    "round": 7503,
    "rounds": 7504,
    "rout": 7505,
    "route": 7506,
    "routine": 7507,
    "row": 7508,
    "roy": 7509,
    "royal": 7510,
    "royalty": 7511,
    "roz": 7512,
    "rp": 7513,
    "rr": 7514,
    "rrr": 7515,
    "rs": 7516,
    "rt": 7517,
    "rtx": 7518,
    "ru": 7519,
    "rub": 7520,
    "rubbing": 7521,
    "rubbish": 7522,
    "ruction": 7523,
    "rude": 7524,
    "rug": 7525,
    "rugby": 7526,
    "rugg": 7527,
    "ruim": 7528,
    "ruin": 7529,
    "ruined": 7530,
    "ruining": 7531,
    "rule": 7532,
    "rules": 7533,
    "rum": 7534,
    "rumor": 7535,
    "rumors": 7536,
    "run": 7537,
    "runner": 7538,
    "running": 7539,
    "runs": 7540,
    "rup": 7541,
    "rus": 7542,
    "rush": 7543,
    "rushed": 7544,
    "rushers": 7545,
    "rushing": 7546,
    "russi": 7547,
    "russia": 7548,
    "ruth": 7549,
    "rw": 7550,
    "rx": 7551,
    "ry": 7552,
    "ryan": 7553,
    "s": 7554,
    "s/": 7555,
    "s/o": 7556,
    "sa": 7557,
    "saa": 7558,
    "sab": 7559,
    "sabe": 7560,
    "sabemos": 7561,
    "sabr": 7562,
    "sac": 7563,
    "sack": 7564,
    "sacked": 7565,
    "sacking": 7566,
    "sacks": 7567,
    "sacred": 7568,
    "sacri": 7569,
    "sacrific": 7570,
    "sacrifice": 7571,
    "sacrificed": 7572,
    "sad": 7573,
    "sadly": 7574,
    "sado": 7575,
    "safe": 7576,
    "safety": 7577,
    "sag": 7578,
    "saga": 7579,
    "sah": 7580,
    "said": 7581,
    "saints": 7582,
    "sair": 7583,
    "sak": 7584,
    "sake": 7585,
    "sakta": 7586,
    "sal": 7587,
    "salary": 7588,
    "sale": 7589,
    "sales": 7590,
    "salga": 7591,
    "sali": 7592,
    "salir": 7593,
    "salu": 7594,
    "saludos": 7595,
    "salut": 7596,
    "salute": 7597,
    "salv": 7598,
    "sam": 7599,
    "same": 7600,
    "sample": 7601,
    "samuel": 7602,
    "san": 7603,
    "sand": 7604,
    "sang": 7605,
    "sans": 7606,
    "santa": 7607,
    "santos": 7608,
    "saq": 7609,
    "saqu": 7610,
    "saquan": 7611,
    "saquon": 7612,
    "sar": 7613,
    "sare": 7614,
    "sat": 7615,
    "satan": 7616,
    "satis": 7617,
    "satisfa": 7618,
    "satisfaction": 7619,
    "satisfied": 7620,
    "satisfying": 7621,
    "satur": 7622,
    "saturday": 7623,
    "sau": 7624,
    "sauce": 7625,
    "save": 7626,
    "saved": 7627,
    "saving": 7628,
    "savings": 7629,
    "savior": 7630,
    "saw": 7631,
    "say": 7632,
    "sayin": 7633,
    "saying": 7634,
    "says": 7635,
    "sb": 7636,
    "sbs": 7637,
    "sc": 7638,
    "scale": 7639,
    "scam": 7640,
    "scamers": 7641,
    "scan": 7642,
    "scannn": 7643,
    "scar": 7644,
    "scared": 7645,
    "scary": 7646,
    "scen": 7647,
    "scenarios": 7648,
    "scene": 7649,
    "scenes": 7650,
    "sch": 7651,
    "sche": 7652,
    "schedu": 7653,
    "schedule": 7654,
    "schoo": 7655,
    "school": 7656,
    "schooled": 7657,
    "sci": 7658,
    "science": 7659,
    "sco": 7660,
    "scor": 7661,
    "score": 7662,
    "scoreboard": 7663,
    "scorebug": 7664,
    "scored": 7665,
    "scoreline": 7666,
    "scores": 7667,
    "scoring": 7668,
    "scot": 7669,
    "scott": 7670,
    "scr": 7671,
    "scra": 7672,
    "scram": 7673,
    "scramble": 7674,
    "scrambling": 7675,
    "scratch": 7676,
    "scre": 7677,
    "scream": 7678,
    "screamed": 7679,
    "screaming": 7680,
    "screen": 7681,
    "screens": 7682,
    "screw": 7683,
    "screwed": 7684,
    "scri": 7685,
    "scrimmage": 7686,
    "scrip": 7687,
    "script": 7688,
    "scripted": 7689,
    "scroll": 7690,
    "scrolls": 7691,
    "scrutiny": 7692,
    "se": 7693,
    "sea": 7694,
    "seahaw": 7695,
    "seahawks": 7696,
    "sealed": 7697,
    "sean": 7698,
    "search": 7699,
    "searching": 7700,
    "season": 7701,
    "seasons": 7702,
    "seat": 7703,
    "seats": 7704,
    "seattle": 7705,
    "sec": 7706,
    "secon": 7707,
    "second": 7708,
    "secondary": 7709,
    "seconds": 7710,
    "secre": 7711,
    "secret": 7712,
    "secs": 7713,
    "section": 7714,
    "secu": 7715,
    "secure": 7716,
    "security": 7717,
    "sed": 7718,
    "see": 7719,
    "seee": 7720,
    "seeing": 7721,
    "seem": 7722,
    "seemed": 7723,
    "seems": 7724,
    "seen": 7725,
    "sees": 7726,
    "seg": 7727,
    "segu": 7728,
    "segue": 7729,
    "segundo": 7730,
    "sei": 7731,
    "seja": 7732,
    "sel": 7733,
    "sele": 7734,
    "self": 7735,
    "sell": 7736,
    "selling": 7737,
    "selves": 7738,
    "sem": 7739,
    "semana": 7740,
    "semi": 7741,
    "semifinal": 7742,
    "semifinals": 7743,
    "semis": 7744,
    "sempre": 7745,
    "sen": 7746,
    "send": 7747,
    "sending": 7748,
    "sendo": 7749,
    "sensa": 7750,
    "sensacional": 7751,
    "sense": 7752,
    "sent": 7753,
    "sentence": 7754,
    "sep": 7755,
    "separ": 7756,
    "september": 7757,
    "sequ": 7758,
    "sequence": 7759,
    "ser": 7760,
    "sera": 7761,
    "serena": 7762,
    "series": 7763,
    "serious": 7764,
    "seriously": 7765,
    "sert": 7766,
    "serv": 7767,
    "serve": 7768,
    "served": 7769,
    "serves": 7770,
    "service": 7771,
    "ses": 7772,
    "sess": 7773,
    "session": 7774,
    "sessions": 7775,
    "set": 7776,
    "sets": 7777,
    "setting": 7778,
    "settle": 7779,
    "setup": 7780,
    "seu": 7781,
    "seven": 7782,
    "sever": 7783,
    "several": 7784,
    "sex": 7785,
    "sexism": 7786,
    "sexist": 7787,
    "sexual": 7788,
    "sexy": 7789,
    "sey": 7790,
    "sf": 7791,
    "sh": 7792,
    "sha": 7793,
    "shad": 7794,
    "shadow": 7795,
    "shadows": 7796,
    "shake": 7797,
    "shaked": 7798,
    "shakes": 7799,
    "shaking": 7800,
    "shakira": 7801,
    "shall": 7802,
    "sham": 7803,
    "shame": 7804,
    "shan": 7805,
    "shape": 7806,
    "shar": 7807,
    "share": 7808,
    "shared": 7809,
    "sharing": 7810,
    "shark": 7811,
    "sharp": 7812,
    "shat": 7813,
    "she": 7814,
    "shed": 7815,
    "shee": 7816,
    "sheeesh": 7817,
    "sheep": 7818,
    "sheer": 7819,
    "sheesh": 7820,
    "shell": 7821,
    "shes": 7822,
    "shhh": 7823,
    "shi": 7824,
    "shif": 7825,
    "shii": 7826,
    "shiii": 7827,
    "shine": 7828,
    "shining": 7829,
    "ship": 7830,
    "ships": 7831,
    "shirt": 7832,
    "shirts": 7833,
    "shit": 7834,
    "shits": 7835,
    "shitty": 7836,
    "sho": 7837,
    "shock": 7838,
    "shocked": 7839,
    "shocking": 7840,
    "shoe": 7841,
    "shoes": 7842,
    "shook": 7843,
    "shooo": 7844,
    "shoot": 7845,
    "shooting": 7846,
    "shop": 7847,
    "shor": 7848,
    "short": 7849,
    "shorts": 7850,
    "shot": 7851,
    "shots": 7852,
    "should": 7853,
    "shoulda": 7854,
    "shoulders": 7855,
    "shouldn": 7856,
    "shouldnt": 7857,
    "shouldve": 7858,
    "shout": 7859,
    "shoutout": 7860,
    "shove": 7861,
    "shovel": 7862,
    "show": 7863,
    "showed": 7864,
    "showing": 7865,
    "shown": 7866,
    "shows": 7867,
    "shred": 7868,
    "sht": 7869,
    "shuffle": 7870,
    "shut": 7871,
    "shutdown": 7872,
    "shutout": 7873,
    "shutting": 7874,
    "shy": 7875,
    "shyt": 7876,
    "si": 7877,
    "sia": 7878,
    "siad": 7879,
    "siblings": 7880,
    "sic": 7881,
    "sick": 7882,
    "side": 7883,
    "sided": 7884,
    "sideline": 7885,
    "sidelines": 7886,
    "sides": 7887,
    "sido": 7888,
    "sie": 7889,
    "siempre": 7890,
    "siento": 7891,
    "sig": 7892,
    "sigh": 7893,
    "sight": 7894,
    "sigma": 7895,
    "sign": 7896,
    "signal": 7897,
    "signals": 7898,
    "signed": 7899,
    "signif": 7900,
    "significant": 7901,
    "signs": 7902,
    "sigo": 7903,
    "sik": 7904,
    "sil": 7905,
    "silence": 7906,
    "silenced": 7907,
    "silent": 7908,
    "silly": 7909,
    "silver": 7910,
    "sim": 7911,
    "similar": 7912,
    "simo": 7913,
    "simon": 7914,
    "simp": 7915,
    "simple": 7916,
    "simples": 7917,
    "simplesmente": 7918,
    "simply": 7919,
    "simps": 7920,
    "sims": 7921,
    "simul": 7922,
    "simulation": 7923,
    "simulator": 7924,
    "sin": 7925,
    "since": 7926,
    "sincer": 7927,
    "sincere": 7928,
    "sincerely": 7929,
    "sing": 7930,
    "singer": 7931,
    "singers": 7932,
    "singing": 7933,
    "single": 7934,
    "sings": 7935,
    "sink": 7936,
    "sins": 7937,
    "sion": 7938,
    "sip": 7939,
    "sir": 7940,
    "siriani": 7941,
    "sirianni": 7942,
    "sis": 7943,
    "sister": 7944,
    "sisters": 7945,
    "sit": 7946,
    "sito": 7947,
    "sitting": 7948,
    "situ": 7949,
    "situation": 7950,
    "situs": 7951,
    "sive": 7952,
    "six": 7953,
    "sixth": 7954,
    "siz": 7955,
    "size": 7956,
    "sk": 7957,
    "ski": 7958,
    "skibidi": 7959,
    "skill": 7960,
    "skilled": 7961,
    "skills": 7962,
    "skin": 7963,
    "skinny": 7964,
    "skip": 7965,
    "skippable": 7966,
    "skipped": 7967,
    "skipping": 7968,
    "sky": 7969,
    "sl": 7970,
    "sla": 7971,
    "slam": 7972,
    "sland": 7973,
    "slap": 7974,
    "slapped": 7975,
    "slaps": 7976,
    "slaughter": 7977,
    "slaughtered": 7978,
    "slavery": 7979,
    "slaves": 7980,
    "slay": 7981,
    "sle": 7982,
    "sleep": 7983,
    "sleeping": 7984,
    "slept": 7985,
    "sli": 7986,
    "slick": 7987,
    "slide": 7988,
    "sliding": 7989,
    "slight": 7990,
    "slightly": 7991,
    "slim": 7992,
    "sling": 7993,
    "slip": 7994,
    "slk": 7995,
    "slo": 7996,
    "sloppy": 7997,
    "slow": 7998,
    "slowly": 7999,
    "sm": 8000,
    "sma": 8001,
    "smack": 8002,
    "smacked": 8003,
    "smal": 8004,
    "small": 8005,
    "smar": 8006,
    "smart": 8007,
    "smash": 8008,
    "smashed": 8009,
    "sme": 8010,
    "smell": 8011,
    "smh": 8012,
    "smi": 8013,
    "smil": 8014,
    "smile": 8015,
    "smiled": 8016,
    "smiles": 8017,
    "smiley": 8018,
    "smiling": 8019,
    "smir": 8020,
    "smirk": 8021,
    "smith": 8022,
    "smitten": 8023,
    "smitty": 8024,
    "smo": 8025,
    "smoke": 8026,
    "smoked": 8027,
    "smoking": 8028,
    "smooth": 8029,
    "smoothly": 8030,
    "smth": 8031,
    "smug": 8032,
    "sn": 8033,
    "sna": 8034,
    "snacks": 8035,
    "snake": 8036,
    "snap": 8037,
    "snapper": 8038,
    "sne": 8039,
    "sneak": 8040,
    "snip": 8041,
    "snippet": 8042,
    "sno": 8043,
    "snoo": 8044,
    "snoop": 8045,
    "snooze": 8046,
    "snow": 8047,
    "so": 8048,
    "soar": 8049,
    "sober": 8050,
    "sobre": 8051,
    "sobrevi": 8052,
    "sobreviver": 8053,
    "sobrevivir": 8054,
    "soc": 8055,
    "soccer": 8056,
    "soci": 8057,
    "social": 8058,
    "society": 8059,
    "sof": 8060,
    "soft": 8061,
    "sol": 8062,
    "solana": 8063,
    "sold": 8064,
    "soldiers": 8065,
    "soli": 8066,
    "solid": 8067,
    "solo": 8068,
    "solu": 8069,
    "solution": 8070,
    "solve": 8071,
    "som": 8072,
    "some": 8073,
    "somebody": 8074,
    "someday": 8075,
    "somehow": 8076,
    "somente": 8077,
    "someone": 8078,
    "something": 8079,
    "sometime": 8080,
    "sometimes": 8081,
    "somewhat": 8082,
    "somewhere": 8083,
    "son": 8084,
    "song": 8085,
    "songs": 8086,
    "sono": 8087,
    "sons": 8088,
    "sony": 8089,
    "soo": 8090,
    "soon": 8091,
    "sooner": 8092,
    "sooo": 8093,
    "sor": 8094,
    "sore": 8095,
    "sored": 8096,
    "sorry": 8097,
    "sort": 8098,
    "sorts": 8099,
    "sos": 8100,
    "sou": 8101,
    "soul": 8102,
    "souls": 8103,
    "sound": 8104,
    "sounded": 8105,
    "sounding": 8106,
    "sounds": 8107,
    "soundtrack": 8108,
    "sour": 8109,
    "source": 8110,
    "south": 8111,
    "soy": 8112,
    "sp": 8113,
    "spaa": 8114,
    "spaavan": 8115,
    "space": 8116,
    "spaceballs": 8117,
    "spag": 8118,
    "spags": 8119,
    "span": 8120,
    "spanish": 8121,
    "spanked": 8122,
    "spanking": 8123,
    "spar": 8124,
    "spare": 8125,
    "spark": 8126,
    "spe": 8127,
    "speak": 8128,
    "speakers": 8129,
    "speaking": 8130,
    "speaks": 8131,
    "spec": 8132,
    "special": 8133,
    "specially": 8134,
    "specif": 8135,
    "specific": 8136,
    "specifically": 8137,
    "spect": 8138,
    "spectacle": 8139,
    "spectacular": 8140,
    "speech": 8141,
    "speechless": 8142,
    "speed": 8143,
    "spell": 8144,
    "spelling": 8145,
    "spend": 8146,
    "spending": 8147,
    "spent": 8148,
    "sper": 8149,
    "sphere": 8150,
    "spi": 8151,
    "spic": 8152,
    "spice": 8153,
    "spicy": 8154,
    "spiel": 8155,
    "spill": 8156,
    "spilled": 8157,
    "spilling": 8158,
    "spin": 8159,
    "spir": 8160,
    "spirit": 8161,
    "spit": 8162,
    "spl": 8163,
    "split": 8164,
    "spo": 8165,
    "spoil": 8166,
    "spoiled": 8167,
    "spoiler": 8168,
    "spoilers": 8169,
    "spoken": 8170,
    "spon": 8171,
    "sponsor": 8172,
    "spook": 8173,
    "spooky": 8174,
    "sport": 8175,
    "sports": 8176,
    "sportsmanship": 8177,
    "spot": 8178,
    "spotify": 8179,
    "spotlight": 8180,
    "spotted": 8181,
    "spr": 8182,
    "spre": 8183,
    "spread": 8184,
    "spring": 8185,
    "sq": 8186,
    "squ": 8187,
    "squabble": 8188,
    "squad": 8189,
    "square": 8190,
    "squash": 8191,
    "sque": 8192,
    "squee": 8193,
    "squid": 8194,
    "sqwoz": 8195,
    "ss": 8196,
    "ssi": 8197,
    "sss": 8198,
    "st": 8199,
    "sta": 8200,
    "staa": 8201,
    "staaarrrddd": 8202,
    "stacked": 8203,
    "stadium": 8204,
    "staff": 8205,
    "stage": 8206,
    "staged": 8207,
    "stain": 8208,
    "stair": 8209,
    "stairs": 8210,
    "stal": 8211,
    "stamina": 8212,
    "stamp": 8213,
    "stamps": 8214,
    "stan": 8215,
    "stance": 8216,
    "stand": 8217,
    "standard": 8218,
    "standards": 8219,
    "standing": 8220,
    "stands": 8221,
    "star": 8222,
    "stard": 8223,
    "stare": 8224,
    "staring": 8225,
    "starr": 8226,
    "starrr": 8227,
    "stars": 8228,
    "start": 8229,
    "started": 8230,
    "starters": 8231,
    "starting": 8232,
    "starts": 8233,
    "stat": 8234,
    "state": 8235,
    "stated": 8236,
    "statement": 8237,
    "states": 8238,
    "station": 8239,
    "stations": 8240,
    "statistic": 8241,
    "stats": 8242,
    "status": 8243,
    "stay": 8244,
    "stayed": 8245,
    "staying": 8246,
    "stays": 8247,
    "ste": 8248,
    "stead": 8249,
    "steady": 8250,
    "steak": 8251,
    "steal": 8252,
    "stealth": 8253,
    "steam": 8254,
    "sted": 8255,
    "steel": 8256,
    "steelers": 8257,
    "stellar": 8258,
    "step": 8259,
    "steph": 8260,
    "stephen": 8261,
    "stepped": 8262,
    "stepping": 8263,
    "steps": 8264,
    "ster": 8265,
    "stere": 8266,
    "stern": 8267,
    "sters": 8268,
    "steve": 8269,
    "sti": 8270,
    "stic": 8271,
    "stick": 8272,
    "stil": 8273,
    "still": 8274,
    "sting": 8275,
    "stink": 8276,
    "sto": 8277,
    "stock": 8278,
    "stocks": 8279,
    "stol": 8280,
    "stole": 8281,
    "stolen": 8282,
    "stomp": 8283,
    "stomped": 8284,
    "stomping": 8285,
    "ston": 8286,
    "stood": 8287,
    "stop": 8288,
    "stopped": 8289,
    "stopping": 8290,
    "stops": 8291,
    "stor": 8292,
    "store": 8293,
    "stores": 8294,
    "stories": 8295,
    "story": 8296,
    "storyline": 8297,
    "storytelling": 8298,
    "str": 8299,
    "stra": 8300,
    "straight": 8301,
    "strand": 8302,
    "strange": 8303,
    "strate": 8304,
    "strateg": 8305,
    "strategic": 8306,
    "strategies": 8307,
    "strategy": 8308,
    "stre": 8309,
    "streak": 8310,
    "stream": 8311,
    "streaming": 8312,
    "streams": 8313,
    "street": 8314,
    "streets": 8315,
    "strength": 8316,
    "stress": 8317,
    "stretch": 8318,
    "stri": 8319,
    "strick": 8320,
    "strickland": 8321,
    "strict": 8322,
    "strictly": 8323,
    "strike": 8324,
    "strikes": 8325,
    "striking": 8326,
    "string": 8327,
    "strip": 8328,
    "stron": 8329,
    "strong": 8330,
    "stronger": 8331,
    "strongest": 8332,
    "strugg": 8333,
    "struggle": 8334,
    "struggled": 8335,
    "struggling": 8336,
    "sttt": 8337,
    "stu": 8338,
    "stuck": 8339,
    "stud": 8340,
    "student": 8341,
    "studied": 8342,
    "studio": 8343,
    "study": 8344,
    "studying": 8345,
    "stuff": 8346,
    "stun": 8347,
    "stunk": 8348,
    "stunning": 8349,
    "stup": 8350,
    "stupid": 8351,
    "sty": 8352,
    "style": 8353,
    "su": 8354,
    "sub": 8355,
    "subli": 8356,
    "sublime": 8357,
    "subs": 8358,
    "subscri": 8359,
    "subscribe": 8360,
    "subscribed": 8361,
    "subscriber": 8362,
    "subscribers": 8363,
    "subtitle": 8364,
    "subtitles": 8365,
    "subtle": 8366,
    "suc": 8367,
    "succeed": 8368,
    "success": 8369,
    "successful": 8370,
    "such": 8371,
    "suck": 8372,
    "sucked": 8373,
    "sucks": 8374,
    "sudan": 8375,
    "sudden": 8376,
    "suddenly": 8377,
    "sue": 8378,
    "sued": 8379,
    "suf": 8380,
    "suffer": 8381,
    "sufferable": 8382,
    "suffered": 8383,
    "suffering": 8384,
    "suggest": 8385,
    "suggested": 8386,
    "suggesting": 8387,
    "suggestion": 8388,
    "suggestions": 8389,
    "suing": 8390,
    "suis": 8391,
    "suit": 8392,
    "suits": 8393,
    "suka": 8394,
    "sum": 8395,
    "summer": 8396,
    "sun": 8397,
    "sunday": 8398,
    "sung": 8399,
    "sup": 8400,
    "super": 8401,
    "superar": 8402,
    "superb": 8403,
    "superbowl": 8404,
    "superbowls": 8405,
    "superior": 8406,
    "superiority": 8407,
    "supp": 8408,
    "suppor": 8409,
    "support": 8410,
    "supporting": 8411,
    "suppos": 8412,
    "suppose": 8413,
    "supposed": 8414,
    "supr": 8415,
    "supre": 8416,
    "supreme": 8417,
    "sur": 8418,
    "sure": 8419,
    "sured": 8420,
    "surely": 8421,
    "surpass": 8422,
    "surpassed": 8423,
    "surprise": 8424,
    "surprised": 8425,
    "surprises": 8426,
    "surprising": 8427,
    "surreal": 8428,
    "surround": 8429,
    "surrounded": 8430,
    "surrounding": 8431,
    "survi": 8432,
    "survival": 8433,
    "survive": 8434,
    "survived": 8435,
    "surviving": 8436,
    "sus": 8437,
    "susp": 8438,
    "suspect": 8439,
    "suspicious": 8440,
    "suvive": 8441,
    "sv": 8442,
    "sw": 8443,
    "swag": 8444,
    "swamp": 8445,
    "swang": 8446,
    "swangas": 8447,
    "swap": 8448,
    "swe": 8449,
    "swear": 8450,
    "swearing": 8451,
    "sweat": 8452,
    "swed": 8453,
    "swee": 8454,
    "sweet": 8455,
    "sweeter": 8456,
    "swi": 8457,
    "swif": 8458,
    "swift": 8459,
    "swifties": 8460,
    "swifts": 8461,
    "swifty": 8462,
    "swim": 8463,
    "swimming": 8464,
    "swit": 8465,
    "switch": 8466,
    "switched": 8467,
    "sy": 8468,
    "sym": 8469,
    "symbo": 8470,
    "symbol": 8471,
    "symbolism": 8472,
    "sympathy": 8473,
    "syn": 8474,
    "sync": 8475,
    "synchron": 8476,
    "syncing": 8477,
    "syst": 8478,
    "system": 8479,
    "sz": 8480,
    "sza": 8481,
    "szaaa": 8482,
    "szas": 8483,
    "t": 8484,
    "ta": 8485,
    "tab": 8486,
    "table": 8487,
    "tables": 8488,
    "tac": 8489,
    "tack": 8490,
    "tackle": 8491,
    "tackled": 8492,
    "tackles": 8493,
    "tackling": 8494,
    "tactic": 8495,
    "tactical": 8496,
    "tactics": 8497,
    "tag": 8498,
    "tail": 8499,
    "tain": 8500,
    "tais": 8501,
    "taiw": 8502,
    "taiwan": 8503,
    "tak": 8504,
    "take": 8505,
    "taken": 8506,
    "takes": 8507,
    "taking": 8508,
    "tal": 8509,
    "talent": 8510,
    "talented": 8511,
    "talentless": 8512,
    "talents": 8513,
    "talk": 8514,
    "talked": 8515,
    "talkin": 8516,
    "talking": 8517,
    "talks": 8518,
    "tam": 8519,
    "tamb": 8520,
    "tammy": 8521,
    "tampa": 8522,
    "tan": 8523,
    "tand": 8524,
    "tank": 8525,
    "tant": 8526,
    "tanto": 8527,
    "tap": 8528,
    "tape": 8529,
    "tar": 8530,
    "tarde": 8531,
    "target": 8532,
    "tari": 8533,
    "tariffs": 8534,
    "tas": 8535,
    "task": 8536,
    "taste": 8537,
    "tat": 8538,
    "tate": 8539,
    "taught": 8540,
    "tava": 8541,
    "tax": 8542,
    "tay": 8543,
    "taylor": 8544,
    "taylors": 8545,
    "tb": 8546,
    "tb12": 8547,
    "tbh": 8548,
    "tch": 8549,
    "td": 8550,
    "tds": 8551,
    "te": 8552,
    "tea": 8553,
    "teach": 8554,
    "teacher": 8555,
    "team": 8556,
    "teammate": 8557,
    "teammates": 8558,
    "teams": 8559,
    "tear": 8560,
    "tears": 8561,
    "teas": 8562,
    "tease": 8563,
    "teaser": 8564,
    "teasing": 8565,
    "tec": 8566,
    "tech": 8567,
    "techn": 8568,
    "techni": 8569,
    "technically": 8570,
    "technique": 8571,
    "techno": 8572,
    "technology": 8573,
    "ted": 8574,
    "teen": 8575,
    "teenagers": 8576,
    "teenth": 8577,
    "teh": 8578,
    "tehnologi": 8579,
    "tehnologije": 8580,
    "tehnologiju": 8581,
    "tele": 8582,
    "televis": 8583,
    "televised": 8584,
    "television": 8585,
    "tell": 8586,
    "telling": 8587,
    "tells": 8588,
    "tem": 8589,
    "tema": 8590,
    "temos": 8591,
    "tempo": 8592,
    "tempor": 8593,
    "temps": 8594,
    "ten": 8595,
    "tend": 8596,
    "tener": 8597,
    "tenga": 8598,
    "tengo": 8599,
    "tenho": 8600,
    "tense": 8601,
    "tension": 8602,
    "ter": 8603,
    "tered": 8604,
    "term": 8605,
    "termin": 8606,
    "terms": 8607,
    "terpopuler": 8608,
    "terri": 8609,
    "terrible": 8610,
    "territory": 8611,
    "terror": 8612,
    "ters": 8613,
    "tery": 8614,
    "tes": 8615,
    "test": 8616,
    "teste": 8617,
    "tested": 8618,
    "tex": 8619,
    "texan": 8620,
    "texans": 8621,
    "texas": 8622,
    "text": 8623,
    "texture": 8624,
    "tf": 8625,
    "tge": 8626,
    "th": 8627,
    "th3": 8628,
    "tha": 8629,
    "thailand": 8630,
    "thal": 8631,
    "than": 8632,
    "thang": 8633,
    "thank": 8634,
    "thankful": 8635,
    "thankfully": 8636,
    "thanks": 8637,
    "thanos": 8638,
    "that": 8639,
    "thats": 8640,
    "the": 8641,
    "theat": 8642,
    "theater": 8643,
    "thed": 8644,
    "thee": 8645,
    "theft": 8646,
    "their": 8647,
    "theirs": 8648,
    "theless": 8649,
    "them": 8650,
    "theme": 8651,
    "themes": 8652,
    "themselves": 8653,
    "then": 8654,
    "theory": 8655,
    "ther": 8656,
    "theradbrad": 8657,
    "therap": 8658,
    "therapy": 8659,
    "there": 8660,
    "thered": 8661,
    "therefore": 8662,
    "theres": 8663,
    "thern": 8664,
    "thes": 8665,
    "these": 8666,
    "thetic": 8667,
    "thew": 8668,
    "they": 8669,
    "theyll": 8670,
    "theyre": 8671,
    "theyve": 8672,
    "thi": 8673,
    "thick": 8674,
    "thie": 8675,
    "thiefs": 8676,
    "thier": 8677,
    "thin": 8678,
    "thing": 8679,
    "things": 8680,
    "think": 8681,
    "thinking": 8682,
    "thinks": 8683,
    "third": 8684,
    "this": 8685,
    "thisss": 8686,
    "tho": 8687,
    "thom": 8688,
    "thomas": 8689,
    "thor": 8690,
    "thorough": 8691,
    "thoroughly": 8692,
    "those": 8693,
    "thou": 8694,
    "though": 8695,
    "thought": 8696,
    "thoughts": 8697,
    "thousand": 8698,
    "thousands": 8699,
    "thr": 8700,
    "thrash": 8701,
    "thre": 8702,
    "threat": 8703,
    "threatened": 8704,
    "threatening": 8705,
    "threats": 8706,
    "three": 8707,
    "threepeat": 8708,
    "threw": 8709,
    "thrilled": 8710,
    "thriller": 8711,
    "thrilling": 8712,
    "thro": 8713,
    "throat": 8714,
    "through": 8715,
    "throughout": 8716,
    "throw": 8717,
    "throwing": 8718,
    "thrown": 8719,
    "throws": 8720,
    "thru": 8721,
    "tht": 8722,
    "thu": 8723,
    "thug": 8724,
    "thumb": 8725,
    "thumbnail": 8726,
    "thumbs": 8727,
    "thunder": 8728,
    "thus": 8729,
    "thx": 8730,
    "thy": 8731,
    "ti": 8732,
    "tic": 8733,
    "tical": 8734,
    "ticas": 8735,
    "tice": 8736,
    "ticket": 8737,
    "tickets": 8738,
    "tide": 8739,
    "tie": 8740,
    "tied": 8741,
    "tiem": 8742,
    "tiempo": 8743,
    "tiene": 8744,
    "tienen": 8745,
    "tier": 8746,
    "ties": 8747,
    "tified": 8748,
    "tiger": 8749,
    "tight": 8750,
    "tighten": 8751,
    "tik": 8752,
    "tiktok": 8753,
    "til": 8754,
    "till": 8755,
    "tim": 8756,
    "time": 8757,
    "timed": 8758,
    "timeless": 8759,
    "timer": 8760,
    "times": 8761,
    "timestamp": 8762,
    "timestamps": 8763,
    "timing": 8764,
    "tin": 8765,
    "ting": 8766,
    "tiny": 8767,
    "tion": 8768,
    "tions": 8769,
    "tip": 8770,
    "tipo": 8771,
    "tips": 8772,
    "tir": 8773,
    "tira": 8774,
    "tiramisu": 8775,
    "tired": 8776,
    "tis": 8777,
    "tit": 8778,
    "titans": 8779,
    "title": 8780,
    "titles": 8781,
    "tits": 8782,
    "titude": 8783,
    "tiv": 8784,
    "tive": 8785,
    "tivo": 8786,
    "tle": 8787,
    "tled": 8788,
    "tles": 8789,
    "tling": 8790,
    "tly": 8791,
    "to": 8792,
    "toast": 8793,
    "toda": 8794,
    "todas": 8795,
    "today": 8796,
    "todd": 8797,
    "toddler": 8798,
    "todo": 8799,
    "todos": 8800,
    "together": 8801,
    "toh": 8802,
    "toire": 8803,
    "tok": 8804,
    "token": 8805,
    "told": 8806,
    "tom": 8807,
    "tommy": 8808,
    "tomorrow": 8809,
    "toms": 8810,
    "ton": 8811,
    "tone": 8812,
    "tonight": 8813,
    "tonite": 8814,
    "tons": 8815,
    "tony": 8816,
    "too": 8817,
    "took": 8818,
    "tool": 8819,
    "tooo": 8820,
    "tooth": 8821,
    "tootur": 8822,
    "top": 8823,
    "topic": 8824,
    "tops": 8825,
    "tor": 8826,
    "torch": 8827,
    "tore": 8828,
    "torn": 8829,
    "tos": 8830,
    "toss": 8831,
    "tossed": 8832,
    "tot": 8833,
    "total": 8834,
    "totally": 8835,
    "tou": 8836,
    "touch": 8837,
    "touchdown": 8838,
    "touchdowns": 8839,
    "touched": 8840,
    "touches": 8841,
    "touching": 8842,
    "tough": 8843,
    "tour": 8844,
    "tournament": 8845,
    "tournaments": 8846,
    "tourney": 8847,
    "tout": 8848,
    "toutes": 8849,
    "toward": 8850,
    "towards": 8851,
    "town": 8852,
    "tox": 8853,
    "toxic": 8854,
    "tp": 8855,
    "tr": 8856,
    "tra": 8857,
    "trabal": 8858,
    "track": 8859,
    "tracks": 8860,
    "trade": 8861,
    "traded": 8862,
    "trading": 8863,
    "tradition": 8864,
    "trag": 8865,
    "trail": 8866,
    "trailer": 8867,
    "trailers": 8868,
    "trailor": 8869,
    "train": 8870,
    "training": 8871,
    "trait": 8872,
    "tran": 8873,
    "trans": 8874,
    "transition": 8875,
    "transl": 8876,
    "translate": 8877,
    "trap": 8878,
    "tras": 8879,
    "trash": 8880,
    "trave": 8881,
    "travel": 8882,
    "travis": 8883,
    "tre": 8884,
    "treat": 8885,
    "treated": 8886,
    "treatment": 8887,
    "tree": 8888,
    "trees": 8889,
    "tremend": 8890,
    "tremendous": 8891,
    "trenches": 8892,
    "trend": 8893,
    "trending": 8894,
    "trevor": 8895,
    "tri": 8896,
    "tribe": 8897,
    "tribute": 8898,
    "trick": 8899,
    "tricky": 8900,
    "tried": 8901,
    "trigg": 8902,
    "triler": 8903,
    "trip": 8904,
    "triple": 8905,
    "tripp": 8906,
    "trippin": 8907,
    "tripping": 8908,
    "trke": 8909,
    "tro": 8910,
    "troll": 8911,
    "trolling": 8912,
    "trophy": 8913,
    "trou": 8914,
    "trouble": 8915,
    "troy": 8916,
    "tru": 8917,
    "truck": 8918,
    "true": 8919,
    "truly": 8920,
    "trump": 8921,
    "trumps": 8922,
    "trust": 8923,
    "truth": 8924,
    "try": 8925,
    "trying": 8926,
    "tryna": 8927,
    "ts": 8928,
    "tt": 8929,
    "tta": 8930,
    "ttaa": 8931,
    "ttaaarrrddd": 8932,
    "tte": 8933,
    "tu": 8934,
    "tua": 8935,
    "tube": 8936,
    "tubi": 8937,
    "tudo": 8938,
    "tues": 8939,
    "tuesday": 8940,
    "tuff": 8941,
    "tun": 8942,
    "tune": 8943,
    "tuned": 8944,
    "tung": 8945,
    "tupac": 8946,
    "tur": 8947,
    "ture": 8948,
    "turf": 8949,
    "turing": 8950,
    "turkish": 8951,
    "turn": 8952,
    "turned": 8953,
    "turning": 8954,
    "turnover": 8955,
    "turnovers": 8956,
    "turns": 8957,
    "tut": 8958,
    "tv": 8959,
    "tw": 8960,
    "twe": 8961,
    "tweak": 8962,
    "tweaking": 8963,
    "twenty": 8964,
    "twice": 8965,
    "twin": 8966,
    "twist": 8967,
    "two": 8968,
    "ty": 8969,
    "tyler": 8970,
    "typ": 8971,
    "type": 8972,
    "types": 8973,
    "typical": 8974,
    "tyre": 8975,
    "tyreek": 8976,
    "tz": 8977,
    "u": 8978,
    "ua": 8979,
    "ual": 8980,
    "ually": 8981,
    "uals": 8982,
    "ubis": 8983,
    "ubisoft": 8984,
    "ud": 8985,
    "ude": 8986,
    "ue": 8987,
    "uel": 8988,
    "ues": 8989,
    "uff": 8990,
    "ufff": 8991,
    "ug": 8992,
    "ugh": 8993,
    "ugly": 8994,
    "uh": 8995,
    "uk": 8996,
    "ukrainian": 8997,
    "ul": 8998,
    "ula": 8999,
    "ular": 9000,
    "ulent": 9001,
    "ulous": 9002,
    "ult": 9003,
    "ulti": 9004,
    "ultimate": 9005,
    "ultra": 9006,
    "um": 9007,
    "uma": 9008,
    "umb": 9009,
    "umble": 9010,
    "ummm": 9011,
    "ump": 9012,
    "umped": 9013,
    "umps": 9014,
    "umpteenth": 9015,
    "un": 9016,
    "una": 9017,
    "unbelievable": 9018,
    "unbelievably": 9019,
    "unc": 9020,
    "unch": 9021,
    "uncharted": 9022,
    "uncle": 9023,
    "und": 9024,
    "undefeated": 9025,
    "unden": 9026,
    "undeni": 9027,
    "under": 9028,
    "undercover": 9029,
    "underdogs": 9030,
    "underestim": 9031,
    "underestimate": 9032,
    "underestimated": 9033,
    "underrated": 9034,
    "unders": 9035,
    "understand": 9036,
    "understanding": 9037,
    "understood": 9038,
    "underwhelming": 9039,
    "undisputed": 9040,
    "une": 9041,
    "unexpected": 9042,
    "unfair": 9043,
    "unfinished": 9044,
    "unfold": 9045,
    "unforgettable": 9046,
    "unfortun": 9047,
    "unfortunately": 9048,
    "ung": 9049,
    "unhealthy": 9050,
    "uni": 9051,
    "union": 9052,
    "unique": 9053,
    "unit": 9054,
    "unite": 9055,
    "united": 9056,
    "unity": 9057,
    "univers": 9058,
    "universe": 9059,
    "university": 9060,
    "unless": 9061,
    "unlike": 9062,
    "unlocked": 9063,
    "unmatched": 9064,
    "unnecessary": 9065,
    "uno": 9066,
    "unreal": 9067,
    "unreleased": 9068,
    "unstoppable": 9069,
    "unt": 9070,
    "until": 9071,
    "untill": 9072,
    "unting": 9073,
    "up": 9074,
    "upcoming": 9075,
    "upd": 9076,
    "update": 9077,
    "updated": 9078,
    "upgrade": 9079,
    "upgraded": 9080,
    "upgrading": 9081,
    "upload": 9082,
    "uploaded": 9083,
    "uploading": 9084,
    "upon": 9085,
    "upp": 9086,
    "uppp": 9087,
    "ups": 9088,
    "upset": 9089,
    "ur": 9090,
    "ura": 9091,
    "ure": 9092,
    "ured": 9093,
    "ures": 9094,
    "uries": 9095,
    "uring": 9096,
    "urr": 9097,
    "urs": 9098,
    "ury": 9099,
    "us": 9100,
    "usa": 9101,
    "use": 9102,
    "used": 9103,
    "useful": 9104,
    "useless": 9105,
    "user": 9106,
    "users": 9107,
    "uses": 9108,
    "ush": 9109,
    "usher": 9110,
    "using": 9111,
    "uso": 9112,
    "uss": 9113,
    "usss": 9114,
    "ust": 9115,
    "usted": 9116,
    "usu": 9117,
    "usual": 9118,
    "usually": 9119,
    "ut": 9120,
    "utan": 9121,
    "utations": 9122,
    "utch": 9123,
    "ute": 9124,
    "uter": 9125,
    "utes": 9126,
    "util": 9127,
    "utter": 9128,
    "utterly": 9129,
    "uu": 9130,
    "uuu": 9131,
    "uva": 9132,
    "uve": 9133,
    "ux": 9134,
    "uz": 9135,
    "uzbek": 9136,
    "uzbekistan": 9137,
    "v": 9138,
    "va": 9139,
    "vac": 9140,
    "vacation": 9141,
    "vai": 9142,
    "vais": 9143,
    "val": 9144,
    "valent": 9145,
    "valid": 9146,
    "vall": 9147,
    "valley": 9148,
    "vals": 9149,
    "valu": 9150,
    "valuable": 9151,
    "value": 9152,
    "vamos": 9153,
    "van": 9154,
    "vance": 9155,
    "vap": 9156,
    "var": 9157,
    "vara": 9158,
    "vas": 9159,
    "vasco": 9160,
    "vaya": 9161,
    "vc": 9162,
    "vcs": 9163,
    "vdeo": 9164,
    "ve": 9165,
    "veces": 9166,
    "ved": 9167,
    "vegas": 9168,
    "vehicle": 9169,
    "vehicles": 9170,
    "veins": 9171,
    "veiw": 9172,
    "veiws": 9173,
    "vejo": 9174,
    "vel": 9175,
    "vem": 9176,
    "ven": 9177,
    "vender": 9178,
    "veness": 9179,
    "venge": 9180,
    "vengeance": 9181,
    "vengo": 9182,
    "vens": 9183,
    "vent": 9184,
    "venue": 9185,
    "veo": 9186,
    "ver": 9187,
    "verce": 9188,
    "vercet": 9189,
    "vercetti": 9190,
    "verdad": 9191,
    "verified": 9192,
    "verlo": 9193,
    "vers": 9194,
    "verse": 9195,
    "version": 9196,
    "versions": 9197,
    "verso": 9198,
    "very": 9199,
    "ves": 9200,
    "vest": 9201,
    "vey": 9202,
    "vez": 9203,
    "vezes": 9204,
    "vi": 9205,
    "via": 9206,
    "vib": 9207,
    "vibe": 9208,
    "vibes": 9209,
    "vibing": 9210,
    "vibrating": 9211,
    "vibration": 9212,
    "vic": 9213,
    "vice": 9214,
    "vicious": 9215,
    "vict": 9216,
    "victim": 9217,
    "victories": 9218,
    "victory": 9219,
    "vid": 9220,
    "vida": 9221,
    "video": 9222,
    "videogame": 9223,
    "videos": 9224,
    "vids": 9225,
    "vie": 9226,
    "viendo": 9227,
    "viene": 9228,
    "vier": 9229,
    "viet": 9230,
    "view": 9231,
    "viewed": 9232,
    "viewer": 9233,
    "viewers": 9234,
    "viewership": 9235,
    "viewing": 9236,
    "views": 9237,
    "vii": 9238,
    "viii": 9239,
    "vikings": 9240,
    "vil": 9241,
    "villain": 9242,
    "ville": 9243,
    "vim": 9244,
    "vin": 9245,
    "vince": 9246,
    "vinci": 9247,
    "ving": 9248,
    "vio": 9249,
    "viol": 9250,
    "violence": 9251,
    "violent": 9252,
    "vion": 9253,
    "vious": 9254,
    "vir": 9255,
    "viral": 9256,
    "virtu": 9257,
    "virtual": 9258,
    "vis": 9259,
    "visible": 9260,
    "vision": 9261,
    "visit": 9262,
    "visitas": 9263,
    "visiting": 9264,
    "vistas": 9265,
    "visto": 9266,
    "visual": 9267,
    "visualiza": 9268,
    "visualizaes": 9269,
    "visually": 9270,
    "visuals": 9271,
    "vit": 9272,
    "viva": 9273,
    "vive": 9274,
    "viver": 9275,
    "vivo": 9276,
    "vl": 9277,
    "vo": 9278,
    "voc": 9279,
    "vocal": 9280,
    "vocals": 9281,
    "vocs": 9282,
    "voice": 9283,
    "voiced": 9284,
    "voiceover": 9285,
    "voices": 9286,
    "voir": 9287,
    "vol": 9288,
    "volta": 9289,
    "volte": 9290,
    "volume": 9291,
    "volumes": 9292,
    "volution": 9293,
    "volver": 9294,
    "von": 9295,
    "voo": 9296,
    "voodoo": 9297,
    "vor": 9298,
    "vot": 9299,
    "vote": 9300,
    "vou": 9301,
    "vous": 9302,
    "voy": 9303,
    "voz": 9304,
    "vr": 9305,
    "vre": 9306,
    "vs": 9307,
    "vu": 9308,
    "vue": 9309,
    "vuel": 9310,
    "vues": 9311,
    "vul": 9312,
    "vulgar": 9313,
    "vv": 9314,
    "vy": 9315,
    "w": 9316,
    "w/": 9317,
    "w/o": 9318,
    "wa": 9319,
    "waaay": 9320,
    "wac": 9321,
    "wacced": 9322,
    "wack": 9323,
    "wagon": 9324,
    "wah": 9325,
    "wait": 9326,
    "waited": 9327,
    "waiting": 9328,
    "wakanda": 9329,
    "wake": 9330,
    "wal": 9331,
    "walk": 9332,
    "walked": 9333,
    "walkin": 9334,
    "walking": 9335,
    "walks": 9336,
    "wall": 9337,
    "wallet": 9338,
    "walter": 9339,
    "wang": 9340,
    "wanna": 9341,
    "want": 9342,
    "wanted": 9343,
    "wanting": 9344,
    "wants": 9345,
    "wap": 9346,
    "war": 9347,
    "ward": 9348,
    "wards": 9349,
    "ware": 9350,
    "warm": 9351,
    "warning": 9352,
    "warnings": 9353,
    "warri": 9354,
    "warriors": 9355,
    "wars": 9356,
    "was": 9357,
    "wash": 9358,
    "washed": 9359,
    "washing": 9360,
    "washington": 9361,
    "wasn": 9362,
    "wasnt": 9363,
    "waste": 9364,
    "wasted": 9365,
    "wasting": 9366,
    "wat": 9367,
    "watch": 9368,
    "watchable": 9369,
    "watched": 9370,
    "watches": 9371,
    "watchin": 9372,
    "watching": 9373,
    "water": 9374,
    "watson": 9375,
    "wave": 9376,
    "waw": 9377,
    "way": 9378,
    "wayne": 9379,
    "ways": 9380,
    "wayyy": 9381,
    "wd": 9382,
    "we": 9383,
    "wea": 9384,
    "weak": 9385,
    "weakest": 9386,
    "weakness": 9387,
    "weapon": 9388,
    "weapons": 9389,
    "wear": 9390,
    "wearing": 9391,
    "weather": 9392,
    "web": 9393,
    "wed": 9394,
    "wedding": 9395,
    "wee": 9396,
    "week": 9397,
    "weekend": 9398,
    "weekly": 9399,
    "weeknd": 9400,
    "weeks": 9401,
    "ween": 9402,
    "weep": 9403,
    "wei": 9404,
    "weight": 9405,
    "weir": 9406,
    "weird": 9407,
    "wel": 9408,
    "welcome": 9409,
    "well": 9410,
    "welp": 9411,
    "wen": 9412,
    "went": 9413,
    "wentz": 9414,
    "wer": 9415,
    "were": 9416,
    "weren": 9417,
    "werent": 9418,
    "west": 9419,
    "western": 9420,
    "wet": 9421,
    "weve": 9422,
    "wh": 9423,
    "wha": 9424,
    "whaaa": 9425,
    "whack": 9426,
    "what": 9427,
    "whatever": 9428,
    "whats": 9429,
    "whe": 9430,
    "wheel": 9431,
    "wheels": 9432,
    "whel": 9433,
    "whelming": 9434,
    "when": 9435,
    "whenever": 9436,
    "whens": 9437,
    "where": 9438,
    "wheres": 9439,
    "whether": 9440,
    "whi": 9441,
    "which": 9442,
    "whil": 9443,
    "while": 9444,
    "whilst": 9445,
    "whining": 9446,
    "whipping": 9447,
    "whit": 9448,
    "white": 9449,
    "whites": 9450,
    "who": 9451,
    "whoa": 9452,
    "whoever": 9453,
    "whole": 9454,
    "wholesome": 9455,
    "whom": 9456,
    "whoop": 9457,
    "whooped": 9458,
    "whooping": 9459,
    "whop": 9460,
    "whopped": 9461,
    "whos": 9462,
    "whose": 9463,
    "why": 9464,
    "whyyy": 9465,
    "wi": 9466,
    "wich": 9467,
    "wick": 9468,
    "wicked": 9469,
    "wid": 9470,
    "wide": 9471,
    "wie": 9472,
    "wieder": 9473,
    "wife": 9474,
    "wig": 9475,
    "wil": 9476,
    "wild": 9477,
    "will": 9478,
    "willi": 9479,
    "william": 9480,
    "williams": 9481,
    "willing": 9482,
    "willnever": 9483,
    "wilson": 9484,
    "win": 9485,
    "wind": 9486,
    "window": 9487,
    "windows": 9488,
    "winds": 9489,
    "wine": 9490,
    "wing": 9491,
    "wink": 9492,
    "winner": 9493,
    "winners": 9494,
    "winning": 9495,
    "wins": 9496,
    "winter": 9497,
    "wipe": 9498,
    "wiped": 9499,
    "wird": 9500,
    "wis": 9501,
    "wise": 9502,
    "wish": 9503,
    "wished": 9504,
    "wishes": 9505,
    "wishing": 9506,
    "wit": 9507,
    "witch": 9508,
    "with": 9509,
    "within": 9510,
    "without": 9511,
    "witness": 9512,
    "witnessed": 9513,
    "witnessing": 9514,
    "wives": 9515,
    "wk": 9516,
    "wl": 9517,
    "wn": 9518,
    "wo": 9519,
    "woah": 9520,
    "wok": 9521,
    "woke": 9522,
    "wol": 9523,
    "wolves": 9524,
    "wom": 9525,
    "woman": 9526,
    "women": 9527,
    "womp": 9528,
    "won": 9529,
    "wonder": 9530,
    "wondered": 9531,
    "wonderful": 9532,
    "wondering": 9533,
    "wont": 9534,
    "woo": 9535,
    "wood": 9536,
    "woof": 9537,
    "wooo": 9538,
    "wooow": 9539,
    "wooowww": 9540,
    "wop": 9541,
    "wopwop": 9542,
    "wor": 9543,
    "word": 9544,
    "words": 9545,
    "wore": 9546,
    "work": 9547,
    "worked": 9548,
    "working": 9549,
    "workout": 9550,
    "works": 9551,
    "world": 9552,
    "worlds": 9553,
    "worldwide": 9554,
    "worm": 9555,
    "worried": 9556,
    "worry": 9557,
    "worrying": 9558,
    "worse": 9559,
    "worst": 9560,
    "worth": 9561,
    "worthless": 9562,
    "worthy": 9563,
    "would": 9564,
    "woulda": 9565,
    "wouldn": 9566,
    "wouldnt": 9567,
    "wouldve": 9568,
    "wow": 9569,
    "wowww": 9570,
    "wr": 9571,
    "wra": 9572,
    "wrap": 9573,
    "wrapped": 9574,
    "wre": 9575,
    "wrecked": 9576,
    "wrest": 9577,
    "wright": 9578,
    "writ": 9579,
    "write": 9580,
    "writers": 9581,
    "writing": 9582,
    "written": 9583,
    "wrong": 9584,
    "wrote": 9585,
    "ws": 9586,
    "wt": 9587,
    "wtf": 9588,
    "wth": 9589,
    "wu": 9590,
    "ww": 9591,
    "ww3": 9592,
    "wwe": 9593,
    "wwi": 9594,
    "www": 9595,
    "wy": 9596,
    "wynette": 9597,
    "x": 9598,
    "xa": 9599,
    "xai": 9600,
    "xai315k": 9601,
    "xavier": 9602,
    "xbox": 9603,
    "xd": 9604,
    "xe": 9605,
    "xi": 9606,
    "xic": 9607,
    "xico": 9608,
    "xo": 9609,
    "xrp": 9610,
    "xs": 9611,
    "xt": 9612,
    "xter": 9613,
    "xx": 9614,
    "xxx": 9615,
    "xxxt": 9616,
    "xxxtentac": 9617,
    "xxxtentacion": 9618,
    "y": 9619,
    "ya": 9620,
    "yaa": 9621,
    "yach": 9622,
    "yah": 9623,
    "yal": 9624,
    "yall": 9625,
    "yan": 9626,
    "yang": 9627,
    "yap": 9628,
    "yard": 9629,
    "yards": 9630,
    "yas": 9631,
    "yasss": 9632,
    "yay": 9633,
    "yayyy": 9634,
    "yd": 9635,
    "yds": 9636,
    "ye": 9637,
    "yea": 9638,
    "yeaa": 9639,
    "yeaaa": 9640,
    "yeah": 9641,
    "yeahh": 9642,
    "yeahhh": 9643,
    "year": 9644,
    "years": 9645,
    "yed": 9646,
    "yee": 9647,
    "yeee": 9648,
    "yell": 9649,
    "yelled": 9650,
    "yelling": 9651,
    "yellow": 9652,
    "yep": 9653,
    "yer": 9654,
    "yers": 9655,
    "yes": 9656,
    "yess": 9657,
    "yessir": 9658,
    "yesss": 9659,
    "yesterday": 9660,
    "yet": 9661,
    "yg": 9662,
    "yi": 9663,
    "yikes": 9664,
    "ying": 9665,
    "yk": 9666,
    "yn": 9667,
    "yo": 9668,
    "yok": 9669,
    "yon": 9670,
    "yoo": 9671,
    "yooo": 9672,
    "yor": 9673,
    "york": 9674,
    "yorum": 9675,
    "you": 9676,
    "youll": 9677,
    "youn": 9678,
    "young": 9679,
    "younger": 9680,
    "your": 9681,
    "youre": 9682,
    "yours": 9683,
    "yourself": 9684,
    "yourselves": 9685,
    "youtube": 9686,
    "youtuber": 9687,
    "youtubers": 9688,
    "youve": 9689,
    "yp": 9690,
    "yr": 9691,
    "yrs": 9692,
    "ys": 9693,
    "yt": 9694,
    "yu": 9695,
    "yum": 9696,
    "yun": 9697,
    "yup": 9698,
    "yy": 9699,
    "yyy": 9700,
    "z": 9701,
    "za": 9702,
    "zach": 9703,
    "zak": 9704,
    "zar": 9705,
    "ze": 9706,
    "zebra": 9707,
    "zebras": 9708,
    "zed": 9709,
    "zen": 9710,
    "zenglen": 9711,
    "zer": 9712,
    "zerar": 9713,
    "zero": 9714,
    "zes": 9715,
    "zheng": 9716,
    "zhi": 9717,
    "zi": 9718,
    "zillion": 9719,
    "zin": 9720,
    "zing": 9721,
    "zo": 9722,
    "zom": 9723,
    "zone": 9724,
    "zoo": 9725,
    "zoom": 9726,
    "zs": 9727,
    "zt": 9728,
    "zu": 9729,
    "zy": 9730,
    "zz": 9731,
    "zzle": 9732,
    "zzy": 9733,
    "zzz": 9734,
    "CLS": 9735,
    "SEP": 9736,
    "PAD": 9737
  },
  "merges": [
    [
      "t",
      "h"
    ],
    [
      "i",
      "n"
    ],
    [
      "th",
      "e"
    ],
    [
      "e",
      "r"
    ],
    [
      "a",
      "n"
    ],
    [
      "i",
      "s"
    ],
    [
      "a",
      "t"
    ],
    [
      "o",
      "n"
    ],
    [
      "r",
      "e"
    ],
    [
      "m",
      "e"
    ],
    [
      "s",
      "t"
    ],
    [
      "o",
      "u"
    ],
    [
      "in",
      "g"
    ],
    [
      "e",
      "n"
    ],
    [
      "a",
      "l"
    ],
    [
      "o",
      "r"
    ],
    [
      "l",
      "e"
    ],
    [
      "t",
      "o"
    ],
    [
      "i",
      "t"
    ],
    [
      "a",
      "s"
    ],
    [
      "c",
      "h"
    ],
    [
      "a",
      "r"
    ],
    [
      "e",
      "d"
    ],
    [
      "o",
      "w"
    ],
    [
      "th",
      "is"
    ],
    [
      "b",
      "e"
    ],
    [
      "an",
      "d"
    ],
    [
      "a",
      "y"
    ],
    [
      "i",
      "l"
    ],
    [
      "v",
      "e"
    ],
    [
      "c",
      "k"
    ],
    [
      "s",
      "e"
    ],
    [
      "k",
      "e"
    ],
    [
      "w",
      "h"
    ],
    [
      "a",
      "g"
    ],
    [
      "d",
      "e"
    ],
    [
      "f",
      "or"
    ],
    [
      "l",
      "i"
    ],
    [
      "l",
      "y"
    ],
    [
      "y",
      "ou"
    ],
    [
      "t",
      "i"
    ],
    [
      "o",
      "f"
    ],
    [
      "o",
      "t"
    ],
    [
      "r",
      "a"
    ],
    [
      "v",
      "er"
    ],
    [
      "s",
      "o"
    ],
    [
      "l",
      "o"
    ],
    [
      "a",
      "me"
    ],
    [
      "c",
      "e"
    ],
    [
      "a",
      "m"
    ],
    [
      "h",
      "e"
    ],
    [
      "r",
      "o"
    ],
    [
      "h",
      "a"
    ],
    [
      "i",
      "e"
    ],
    [
      "w",
      "as"
    ],
    [
      "th",
      "at"
    ],
    [
      "p",
      "er"
    ],
    [
      "c",
      "o"
    ],
    [
      "r",
      "i"
    ],
    [
      "g",
      "o"
    ],
    [
      "g",
      "ame"
    ],
    [
      "s",
      "u"
    ],
    [
      "u",
      "t"
    ],
    [
      "le",
      "s"
    ],
    [
      "e",
      "s"
    ],
    [
      "m",
      "a"
    ],
    [
      "w",
      "e"
    ],
    [
      "al",
      "l"
    ],
    [
      "i",
      "d"
    ],
    [
      "s",
      "h"
    ],
    [
      "m",
      "o"
    ],
    [
      "ti",
      "me"
    ],
    [
      "er",
      "e"
    ],
    [
      "p",
      "l"
    ],
    [
      "f",
      "s"
    ],
    [
      "e",
      "ag"
    ],
    [
      "b",
      "a"
    ],
    [
      "n",
      "e"
    ],
    [
      "on",
      "e"
    ],
    [
      "il",
      "l"
    ],
    [
      "l",
      "d"
    ],
    [
      "eag",
      "les"
    ],
    [
      "g",
      "h"
    ],
    [
      "li",
      "ke"
    ],
    [
      "at",
      "ch"
    ],
    [
      "p",
      "e"
    ],
    [
      "i",
      "m"
    ],
    [
      "ou",
      "t"
    ],
    [
      "u",
      "n"
    ],
    [
      "t",
      "a"
    ],
    [
      "w",
      "atch"
    ],
    [
      "u",
      "st"
    ],
    [
      "v",
      "i"
    ],
    [
      "t",
      "er"
    ],
    [
      "m",
      "an"
    ],
    [
      "c",
      "an"
    ],
    [
      "1",
      "0"
    ],
    [
      "en",
      "d"
    ],
    [
      "i",
      "r"
    ],
    [
      "g",
      "e"
    ],
    [
      "w",
      "i"
    ],
    [
      "pl",
      "ay"
    ],
    [
      "n",
      "ot"
    ],
    [
      "a",
      "d"
    ],
    [
      "e",
      "ver"
    ],
    [
      "h",
      "o"
    ],
    [
      "ch",
      "ie"
    ],
    [
      "the",
      "y"
    ],
    [
      "m",
      "y"
    ],
    [
      "i",
      "c"
    ],
    [
      "chie",
      "fs"
    ],
    [
      "a",
      "b"
    ],
    [
      "b",
      "ut"
    ],
    [
      "d",
      "o"
    ],
    [
      "n",
      "t"
    ],
    [
      "a",
      "in"
    ],
    [
      "a",
      "re"
    ],
    [
      "n",
      "o"
    ],
    [
      "ba",
      "ck"
    ],
    [
      "l",
      "l"
    ],
    [
      "i",
      "on"
    ],
    [
      "su",
      "per"
    ],
    [
      "j",
      "ust"
    ],
    [
      "2",
      "0"
    ],
    [
      "c",
      "on"
    ],
    [
      "ou",
      "ld"
    ],
    [
      "t",
      "e"
    ],
    [
      "o",
      "p"
    ],
    [
      "t",
      "s"
    ],
    [
      "y",
      "e"
    ],
    [
      "wi",
      "th"
    ],
    [
      "u",
      "s"
    ],
    [
      "o",
      "k"
    ],
    [
      "al",
      "ly"
    ],
    [
      "n",
      "ow"
    ],
    [
      "b",
      "ow"
    ],
    [
      "ha",
      "ve"
    ],
    [
      "th",
      "an"
    ],
    [
      "bow",
      "l"
    ],
    [
      "wh",
      "at"
    ],
    [
      "o",
      "d"
    ],
    [
      "u",
      "p"
    ],
    [
      "h",
      "ere"
    ],
    [
      "h",
      "is"
    ],
    [
      "ri",
      "ck"
    ],
    [
      "d",
      "id"
    ],
    [
      "ag",
      "ain"
    ],
    [
      "f",
      "e"
    ],
    [
      "gh",
      "t"
    ],
    [
      "co",
      "m"
    ],
    [
      "wh",
      "o"
    ],
    [
      "sh",
      "ow"
    ],
    [
      "ge",
      "t"
    ],
    [
      "u",
      "r"
    ],
    [
      "q",
      "u"
    ],
    [
      "c",
      "t"
    ],
    [
      "k",
      "end"
    ],
    [
      "p",
      "h"
    ],
    [
      "me",
      "s"
    ],
    [
      "u",
      "l"
    ],
    [
      "d",
      "ay"
    ],
    [
      "kend",
      "rick"
    ],
    [
      "p",
      "p"
    ],
    [
      "w",
      "or"
    ],
    [
      "i",
      "f"
    ],
    [
      "se",
      "e"
    ],
    [
      "d",
      "ra"
    ],
    [
      "n",
      "a"
    ],
    [
      "at",
      "e"
    ],
    [
      "h",
      "ow"
    ],
    [
      "en",
      "t"
    ],
    [
      "f",
      "o"
    ],
    [
      "so",
      "me"
    ],
    [
      "ever",
      "y"
    ],
    [
      "l",
      "a"
    ],
    [
      "dra",
      "ke"
    ],
    [
      "ye",
      "ar"
    ],
    [
      "g",
      "re"
    ],
    [
      "e",
      "l"
    ],
    [
      "wh",
      "en"
    ],
    [
      "i",
      "ve"
    ],
    [
      "g",
      "ot"
    ],
    [
      "st",
      "ar"
    ],
    [
      "20",
      "2"
    ],
    [
      "s",
      "a"
    ],
    [
      "w",
      "ay"
    ],
    [
      "f",
      "an"
    ],
    [
      "w",
      "ill"
    ],
    [
      "b",
      "o"
    ],
    [
      "mo",
      "re"
    ],
    [
      "ar",
      "d"
    ],
    [
      "t",
      "ra"
    ],
    [
      "e",
      "x"
    ],
    [
      "lo",
      "ve"
    ],
    [
      "than",
      "k"
    ],
    [
      "per",
      "for"
    ],
    [
      "de",
      "o"
    ],
    [
      "ro",
      "m"
    ],
    [
      "ma",
      "ho"
    ],
    [
      "on",
      "g"
    ],
    [
      "p",
      "o"
    ],
    [
      "d",
      "on"
    ],
    [
      "the",
      "r"
    ],
    [
      "vi",
      "deo"
    ],
    [
      "f",
      "a"
    ],
    [
      "v",
      "ie"
    ],
    [
      "lo",
      "ok"
    ],
    [
      "m",
      "in"
    ],
    [
      "er",
      "s"
    ],
    [
      "s",
      "ay"
    ],
    [
      "th",
      "ing"
    ],
    [
      "f",
      "rom"
    ],
    [
      "10",
      "0"
    ],
    [
      "g",
      "u"
    ],
    [
      "g",
      "ta"
    ],
    [
      "go",
      "od"
    ],
    [
      "h",
      "al"
    ],
    [
      "watch",
      "ing"
    ],
    [
      "be",
      "st"
    ],
    [
      "es",
      "s"
    ],
    [
      "w",
      "in"
    ],
    [
      "hal",
      "f"
    ],
    [
      "b",
      "y"
    ],
    [
      "you",
      "r"
    ],
    [
      "v",
      "en"
    ],
    [
      "maho",
      "mes"
    ],
    [
      "it",
      "s"
    ],
    [
      "in",
      "e"
    ],
    [
      "r",
      "at"
    ],
    [
      "a",
      "u"
    ],
    [
      "man",
      "ce"
    ],
    [
      "me",
      "nt"
    ],
    [
      "m",
      "il"
    ],
    [
      "perfor",
      "mance"
    ],
    [
      "st",
      "ill"
    ],
    [
      "w",
      "a"
    ],
    [
      "ow",
      "n"
    ],
    [
      "gre",
      "at"
    ],
    [
      "at",
      "ion"
    ],
    [
      "p",
      "s"
    ],
    [
      "u",
      "m"
    ],
    [
      "vie",
      "w"
    ],
    [
      "an",
      "y"
    ],
    [
      "m",
      "i"
    ],
    [
      "an",
      "t"
    ],
    [
      "k",
      "now"
    ],
    [
      "f",
      "in"
    ],
    [
      "ab",
      "out"
    ],
    [
      "f",
      "l"
    ],
    [
      "0",
      "0"
    ],
    [
      "s",
      "er"
    ],
    [
      "a",
      "f"
    ],
    [
      "j",
      "o"
    ],
    [
      "i",
      "g"
    ],
    [
      "w",
      "ould"
    ],
    [
      "be",
      "t"
    ],
    [
      "f",
      "en"
    ],
    [
      "c",
      "i"
    ],
    [
      "te",
      "am"
    ],
    [
      "r",
      "y"
    ],
    [
      "the",
      "re"
    ],
    [
      "o",
      "ver"
    ],
    [
      "in",
      "k"
    ],
    [
      "le",
      "as"
    ],
    [
      "p",
      "re"
    ],
    [
      "m",
      "u"
    ],
    [
      "w",
      "ere"
    ],
    [
      "it",
      "y"
    ],
    [
      "o",
      "o"
    ],
    [
      "s",
      "s"
    ],
    [
      "view",
      "s"
    ],
    [
      "be",
      "en"
    ],
    [
      "n",
      "d"
    ],
    [
      "e",
      "p"
    ],
    [
      "wa",
      "it"
    ],
    [
      "ro",
      "ck"
    ],
    [
      "li",
      "on"
    ],
    [
      "re",
      "ally"
    ],
    [
      "n",
      "i"
    ],
    [
      "is",
      "t"
    ],
    [
      "ha",
      "d"
    ],
    [
      "tra",
      "il"
    ],
    [
      "b",
      "le"
    ],
    [
      "e",
      "ven"
    ],
    [
      "ar",
      "t"
    ],
    [
      "d",
      "i"
    ],
    [
      "r",
      "u"
    ],
    [
      "w",
      "on"
    ],
    [
      "wh",
      "y"
    ],
    [
      "th",
      "ink"
    ],
    [
      "half",
      "time"
    ],
    [
      "t",
      "ing"
    ],
    [
      "s",
      "c"
    ],
    [
      "the",
      "m"
    ],
    [
      "pe",
      "op"
    ],
    [
      "k",
      "ing"
    ],
    [
      "trail",
      "er"
    ],
    [
      "h",
      "im"
    ],
    [
      "l",
      "u"
    ],
    [
      "peop",
      "le"
    ],
    [
      "as",
      "on"
    ],
    [
      "it",
      "e"
    ],
    [
      "ch",
      "e"
    ],
    [
      "re",
      "al"
    ],
    [
      "mu",
      "ch"
    ],
    [
      "s",
      "p"
    ],
    [
      "p",
      "ro"
    ],
    [
      "ph",
      "il"
    ],
    [
      "re",
      "fs"
    ],
    [
      "af",
      "ter"
    ],
    [
      "go",
      "ing"
    ],
    [
      "d",
      "er"
    ],
    [
      "ou",
      "r"
    ],
    [
      "de",
      "fen"
    ],
    [
      "fo",
      "re"
    ],
    [
      "on",
      "ly"
    ],
    [
      "b",
      "ro"
    ],
    [
      "rock",
      "star"
    ],
    [
      "ne",
      "ver"
    ],
    [
      "ma",
      "ke"
    ],
    [
      "ti",
      "on"
    ],
    [
      "leas",
      "e"
    ],
    [
      "ha",
      "pp"
    ],
    [
      "mo",
      "st"
    ],
    [
      "bet",
      "ter"
    ],
    [
      "d",
      "own"
    ],
    [
      "mil",
      "lion"
    ],
    [
      "to",
      "m"
    ],
    [
      "s",
      "i"
    ],
    [
      "gu",
      "y"
    ],
    [
      "n",
      "fl"
    ],
    [
      "of",
      "f"
    ],
    [
      "h",
      "as"
    ],
    [
      "x",
      "t"
    ],
    [
      "ou",
      "s"
    ],
    [
      "202",
      "6"
    ],
    [
      "or",
      "y"
    ],
    [
      "co",
      "me"
    ],
    [
      "super",
      "bowl"
    ],
    [
      "o",
      "ther"
    ],
    [
      "f",
      "ir"
    ],
    [
      "f",
      "ul"
    ],
    [
      "we",
      "ll"
    ],
    [
      "ne",
      "ed"
    ],
    [
      "b",
      "ra"
    ],
    [
      "ou",
      "gh"
    ],
    [
      "qu",
      "e"
    ],
    [
      "c",
      "ra"
    ],
    [
      "as",
      "s"
    ],
    [
      "s",
      "ong"
    ],
    [
      "ver",
      "y"
    ],
    [
      "ne",
      "w"
    ],
    [
      "v",
      "ed"
    ],
    [
      "time",
      "s"
    ],
    [
      "d",
      "s"
    ],
    [
      "c",
      "au"
    ],
    [
      "ou",
      "nd"
    ],
    [
      "p",
      "r"
    ],
    [
      "m",
      "ay"
    ],
    [
      "the",
      "ir"
    ],
    [
      "fir",
      "st"
    ],
    [
      "d",
      "y"
    ],
    [
      "b",
      "r"
    ],
    [
      "c",
      "ould"
    ],
    [
      "ne",
      "xt"
    ],
    [
      "am",
      "a"
    ],
    [
      "to",
      "o"
    ],
    [
      "lo",
      "l"
    ],
    [
      "st",
      "op"
    ],
    [
      "watch",
      "ed"
    ],
    [
      "f",
[...]
