{
  "vocab": {
    "/": 0,
    "/10</w>": 1,
    "/25</w>": 2,
    "/</w>": 3,
    "0": 4,
    "00": 5,
    "000</w>": 6,
    "000th</w>": 7,
    "00</w>": 8,
    "01</w>": 9,
    "02</w>": 10,
    "03/": 11,
    "03</w>": 12,
    "04</w>": 13,
    "05</w>": 14,
    "06</w>": 15,
    "07</w>": 16,
    "08</w>": 17,
    "09</w>": 18,
    "0</w>": 19,
    "0k</w>": 20,
    "0m</w>": 21,
    "0s</w>": 22,
    "0th</w>": 23,
    "1": 24,
    "1/": 25,
    "1/2</w>": 26,
    "10": 27,
    "10/": 28,
    "10/10</w>": 29,
    "100": 30,
    "1000</w>": 31,
    "1000th</w>": 32,
    "100</w>": 33,
    "100k</w>": 34,
    "100m</w>": 35,
    "100mil</w>": 36,
    "100million</w>": 37,
    "100th</w>": 38,
    "101</w>": 39,
    "102</w>": 40,
    "103</w>": 41,
    "104</w>": 42,
    "106</w>": 43,
    "10</w>": 44,
    "10m</w>": 45,
    "10th</w>": 46,
    "10x</w>": 47,
    "11": 48,
    "110</w>": 49,
    "111</w>": 50,
    "11</w>": 51,
    "11th</w>": 52,
    "12": 53,
    "1200</w>": 54,
    "120</w>": 55,
    "125</w>": 56,
    "12</w>": 57,
    "12th</w>": 58,
    "13": 59,
    "1300</w>": 60,
    "130</w>": 61,
    "13</w>": 62,
    "13th</w>": 63,
    "14": 64,
    "1400</w>": 65,
    "14</w>": 66,
    "14th</w>": 67,
    "15": 68,
    "1500</w>": 69,
    "150</w>": 70,
    "15</w>": 71,
    "15th</w>": 72,
    "16": 73,
    "1600</w>": 74,
    "1650</w>": 75,
    "16</w>": 76,
    "16th</w>": 77,
    "17": 78,
    "1700</w>": 79,
    "1750</w>": 80,
    "17</w>": 81,
    "18": 82,
    "1800</w>": 83,
    "180</w>": 84,
    "1850</w>": 85,
    "18</w>": 86,
    "19": 87,
    "1900</w>": 88,
    "1950</w>": 89,
    "19</w>": 90,
    "19th</w>": 91,
    "1</w>": 92,
    "1b</w>": 93,
    "1m</w>": 94,
    "1st</w>": 95,
    "2": 96,
    "2/": 97,
    "20": 98,
    "200": 99,
    "2000</w>": 100,
    "2004</w>": 101,
    "200</w>": 102,
    "200m</w>": 103,
    "2013</w>": 104,
    "2014</w>": 105,
    "2015</w>": 106,
    "2016</w>": 107,
    "2017</w>": 108,
    "2018</w>": 109,
    "2019</w>": 110,
    "202": 111,
    "2020</w>": 112,
    "2021</w>": 113,
    "2022</w>": 114,
    "2023</w>": 115,
    "2024</w>": 116,
    "2025</w>": 117,
    "2026</w>": 118,
    "2028</w>": 119,
    "2050</w>": 120,
    "20</w>": 121,
    "20s</w>": 122,
    "20th</w>": 123,
    "2100</w>": 124,
    "21</w>": 125,
    "21st</w>": 126,
    "22": 127,
    "2200</w>": 128,
    "22</w>": 129,
    "23": 130,
    "2300</w>": 131,
    "23</w>": 132,
    "24": 133,
    "24/": 134,
    "2400</w>": 135,
    "24</w>": 136,
    "25</w>": 137,
    "26": 138,
    "26</w>": 139,
    "27": 140,
    "27</w>": 141,
    "28": 142,
    "28</w>": 143,
    "28th</w>": 144,
    "29</w>": 145,
    "2</w>": 146,
    "2m</w>": 147,
    "2nd</w>": 148,
    "2pac</w>": 149,
    "2x</w>": 150,
    "3": 151,
    "3/": 152,
    "30": 153,
    "300</w>": 154,
    "30</w>": 155,
    "30th</w>": 156,
    "315": 157,
    "31</w>": 158,
    "32</w>": 159,
    "33</w>": 160,
    "34": 161,
    "34</w>": 162,
    "35</w>": 163,
    "36</w>": 164,
    "37</w>": 165,
    "38</w>": 166,
    "39</w>": 167,
    "3</w>": 168,
    "3peat</w>": 169,
    "3rd</w>": 170,
    "4": 171,
    "4/": 172,
    "4/2025</w>": 173,
    "40": 174,
    "40</w>": 175,
    "41</w>": 176,
    "42</w>": 177,
    "43</w>": 178,
    "44</w>": 179,
    "45</w>": 180,
    "46": 181,
    "46</w>": 182,
    "47": 183,
    "47</w>": 184,
    "48</w>": 185,
    "49": 186,
    "49</w>": 187,
    "49er</w>": 188,
    "49ers</w>": 189,
    "4</w>": 190,
    "4th</w>": 191,
    "5": 192,
    "5/": 193,
    "50": 194,
    "500</w>": 195,
    "50</w>": 196,
    "50th</w>": 197,
    "51</w>": 198,
    "52</w>": 199,
    "53": 200,
    "53</w>": 201,
    "54": 202,
    "54</w>": 203,
    "55</w>": 204,
    "56": 205,
    "56</w>": 206,
    "57": 207,
    "57</w>": 208,
    "58</w>": 209,
    "59</w>": 210,
    "5</w>": 211,
    "5m</w>": 212,
    "5th</w>": 213,
    "6": 214,
    "60</w>": 215,
    "60s</w>": 216,
    "62</w>": 217,
    "64</w>": 218,
    "65</w>": 219,
    "66</w>": 220,
    "68</w>": 221,
    "69</w>": 222,
    "6</w>": 223,
    "6th</w>": 224,
    "7": 225,
    "70</w>": 226,
    "71</w>": 227,
    "74</w>": 228,
    "75</w>": 229,
    "7</w>": 230,
    "7th</w>": 231,
    "8": 232,
    "80": 233,
    "80</w>": 234,
    "80s</w>": 235,
    "81</w>": 236,
    "83": 237,
    "84</w>": 238,
    "85</w>": 239,
    "86": 240,
    "86</w>": 241,
    "87</w>": 242,
    "88": 243,
    "88</w>": 244,
    "89</w>": 245,
    "8</w>": 246,
    "8th</w>": 247,
    "9": 248,
    "900</w>": 249,
    "90</w>": 250,
    "90m</w>": 251,
    "91</w>": 252,
    "93</w>": 253,
    "94</w>": 254,
    "95</w>": 255,
    "96</w>": 256,
    "98</w>": 257,
    "99": 258,
    "99</w>": 259,
    "9</w>": 260,
    "9ers</w>": 261,
    "9th</w>": 262,
    "<": 263,
    "</w>": 264,
    "<3</w>": 265,
    "<URL></w>": 266,
    "<unk>": 267,
    ">": 268,
    "></w>": 269,
    ">>": 270,
    ">>></w>": 271,
    "_": 272,
    "_</w>": 273,
    "__": 274,
    "a": 275,
    "a1</w>": 276,
    "a</w>": 277,
    "aa": 278,
    "aa</w>": 279,
    "aaa</w>": 280,
    "aaand</w>": 281,
    "aah</w>": 282,
    "aahhh</w>": 283,
    "aaron</w>": 284,
    "ab": 285,
    "ab</w>": 286,
    "abili": 287,
    "abilities</w>": 288,
    "ability</w>": 289,
    "able</w>": 290,
    "ably</w>": 291,
    "abo": 292,
    "aboli": 293,
    "aboo</w>": 294,
    "about</w>": 295,
    "above</w>": 296,
    "absolu": 297,
    "absolute</w>": 298,
    "absolutely</w>": 299,
    "abt</w>": 300,
    "abu": 301,
    "aby": 302,
    "ac": 303,
    "ac</w>": 304,
    "acc": 305,
    "accent</w>": 306,
    "acci": 307,
    "accomp": 308,
    "accompli": 309,
    "accor": 310,
    "according</w>": 311,
    "account</w>": 312,
    "accu": 313,
    "accura": 314,
    "accurate</w>": 315,
    "ace</w>": 316,
    "ach</w>": 317,
    "achiev": 318,
    "achieve</w>": 319,
    "achieved</w>": 320,
    "ack": 321,
    "ack</w>": 322,
    "acknow": 323,
    "acknowledge</w>": 324,
    "acres</w>": 325,
    "across</w>": 326,
    "act</w>": 327,
    "acting</w>": 328,
    "action</w>": 329,
    "actu": 330,
    "actual</w>": 331,
    "actually</w>": 332,
    "ad": 333,
    "ad</w>": 334,
    "ada</w>": 335,
    "adam</w>": 336,
    "add": 337,
    "add</w>": 338,
    "added</w>": 339,
    "addic": 340,
    "addicted</w>": 341,
    "addicting</w>": 342,
    "addiction</w>": 343,
    "addictive</w>": 344,
    "adding</w>": 345,
    "addre": 346,
    "adds</w>": 347,
    "ade</w>": 348,
    "aded</w>": 349,
    "ading</w>": 350,
    "admi": 351,
    "admit</w>": 352,
    "ado</w>": 353,
    "ador": 354,
    "adorable</w>": 355,
    "ads</w>": 356,
    "adv": 357,
    "advan": 358,
    "advantage</w>": 359,
    "adver": 360,
    "advice</w>": 361,
    "af": 362,
    "af</w>": 363,
    "afc</w>": 364,
    "affe": 365,
    "affected</w>": 366,
    "afford</w>": 367,
    "afraid</w>": 368,
    "afric": 369,
    "africa</w>": 370,
    "african</w>": 371,
    "after": 372,
    "after</w>": 373,
    "afterwards</w>": 374,
    "ag": 375,
    "aga": 376,
    "again": 377,
    "again</w>": 378,
    "againnn</w>": 379,
    "against</w>": 380,
    "age</w>": 381,
    "aged</w>": 382,
    "ages</w>": 383,
    "agg": 384,
    "aggressive</w>": 385,
    "aging</w>": 386,
    "ago</w>": 387,
    "agree</w>": 388,
    "ah": 389,
    "ah</w>": 390,
    "ahead</w>": 391,
    "ahh</w>": 392,
    "ahhh</w>": 393,
    "ai": 394,
    "ai</w>": 395,
    "aight</w>": 396,
    "ain</w>": 397,
    "aint</w>": 398,
    "air": 399,
    "air</w>": 400,
    "aire</w>": 401,
    "aired</w>": 402,
    "aj</w>": 403,
    "aja</w>": 404,
    "ak": 405,
    "ak</w>": 406,
    "aka</w>": 407,
    "al": 408,
    "al</w>": 409,
    "alab": 410,
    "alabama</w>": 411,
    "album</w>": 412,
    "alco": 413,
    "alcohol</w>": 414,
    "ald</w>": 415,
    "ale</w>": 416,
    "alg": 417,
    "algo</w>": 418,
    "algorithm</w>": 419,
    "algu": 420,
    "ali": 421,
    "ali</w>": 422,
    "alien</w>": 423,
    "ality</w>": 424,
    "alive</w>": 425,
    "alkatiri</w>": 426,
    "all": 427,
    "all</w>": 428,
    "allen</w>": 429,
    "alling</w>": 430,
    "alll</w>": 431,
    "allow</w>": 432,
    "allowed</w>": 433,
    "allowing</w>": 434,
    "ally</w>": 435,
    "almost</w>": 436,
    "alo</w>": 437,
    "alone</w>": 438,
    "along</w>": 439,
    "alongside</w>": 440,
    "alot</w>": 441,
    "already</w>": 442,
    "alright</w>": 443,
    "als</w>": 444,
    "also</w>": 445,
    "although</w>": 446,
    "alty</w>": 447,
    "alu": 448,
    "always</w>": 449,
    "aly</w>": 450,
    "am": 451,
    "am</w>": 452,
    "ama": 453,
    "ama</w>": 454,
    "amate": 455,
    "amateur</w>": 456,
    "amaz": 457,
    "amazed</w>": 458,
    "amazing</w>": 459,
    "amazingly</w>": 460,
    "amazon</w>": 461,
    "amen</w>": 462,
    "amer": 463,
    "ameri": 464,
    "americ": 465,
    "america</w>": 466,
    "american</w>": 467,
    "americanos</w>": 468,
    "americans</w>": 469,
    "americas</w>": 470,
    "amerikkka</w>": 471,
    "amo</w>": 472,
    "among</w>": 473,
    "amos</w>": 474,
    "amoun": 475,
    "amount</w>": 476,
    "ams</w>": 477,
    "an": 478,
    "an</w>": 479,
    "ana</w>": 480,
    "anal": 481,
    "analy": 482,
    "analysis</w>": 483,
    "ance</w>": 484,
    "anced</w>": 485,
    "ances</w>": 486,
    "and": 487,
    "and</w>": 488,
    "ando</w>": 489,
    "andre</w>": 490,
    "andy</w>": 491,
    "ang": 492,
    "ang</w>": 493,
    "ange": 494,
    "ange</w>": 495,
    "angel</w>": 496,
    "angels</w>": 497,
    "angle</w>": 498,
    "angles</w>": 499,
    "angry</w>": 500,
    "ani": 501,
    "ani</w>": 502,
    "ania</w>": 503,
    "ann": 504,
    "anna</w>": 505,
    "anner</w>": 506,
    "anni": 507,
    "anni</w>": 508,
    "annihilated</w>": 509,
    "annihilation</w>": 510,
    "anniversary</w>": 511,
    "annnd</w>": 512,
    "anno": 513,
    "announ": 514,
    "announc": 515,
    "announcer</w>": 516,
    "announcers</w>": 517,
    "announcing</w>": 518,
    "annoying</w>": 519,
    "anos</w>": 520,
    "another</w>": 521,
    "ans</w>": 522,
    "answ": 523,
    "answer</w>": 524,
    "ant</w>": 525,
    "ante": 526,
    "ante</w>": 527,
    "anthem</w>": 528,
    "anti</w>": 529,
    "antly</w>": 530,
    "ants</w>": 531,
    "any": 532,
    "any</w>": 533,
    "anybody</w>": 534,
    "anymore</w>": 535,
    "anyone</w>": 536,
    "anything</w>": 537,
    "anytime</w>": 538,
    "anyway</w>": 539,
    "anyways</w>": 540,
    "anywhere</w>": 541,
    "ao</w>": 542,
    "ap": 543,
    "ap</w>": 544,
    "apa</w>": 545,
    "apart</w>": 546,
    "apo": 547,
    "apolo": 548,
    "apologi": 549,
    "apologize</w>": 550,
    "apology</w>": 551,
    "app": 552,
    "appar": 553,
    "apparently</w>": 554,
    "appear": 555,
    "appearance</w>": 556,
    "appearances</w>": 557,
    "appears</w>": 558,
    "appla": 559,
    "applause</w>": 560,
    "apple</w>": 561,
    "appreci": 562,
    "appreciate</w>": 563,
    "appreciated</w>": 564,
    "appro": 565,
    "apresenta": 566,
    "apresentao</w>": 567,
    "april</w>": 568,
    "apy</w>": 569,
    "aqu": 570,
    "aqu</w>": 571,
    "aqui</w>": 572,
    "ar": 573,
    "ar</w>": 574,
    "ara</w>": 575,
    "ard</w>": 576,
    "ards</w>": 577,
    "are": 578,
    "are</w>": 579,
    "area</w>": 580,
    "ared</w>": 581,
    "aren</w>": 582,
    "arena</w>": 583,
    "arent</w>": 584,
    "ares</w>": 585,
    "argent": 586,
    "argu": 587,
    "arguably</w>": 588,
    "argument</w>": 589,
    "ari": 590,
    "aries</w>": 591,
    "arily</w>": 592,
    "ark</w>": 593,
    "arly</w>": 594,
    "arm</w>": 595,
    "arms</w>": 596,
    "aron</w>": 597,
    "around</w>": 598,
    "arr": 599,
    "arra": 600,
    "arri": 601,
    "arrog": 602,
    "arrogance</w>": 603,
    "arrogant</w>": 604,
    "arrrddd</w>": 605,
    "ars</w>": 606,
    "arse</w>": 607,
    "art</w>": 608,
    "arti": 609,
    "artist</w>": 610,
    "artistic</w>": 611,
    "artistry</w>": 612,
    "artists</w>": 613,
    "arts</w>": 614,
    "ary</w>": 615,
    "as": 616,
    "as</w>": 617,
    "ased</w>": 618,
    "asf</w>": 619,
    "ashamed</w>": 620,
    "asi": 621,
    "asi</w>": 622,
    "asian</w>": 623,
    "aside</w>": 624,
    "ask</w>": 625,
    "asked</w>": 626,
    "asking</w>": 627,
    "asks</w>": 628,
    "asl</w>": 629,
    "aspe": 630,
    "aspect</w>": 631,
    "ass": 632,
    "ass</w>": 633,
    "assa": 634,
    "assassin</w>": 635,
    "asse": 636,
    "assi": 637,
    "assign": 638,
    "assignment</w>": 639,
    "asss</w>": 640,
    "assu": 641,
    "assume</w>": 642,
    "assuming</w>": 643,
    "ast": 644,
    "ast</w>": 645,
    "at": 646,
    "at</w>": 647,
    "ate</w>": 648,
    "ated</w>": 649,
    "ately</w>": 650,
    "ates</w>": 651,
    "ath": 652,
    "athle": 653,
    "athletes</w>": 654,
    "ating</w>": 655,
    "ation</w>": 656,
    "ational</w>": 657,
    "ations</w>": 658,
    "atleast</w>": 659,
    "ator</w>": 660,
    "atro": 661,
    "atrocious</w>": 662,
    "ats</w>": 663,
    "att": 664,
    "att</w>": 665,
    "attac": 666,
    "attack</w>": 667,
    "attemp": 668,
    "attempt</w>": 669,
    "attempts</w>": 670,
    "attend": 671,
    "attendance</w>": 672,
    "attention</w>": 673,
    "atti": 674,
    "attitude</w>": 675,
    "attra": 676,
    "attracted</w>": 677,
    "attractive</w>": 678,
    "attt</w>": 679,
    "au": 680,
    "au</w>": 681,
    "aubrey</w>": 682,
    "audi": 683,
    "audience</w>": 684,
    "audio</w>": 685,
    "aura</w>": 686,
    "aussi": 687,
    "aussie</w>": 688,
    "australi": 689,
    "australia</w>": 690,
    "auth": 691,
    "auto": 692,
    "auto</w>": 693,
    "automa": 694,
    "automatically</w>": 695,
    "autotune</w>": 696,
    "av": 697,
    "aven": 698,
    "avengers</w>": 699,
    "average</w>": 700,
    "avo": 701,
    "avoi": 702,
    "avoid</w>": 703,
    "avoiding</w>": 704,
    "aw": 705,
    "awa": 706,
    "award</w>": 707,
    "awards</w>": 708,
    "aware</w>": 709,
    "away</w>": 710,
    "awe</w>": 711,
    "awesome</w>": 712,
    "awful</w>": 713,
    "awhile</w>": 714,
    "awkward</w>": 715,
    "ay": 716,
    "ay</w>": 717,
    "aye</w>": 718,
    "ayo</w>": 719,
    "az": 720,
    "azchi": 721,
    "azchike</w>": 722,
    "b": 723,
    "b4</w>": 724,
    "b6</w>": 725,
    "b</w>": 726,
    "ba": 727,
    "ba</w>": 728,
    "baa": 729,
    "baaack</w>": 730,
    "bab": 731,
    "babe</w>": 732,
    "babies</w>": 733,
    "baby</w>": 734,
    "babyyy</w>": 735,
    "bac": 736,
    "back": 737,
    "back</w>": 738,
    "background</w>": 739,
    "backing</w>": 740,
    "backkk</w>": 741,
    "backs</w>": 742,
    "backup</w>": 743,
    "backups</w>": 744,
    "bad</w>": 745,
    "badass</w>": 746,
    "badly</w>": 747,
    "bag</w>": 748,
    "bail</w>": 749,
    "bailar": 750,
    "bailarines</w>": 751,
    "bailing</w>": 752,
    "bait</w>": 753,
    "bal": 754,
    "bal</w>": 755,
    "balanced</w>": 756,
    "ball": 757,
    "ball</w>": 758,
    "balled</w>": 759,
    "balls</w>": 760,
    "balti": 761,
    "baltimore</w>": 762,
    "bama</w>": 763,
    "ban": 764,
    "ban</w>": 765,
    "band</w>": 766,
    "bandwa": 767,
    "bandwagon</w>": 768,
    "bank</w>": 769,
    "banter</w>": 770,
    "bar": 771,
    "bar</w>": 772,
    "barely</w>": 773,
    "bark": 774,
    "barkley</w>": 775,
    "bars</w>": 776,
    "baru</w>": 777,
    "bas": 778,
    "base": 779,
    "base</w>": 780,
    "baseball</w>": 781,
    "based</w>": 782,
    "basic</w>": 783,
    "basically</w>": 784,
    "bask": 785,
    "basketball</w>": 786,
    "bass</w>": 787,
    "batt": 788,
    "battle</w>": 789,
    "baun</w>": 790,
    "bay</w>": 791,
    "bb": 792,
    "bbing</w>": 793,
    "bc</w>": 794,
    "bday</w>": 795,
    "be": 796,
    "be</w>": 797,
    "bea": 798,
    "bear</w>": 799,
    "bears</w>": 800,
    "beast</w>": 801,
    "beat</w>": 802,
    "beatdown</w>": 803,
    "beaten</w>": 804,
    "beating</w>": 805,
    "beats</w>": 806,
    "beau": 807,
    "beauti": 808,
    "beautiful</w>": 809,
    "beautifully</w>": 810,
    "beauty</w>": 811,
    "became</w>": 812,
    "because</w>": 813,
    "become</w>": 814,
    "becomes</w>": 815,
    "becoming</w>": 816,
    "bed</w>": 817,
    "beef</w>": 818,
    "been</w>": 819,
    "beer</w>": 820,
    "beers</w>": 821,
    "before</w>": 822,
    "begging</w>": 823,
    "begin": 824,
    "begin</w>": 825,
    "beginner</w>": 826,
    "beginning</w>": 827,
    "begins</w>": 828,
    "beha": 829,
    "behalf</w>": 830,
    "behavior</w>": 831,
    "behind</w>": 832,
    "being</w>": 833,
    "bel": 834,
    "beli": 835,
    "belichick</w>": 836,
    "believ": 837,
    "believe</w>": 838,
    "believed</w>": 839,
    "believes</w>": 840,
    "believing</w>": 841,
    "bell": 842,
    "bell</w>": 843,
    "belli": 844,
    "belon": 845,
    "belong</w>": 846,
    "below</w>": 847,
    "belt</w>": 848,
    "bem</w>": 849,
    "ben": 850,
    "bench</w>": 851,
    "benched</w>": 852,
    "benef": 853,
    "bengals</w>": 854,
    "ber": 855,
    "ber</w>": 856,
    "bers</w>": 857,
    "bert</w>": 858,
    "beside</w>": 859,
    "besides</w>": 860,
    "best": 861,
    "best</w>": 862,
    "bet</w>": 863,
    "bets</w>": 864,
    "better</w>": 865,
    "betting</w>": 866,
    "between</w>": 867,
    "bey": 868,
    "beyon": 869,
    "beyonc</w>": 870,
    "beyonce</w>": 871,
    "beyond</w>": 872,
    "bg</w>": 873,
    "bi": 874,
    "bi</w>": 875,
    "bia</w>": 876,
    "bias</w>": 877,
    "biased</w>": 878,
    "bie</w>": 879,
    "bien</w>": 880,
    "big": 881,
    "big</w>": 882,
    "bigger</w>": 883,
    "biggest</w>": 884,
    "biggie</w>": 885,
    "bigot</w>": 886,
    "bih</w>": 887,
    "bil": 888,
    "bili": 889,
    "bility</w>": 890,
    "bill</w>": 891,
    "billi": 892,
    "billion</w>": 893,
    "billions</w>": 894,
    "bills</w>": 895,
    "bin": 896,
    "bing</w>": 897,
    "bir": 898,
    "bird": 899,
    "bird</w>": 900,
    "birds</w>": 901,
    "birdsss</w>": 902,
    "birth": 903,
    "birthday</w>": 904,
    "bish</w>": 905,
    "bishop</w>": 906,
    "bit": 907,
    "bit</w>": 908,
    "bite</w>": 909,
    "bitter</w>": 910,
    "bl": 911,
    "bla": 912,
    "bla</w>": 913,
    "black": 914,
    "black</w>": 915,
    "blackout</w>": 916,
    "blacks</w>": 917,
    "blah</w>": 918,
    "blame</w>": 919,
    "blan": 920,
    "blast</w>": 921,
    "ble": 922,
    "ble</w>": 923,
    "bless</w>": 924,
    "blessed</w>": 925,
    "bli": 926,
    "blin": 927,
    "blind</w>": 928,
    "blit": 929,
    "blitz</w>": 930,
    "blo": 931,
    "block</w>": 932,
    "blocked</w>": 933,
    "blocking</w>": 934,
    "blonde</w>": 935,
    "bloo": 936,
    "blood</w>": 937,
    "blow": 938,
    "blow</w>": 939,
    "blowing</w>": 940,
    "blown</w>": 941,
    "blowout</w>": 942,
    "blowouts</w>": 943,
    "blows</w>": 944,
    "blu": 945,
    "blue</w>": 946,
    "blueprint</w>": 947,
    "blun": 948,
    "blunder</w>": 949,
    "bly</w>": 950,
    "bo": 951,
    "bo</w>": 952,
    "board</w>": 953,
    "bob": 954,
    "bobby</w>": 955,
    "bodied</w>": 956,
    "bodies</w>": 957,
    "body</w>": 958,
    "bodys</w>": 959,
    "bogus</w>": 960,
    "boi</w>": 961,
    "bol": 962,
    "bom": 963,
    "bom</w>": 964,
    "bomb</w>": 965,
    "bon": 966,
    "bon</w>": 967,
    "bonus</w>": 968,
    "boo": 969,
    "boo</w>": 970,
    "boobs</w>": 971,
    "booed</w>": 972,
    "booge": 973,
    "boogers</w>": 974,
    "boogey": 975,
    "book</w>": 976,
    "books</w>": 977,
    "boom": 978,
    "boomers</w>": 979,
    "booo</w>": 980,
    "boost</w>": 981,
    "boot</w>": 982,
    "booth</w>": 983,
    "bop</w>": 984,
    "bor": 985,
    "bore</w>": 986,
    "bored</w>": 987,
    "boring</w>": 988,
    "born</w>": 989,
    "boseman</w>": 990,
    "boss</w>": 991,
    "bot</w>": 992,
    "both</w>": 993,
    "bots</w>": 994,
    "bott": 995,
    "bottle</w>": 996,
    "bottom</w>": 997,
    "bottoms</w>": 998,
    "bought</w>": 999,
    "boun": 1000,
    "bounced</w>": 1001,
    "bout</w>": 1002,
    "bow": 1003,
    "bowl</w>": 1004,
    "bowls</w>": 1005,
    "box</w>": 1006,
    "boy": 1007,
    "boy</w>": 1008,
    "boyfriend</w>": 1009,
    "boys</w>": 1010,
    "br": 1011,
    "br</w>": 1012,
    "bra": 1013,
    "bra</w>": 1014,
    "brady</w>": 1015,
    "bradys</w>": 1016,
    "brain": 1017,
    "brain</w>": 1018,
    "brains</w>": 1019,
    "brainwashed</w>": 1020,
    "bran": 1021,
    "brand</w>": 1022,
    "brasil": 1023,
    "brasil</w>": 1024,
    "bravo</w>": 1025,
    "braz": 1026,
    "brazil</w>": 1027,
    "brazilian</w>": 1028,
    "bre": 1029,
    "bre</w>": 1030,
    "brea": 1031,
    "bread</w>": 1032,
    "break": 1033,
    "break</w>": 1034,
    "breakdown</w>": 1035,
    "breakfast</w>": 1036,
    "breaking</w>": 1037,
    "breaks</w>": 1038,
    "breath</w>": 1039,
    "breathe</w>": 1040,
    "breathing</w>": 1041,
    "brey</w>": 1042,
    "bri": 1043,
    "bright</w>": 1044,
    "brilli": 1045,
    "brilliant</w>": 1046,
    "brin": 1047,
    "bring</w>": 1048,
    "bringing</w>": 1049,
    "brings</w>": 1050,
    "british</w>": 1051,
    "bro": 1052,
    "bro</w>": 1053,
    "broad": 1054,
    "broad</w>": 1055,
    "broadcast</w>": 1056,
    "broadway</w>": 1057,
    "broccoli</w>": 1058,
    "broke</w>": 1059,
    "broken</w>": 1060,
    "bron": 1061,
    "broncos</w>": 1062,
    "broo</w>": 1063,
    "brooo</w>": 1064,
    "bros</w>": 1065,
    "brother</w>": 1066,
    "brotherly</w>": 1067,
    "brothers</w>": 1068,
    "brought</w>": 1069,
    "brown</w>": 1070,
    "browns</w>": 1071,
    "bru": 1072,
    "bruh</w>": 1073,
    "brutal</w>": 1074,
    "bryant</w>": 1075,
    "bs</w>": 1076,
    "bt": 1077,
    "bta</w>": 1078,
    "bts</w>": 1079,
    "btw</w>": 1080,
    "bu": 1081,
    "bu</w>": 1082,
    "buat</w>": 1083,
    "bub": 1084,
    "buc": 1085,
    "buccaneers</w>": 1086,
    "bucks</w>": 1087,
    "bucs</w>": 1088,
    "bud": 1089,
    "buen</w>": 1090,
    "buena</w>": 1091,
    "bueno</w>": 1092,
    "buff": 1093,
    "buffalo</w>": 1094,
    "bug</w>": 1095,
    "buh</w>": 1096,
    "buick</w>": 1097,
    "buil": 1098,
    "build</w>": 1099,
    "building</w>": 1100,
    "built</w>": 1101,
    "bul": 1102,
    "bull": 1103,
    "bull</w>": 1104,
    "bullied</w>": 1105,
    "bully</w>": 1106,
    "bulous</w>": 1107,
    "bum</w>": 1108,
    "bummer</w>": 1109,
    "bumps</w>": 1110,
    "bums</w>": 1111,
    "bun": 1112,
    "bunch</w>": 1113,
    "bund": 1114,
    "bundle</w>": 1115,
    "bundleroo": 1116,
    "bur": 1117,
    "buried</w>": 1118,
    "burn</w>": 1119,
    "burned</w>": 1120,
    "burri": 1121,
    "burrow</w>": 1122,
    "bury</w>": 1123,
    "bus</w>": 1124,
    "busin": 1125,
    "business</w>": 1126,
    "busy</w>": 1127,
    "but": 1128,
    "but</w>": 1129,
    "butt": 1130,
    "butt</w>": 1131,
    "button</w>": 1132,
    "buttons</w>": 1133,
    "buy</w>": 1134,
    "buying</w>": 1135,
    "bx": 1136,
    "by</w>": 1137,
    "bye</w>": 1138,
    "c": 1139,
    "c2</w>": 1140,
    "c4</w>": 1141,
    "c5</w>": 1142,
    "c</w>": 1143,
    "ca": 1144,
    "ca</w>": 1145,
    "cab": 1146,
    "cake</w>": 1147,
    "cal": 1148,
    "cal</w>": 1149,
    "calcu": 1150,
    "cali": 1151,
    "california</w>": 1152,
    "call": 1153,
    "call</w>": 1154,
    "called</w>": 1155,
    "calling</w>": 1156,
    "calls</w>": 1157,
    "cally</w>": 1158,
    "calm</w>": 1159,
    "cam": 1160,
    "cam</w>": 1161,
    "came</w>": 1162,
    "camer": 1163,
    "camera</w>": 1164,
    "cameraman</w>": 1165,
    "cameramen</w>": 1166,
    "cameras</w>": 1167,
    "can": 1168,
    "can</w>": 1169,
    "canada</w>": 1170,
    "canadian</w>": 1171,
    "canc": 1172,
    "canci": 1173,
    "cancin</w>": 1174,
    "cannot</w>": 1175,
    "cant</w>": 1176,
    "canta</w>": 1177,
    "cap": 1178,
    "cap</w>": 1179,
    "capable</w>": 1180,
    "capi": 1181,
    "capital": 1182,
    "captions</w>": 1183,
    "captiv": 1184,
    "car": 1185,
    "car</w>": 1186,
    "cara</w>": 1187,
    "card</w>": 1188,
    "care</w>": 1189,
    "career</w>": 1190,
    "cares</w>": 1191,
    "carried</w>": 1192,
    "carry</w>": 1193,
    "carrying</w>": 1194,
    "carson</w>": 1195,
    "carter</w>": 1196,
    "case</w>": 1197,
    "cast": 1198,
    "cast</w>": 1199,
    "caster</w>": 1200,
    "castle</w>": 1201,
    "castles</w>": 1202,
    "castling</w>": 1203,
    "casu": 1204,
    "casual</w>": 1205,
    "catal": 1206,
    "catalog</w>": 1207,
    "catch": 1208,
    "catch</w>": 1209,
    "catches</w>": 1210,
    "catching</w>": 1211,
    "cated</w>": 1212,
    "cau": 1213,
    "caught</w>": 1214,
    "cause</w>": 1215,
    "caused</w>": 1216,
    "cc": 1217,
    "cc</w>": 1218,
    "cd</w>": 1219,
    "ce": 1220,
    "ce</w>": 1221,
    "ced</w>": 1222,
    "ceful</w>": 1223,
    "cel": 1224,
    "celebra": 1225,
    "celebrate</w>": 1226,
    "celebrating</w>": 1227,
    "celebration</w>": 1228,
    "celebri": 1229,
    "celebrity</w>": 1230,
    "cell</w>": 1231,
    "cen": 1232,
    "censor": 1233,
    "censor</w>": 1234,
    "censored</w>": 1235,
    "cent</w>": 1236,
    "center</w>": 1237,
    "centra": 1238,
    "century</w>": 1239,
    "cep": 1240,
    "cept</w>": 1241,
    "ception</w>": 1242,
    "cer": 1243,
    "cer</w>": 1244,
    "cers</w>": 1245,
    "certain</w>": 1246,
    "certainly</w>": 1247,
    "certified</w>": 1248,
    "ces</w>": 1249,
    "ch": 1250,
    "ch</w>": 1251,
    "cha": 1252,
    "cha</w>": 1253,
    "chad": 1254,
    "chadwick</w>": 1255,
    "chain</w>": 1256,
    "chall": 1257,
    "challen": 1258,
    "challenge</w>": 1259,
    "cham": 1260,
    "champ</w>": 1261,
    "champi": 1262,
    "champion": 1263,
    "champion</w>": 1264,
    "champions</w>": 1265,
    "championshi": 1266,
    "championship</w>": 1267,
    "championships</w>": 1268,
    "champs</w>": 1269,
    "chan": 1270,
    "chance</w>": 1271,
    "chances</w>": 1272,
    "change</w>": 1273,
    "changed</w>": 1274,
    "changes</w>": 1275,
    "changing</w>": 1276,
    "channel</w>": 1277,
    "chap": 1278,
    "chapter</w>": 1279,
    "char": 1280,
    "charac": 1281,
    "character</w>": 1282,
    "chargers</w>": 1283,
    "charis": 1284,
    "charm</w>": 1285,
    "charming</w>": 1286,
    "chase</w>": 1287,
    "chasing</w>": 1288,
    "chass</w>": 1289,
    "chat</w>": 1290,
    "chau": 1291,
    "che": 1292,
    "che</w>": 1293,
    "chea": 1294,
    "cheap</w>": 1295,
    "cheat</w>": 1296,
    "cheated</w>": 1297,
    "cheaters</w>": 1298,
    "cheating</w>": 1299,
    "cheats</w>": 1300,
    "check": 1301,
    "check</w>": 1302,
    "checked</w>": 1303,
    "checking</w>": 1304,
    "checkmate</w>": 1305,
    "checks</w>": 1306,
    "ched</w>": 1307,
    "chee": 1308,
    "cheeks</w>": 1309,
    "cheer": 1310,
    "cheer</w>": 1311,
    "cheering</w>": 1312,
    "cheers</w>": 1313,
    "chees": 1314,
    "cheese</w>": 1315,
    "cheesest": 1316,
    "cheesesteak</w>": 1317,
    "chef</w>": 1318,
    "chefs</w>": 1319,
    "chei": 1320,
    "cheifs</w>": 1321,
    "chemi": 1322,
    "chemistry</w>": 1323,
    "cher": 1324,
    "cherry</w>": 1325,
    "ches</w>": 1326,
    "chess": 1327,
    "chess</w>": 1328,
    "chessboard</w>": 1329,
    "chest</w>": 1330,
    "chi": 1331,
    "chic": 1332,
    "chicago</w>": 1333,
    "chick": 1334,
    "chick</w>": 1335,
    "chicken</w>": 1336,
    "chief": 1337,
    "chief</w>": 1338,
    "chiefs</w>": 1339,
    "chil": 1340,
    "child</w>": 1341,
    "childhood</w>": 1342,
    "children</w>": 1343,
    "chill</w>": 1344,
    "chills</w>": 1345,
    "ching</w>": 1346,
    "chip</w>": 1347,
    "chless</w>": 1348,
    "cho": 1349,
    "cho</w>": 1350,
    "choice</w>": 1351,
    "choke": 1352,
    "choke</w>": 1353,
    "choked</w>": 1354,
    "chokehold</w>": 1355,
    "chokes</w>": 1356,
    "choose</w>": 1357,
    "choosing</w>": 1358,
    "chord</w>": 1359,
    "chore": 1360,
    "choreo</w>": 1361,
    "choreograph": 1362,
    "choreographed</w>": 1363,
    "choreographer</w>": 1364,
    "choreography</w>": 1365,
    "chose</w>": 1366,
    "chr": 1367,
    "chri": 1368,
    "chris</w>": 1369,
    "christ</w>": 1370,
    "chu": 1371,
    "chuck</w>": 1372,
    "chumps</w>": 1373,
    "chur": 1374,
    "church</w>": 1375,
    "ci": 1376,
    "ci</w>": 1377,
    "cia</w>": 1378,
    "cial</w>": 1379,
    "cially</w>": 1380,
    "cials</w>": 1381,
    "cin": 1382,
    "cinema</w>": 1383,
    "cinematic</w>": 1384,
    "cinematograph": 1385,
    "cing</w>": 1386,
    "cious</w>": 1387,
    "cir": 1388,
    "circle</w>": 1389,
    "citiz": 1390,
    "city</w>": 1391,
    "ck": 1392,
    "ck</w>": 1393,
    "ckck": 1394,
    "cked</w>": 1395,
    "cker</w>": 1396,
    "cket</w>": 1397,
    "ckets</w>": 1398,
    "ckin</w>": 1399,
    "cking</w>": 1400,
    "ckkk</w>": 1401,
    "cks</w>": 1402,
    "cky</w>": 1403,
    "cl": 1404,
    "cla": 1405,
    "claim": 1406,
    "claim</w>": 1407,
    "claimed</w>": 1408,
    "class": 1409,
    "class</w>": 1410,
    "classic</w>": 1411,
    "classy</w>": 1412,
    "cle": 1413,
    "cle</w>": 1414,
    "clea": 1415,
    "clean": 1416,
    "clean</w>": 1417,
    "clear": 1418,
    "clear</w>": 1419,
    "clearly</w>": 1420,
    "cleavage</w>": 1421,
    "cles</w>": 1422,
    "clev": 1423,
    "clever</w>": 1424,
    "cli": 1425,
    "click": 1426,
    "click</w>": 1427,
    "clickbait</w>": 1428,
    "clin": 1429,
    "clinic</w>": 1430,
    "clip</w>": 1431,
    "clips</w>": 1432,
    "clo": 1433,
    "clock</w>": 1434,
    "close</w>": 1435,
    "closer</w>": 1436,
    "closest</w>": 1437,
    "cloth": 1438,
    "clothes</w>": 1439,
    "clown</w>": 1440,
    "clowns</w>": 1441,
    "clu": 1442,
    "club</w>": 1443,
    "clue</w>": 1444,
    "clutch</w>": 1445,
    "cmon</w>": 1446,
    "co": 1447,
    "co</w>": 1448,
    "coa": 1449,
    "coach</w>": 1450,
    "coached</w>": 1451,
    "coaches</w>": 1452,
    "coaching</w>": 1453,
    "coast</w>": 1454,
    "cocky</w>": 1455,
    "code</w>": 1456,
    "coffin</w>": 1457,
    "coin</w>": 1458,
    "col": 1459,
    "cold": 1460,
    "cold</w>": 1461,
    "cole</w>": 1462,
    "coli</w>": 1463,
    "coll": 1464,
    "colla": 1465,
    "collap": 1466,
    "colle": 1467,
    "college</w>": 1468,
    "colonizer</w>": 1469,
    "color</w>": 1470,
    "colors</w>": 1471,
    "com": 1472,
    "com</w>": 1473,
    "comb": 1474,
    "combination</w>": 1475,
    "combined</w>": 1476,
    "come": 1477,
    "come</w>": 1478,
    "comeback</w>": 1479,
    "coment": 1480,
    "comes</w>": 1481,
    "comin</w>": 1482,
    "coming</w>": 1483,
    "comm": 1484,
    "comman": 1485,
    "commanders</w>": 1486,
    "comment</w>": 1487,
    "commenta": 1488,
    "commentary</w>": 1489,
    "commentating</w>": 1490,
    "commentator</w>": 1491,
    "commentators</w>": 1492,
    "commenting</w>": 1493,
    "comments</w>": 1494,
    "commer": 1495,
    "commercial</w>": 1496,
    "commercials</w>": 1497,
    "commi": 1498,
    "common</w>": 1499,
    "commu": 1500,
    "communi": 1501,
    "community</w>": 1502,
    "como</w>": 1503,
    "comp": 1504,
    "company</w>": 1505,
    "compar": 1506,
    "compare</w>": 1507,
    "compared</w>": 1508,
    "comparing</w>": 1509,
    "compe": 1510,
    "compet": 1511,
    "compete</w>": 1512,
    "competi": 1513,
    "competition</w>": 1514,
    "competitive</w>": 1515,
    "compla": 1516,
    "complain</w>": 1517,
    "complained</w>": 1518,
    "complaining</w>": 1519,
    "complaints</w>": 1520,
    "comple": 1521,
    "complete</w>": 1522,
    "completely</w>": 1523,
    "completion</w>": 1524,
    "compli": 1525,
    "compton</w>": 1526,
    "compu": 1527,
    "con": 1528,
    "con</w>": 1529,
    "concentra": 1530,
    "concentrate</w>": 1531,
    "concept</w>": 1532,
    "concer": 1533,
    "concert</w>": 1534,
    "conclu": 1535,
    "condescending</w>": 1536,
    "conf": 1537,
    "conference</w>": 1538,
    "confid": 1539,
    "confidence</w>": 1540,
    "confident</w>": 1541,
    "confir": 1542,
    "confirmed</w>": 1543,
    "confu": 1544,
    "confused</w>": 1545,
    "congra": 1546,
    "congrats</w>": 1547,
    "congratu": 1548,
    "congratula": 1549,
    "congratulate</w>": 1550,
    "congratulation</w>": 1551,
    "congratulations</w>": 1552,
    "conne": 1553,
    "conse": 1554,
    "consecu": 1555,
    "consecutive</w>": 1556,
    "consi": 1557,
    "consider": 1558,
    "consider</w>": 1559,
    "considered</w>": 1560,
    "considering</w>": 1561,
    "consistent</w>": 1562,
    "consistently</w>": 1563,
    "conspiracy</w>": 1564,
    "constant</w>": 1565,
    "constantly</w>": 1566,
    "consu": 1567,
    "cont": 1568,
    "conta": 1569,
    "contact</w>": 1570,
    "content</w>": 1571,
    "contest</w>": 1572,
    "contin": 1573,
    "continu": 1574,
    "continuation</w>": 1575,
    "continue</w>": 1576,
    "continued</w>": 1577,
    "continues</w>": 1578,
    "contra": 1579,
    "contract</w>": 1580,
    "contribu": 1581,
    "contro": 1582,
    "control": 1583,
    "control</w>": 1584,
    "controller</w>": 1585,
    "controversi": 1586,
    "controversial</w>": 1587,
    "controversy</w>": 1588,
    "conver": 1589,
    "conversa": 1590,
    "conversation</w>": 1591,
    "convin": 1592,
    "convo</w>": 1593,
    "coo": 1594,
    "cook</w>": 1595,
    "cooked</w>": 1596,
    "cooking</w>": 1597,
    "cool</w>": 1598,
    "coop</w>": 1599,
    "cooper</w>": 1600,
    "coordin": 1601,
    "coordinator</w>": 1602,
    "cope</w>": 1603,
    "cor": 1604,
    "core": 1605,
    "core</w>": 1606,
    "corin": 1607,
    "corinthians</w>": 1608,
    "corner": 1609,
    "corner</w>": 1610,
    "cornerback</w>": 1611,
    "correc": 1612,
    "correct</w>": 1613,
    "correctly</w>": 1614,
    "corrupt</w>": 1615,
    "cos</w>": 1616,
    "cost</w>": 1617,
    "cott</w>": 1618,
    "cou": 1619,
    "could": 1620,
    "could</w>": 1621,
    "couldn</w>": 1622,
    "couldnt</w>": 1623,
    "couldve</w>": 1624,
    "coun": 1625,
    "count": 1626,
    "count</w>": 1627,
    "counted</w>": 1628,
    "counter</w>": 1629,
    "counting</w>": 1630,
    "countless</w>": 1631,
    "country</w>": 1632,
    "counts</w>": 1633,
    "couple</w>": 1634,
    "cour": 1635,
    "coura": 1636,
    "course</w>": 1637,
    "cous": 1638,
    "cousin</w>": 1639,
    "cover</w>": 1640,
    "coverage</w>": 1641,
    "covered</w>": 1642,
    "cow": 1643,
    "cow</w>": 1644,
    "cowboy</w>": 1645,
    "cowboys</w>": 1646,
    "coz</w>": 1647,
    "cr": 1648,
    "cra": 1649,
    "craft</w>": 1650,
    "cramling</w>": 1651,
    "crash</w>": 1652,
    "crashing</w>": 1653,
    "craz": 1654,
    "craziest</w>": 1655,
    "crazy</w>": 1656,
    "crazyyy</w>": 1657,
    "cre": 1658,
    "crea": 1659,
    "create</w>": 1660,
    "created</w>": 1661,
    "creative</w>": 1662,
    "creativity</w>": 1663,
    "creator</w>": 1664,
    "credi": 1665,
    "credit</w>": 1666,
    "credits</w>": 1667,
    "creep": 1668,
    "crew</w>": 1669,
    "cri": 1670,
    "crick": 1671,
    "cried</w>": 1672,
    "crime</w>": 1673,
    "crimin": 1674,
    "crin": 1675,
    "cringe</w>": 1676,
    "crip</w>": 1677,
    "crisp</w>": 1678,
    "critical</w>": 1679,
    "critici": 1680,
    "criticism</w>": 1681,
    "cro": 1682,
    "cross</w>": 1683,
    "crossed</w>": 1684,
    "crow": 1685,
    "crowd</w>": 1686,
    "crown</w>": 1687,
    "cru": 1688,
    "crucial</w>": 1689,
    "crush</w>": 1690,
    "crushed</w>": 1691,
    "crushing</w>": 1692,
    "cry": 1693,
    "cry</w>": 1694,
    "crying</w>": 1695,
    "cryp": 1696,
    "crypto</w>": 1697,
    "cs</w>": 1698,
    "ct</w>": 1699,
    "ctac": 1700,
    "cted</w>": 1701,
    "cti": 1702,
    "cting</w>": 1703,
    "ction</w>": 1704,
    "ctions</w>": 1705,
    "ctive</w>": 1706,
    "ctively</w>": 1707,
    "cts</w>": 1708,
    "cu": 1709,
    "cuando</w>": 1710,
    "cube</w>": 1711,
    "cul": 1712,
    "culate</w>": 1713,
    "cult</w>": 1714,
    "cultural</w>": 1715,
    "culture</w>": 1716,
    "cum": 1717,
    "cup</w>": 1718,
    "cur": 1719,
    "curi": 1720,
    "curious</w>": 1721,
    "curr": 1722,
    "current</w>": 1723,
    "currently</w>": 1724,
    "curse</w>": 1725,
    "cus</w>": 1726,
    "cuses</w>": 1727,
    "cuss</w>": 1728,
    "cut</w>": 1729,
    "cute</w>": 1730,
    "cutie</w>": 1731,
    "cuz</w>": 1732,
    "cy": 1733,
    "cy</w>": 1734,
    "cycle</w>": 1735,
    "d": 1736,
    "d2</w>": 1737,
    "d3</w>": 1738,
    "d</w>": 1739,
    "da": 1740,
    "da</w>": 1741,
    "dad</w>": 1742,
    "dagger</w>": 1743,
    "dah</w>": 1744,
    "daily</w>": 1745,
    "dak</w>": 1746,
    "dal": 1747,
    "dal</w>": 1748,
    "dallas</w>": 1749,
    "dam</w>": 1750,
    "damage</w>": 1751,
    "damn</w>": 1752,
    "dan": 1753,
    "dan</w>": 1754,
    "danc": 1755,
    "dance</w>": 1756,
    "dancer</w>": 1757,
    "dancers</w>": 1758,
    "dances</w>": 1759,
    "dancing</w>": 1760,
    "dang</w>": 1761,
    "danger": 1762,
    "dangerous</w>": 1763,
    "dans</w>": 1764,
    "dar": 1765,
    "dar</w>": 1766,
    "dare</w>": 1767,
    "dark</w>": 1768,
    "darn</w>": 1769,
    "dary</w>": 1770,
    "das</w>": 1771,
    "dass</w>": 1772,
    "dat</w>": 1773,
    "date</w>": 1774,
    "dating</w>": 1775,
    "dau": 1776,
    "daughter</w>": 1777,
    "dav": 1778,
    "david</w>": 1779,
    "daw": 1780,
    "dawg</w>": 1781,
    "dawgs</w>": 1782,
    "day": 1783,
    "day</w>": 1784,
    "days</w>": 1785,
    "dayum</w>": 1786,
    "dc</w>": 1787,
    "dd": 1788,
    "dd</w>": 1789,
    "ddd</w>": 1790,
    "dden</w>": 1791,
    "dding</w>": 1792,
    "ddle</w>": 1793,
    "ddy</w>": 1794,
    "de": 1795,
    "de</w>": 1796,
    "dea": 1797,
    "dead</w>": 1798,
    "deal</w>": 1799,
    "dealing</w>": 1800,
    "deandre</w>": 1801,
    "dear</w>": 1802,
    "death</w>": 1803,
    "deb": 1804,
    "deb</w>": 1805,
    "deba": 1806,
    "debate</w>": 1807,
    "debbie</w>": 1808,
    "dec": 1809,
    "deca": 1810,
    "decade</w>": 1811,
    "decades</w>": 1812,
    "decent</w>": 1813,
    "deci": 1814,
    "decide</w>": 1815,
    "decided</w>": 1816,
    "decision</w>": 1817,
    "decisions</w>": 1818,
    "decked</w>": 1819,
    "ded</w>": 1820,
    "dedic": 1821,
    "dedicated</w>": 1822,
    "dedu": 1823,
    "deduct</w>": 1824,
    "dee": 1825,
    "deep</w>": 1826,
    "def": 1827,
    "def</w>": 1828,
    "defea": 1829,
    "defeat</w>": 1830,
    "defeated</w>": 1831,
    "defen": 1832,
    "defence</w>": 1833,
    "defending</w>": 1834,
    "defense</w>": 1835,
    "defenses</w>": 1836,
    "defensive</w>": 1837,
    "defin": 1838,
    "defini": 1839,
    "definitely</w>": 1840,
    "definition</w>": 1841,
    "dei</w>": 1842,
    "dejean</w>": 1843,
    "del": 1844,
    "del</w>": 1845,
    "deli": 1846,
    "deliver</w>": 1847,
    "delivered</w>": 1848,
    "delivering</w>": 1849,
    "delphia</w>": 1850,
    "delu": 1851,
    "dem</w>": 1852,
    "demais</w>": 1853,
    "demo": 1854,
    "democra": 1855,
    "democracy</w>": 1856,
    "demoli": 1857,
    "demolished</w>": 1858,
    "demon": 1859,
    "demonic</w>": 1860,
    "den": 1861,
    "den</w>": 1862,
    "dence</w>": 1863,
    "deni": 1864,
    "denied</w>": 1865,
    "dent</w>": 1866,
    "denver</w>": 1867,
    "deny</w>": 1868,
    "dep": 1869,
    "depres": 1870,
    "depth</w>": 1871,
    "der": 1872,
    "der</w>": 1873,
    "dered</w>": 1874,
    "ders</w>": 1875,
    "des": 1876,
    "des</w>": 1877,
    "descri": 1878,
    "describe</w>": 1879,
    "desde</w>": 1880,
    "deser": 1881,
    "deserve</w>": 1882,
    "deserved</w>": 1883,
    "deserves</w>": 1884,
    "deserving</w>": 1885,
    "desig": 1886,
    "design</w>": 1887,
    "designed</w>": 1888,
    "desper": 1889,
    "despi": 1890,
    "despite</w>": 1891,
    "dest": 1892,
    "dest</w>": 1893,
    "destro": 1894,
    "destroy</w>": 1895,
    "destroyed</w>": 1896,
    "destroying</w>": 1897,
    "destru": 1898,
    "destruction</w>": 1899,
    "deta": 1900,
    "detail</w>": 1901,
    "details</w>": 1902,
    "deter": 1903,
    "determin": 1904,
    "determined</w>": 1905,
    "dethr": 1906,
    "detroit</w>": 1907,
    "dev": 1908,
    "deva": 1909,
    "develo": 1910,
    "developed</w>": 1911,
    "devil</w>": 1912,
    "devious</w>": 1913,
    "devon": 1914,
    "devonta</w>": 1915,
    "devonte</w>": 1916,
    "dge</w>": 1917,
    "dgers</w>": 1918,
    "di": 1919,
    "di</w>": 1920,
    "dia": 1921,
    "dia</w>": 1922,
    "diaboli": 1923,
    "diabolical</w>": 1924,
    "dial": 1925,
    "dial</w>": 1926,
    "diam": 1927,
    "dian</w>": 1928,
    "dic": 1929,
    "dick</w>": 1930,
    "did": 1931,
    "did</w>": 1932,
    "diddy</w>": 1933,
    "didn</w>": 1934,
    "didnt</w>": 1935,
    "die": 1936,
    "die</w>": 1937,
    "died</w>": 1938,
    "diehard</w>": 1939,
    "dies</w>": 1940,
    "diff": 1941,
    "differ": 1942,
    "difference</w>": 1943,
    "different</w>": 1944,
    "differently</w>": 1945,
    "diffic": 1946,
    "difficult</w>": 1947,
    "dig</w>": 1948,
    "dijamin</w>": 1949,
    "din": 1950,
    "ding</w>": 1951,
    "dinner</w>": 1952,
    "dio": 1953,
    "dio</w>": 1954,
    "dios</w>": 1955,
    "dir": 1956,
    "direc": 1957,
    "directly</w>": 1958,
    "director</w>": 1959,
    "dirty</w>": 1960,
    "dis": 1961,
    "dis</w>": 1962,
    "disa": 1963,
    "disagree</w>": 1964,
    "disapp": 1965,
    "disappo": 1966,
    "disappoin": 1967,
    "disappoint</w>": 1968,
    "disappointed</w>": 1969,
    "disappointing</w>": 1970,
    "disaster</w>": 1971,
    "disc": 1972,
    "disco": 1973,
    "discu": 1974,
    "disgra": 1975,
    "disgrace</w>": 1976,
    "disgu": 1977,
    "disgusting</w>": 1978,
    "dish</w>": 1979,
    "dislike</w>": 1980,
    "dislikes</w>": 1981,
    "disman": 1982,
    "dismantled</w>": 1983,
    "disney</w>": 1984,
    "display</w>": 1985,
    "dispu": 1986,
    "disrespect</w>": 1987,
    "disrespectful</w>": 1988,
    "diss</w>": 1989,
    "disse": 1990,
    "dissect</w>": 1991,
    "dissed</w>": 1992,
    "dissing</w>": 1993,
    "distra": 1994,
    "distract</w>": 1995,
    "distracted</w>": 1996,
    "distracting</w>": 1997,
    "distraction</w>": 1998,
    "distracts</w>": 1999,
    "dit</w>": 2000,
    "dition</w>": 2001,
    "div": 2002,
    "diversity</w>": 2003,
    "divi": 2004,
    "divide</w>": 2005,
    "division</w>": 2006,
    "dj</w>": 2007,
    "dl</w>": 2008,
    "dless</w>": 2009,
    "dline</w>": 2010,
    "dly</w>": 2011,
    "dna</w>": 2012,
    "dness</w>": 2013,
    "do": 2014,
    "do</w>": 2015,
    "docum": 2016,
    "documentary</w>": 2017,
    "does</w>": 2018,
    "doesn</w>": 2019,
    "doesnt</w>": 2020,
    "dog</w>": 2021,
    "dogs</w>": 2022,
    "doing</w>": 2023,
    "dol": 2024,
    "doll</w>": 2025,
    "dollar</w>": 2026,
    "dollars</w>": 2027,
    "dolph": 2028,
    "dolphins</w>": 2029,
    "dom": 2030,
    "dom</w>": 2031,
    "dome</w>": 2032,
    "domin": 2033,
    "dominance</w>": 2034,
    "dominant</w>": 2035,
    "dominate</w>": 2036,
    "dominated</w>": 2037,
    "dominating</w>": 2038,
    "domination</w>": 2039,
    "don": 2040,
    "don</w>": 2041,
    "done</w>": 2042,
    "donna</w>": 2043,
    "dont</w>": 2044,
    "doo</w>": 2045,
    "doom": 2046,
    "dope</w>": 2047,
    "dos</w>": 2048,
    "dose</w>": 2049,
    "dot</w>": 2050,
    "dotson</w>": 2051,
    "dou": 2052,
    "doub": 2053,
    "double</w>": 2054,
    "doubt</w>": 2055,
    "doubted</w>": 2056,
    "doubters</w>": 2057,
    "douche</w>": 2058,
    "dow": 2059,
    "down": 2060,
    "down</w>": 2061,
    "downfall</w>": 2062,
    "downlo": 2063,
    "downloaded</w>": 2064,
    "downs</w>": 2065,
    "doz": 2066,
    "dozen</w>": 2067,
    "dr": 2068,
    "dr</w>": 2069,
    "dra": 2070,
    "draft</w>": 2071,
    "drafted</w>": 2072,
    "drag</w>": 2073,
    "drak</w>": 2074,
    "drake": 2075,
    "drake</w>": 2076,
    "drakeee</w>": 2077,
    "drakes</w>": 2078,
    "drama</w>": 2079,
    "dran": 2080,
    "drank</w>": 2081,
    "dre": 2082,
    "dre</w>": 2083,
    "drea": 2084,
    "dream</w>": 2085,
    "dreams</w>": 2086,
    "dress</w>": 2087,
    "dressed</w>": 2088,
    "drew</w>": 2089,
    "dri": 2090,
    "drick</w>": 2091,
    "dril": 2092,
    "drin": 2093,
    "drink</w>": 2094,
    "drinking</w>": 2095,
    "drive</w>": 2096,
    "drizzy</w>": 2097,
    "dro": 2098,
    "drop</w>": 2099,
    "dropped</w>": 2100,
    "dropping</w>": 2101,
    "drops</w>": 2102,
    "dru": 2103,
    "drug</w>": 2104,
    "drum</w>": 2105,
    "drun": 2106,
    "drunk</w>": 2107,
    "ds</w>": 2108,
    "dt</w>": 2109,
    "dth</w>": 2110,
    "du": 2111,
    "du</w>": 2112,
    "duck</w>": 2113,
    "dude</w>": 2114,
    "dudes</w>": 2115,
    "due</w>": 2116,
    "dul": 2117,
    "dule</w>": 2118,
    "dum": 2119,
    "dumb</w>": 2120,
    "dumbest</w>": 2121,
    "dump</w>": 2122,
    "dun": 2123,
    "dun</w>": 2124,
    "dunno</w>": 2125,
    "duo</w>": 2126,
    "dur": 2127,
    "during</w>": 2128,
    "dy": 2129,
    "dy</w>": 2130,
    "dying</w>": 2131,
    "dynam": 2132,
    "dynasty</w>": 2133,
    "dz": 2134,
    "e": 2135,
    "e/": 2136,
    "e1</w>": 2137,
    "e4</w>": 2138,
    "e</w>": 2139,
    "ea": 2140,
    "ea</w>": 2141,
    "eable</w>": 2142,
    "each</w>": 2143,
    "ead</w>": 2144,
    "eag": 2145,
    "eagl": 2146,
    "eagle</w>": 2147,
    "eagles": 2148,
    "eagles</w>": 2149,
    "eaglesss</w>": 2150,
    "eak</w>": 2151,
    "eal": 2152,
    "eal</w>": 2153,
    "ear": 2154,
    "ear</w>": 2155,
    "earing</w>": 2156,
    "earlier</w>": 2157,
    "early</w>": 2158,
    "earned</w>": 2159,
    "ears</w>": 2160,
    "earth</w>": 2161,
    "eas</w>": 2162,
    "ease</w>": 2163,
    "easi": 2164,
    "easily</w>": 2165,
    "east</w>": 2166,
    "easter</w>": 2167,
    "easy</w>": 2168,
    "eat</w>": 2169,
    "eating</w>": 2170,
    "ebra": 2171,
    "ec": 2172,
    "econom": 2173,
    "economic</w>": 2174,
    "ed": 2175,
    "ed</w>": 2176,
    "edge</w>": 2177,
    "edi": 2178,
    "edit</w>": 2179,
    "editing</w>": 2180,
    "edu": 2181,
    "educa": 2182,
    "ee": 2183,
    "ee</w>": 2184,
    "eee</w>": 2185,
    "eem</w>": 2186,
    "een</w>": 2187,
    "eep</w>": 2188,
    "eer</w>": 2189,
    "eers</w>": 2190,
    "ef": 2191,
    "ef</w>": 2192,
    "effe": 2193,
    "effect</w>": 2194,
    "effective</w>": 2195,
    "effici": 2196,
    "effort</w>": 2197,
    "efs</w>": 2198,
    "efu": 2199,
    "eful</w>": 2200,
    "efully</w>": 2201,
    "eg": 2202,
    "eggs</w>": 2203,
    "ego": 2204,
    "ego</w>": 2205,
    "egos</w>": 2206,
    "eh</w>": 2207,
    "ei": 2208,
    "ei</w>": 2209,
    "eight</w>": 2210,
    "either</w>": 2211,
    "ek</w>": 2212,
    "el": 2213,
    "el</w>": 2214,
    "ela</w>": 2215,
    "eld</w>": 2216,
    "ele": 2217,
    "ele</w>": 2218,
    "elec": 2219,
    "election</w>": 2220,
    "electri": 2221,
    "eled</w>": 2222,
    "eles</w>": 2223,
    "eless</w>": 2224,
    "elev": 2225,
    "eli": 2226,
    "elimin": 2227,
    "eliminated</w>": 2228,
    "eling</w>": 2229,
    "elite</w>": 2230,
    "ell</w>": 2231,
    "ella": 2232,
    "ella</w>": 2233,
    "elli": 2234,
    "elliot</w>": 2235,
    "elliott</w>": 2236,
    "elo": 2237,
    "elo</w>": 2238,
    "elon</w>": 2239,
    "els</w>": 2240,
    "else</w>": 2241,
    "ely</w>": 2242,
    "em": 2243,
    "em</w>": 2244,
    "emb": 2245,
    "embar": 2246,
    "embarra": 2247,
    "embarrassed</w>": 2248,
    "embarrassing</w>": 2249,
    "embarrassment</w>": 2250,
    "ements</w>": 2251,
    "emer": 2252,
    "emi": 2253,
    "emin": 2254,
    "eminem</w>": 2255,
    "emmy</w>": 2256,
    "emo": 2257,
    "emotions</w>": 2258,
    "emp": 2259,
    "empire</w>": 2260,
    "empo</w>": 2261,
    "empty</w>": 2262,
    "en": 2263,
    "en</w>": 2264,
    "ena</w>": 2265,
    "encan": 2266,
    "ence</w>": 2267,
    "enced</w>": 2268,
    "ences</w>": 2269,
    "ency</w>": 2270,
    "end": 2271,
    "end</w>": 2272,
    "ended</w>": 2273,
    "ender</w>": 2274,
    "ending</w>": 2275,
    "endo</w>": 2276,
    "endous</w>": 2277,
    "ends</w>": 2278,
    "ene": 2279,
    "ene</w>": 2280,
    "ened</w>": 2281,
    "enemy</w>": 2282,
    "ener": 2283,
    "energy</w>": 2284,
    "eng": 2285,
    "enga": 2286,
    "engl": 2287,
    "england</w>": 2288,
    "english</w>": 2289,
    "ength</w>": 2290,
    "ening</w>": 2291,
    "enjo": 2292,
    "enjoy": 2293,
    "enjoy</w>": 2294,
    "enjoyable</w>": 2295,
    "enjoyed</w>": 2296,
    "enjoying</w>": 2297,
    "enlightening</w>": 2298,
    "eno</w>": 2299,
    "enomen": 2300,
    "enough</w>": 2301,
    "ens</w>": 2302,
    "ense</w>": 2303,
    "ent": 2304,
    "ent</w>": 2305,
    "enta": 2306,
    "entary</w>": 2307,
    "ente</w>": 2308,
    "ented</w>": 2309,
    "entend": 2310,
    "enter": 2311,
    "entered</w>": 2312,
    "enterta": 2313,
    "entertain": 2314,
    "entertained</w>": 2315,
    "entertaining</w>": 2316,
    "entertainment</w>": 2317,
    "enthusi": 2318,
    "enti": 2319,
    "ential</w>": 2320,
    "enting</w>": 2321,
    "ention": 2322,
    "ention</w>": 2323,
    "entire</w>": 2324,
    "entirely</w>": 2325,
    "entless</w>": 2326,
    "ently</w>": 2327,
    "ento</w>": 2328,
    "entry</w>": 2329,
    "ents</w>": 2330,
    "enty</w>": 2331,
    "eover</w>": 2332,
    "ep": 2333,
    "epi": 2334,
    "epic</w>": 2335,
    "episode</w>": 2336,
    "ept</w>": 2337,
    "equ": 2338,
    "equals</w>": 2339,
    "equi": 2340,
    "er": 2341,
    "er</w>": 2342,
    "era</w>": 2343,
    "eral</w>": 2344,
    "ere</w>": 2345,
    "ered</w>": 2346,
    "eres</w>": 2347,
    "ering</w>": 2348,
    "ero</w>": 2349,
    "eron</w>": 2350,
    "err": 2351,
    "errors</w>": 2352,
    "errr</w>": 2353,
    "ers</w>": 2354,
    "ery</w>": 2355,
    "es": 2356,
    "es</w>": 2357,
    "esa</w>": 2358,
    "escu": 2359,
    "ese</w>": 2360,
    "esi": 2361,
    "esman</w>": 2362,
    "eso</w>": 2363,
    "esome</w>": 2364,
    "esp": 2365,
    "espaol</w>": 2366,
    "espe": 2367,
    "espec": 2368,
    "especially</w>": 2369,
    "espn</w>": 2370,
    "ess": 2371,
    "ess</w>": 2372,
    "essa</w>": 2373,
    "esse</w>": 2374,
    "essed</w>": 2375,
    "esses</w>": 2376,
    "essi": 2377,
    "essing</w>": 2378,
    "ession</w>": 2379,
    "esss</w>": 2380,
    "est": 2381,
    "est</w>": 2382,
    "esta</w>": 2383,
    "este</w>": 2384,
    "ester": 2385,
    "esti": 2386,
    "estic</w>": 2387,
    "esto</w>": 2388,
    "estos</w>": 2389,
    "ests</w>": 2390,
    "et": 2391,
    "et</w>": 2392,
    "etc</w>": 2393,
    "etiquette</w>": 2394,
    "ets</w>": 2395,
    "ett</w>": 2396,
    "ety</w>": 2397,
    "eu": 2398,
    "eu</w>": 2399,
    "euph": 2400,
    "euphoria</w>": 2401,
    "euro": 2402,
    "europe": 2403,
    "europe</w>": 2404,
    "european</w>": 2405,
    "ev": 2406,
    "eva</w>": 2407,
    "eve</w>": 2408,
    "even": 2409,
    "even</w>": 2410,
    "evening</w>": 2411,
    "event</w>": 2412,
    "eventh</w>": 2413,
    "events</w>": 2414,
    "eventually</w>": 2415,
    "ever": 2416,
    "ever</w>": 2417,
    "everrr</w>": 2418,
    "evers</w>": 2419,
    "every": 2420,
    "every</w>": 2421,
    "everybody</w>": 2422,
    "everyday</w>": 2423,
    "everyone</w>": 2424,
    "everyones</w>": 2425,
    "everything</w>": 2426,
    "everytime</w>": 2427,
    "everywhere</w>": 2428,
    "evi": 2429,
    "evid": 2430,
    "evidence</w>": 2431,
    "evil</w>": 2432,
    "ex": 2433,
    "ex</w>": 2434,
    "exac": 2435,
    "exact</w>": 2436,
    "exactly</w>": 2437,
    "exam": 2438,
    "example</w>": 2439,
    "exc": 2440,
    "excel": 2441,
    "excelente</w>": 2442,
    "excellence</w>": 2443,
    "excellent</w>": 2444,
    "except</w>": 2445,
    "excited</w>": 2446,
    "excitement</w>": 2447,
    "exciting</w>": 2448,
    "excuse</w>": 2449,
    "excuses</w>": 2450,
    "execu": 2451,
    "executed</w>": 2452,
    "execution</w>": 2453,
    "exer": 2454,
    "exerci": 2455,
    "exes</w>": 2456,
    "exi": 2457,
    "exist": 2458,
    "exist</w>": 2459,
    "existent</w>": 2460,
    "expe": 2461,
    "expect</w>": 2462,
    "expected</w>": 2463,
    "expecting</w>": 2464,
    "exper": 2465,
    "experi": 2466,
    "experience</w>": 2467,
    "experienced</w>": 2468,
    "expert</w>": 2469,
    "expla": 2470,
    "explain</w>": 2471,
    "explained</w>": 2472,
    "explaining</w>": 2473,
    "explan": 2474,
    "explanation</w>": 2475,
    "explanations</w>": 2476,
    "explo": 2477,
    "expo": 2478,
    "exposed</w>": 2479,
    "exposing</w>": 2480,
    "exposure</w>": 2481,
    "expres": 2482,
    "ext": 2483,
    "extra": 2484,
    "extra</w>": 2485,
    "extraordinary</w>": 2486,
    "extre": 2487,
    "extremely</w>": 2488,
    "ey": 2489,
    "ey</w>": 2490,
    "eye</w>": 2491,
    "eyes</w>": 2492,
    "ez</w>": 2493,
    "f": 2494,
    "f2</w>": 2495,
    "f3</w>": 2496,
    "f6</w>": 2497,
    "f</w>": 2498,
    "fa": 2499,
    "fa</w>": 2500,
    "fabulous</w>": 2501,
    "fac": 2502,
    "face": 2503,
    "face</w>": 2504,
    "faced</w>": 2505,
    "facemask</w>": 2506,
    "faces</w>": 2507,
    "facing</w>": 2508,
    "fact</w>": 2509,
    "factor</w>": 2510,
    "facts</w>": 2511,
    "fai": 2512,
    "fail</w>": 2513,
    "failed</w>": 2514,
    "fair": 2515,
    "fair</w>": 2516,
    "fairly</w>": 2517,
    "faith</w>": 2518,
    "fake</w>": 2519,
    "fal": 2520,
    "falcons</w>": 2521,
    "fall</w>": 2522,
    "fallen</w>": 2523,
    "falling</w>": 2524,
    "false</w>": 2525,
    "fam": 2526,
    "fam</w>": 2527,
    "fame</w>": 2528,
    "famili": 2529,
    "familiar</w>": 2530,
    "family</w>": 2531,
    "famous</w>": 2532,
    "fan": 2533,
    "fan</w>": 2534,
    "fanbase</w>": 2535,
    "fancy</w>": 2536,
    "fangio</w>": 2537,
    "fans</w>": 2538,
    "fanta": 2539,
    "fantastic</w>": 2540,
    "far": 2541,
    "far</w>": 2542,
    "farm</w>": 2543,
    "fascin": 2544,
    "fascinated</w>": 2545,
    "fashi": 2546,
    "fashion</w>": 2547,
    "fast</w>": 2548,
    "faster</w>": 2549,
    "father</w>": 2550,
    "fault</w>": 2551,
    "fav": 2552,
    "fav</w>": 2553,
    "favor": 2554,
    "favor</w>": 2555,
    "favorable</w>": 2556,
    "favored</w>": 2557,
    "favori": 2558,
    "favoring</w>": 2559,
    "favorite</w>": 2560,
    "favou": 2561,
    "favourite</w>": 2562,
    "fc</w>": 2563,
    "fcc</w>": 2564,
    "fck</w>": 2565,
    "fe": 2566,
    "fea": 2567,
    "fear</w>": 2568,
    "feat</w>": 2569,
    "feb</w>": 2570,
    "february</w>": 2571,
    "fed</w>": 2572,
    "fee": 2573,
    "fee</w>": 2574,
    "feed</w>": 2575,
    "feel": 2576,
    "feel</w>": 2577,
    "feeling</w>": 2578,
    "feelings</w>": 2579,
    "feels</w>": 2580,
    "feet</w>": 2581,
    "fel": 2582,
    "fell</w>": 2583,
    "fellas</w>": 2584,
    "fellow</w>": 2585,
    "felt</w>": 2586,
    "female</w>": 2587,
    "femin": 2588,
    "fer": 2589,
    "fer</w>": 2590,
    "ference</w>": 2591,
    "fest</w>": 2592,
    "few</w>": 2593,
    "ff": 2594,
    "ff</w>": 2595,
    "fff</w>": 2596,
    "ffie</w>": 2597,
    "ffin</w>": 2598,
    "ffle</w>": 2599,
    "ffs</w>": 2600,
    "ffy</w>": 2601,
    "fg</w>": 2602,
    "fi": 2603,
    "fic": 2604,
    "fici": 2605,
    "fid": 2606,
    "fide</w>": 2607,
    "fie</w>": 2608,
    "fied</w>": 2609,
    "field</w>": 2610,
    "fif": 2611,
    "figh": 2612,
    "fight</w>": 2613,
    "fighting</w>": 2614,
    "figur": 2615,
    "figure</w>": 2616,
    "figured</w>": 2617,
    "fil": 2618,
    "file</w>": 2619,
    "filled</w>": 2620,
    "film</w>": 2621,
    "fin": 2622,
    "fin</w>": 2623,
    "final</w>": 2624,
    "finally</w>": 2625,
    "finals</w>": 2626,
    "find</w>": 2627,
    "finding</w>": 2628,
    "fine</w>": 2629,
    "finesse</w>": 2630,
    "finest</w>": 2631,
    "fing</w>": 2632,
    "finger</w>": 2633,
    "fingers</w>": 2634,
    "fini": 2635,
    "finish</w>": 2636,
    "finished</w>": 2637,
    "finna</w>": 2638,
    "fir": 2639,
    "fire": 2640,
    "fire</w>": 2641,
    "fired</w>": 2642,
    "fireee</w>": 2643,
    "fireworks</w>": 2644,
    "first</w>": 2645,
    "fish</w>": 2646,
    "fit</w>": 2647,
    "fitting</w>": 2648,
    "five</w>": 2649,
    "fix</w>": 2650,
    "fixed</w>": 2651,
    "fl": 2652,
    "fl</w>": 2653,
    "fla": 2654,
    "flagged</w>": 2655,
    "flags</w>": 2656,
    "flat</w>": 2657,
    "flaw": 2658,
    "flawless</w>": 2659,
    "fle": 2660,
    "fli": 2661,
    "flip</w>": 2662,
    "flir": 2663,
    "flirt</w>": 2664,
    "flirting</w>": 2665,
    "flo": 2666,
    "floor</w>": 2667,
    "flop</w>": 2668,
    "flow</w>": 2669,
    "flowers</w>": 2670,
    "flu": 2671,
    "fly": 2672,
    "fly</w>": 2673,
    "flying</w>": 2674,
    "flyyy</w>": 2675,
    "fn</w>": 2676,
    "fo": 2677,
    "fo</w>": 2678,
    "focu": 2679,
    "focus</w>": 2680,
    "focused</w>": 2681,
    "foda</w>": 2682,
    "foi</w>": 2683,
    "fol": 2684,
    "fold": 2685,
    "folded</w>": 2686,
    "folk</w>": 2687,
    "folks</w>": 2688,
    "foll": 2689,
    "follow</w>": 2690,
    "followed</w>": 2691,
    "followers</w>": 2692,
    "following</w>": 2693,
    "foo": 2694,
    "food</w>": 2695,
    "fool</w>": 2696,
    "foolish</w>": 2697,
    "fools</w>": 2698,
    "foot</w>": 2699,
    "footage</w>": 2700,
    "football</w>": 2701,
    "for": 2702,
    "for</w>": 2703,
    "force</w>": 2704,
    "forced</w>": 2705,
    "forcing</w>": 2706,
    "ford</w>": 2707,
    "fore": 2708,
    "fore</w>": 2709,
    "forei": 2710,
    "forever</w>": 2711,
    "forget</w>": 2712,
    "forgot</w>": 2713,
    "form</w>": 2714,
    "forma": 2715,
    "format</w>": 2716,
    "formation</w>": 2717,
    "formed</w>": 2718,
    "formid": 2719,
    "formidable</w>": 2720,
    "forms</w>": 2721,
    "fort": 2722,
    "fort</w>": 2723,
    "forth</w>": 2724,
    "fortnite</w>": 2725,
    "forward</w>": 2726,
    "fou": 2727,
    "fought</w>": 2728,
    "foul</w>": 2729,
    "found</w>": 2730,
    "four": 2731,
    "four</w>": 2732,
    "fourth</w>": 2733,
    "fox</w>": 2734,
    "fr": 2735,
    "fr</w>": 2736,
    "fra": 2737,
    "frame</w>": 2738,
    "fran": 2739,
    "france</w>": 2740,
    "franchi": 2741,
    "franchise</w>": 2742,
    "francisco</w>": 2743,
    "frau": 2744,
    "fraud</w>": 2745,
    "frauds</w>": 2746,
    "fraudulent</w>": 2747,
    "fre": 2748,
    "frea": 2749,
    "freakin</w>": 2750,
    "freaking</w>": 2751,
    "free": 2752,
    "free</w>": 2753,
    "freestyle</w>": 2754,
    "frfr</w>": 2755,
    "fri": 2756,
    "friday</w>": 2757,
    "fried</w>": 2758,
    "friend": 2759,
    "friend</w>": 2760,
    "friendly</w>": 2761,
    "friends</w>": 2762,
    "fro": 2763,
    "frog</w>": 2764,
    "from</w>": 2765,
    "front</w>": 2766,
    "fru": 2767,
    "fs</w>": 2768,
    "ft</w>": 2769,
    "fted</w>": 2770,
    "fts</w>": 2771,
    "fu": 2772,
    "fu</w>": 2773,
    "fuc</w>": 2774,
    "fue</w>": 2775,
    "ful": 2776,
    "ful</w>": 2777,
    "full</w>": 2778,
    "fully</w>": 2779,
    "fumble</w>": 2780,
    "fun": 2781,
    "fun</w>": 2782,
    "funeral</w>": 2783,
    "funny</w>": 2784,
    "fur": 2785,
    "further</w>": 2786,
    "fury</w>": 2787,
    "future</w>": 2788,
    "fy</w>": 2789,
    "fying</w>": 2790,
    "g": 2791,
    "g</w>": 2792,
    "ga": 2793,
    "ga</w>": 2794,
    "gaga</w>": 2795,
    "gain</w>": 2796,
    "gal</w>": 2797,
    "gamb": 2798,
    "gambit</w>": 2799,
    "gambling</w>": 2800,
    "game": 2801,
    "game</w>": 2802,
    "gameplan</w>": 2803,
    "games</w>": 2804,
    "gan": 2805,
    "gan</w>": 2806,
    "gar": 2807,
    "garden</w>": 2808,
    "gas</w>": 2809,
    "gave</w>": 2810,
    "gaw": 2811,
    "ge": 2812,
    "ge</w>": 2813,
    "ged</w>": 2814,
    "gee</w>": 2815,
    "gement</w>": 2816,
    "gemini</w>": 2817,
    "gen": 2818,
    "gen</w>": 2819,
    "gency</w>": 2820,
    "gender</w>": 2821,
    "gener": 2822,
    "general</w>": 2823,
    "generation</w>": 2824,
    "generational</w>": 2825,
    "generations</w>": 2826,
    "geni": 2827,
    "genius</w>": 2828,
    "genre</w>": 2829,
    "gent": 2830,
    "gente</w>": 2831,
    "gentle": 2832,
    "gentleman</w>": 2833,
    "gentlemen</w>": 2834,
    "genu": 2835,
    "genuine</w>": 2836,
    "genuinely</w>": 2837,
    "geous</w>": 2838,
    "ger": 2839,
    "ger</w>": 2840,
    "german</w>": 2841,
    "germany</w>": 2842,
    "gers</w>": 2843,
    "ges</w>": 2844,
    "gest": 2845,
    "gest</w>": 2846,
    "get</w>": 2847,
    "getic</w>": 2848,
    "gets</w>": 2849,
    "gettin</w>": 2850,
    "getting</w>": 2851,
    "gg": 2852,
    "gg</w>": 2853,
    "gged</w>": 2854,
    "gger</w>": 2855,
    "ggg</w>": 2856,
    "ggin</w>": 2857,
    "gging</w>": 2858,
    "ggs</w>": 2859,
    "gh": 2860,
    "gh</w>": 2861,
    "gha": 2862,
    "ghais</w>": 2863,
    "ghetto</w>": 2864,
    "gho": 2865,
    "ghost</w>": 2866,
    "ght": 2867,
    "ght</w>": 2868,
    "ghten</w>": 2869,
    "ghter</w>": 2870,
    "ghts</w>": 2871,
    "gi": 2872,
    "gi</w>": 2873,
    "gia</w>": 2874,
    "giant</w>": 2875,
    "giants</w>": 2876,
    "gic</w>": 2877,
    "gie</w>": 2878,
    "gies</w>": 2879,
    "gift</w>": 2880,
    "gifted</w>": 2881,
    "gig": 2882,
    "giggling</w>": 2883,
    "gin": 2884,
    "gin</w>": 2885,
    "ging</w>": 2886,
    "gio</w>": 2887,
    "gious</w>": 2888,
    "gir": 2889,
    "girl": 2890,
    "girl</w>": 2891,
    "girlfriend</w>": 2892,
    "girls</w>": 2893,
    "give</w>": 2894,
    "given</w>": 2895,
    "gives</w>": 2896,
    "giving</w>": 2897,
    "gk</w>": 2898,
    "gl": 2899,
    "gla": 2900,
    "glad</w>": 2901,
    "glass</w>": 2902,
    "glasses</w>": 2903,
    "glazing</w>": 2904,
    "gle</w>": 2905,
    "gled</w>": 2906,
    "gles</w>": 2907,
    "gli": 2908,
    "gling</w>": 2909,
    "glo": 2910,
    "global</w>": 2911,
    "glori": 2912,
    "gloria</w>": 2913,
    "glorious</w>": 2914,
    "glory</w>": 2915,
    "gly</w>": 2916,
    "gm</w>": 2917,
    "gn": 2918,
    "gn</w>": 2919,
    "gne</w>": 2920,
    "gni": 2921,
    "gnific": 2922,
    "gnx</w>": 2923,
    "go": 2924,
    "go</w>": 2925,
    "goal</w>": 2926,
    "goals</w>": 2927,
    "goat": 2928,
    "goat</w>": 2929,
    "goated</w>": 2930,
    "goats</w>": 2931,
    "god": 2932,
    "god</w>": 2933,
    "gods</w>": 2934,
    "goes</w>": 2935,
    "goin</w>": 2936,
    "going</w>": 2937,
    "gold": 2938,
    "gold</w>": 2939,
    "golden</w>": 2940,
    "gon": 2941,
    "gon</w>": 2942,
    "gone</w>": 2943,
    "gonna</w>": 2944,
    "goo": 2945,
    "goo</w>": 2946,
    "good": 2947,
    "good</w>": 2948,
    "goodbye</w>": 2949,
    "goodell</w>": 2950,
    "goodness</w>": 2951,
    "gooo": 2952,
    "gooo</w>": 2953,
    "goood</w>": 2954,
    "goose": 2955,
    "goose</w>": 2956,
    "goosebumps</w>": 2957,
    "gor": 2958,
    "gorgeous</w>": 2959,
    "gosh</w>": 2960,
    "got</w>": 2961,
    "gotta</w>": 2962,
    "gotten</w>": 2963,
    "gover": 2964,
    "govern": 2965,
    "government</w>": 2966,
    "gr": 2967,
    "gra": 2968,
    "grab</w>": 2969,
    "graci": 2970,
    "gracias</w>": 2971,
    "gracious</w>": 2972,
    "graha": 2973,
    "graham</w>": 2974,
    "gram": 2975,
    "gram</w>": 2976,
    "grammy</w>": 2977,
    "grammys</w>": 2978,
    "gran": 2979,
    "grand": 2980,
    "grand</w>": 2981,
    "grande</w>": 2982,
    "grandmaster</w>": 2983,
    "grandpa</w>": 2984,
    "graph": 2985,
    "graphic</w>": 2986,
    "graphics</w>": 2987,
    "grateful</w>": 2988,
    "grave</w>": 2989,
    "gre": 2990,
    "grea": 2991,
    "great": 2992,
    "great</w>": 2993,
    "greatest</w>": 2994,
    "greatly</w>": 2995,
    "greatness</w>": 2996,
    "gree": 2997,
    "gree</w>": 2998,
    "greed</w>": 2999,
    "greedy</w>": 3000,
    "green": 3001,
    "green</w>": 3002,
    "greetings</w>": 3003,
    "grew</w>": 3004,
    "gri": 3005,
    "grin": 3006,
    "grin</w>": 3007,
    "gro": 3008,
    "gron": 3009,
    "gronk</w>": 3010,
    "grou": 3011,
    "ground</w>": 3012,
    "group</w>": 3013,
    "grow</w>": 3014,
    "growing</w>": 3015,
    "grown</w>": 3016,
    "gs</w>": 3017,
    "gt</w>": 3018,
    "gta</w>": 3019,
    "gu": 3020,
    "guar": 3021,
    "guarante": 3022,
    "guard</w>": 3023,
    "gue</w>": 3024,
    "guess</w>": 3025,
    "guessing</w>": 3026,
    "guevara</w>": 3027,
    "gui": 3028,
    "guilty</w>": 3029,
    "gul": 3030,
    "gun": 3031,
    "gun</w>": 3032,
    "gur": 3033,
    "gus</w>": 3034,
    "guy</w>": 3035,
    "guys</w>": 3036,
    "gy": 3037,
    "gy</w>": 3038,
    "gym</w>": 3039,
    "h": 3040,
    "h7</w>": 3041,
    "h</w>": 3042,
    "ha": 3043,
    "ha</w>": 3044,
    "had": 3045,
    "had</w>": 3046,
    "hadn</w>": 3047,
    "hah": 3048,
    "hah</w>": 3049,
    "haha": 3050,
    "haha</w>": 3051,
    "hahaha</w>": 3052,
    "hahahah</w>": 3053,
    "hahahaha": 3054,
    "hahahaha</w>": 3055,
    "hahahahaha</w>": 3056,
    "hahahahahahahaha": 3057,
    "hail</w>": 3058,
    "hair</w>": 3059,
    "hal": 3060,
    "half": 3061,
    "half</w>": 3062,
    "halftime</w>": 3063,
    "halfway</w>": 3064,
    "hall</w>": 3065,
    "ham": 3066,
    "hamed</w>": 3067,
    "hammer": 3068,
    "hammered</w>": 3069,
    "han": 3070,
    "han</w>": 3071,
    "hand": 3072,
    "hand</w>": 3073,
    "hande": 3074,
    "handed</w>": 3075,
    "handle</w>": 3076,
    "handled</w>": 3077,
    "hands</w>": 3078,
    "handsome</w>": 3079,
    "hanging</w>": 3080,
    "happ": 3081,
    "happen": 3082,
    "happen</w>": 3083,
    "happened</w>": 3084,
    "happening</w>": 3085,
    "happens</w>": 3086,
    "happier</w>": 3087,
    "happiness</w>": 3088,
    "happy</w>": 3089,
    "har": 3090,
    "hard</w>": 3091,
    "harder</w>": 3092,
    "hardest</w>": 3093,
    "hardly</w>": 3094,
    "hart</w>": 3095,
    "has": 3096,
    "has</w>": 3097,
    "hasn</w>": 3098,
    "hasnt</w>": 3099,
    "hat</w>": 3100,
    "hate</w>": 3101,
    "hated</w>": 3102,
    "hater</w>": 3103,
    "haters</w>": 3104,
    "hates</w>": 3105,
    "hating</w>": 3106,
    "hatred</w>": 3107,
    "hats</w>": 3108,
    "hau": 3109,
    "have</w>": 3110,
    "haven</w>": 3111,
    "havent</w>": 3112,
    "having</w>": 3113,
    "haw": 3114,
    "hay</w>": 3115,
    "he": 3116,
    "he</w>": 3117,
    "hea": 3118,
    "head": 3119,
    "head</w>": 3120,
    "headline</w>": 3121,
    "heads</w>": 3122,
    "heal": 3123,
    "healing</w>": 3124,
    "health</w>": 3125,
    "healthy</w>": 3126,
    "hear": 3127,
    "hear</w>": 3128,
    "heard</w>": 3129,
    "hearing</w>": 3130,
    "heart": 3131,
    "heart</w>": 3132,
    "hearts</w>": 3133,
    "heat</w>": 3134,
    "heaven</w>": 3135,
    "heavy</w>": 3136,
    "heck</w>": 3137,
    "hee": 3138,
    "hehe</w>": 3139,
    "hel": 3140,
    "held</w>": 3141,
    "hell</w>": 3142,
    "hella</w>": 3143,
    "hello</w>": 3144,
    "helmet</w>": 3145,
    "help": 3146,
    "help</w>": 3147,
    "helped</w>": 3148,
    "helpful</w>": 3149,
    "helping</w>": 3150,
    "helps</w>": 3151,
    "her": 3152,
    "her</w>": 3153,
    "herbert</w>": 3154,
    "here</w>": 3155,
    "hermo": 3156,
    "hero</w>": 3157,
    "heroes</w>": 3158,
    "hes</w>": 3159,
    "hey</w>": 3160,
    "hh": 3161,
    "hh</w>": 3162,
    "hhh</w>": 3163,
    "hi": 3164,
    "hi</w>": 3165,
    "hibi": 3166,
    "hidden</w>": 3167,
    "hide</w>": 3168,
    "hiding</w>": 3169,
    "high": 3170,
    "high</w>": 3171,
    "higher</w>": 3172,
    "highest</w>": 3173,
    "highlight</w>": 3174,
    "highlights</w>": 3175,
    "highly</w>": 3176,
    "hil": 3177,
    "hilar": 3178,
    "hilarious</w>": 3179,
    "hill</w>": 3180,
    "him": 3181,
    "him</w>": 3182,
    "himself</w>": 3183,
    "hin": 3184,
    "hip</w>": 3185,
    "hiphop</w>": 3186,
    "his</w>": 3187,
    "hist": 3188,
    "histor": 3189,
    "historic</w>": 3190,
    "historical</w>": 3191,
    "history</w>": 3192,
    "hit</w>": 3193,
    "hits</w>": 3194,
    "hitting</w>": 3195,
    "hl</w>": 3196,
    "hm</w>": 3197,
    "hmm</w>": 3198,
    "hmmm</w>": 3199,
    "ho": 3200,
    "ho</w>": 3201,
    "hoe</w>": 3202,
    "hoes</w>": 3203,
    "hol</w>": 3204,
    "hola</w>": 3205,
    "hold": 3206,
    "hold</w>": 3207,
    "holding</w>": 3208,
    "holds</w>": 3209,
    "hole</w>": 3210,
    "holl": 3211,
    "holly": 3212,
    "hollywood</w>": 3213,
    "holy</w>": 3214,
    "hom": 3215,
    "home": 3216,
    "home</w>": 3217,
    "homes</w>": 3218,
    "homework</w>": 3219,
    "homie</w>": 3220,
    "hon": 3221,
    "honest": 3222,
    "honest</w>": 3223,
    "honestly</w>": 3224,
    "honey</w>": 3225,
    "honor</w>": 3226,
    "hoo": 3227,
    "hoo</w>": 3228,
    "hood</w>": 3229,
    "hooked</w>": 3230,
    "hop": 3231,
    "hop</w>": 3232,
    "hope</w>": 3233,
    "hopefully</w>": 3234,
    "hoping</w>": 3235,
    "hopkins</w>": 3236,
    "hor": 3237,
    "horr": 3238,
    "horri": 3239,
    "horrible</w>": 3240,
    "hot</w>": 3241,
    "hou": 3242,
    "hour</w>": 3243,
    "hours</w>": 3244,
    "house</w>": 3245,
    "houston</w>": 3246,
    "how": 3247,
    "how</w>": 3248,
    "however</w>": 3249,
    "howie</w>": 3250,
    "ht</w>": 3251,
    "hu": 3252,
    "hu</w>": 3253,
    "hua": 3254,
    "huge</w>": 3255,
    "huh</w>": 3256,
    "human": 3257,
    "human</w>": 3258,
    "humanity</w>": 3259,
    "humans</w>": 3260,
    "humble</w>": 3261,
    "humbled</w>": 3262,
    "humili": 3263,
    "humiliate</w>": 3264,
    "humiliated</w>": 3265,
    "humiliating</w>": 3266,
    "humiliation</w>": 3267,
    "humility</w>": 3268,
    "hun": 3269,
    "hund": 3270,
    "hundre": 3271,
    "hundred</w>": 3272,
    "hung</w>": 3273,
    "hungry</w>": 3274,
    "hunt</w>": 3275,
    "hur": 3276,
    "hurt</w>": 3277,
    "hurts</w>": 3278,
    "husband</w>": 3279,
    "hust": 3280,
    "hustler</w>": 3281,
    "hy": 3282,
    "hyp": 3283,
    "hype</w>": 3284,
    "hyped</w>": 3285,
    "i": 3286,
    "i</w>": 3287,
    "ia</w>": 3288,
    "iam</w>": 3289,
    "ian</w>": 3290,
    "ic": 3291,
    "ic</w>": 3292,
    "ica</w>": 3293,
    "ical</w>": 3294,
    "ically</w>": 3295,
    "ice</w>": 3296,
    "ici": 3297,
    "icia</w>": 3298,
    "icing</w>": 3299,
    "icious</w>": 3300,
    "ick": 3301,
    "ick</w>": 3302,
    "icked</w>": 3303,
    "icks</w>": 3304,
    "ico</w>": 3305,
    "icon</w>": 3306,
    "iconic</w>": 3307,
    "ics</w>": 3308,
    "id": 3309,
    "id</w>": 3310,
    "idc</w>": 3311,
    "idea</w>": 3312,
    "identi": 3313,
    "idio": 3314,
    "idiot</w>": 3315,
    "idiots</w>": 3316,
    "idk</w>": 3317,
    "ids</w>": 3318,
    "ie</w>": 3319,
    "ier</w>": 3320,
    "ies</w>": 3321,
    "iest</w>": 3322,
    "if": 3323,
    "if</w>": 3324,
    "ig": 3325,
    "ig</w>": 3326,
    "ight</w>": 3327,
    "ign": 3328,
    "ign</w>": 3329,
    "ignor": 3330,
    "ignorant</w>": 3331,
    "ignore</w>": 3332,
    "ignored</w>": 3333,
    "ii": 3334,
    "ii</w>": 3335,
    "il": 3336,
    "il</w>": 3337,
    "iland</w>": 3338,
    "ile</w>": 3339,
    "iled</w>": 3340,
    "iler</w>": 3341,
    "ili": 3342,
    "iling</w>": 3343,
    "ill</w>": 3344,
    "illegal</w>": 3345,
    "illi": 3346,
    "illumin": 3347,
    "ils</w>": 3348,
    "ily</w>": 3349,
    "im": 3350,
    "im</w>": 3351,
    "ima</w>": 3352,
    "imag": 3353,
    "imagine</w>": 3354,
    "imma": 3355,
    "imma</w>": 3356,
    "immaculate</w>": 3357,
    "immedi": 3358,
    "immediately</w>": 3359,
    "immen": 3360,
    "imo</w>": 3361,
    "impac": 3362,
    "impact</w>": 3363,
    "impactful</w>": 3364,
    "impe": 3365,
    "impecc": 3366,
    "impor": 3367,
    "important</w>": 3368,
    "impossible</w>": 3369,
    "impressed</w>": 3370,
    "impression</w>": 3371,
    "impressive</w>": 3372,
    "improve</w>": 3373,
    "in": 3374,
    "in</w>": 3375,
    "ina</w>": 3376,
    "ination</w>": 3377,
    "inc": 3378,
    "incar": 3379,
    "incarna": 3380,
    "inci": 3381,
    "inclu": 3382,
    "included</w>": 3383,
    "including</w>": 3384,
    "incoming</w>": 3385,
    "incre": 3386,
    "increa": 3387,
    "incredi": 3388,
    "incredible</w>": 3389,
    "incredibly</w>": 3390,
    "inde": 3391,
    "indeed</w>": 3392,
    "indi": 3393,
    "indian</w>": 3394,
    "indic": 3395,
    "individu": 3396,
    "indon": 3397,
    "indonesia</w>": 3398,
    "indu": 3399,
    "industry</w>": 3400,
    "ine</w>": 3401,
    "ined</w>": 3402,
    "ines</w>": 3403,
    "iness</w>": 3404,
    "inf": 3405,
    "infe": 3406,
    "infectious</w>": 3407,
    "infer": 3408,
    "influ": 3409,
    "influence</w>": 3410,
    "informa": 3411,
    "informative</w>": 3412,
    "infront</w>": 3413,
    "ing": 3414,
    "ing</w>": 3415,
    "ingl": 3416,
    "ingly</w>": 3417,
    "ings</w>": 3418,
    "ini": 3419,
    "ini</w>": 3420,
    "inian</w>": 3421,
    "ining</w>": 3422,
    "initi": 3423,
    "inju": 3424,
    "injured</w>": 3425,
    "injury</w>": 3426,
    "inly</w>": 3427,
    "inning</w>": 3428,
    "inno": 3429,
    "ino</w>": 3430,
    "ins</w>": 3431,
    "insan": 3432,
    "insane</w>": 3433,
    "insanely</w>": 3434,
    "insecure</w>": 3435,
    "insi": 3436,
    "inside</w>": 3437,
    "insights</w>": 3438,
    "inspir": 3439,
    "inspira": 3440,
    "inspiration</w>": 3441,
    "inspirational</w>": 3442,
    "inspired</w>": 3443,
    "inspiring</w>": 3444,
    "inst": 3445,
    "instant</w>": 3446,
    "instead</w>": 3447,
    "instru": 3448,
    "insu": 3449,
    "int": 3450,
    "int</w>": 3451,
    "inte": 3452,
    "inted</w>": 3453,
    "integrity</w>": 3454,
    "intel": 3455,
    "intellig": 3456,
    "intelligent</w>": 3457,
    "inten": 3458,
    "intended</w>": 3459,
    "intense</w>": 3460,
    "intention": 3461,
    "intentionally</w>": 3462,
    "inter": 3463,
    "interaction</w>": 3464,
    "intercep": 3465,
    "intercepted</w>": 3466,
    "interception</w>": 3467,
    "interceptions</w>": 3468,
    "interest</w>": 3469,
    "interested</w>": 3470,
    "interesting</w>": 3471,
    "interference</w>": 3472,
    "international</w>": 3473,
    "internet</w>": 3474,
    "interpre": 3475,
    "interrup": 3476,
    "interv": 3477,
    "interview</w>": 3478,
    "intimi": 3479,
    "intimida": 3480,
    "intimidated</w>": 3481,
    "intimidating</w>": 3482,
    "into</w>": 3483,
    "intro</w>": 3484,
    "introdu": 3485,
    "ints</w>": 3486,
    "inv": 3487,
    "invest": 3488,
    "invest</w>": 3489,
    "invested</w>": 3490,
    "investing</w>": 3491,
    "investment</w>": 3492,
    "invi": 3493,
    "invite</w>": 3494,
    "invited</w>": 3495,
    "invol": 3496,
    "involved</w>": 3497,
    "io</w>": 3498,
    "ion</w>": 3499,
    "ior</w>": 3500,
    "ious</w>": 3501,
    "ir": 3502,
    "ir</w>": 3503,
    "ira</w>": 3504,
    "ire</w>": 3505,
    "ired</w>": 3506,
    "iro</w>": 3507,
    "ironic</w>": 3508,
    "irrelevant</w>": 3509,
    "irri": 3510,
    "irs</w>": 3511,
    "is": 3512,
    "is</w>": 3513,
    "ise</w>": 3514,
    "ised</w>": 3515,
    "ises</w>": 3516,
    "ish</w>": 3517,
    "ism</w>": 3518,
    "isn</w>": 3519,
    "isnt</w>": 3520,
    "ison</w>": 3521,
    "isra": 3522,
    "israel</w>": 3523,
    "isso</w>": 3524,
    "issue</w>": 3525,
    "ist</w>": 3526,
    "it": 3527,
    "it</w>": 3528,
    "ital": 3529,
    "ite</w>": 3530,
    "ited</w>": 3531,
    "itll</w>": 3532,
    "ito</w>": 3533,
    "its</w>": 3534,
    "itself</w>": 3535,
    "ittt</w>": 3536,
    "ity</w>": 3537,
    "iv</w>": 3538,
    "ive</w>": 3539,
    "iyi</w>": 3540,
    "iz": 3541,
    "ize</w>": 3542,
    "ized</w>": 3543,
    "izing</w>": 3544,
    "j": 3545,
    "j</w>": 3546,
    "ja": 3547,
    "ja</w>": 3548,
    "jack": 3549,
    "jacket</w>": 3550,
    "jackson</w>": 3551,
    "jacksons</w>": 3552,
    "jad": 3553,
    "jag</w>": 3554,
    "jaja": 3555,
    "jake</w>": 3556,
    "jal": 3557,
    "jalen</w>": 3558,
    "jam": 3559,
    "james</w>": 3560,
    "jan": 3561,
    "jason</w>": 3562,
    "jaw</w>": 3563,
    "jay": 3564,
    "jay</w>": 3565,
    "jayl": 3566,
    "jaylen</w>": 3567,
    "jayz</w>": 3568,
    "jazz</w>": 3569,
    "je": 3570,
    "je</w>": 3571,
    "jeal": 3572,
    "jealous</w>": 3573,
    "jean</w>": 3574,
    "jeans</w>": 3575,
    "ject</w>": 3576,
    "jee": 3577,
    "jef": 3578,
    "jepe</w>": 3579,
    "jer": 3580,
    "jerk</w>": 3581,
    "jerry</w>": 3582,
    "jersey</w>": 3583,
    "jets</w>": 3584,
    "jin": 3585,
    "jo": 3586,
    "jo</w>": 3587,
    "job</w>": 3588,
    "joe</w>": 3589,
    "john": 3590,
    "john</w>": 3591,
    "johnny</w>": 3592,
    "johnson</w>": 3593,
    "join</w>": 3594,
    "joke</w>": 3595,
    "jones</w>": 3596,
    "jordan</w>": 3597,
    "josh</w>": 3598,
    "jour": 3599,
    "journey</w>": 3600,
    "joy</w>": 3601,
    "jr</w>": 3602,
    "js</w>": 3603,
    "ju": 3604,
    "jud": 3605,
    "judge</w>": 3606,
    "judged</w>": 3607,
    "july</w>": 3608,
    "jump</w>": 3609,
    "jumped</w>": 3610,
    "jun": 3611,
    "junk</w>": 3612,
    "jus</w>": 3613,
    "just": 3614,
    "just</w>": 3615,
    "justi": 3616,
    "justice</w>": 3617,
    "justin</w>": 3618,
    "k": 3619,
    "k</w>": 3620,
    "ka": 3621,
    "ka</w>": 3622,
    "kab": 3623,
    "kaboo</w>": 3624,
    "kai</w>": 3625,
    "kalo</w>": 3626,
    "kan": 3627,
    "kan</w>": 3628,
    "kansas</w>": 3629,
    "kar": 3630,
    "kareem</w>": 3631,
    "karma</w>": 3632,
    "katy</w>": 3633,
    "kaw</w>": 3634,
    "kc</w>": 3635,
    "kcs</w>": 3636,
    "kd</w>": 3637,
    "kdot</w>": 3638,
    "ke": 3639,
    "ke</w>": 3640,
    "ked</w>": 3641,
    "kee": 3642,
    "keee</w>": 3643,
    "keep</w>": 3644,
    "keeper</w>": 3645,
    "keeping</w>": 3646,
    "keeps</w>": 3647,
    "kel": 3648,
    "kelce</w>": 3649,
    "kellen</w>": 3650,
    "kelsey</w>": 3651,
    "ken": 3652,
    "ken</w>": 3653,
    "kend": 3654,
    "kendr": 3655,
    "kendri": 3656,
    "kendric": 3657,
    "kendric</w>": 3658,
    "kendrick": 3659,
    "kendrick</w>": 3660,
    "kendricklamar</w>": 3661,
    "kendricks</w>": 3662,
    "kendrik</w>": 3663,
    "kenfolk</w>": 3664,
    "kenny</w>": 3665,
    "kenya</w>": 3666,
    "kept</w>": 3667,
    "ker": 3668,
    "ker</w>": 3669,
    "keren</w>": 3670,
    "kermit</w>": 3671,
    "kers</w>": 3672,
    "kes</w>": 3673,
    "kest</w>": 3674,
    "kev": 3675,
    "kevin</w>": 3676,
    "key</w>": 3677,
    "kh": 3678,
    "ki": 3679,
    "ki</w>": 3680,
    "kia</w>": 3681,
    "kic": 3682,
    "kick": 3683,
    "kick</w>": 3684,
    "kicked</w>": 3685,
    "kicker</w>": 3686,
    "kicking</w>": 3687,
    "kickoff</w>": 3688,
    "kicks</w>": 3689,
    "kid</w>": 3690,
    "kida</w>": 3691,
    "kidding</w>": 3692,
    "kids</w>": 3693,
    "kie</w>": 3694,
    "kies</w>": 3695,
    "kil": 3696,
    "kill</w>": 3697,
    "killer</w>": 3698,
    "killers</w>": 3699,
    "kin": 3700,
    "kin</w>": 3701,
    "kind</w>": 3702,
    "kinda</w>": 3703,
    "king": 3704,
    "king</w>": 3705,
    "kingdom</w>": 3706,
    "kings</w>": 3707,
    "kins</w>": 3708,
    "kirain</w>": 3709,
    "kiss</w>": 3710,
    "kk": 3711,
    "kk</w>": 3712,
    "kl</w>": 3713,
    "kn": 3714,
    "kne": 3715,
    "knee</w>": 3716,
    "knees</w>": 3717,
    "kness</w>": 3718,
    "knew</w>": 3719,
    "knight</w>": 3720,
    "kno": 3721,
    "knock</w>": 3722,
    "knocked</w>": 3723,
    "know": 3724,
    "know</w>": 3725,
    "knowing</w>": 3726,
    "knowledge</w>": 3727,
    "known</w>": 3728,
    "knows</w>": 3729,
    "ko": 3730,
    "ko</w>": 3731,
    "kobe</w>": 3732,
    "kom": 3733,
    "korea</w>": 3734,
    "kra": 3735,
    "ks</w>": 3736,
    "kt</w>": 3737,
    "ku": 3738,
    "kudos</w>": 3739,
    "kun": 3740,
    "ky</w>": 3741,
    "l": 3742,
    "l</w>": 3743,
    "la": 3744,
    "la</w>": 3745,
    "lace</w>": 3746,
    "lack</w>": 3747,
    "ladies</w>": 3748,
    "lads</w>": 3749,
    "lady</w>": 3750,
    "lagi</w>": 3751,
    "lake</w>": 3752,
    "lam": 3753,
    "lama</w>": 3754,
    "lamar</w>": 3755,
    "lamars</w>": 3756,
    "lame": 3757,
    "lame</w>": 3758,
    "lamp</w>": 3759,
    "lan": 3760,
    "lan</w>": 3761,
    "lana</w>": 3762,
    "land</w>": 3763,
    "landed</w>": 3764,
    "langu": 3765,
    "language</w>": 3766,
    "lap</w>": 3767,
    "lar": 3768,
    "lar</w>": 3769,
    "large</w>": 3770,
    "las</w>": 3771,
    "last</w>": 3772,
    "late</w>": 3773,
    "lated</w>": 3774,
    "lately</w>": 3775,
    "later</w>": 3776,
    "latin": 3777,
    "latinos</w>": 3778,
    "lation</w>": 3779,
    "lau": 3780,
    "laugh</w>": 3781,
    "laughed</w>": 3782,
    "laughing</w>": 3783,
    "laughs</w>": 3784,
    "laughter</w>": 3785,
    "law": 3786,
    "law</w>": 3787,
    "lawsuit</w>": 3788,
    "lay": 3789,
    "lay</w>": 3790,
    "layered</w>": 3791,
    "layers</w>": 3792,
    "ld": 3793,
    "ld</w>": 3794,
    "lds</w>": 3795,
    "le": 3796,
    "le</w>": 3797,
    "lea": 3798,
    "lead</w>": 3799,
    "leader</w>": 3800,
    "leading</w>": 3801,
    "league</w>": 3802,
    "lean": 3803,
    "lear": 3804,
    "learn</w>": 3805,
    "learned</w>": 3806,
    "learning</w>": 3807,
    "least</w>": 3808,
    "leave</w>": 3809,
    "leaving</w>": 3810,
    "lebr": 3811,
    "lebron</w>": 3812,
    "led</w>": 3813,
    "ledge</w>": 3814,
    "lee": 3815,
    "lef": 3816,
    "left</w>": 3817,
    "lefty</w>": 3818,
    "leg": 3819,
    "leg</w>": 3820,
    "lega": 3821,
    "legacy</w>": 3822,
    "legal</w>": 3823,
    "legend": 3824,
    "legend</w>": 3825,
    "legendary</w>": 3826,
    "legends</w>": 3827,
    "legi": 3828,
    "legit</w>": 3829,
    "legs</w>": 3830,
    "lemme</w>": 3831,
    "len</w>": 3832,
    "ler": 3833,
    "ler</w>": 3834,
    "leroo": 3835,
    "lers</w>": 3836,
    "les": 3837,
    "les</w>": 3838,
    "less": 3839,
    "less</w>": 3840,
    "lessly</w>": 3841,
    "lesson</w>": 3842,
    "lest</w>": 3843,
    "let</w>": 3844,
    "lets</w>": 3845,
    "letter</w>": 3846,
    "letting</w>": 3847,
    "lev": 3848,
    "level</w>": 3849,
    "levels</w>": 3850,
    "levy</w>": 3851,
    "ley</w>": 3852,
    "lfg</w>": 3853,
    "li": 3854,
    "li</w>": 3855,
    "lib": 3856,
    "liber": 3857,
    "liberal</w>": 3858,
    "lic</w>": 3859,
    "lick</w>": 3860,
    "lie</w>": 3861,
    "lied</w>": 3862,
    "lier</w>": 3863,
    "lies</w>": 3864,
    "lif": 3865,
    "life</w>": 3866,
    "lifel": 3867,
    "lifelong</w>": 3868,
    "lifetime</w>": 3869,
    "lift</w>": 3870,
    "lig": 3871,
    "ligh": 3872,
    "light": 3873,
    "light</w>": 3874,
    "lightening</w>": 3875,
    "lighting</w>": 3876,
    "lights</w>": 3877,
    "lii</w>": 3878,
    "lik": 3879,
    "like": 3880,
    "like</w>": 3881,
    "liked</w>": 3882,
    "likely</w>": 3883,
    "likes</w>": 3884,
    "liking</w>": 3885,
    "lil</w>": 3886,
    "limited</w>": 3887,
    "lin": 3888,
    "lin</w>": 3889,
    "line": 3890,
    "line</w>": 3891,
    "lineback": 3892,
    "lineman</w>": 3893,
    "linemen</w>": 3894,
    "lines</w>": 3895,
    "ling</w>": 3896,
    "link</w>": 3897,
    "lio</w>": 3898,
    "lion</w>": 3899,
    "lions</w>": 3900,
    "lip</w>": 3901,
    "lish</w>": 3902,
    "list": 3903,
    "list</w>": 3904,
    "listen</w>": 3905,
    "listened</w>": 3906,
    "listening</w>": 3907,
    "lit": 3908,
    "lit</w>": 3909,
    "liter": 3910,
    "literal</w>": 3911,
    "literally</w>": 3912,
    "little</w>": 3913,
    "live</w>": 3914,
    "lived</w>": 3915,
    "lives</w>": 3916,
    "living</w>": 3917,
    "lix</w>": 3918,
    "ll": 3919,
    "ll</w>": 3920,
    "llama</w>": 3921,
    "ller</w>": 3922,
    "lll</w>": 3923,
    "lly</w>": 3924,
    "lm": 3925,
    "lma": 3926,
    "lmao</w>": 3927,
    "lmaooo</w>": 3928,
    "lmfa": 3929,
    "lmfao</w>": 3930,
    "lmfaooo</w>": 3931,
    "lo": 3932,
    "lo</w>": 3933,
    "load</w>": 3934,
    "local</w>": 3935,
    "lock</w>": 3936,
    "locked</w>": 3937,
    "locker</w>": 3938,
    "log": 3939,
    "logical</w>": 3940,
    "logo</w>": 3941,
    "logy</w>": 3942,
    "lol</w>": 3943,
    "lom": 3944,
    "lombardi</w>": 3945,
    "lon": 3946,
    "london</w>": 3947,
    "long": 3948,
    "long</w>": 3949,
    "longer</w>": 3950,
    "longest</w>": 3951,
    "loo": 3952,
    "look</w>": 3953,
    "looked</w>": 3954,
    "lookin</w>": 3955,
    "looking</w>": 3956,
    "looks</w>": 3957,
    "looo": 3958,
    "loop": 3959,
    "loop</w>": 3960,
    "loose</w>": 3961,
    "loosing</w>": 3962,
    "lord</w>": 3963,
    "los": 3964,
    "los</w>": 3965,
    "lose</w>": 3966,
    "loser</w>": 3967,
    "losers</w>": 3968,
    "loses</w>": 3969,
    "losing</w>": 3970,
    "loss</w>": 3971,
    "losses</w>": 3972,
    "lost</w>": 3973,
    "lot</w>": 3974,
    "lots</w>": 3975,
    "lou": 3976,
    "loud</w>": 3977,
    "louder</w>": 3978,
    "lousy</w>": 3979,
    "lov": 3980,
    "love": 3981,
    "love</w>": 3982,
    "loved</w>": 3983,
    "lovely</w>": 3984,
    "lover</w>": 3985,
    "loves</w>": 3986,
    "loving</w>": 3987,
    "low": 3988,
    "low</w>": 3989,
    "lower</w>": 3990,
    "lowkey</w>": 3991,
    "ls</w>": 3992,
    "lt</w>": 3993,
    "lu": 3994,
    "lu</w>": 3995,
    "luck</w>": 3996,
    "lucky</w>": 3997,
    "luke</w>": 3998,
    "lunch</w>": 3999,
    "luther</w>": 4000,
    "luv</w>": 4001,
    "lv</w>": 4002,
    "ly": 4003,
    "ly</w>": 4004,
    "lying</w>": 4005,
    "lyric": 4006,
    "lyrical</w>": 4007,
    "lyrics</w>": 4008,
    "lys</w>": 4009,
    "lyte</w>": 4010,
    "m": 4011,
    "m</w>": 4012,
    "ma": 4013,
    "ma</w>": 4014,
    "maa": 4015,
    "mac</w>": 4016,
    "mace</w>": 4017,
    "mach": 4018,
    "machine</w>": 4019,
    "mad</w>": 4020,
    "madden</w>": 4021,
    "made</w>": 4022,
    "madness</w>": 4023,
    "mag": 4024,
    "mage</w>": 4025,
    "magic</w>": 4026,
    "magical</w>": 4027,
    "magni": 4028,
    "magnificent</w>": 4029,
    "mah": 4030,
    "mahol": 4031,
    "maholmes</w>": 4032,
    "mahom": 4033,
    "mahome</w>": 4034,
    "mahomes</w>": 4035,
    "mahomie</w>": 4036,
    "mahommes</w>": 4037,
    "mahomo</w>": 4038,
    "mahon": 4039,
    "mahones</w>": 4040,
    "mail</w>": 4041,
    "mailata</w>": 4042,
    "main": 4043,
    "main</w>": 4044,
    "mainly</w>": 4045,
    "mainstream</w>": 4046,
    "mais</w>": 4047,
    "maj": 4048,
    "major</w>": 4049,
    "majority</w>": 4050,
    "make</w>": 4051,
    "maker</w>": 4052,
    "makes</w>": 4053,
    "making</w>": 4054,
    "mal": 4055,
    "mal</w>": 4056,
    "male</w>": 4057,
    "males</w>": 4058,
    "mama</w>": 4059,
    "mamat</w>": 4060,
    "man": 4061,
    "man</w>": 4062,
    "managed</w>": 4063,
    "mance</w>": 4064,
    "manhandled</w>": 4065,
    "mani": 4066,
    "manipu": 4067,
    "manning</w>": 4068,
    "mannn</w>": 4069,
    "mano</w>": 4070,
    "mans</w>": 4071,
    "manship</w>": 4072,
    "manspla": 4073,
    "mansplaining</w>": 4074,
    "many</w>": 4075,
    "mar": 4076,
    "mara</w>": 4077,
    "march</w>": 4078,
    "marching</w>": 4079,
    "mark": 4080,
    "mark</w>": 4081,
    "market</w>": 4082,
    "married</w>": 4083,
    "marry</w>": 4084,
    "mars</w>": 4085,
    "mary</w>": 4086,
    "mas": 4087,
    "mas</w>": 4088,
    "masa": 4089,
    "masakini</w>": 4090,
    "masc": 4091,
    "mask</w>": 4092,
    "massac": 4093,
    "massacre</w>": 4094,
    "massive</w>": 4095,
    "mast": 4096,
    "master": 4097,
    "master</w>": 4098,
    "masterclass</w>": 4099,
    "masterful</w>": 4100,
    "masterpiece</w>": 4101,
    "mat": 4102,
    "mat</w>": 4103,
    "match": 4104,
    "match</w>": 4105,
    "matched</w>": 4106,
    "matches</w>": 4107,
    "matchup</w>": 4108,
    "mate</w>": 4109,
    "mated</w>": 4110,
    "mates</w>": 4111,
    "matic</w>": 4112,
    "matter</w>": 4113,
    "matters</w>": 4114,
    "max</w>": 4115,
    "may": 4116,
    "may</w>": 4117,
    "maybe</w>": 4118,
    "mayor</w>": 4119,
    "mb": 4120,
    "mber</w>": 4121,
    "mbers</w>": 4122,
    "mble</w>": 4123,
    "mbled</w>": 4124,
    "mbles</w>": 4125,
    "mbling</w>": 4126,
    "mc": 4127,
    "mc</w>": 4128,
    "mcdu": 4129,
    "mcduffie</w>": 4130,
    "mcnab": 4131,
    "me": 4132,
    "me</w>": 4133,
    "mean": 4134,
    "mean</w>": 4135,
    "meaning": 4136,
    "meaning</w>": 4137,
    "meaningful</w>": 4138,
    "meanings</w>": 4139,
    "means</w>": 4140,
    "meant</w>": 4141,
    "meanwhile</w>": 4142,
    "meat</w>": 4143,
    "med</w>": 4144,
    "medi": 4145,
    "media</w>": 4146,
    "medic": 4147,
    "medicine</w>": 4148,
    "medio</w>": 4149,
    "mediocre</w>": 4150,
    "mee": 4151,
    "meek</w>": 4152,
    "meet</w>": 4153,
    "meeting</w>": 4154,
    "meh</w>": 4155,
    "mejor</w>": 4156,
    "mel": 4157,
    "melan": 4158,
    "melh": 4159,
    "melhor</w>": 4160,
    "mem": 4161,
    "member</w>": 4162,
    "members</w>": 4163,
    "meme</w>": 4164,
    "memor": 4165,
    "memorable</w>": 4166,
    "memori": 4167,
    "memories</w>": 4168,
    "memory</w>": 4169,
    "men": 4170,
    "men</w>": 4171,
    "menang</w>": 4172,
    "ment": 4173,
    "ment</w>": 4174,
    "mental": 4175,
    "mental</w>": 4176,
    "mentality</w>": 4177,
    "mentally</w>": 4178,
    "mentals</w>": 4179,
    "mente</w>": 4180,
    "mented</w>": 4181,
    "mention": 4182,
    "mention</w>": 4183,
    "mentioned</w>": 4184,
    "mentions</w>": 4185,
    "ments</w>": 4186,
    "mer": 4187,
    "mer</w>": 4188,
    "mercy</w>": 4189,
    "mers</w>": 4190,
    "mes": 4191,
    "mes</w>": 4192,
    "mesmer": 4193,
    "mess</w>": 4194,
    "messa": 4195,
    "message</w>": 4196,
    "messages</w>": 4197,
    "messed</w>": 4198,
    "messi</w>": 4199,
    "met</w>": 4200,
    "mets</w>": 4201,
    "mex": 4202,
    "mexic": 4203,
    "mf</w>": 4204,
    "mfs</w>": 4205,
    "mi": 4206,
    "mi</w>": 4207,
    "miami</w>": 4208,
    "mic": 4209,
    "mic</w>": 4210,
    "micha": 4211,
    "michael</w>": 4212,
    "micheal</w>": 4213,
    "micro": 4214,
    "mid": 4215,
    "mid</w>": 4216,
    "middle</w>": 4217,
    "mies</w>": 4218,
    "migh": 4219,
    "might</w>": 4220,
    "mighty</w>": 4221,
    "mike</w>": 4222,
    "mil": 4223,
    "mil</w>": 4224,
    "mile</w>": 4225,
    "miles</w>": 4226,
    "mili": 4227,
    "mill": 4228,
    "mill</w>": 4229,
    "milli": 4230,
    "milli</w>": 4231,
    "million": 4232,
    "million</w>": 4233,
    "millionaire</w>": 4234,
    "millions</w>": 4235,
    "millionth</w>": 4236,
    "milton</w>": 4237,
    "min": 4238,
    "min</w>": 4239,
    "mind": 4240,
    "mind</w>": 4241,
    "minds</w>": 4242,
    "mine</w>": 4243,
    "ming</w>": 4244,
    "mini": 4245,
    "mini</w>": 4246,
    "mino": 4247,
    "minooor</w>": 4248,
    "minooorrr</w>": 4249,
    "minor</w>": 4250,
    "minorrr</w>": 4251,
    "mins</w>": 4252,
    "minu": 4253,
    "minute</w>": 4254,
    "minutes</w>": 4255,
    "mira": 4256,
    "mis": 4257,
    "mis</w>": 4258,
    "miser": 4259,
    "misleading</w>": 4260,
    "misogy": 4261,
    "miss": 4262,
    "miss</w>": 4263,
    "missed</w>": 4264,
    "missing</w>": 4265,
    "mission</w>": 4266,
    "mista": 4267,
    "mistake</w>": 4268,
    "mistakes</w>": 4269,
    "mister</w>": 4270,
    "mit</w>": 4271,
    "mix</w>": 4272,
    "mixed</w>": 4273,
    "mixing</w>": 4274,
    "mj</w>": 4275,
    "ml": 4276,
    "mling</w>": 4277,
    "mm": 4278,
    "mm</w>": 4279,
    "mme</w>": 4280,
    "mmer</w>": 4281,
    "mming</w>": 4282,
    "mmm</w>": 4283,
    "mmys</w>": 4284,
    "mn</w>": 4285,
    "mo": 4286,
    "mo</w>": 4287,
    "mode</w>": 4288,
    "moder": 4289,
    "modern</w>": 4290,
    "mom": 4291,
    "mom</w>": 4292,
    "momen": 4293,
    "moment</w>": 4294,
    "moments</w>": 4295,
    "momentum</w>": 4296,
    "momma</w>": 4297,
    "mon": 4298,
    "mon</w>": 4299,
    "monday</w>": 4300,
    "money</w>": 4301,
    "mons</w>": 4302,
    "monster</w>": 4303,
    "montan": 4304,
    "montana</w>": 4305,
    "month</w>": 4306,
    "months</w>": 4307,
    "monu": 4308,
    "mood</w>": 4309,
    "moon</w>": 4310,
    "moore</w>": 4311,
    "mor": 4312,
    "mor</w>": 4313,
    "moral</w>": 4314,
    "morale</w>": 4315,
    "more</w>": 4316,
    "morning</w>": 4317,
    "mos</w>": 4318,
    "most</w>": 4319,
    "mostly</w>": 4320,
    "mother</w>": 4321,
    "motion</w>": 4322,
    "motiv": 4323,
    "mou": 4324,
    "move": 4325,
    "move</w>": 4326,
    "moved</w>": 4327,
    "movement</w>": 4328,
    "movements</w>": 4329,
    "moves</w>": 4330,
    "movi": 4331,
    "movie</w>": 4332,
    "moving</w>": 4333,
    "mp": 4334,
    "mp</w>": 4335,
    "mped</w>": 4336,
    "mping</w>": 4337,
    "mps</w>": 4338,
    "mption</w>": 4339,
    "mr</w>": 4340,
    "mrs</w>": 4341,
    "ms": 4342,
    "ms</w>": 4343,
    "msica</w>": 4344,
    "mu": 4345,
    "much</w>": 4346,
    "muito</w>": 4347,
    "mul": 4348,
    "mule</w>": 4349,
    "multi": 4350,
    "multiple</w>": 4351,
    "mum</w>": 4352,
    "mun": 4353,
    "mundo</w>": 4354,
    "mur": 4355,
    "murals</w>": 4356,
    "murdered</w>": 4357,
    "mus": 4358,
    "musc": 4359,
    "music</w>": 4360,
    "musica</w>": 4361,
    "musical</w>": 4362,
    "musici": 4363,
    "musk</w>": 4364,
    "muss": 4365,
    "must": 4366,
    "must</w>": 4367,
    "mustaa": 4368,
    "mustaaar": 4369,
    "mustaaard</w>": 4370,
    "mustaaarddd</w>": 4371,
    "mustaaarrrd</w>": 4372,
    "mustaaarrrddd</w>": 4373,
    "mustar": 4374,
    "mustard</w>": 4375,
    "mustardd": 4376,
    "mustarddd</w>": 4377,
    "mustarrrd</w>": 4378,
    "mustarrrddd</w>": 4379,
    "muster</w>": 4380,
    "mute</w>": 4381,
    "muuu": 4382,
    "muuuss": 4383,
    "muuustaa": 4384,
    "muuustaaard</w>": 4385,
    "mv": 4386,
    "mvp</w>": 4387,
    "mvps</w>": 4388,
    "my": 4389,
    "my</w>": 4390,
    "myself</w>": 4391,
    "n": 4392,
    "n</w>": 4393,
    "na": 4394,
    "na</w>": 4395,
    "nab": 4396,
    "nada</w>": 4397,
    "nah</w>": 4398,
    "nahh</w>": 4399,
    "nahhh</w>": 4400,
    "nail</w>": 4401,
    "nailed</w>": 4402,
    "nam": 4403,
    "nam</w>": 4404,
    "name</w>": 4405,
    "named</w>": 4406,
    "names</w>": 4407,
    "nar": 4408,
    "narcissi": 4409,
    "narra": 4410,
    "narration</w>": 4411,
    "narrative</w>": 4412,
    "nas</w>": 4413,
    "nasty</w>": 4414,
    "nation</w>": 4415,
    "national</w>": 4416,
    "nations</w>": 4417,
    "native</w>": 4418,
    "natural</w>": 4419,
    "nature</w>": 4420,
    "nba</w>": 4421,
    "nd</w>": 4422,
    "ne": 4423,
    "ne</w>": 4424,
    "near</w>": 4425,
    "nearly</w>": 4426,
    "nec": 4427,
    "necessarily</w>": 4428,
    "necessary</w>": 4429,
    "neck</w>": 4430,
    "necklace</w>": 4431,
    "ned</w>": 4432,
    "nee": 4433,
    "need</w>": 4434,
    "needed</w>": 4435,
    "needs</w>": 4436,
    "nega": 4437,
    "negative</w>": 4438,
    "neigh": 4439,
    "neither</w>": 4440,
    "nel</w>": 4441,
    "ner": 4442,
    "ner</w>": 4443,
    "ners</w>": 4444,
    "nervous</w>": 4445,
    "ness</w>": 4446,
    "net": 4447,
    "net</w>": 4448,
    "neutr": 4449,
    "neutral</w>": 4450,
    "never</w>": 4451,
    "new": 4452,
    "new</w>": 4453,
    "newest</w>": 4454,
    "news</w>": 4455,
    "next</w>": 4456,
    "ney</w>": 4457,
    "nf": 4458,
    "nfc</w>": 4459,
    "nfl</w>": 4460,
    "ng": 4461,
    "ng</w>": 4462,
    "ngl</w>": 4463,
    "ni": 4464,
    "ni</w>": 4465,
    "nia</w>": 4466,
    "nic": 4467,
    "nice</w>": 4468,
    "nicely</w>": 4469,
    "nick": 4470,
    "nick</w>": 4471,
    "nicki</w>": 4472,
    "night": 4473,
    "night</w>": 4474,
    "nightmare</w>": 4475,
    "nights</w>": 4476,
    "nin": 4477,
    "nine</w>": 4478,
    "niners</w>": 4479,
    "ning</w>": 4480,
    "nite</w>": 4481,
    "nn": 4482,
    "nn</w>": 4483,
    "no": 4484,
    "no</w>": 4485,
    "nobody</w>": 4486,
    "noise</w>": 4487,
    "nokia</w>": 4488,
    "nom": 4489,
    "non": 4490,
    "non</w>": 4491,
    "none</w>": 4492,
    "nonetheless</w>": 4493,
    "nonsense</w>": 4494,
    "noo": 4495,
    "noo</w>": 4496,
    "noone</w>": 4497,
    "nooo</w>": 4498,
    "nope</w>": 4499,
    "nor": 4500,
    "nor</w>": 4501,
    "norm": 4502,
    "normal</w>": 4503,
    "normally</w>": 4504,
    "north</w>": 4505,
    "nos</w>": 4506,
    "nose</w>": 4507,
    "nostalgia</w>": 4508,
    "not": 4509,
    "not</w>": 4510,
    "notch</w>": 4511,
    "note</w>": 4512,
    "notes</w>": 4513,
    "nothing</w>": 4514,
    "noti": 4515,
    "notice</w>": 4516,
    "noticed</w>": 4517,
    "noticing</w>": 4518,
    "now": 4519,
    "now</w>": 4520,
    "nowadays</w>": 4521,
    "nowhere</w>": 4522,
    "ns</w>": 4523,
    "nt</w>": 4524,
    "nu": 4525,
    "number</w>": 4526,
    "numbers</w>": 4527,
    "nun": 4528,
    "nunca</w>": 4529,
    "nuts</w>": 4530,
    "ny": 4531,
    "ny</w>": 4532,
    "o": 4533,
    "o</w>": 4534,
    "oakland</w>": 4535,
    "ob": 4536,
    "obli": 4537,
    "obliter": 4538,
    "obliterated</w>": 4539,
    "obno": 4540,
    "obnoxious</w>": 4541,
    "obs": 4542,
    "obsessed</w>": 4543,
    "obvious</w>": 4544,
    "obviously</w>": 4545,
    "oc": 4546,
    "occur": 4547,
    "occurred</w>": 4548,
    "och</w>": 4549,
    "od": 4550,
    "od</w>": 4551,
    "odd</w>": 4552,
    "odds</w>": 4553,
    "oes</w>": 4554,
    "of": 4555,
    "of</w>": 4556,
    "ofc</w>": 4557,
    "off": 4558,
    "off</w>": 4559,
    "offen": 4560,
    "offence</w>": 4561,
    "offense</w>": 4562,
    "offensive</w>": 4563,
    "offf</w>": 4564,
    "office</w>": 4565,
    "offici": 4566,
    "official</w>": 4567,
    "officially</w>": 4568,
    "officials</w>": 4569,
    "officiating</w>": 4570,
    "offs</w>": 4571,
    "offseason</w>": 4572,
    "offsides</w>": 4573,
    "often</w>": 4574,
    "og</w>": 4575,
    "ogra": 4576,
    "ograph": 4577,
    "oh</w>": 4578,
    "ohh</w>": 4579,
    "ohhh</w>": 4580,
    "ohio</w>": 4581,
    "ok": 4582,
    "ok</w>": 4583,
    "okay</w>": 4584,
    "ol": 4585,
    "ol</w>": 4586,
    "old": 4587,
    "old</w>": 4588,
    "older</w>": 4589,
    "ole</w>": 4590,
    "olin": 4591,
    "oline</w>": 4592,
    "oly": 4593,
    "olymp": 4594,
    "olympics</w>": 4595,
    "om": 4596,
    "om</w>": 4597,
    "ome": 4598,
    "ome</w>": 4599,
    "omen": 4600,
    "omg</w>": 4601,
    "omggg</w>": 4602,
    "oms</w>": 4603,
    "on": 4604,
    "on</w>": 4605,
    "ona</w>": 4606,
    "once</w>": 4607,
    "ond</w>": 4608,
    "one</w>": 4609,
    "oned</w>": 4610,
    "oner</w>": 4611,
    "ones</w>": 4612,
    "ong": 4613,
    "ong</w>": 4614,
    "oni": 4615,
    "online</w>": 4616,
    "only</w>": 4617,
    "ons</w>": 4618,
    "ont</w>": 4619,
    "onto</w>": 4620,
    "ony</w>": 4621,
    "oo": 4622,
    "oo</w>": 4623,
    "ood</w>": 4624,
    "ook</w>": 4625,
    "ool</w>": 4626,
    "oom</w>": 4627,
    "ooo</w>": 4628,
    "oops</w>": 4629,
    "op": 4630,
    "op</w>": 4631,
    "ope</w>": 4632,
    "open": 4633,
    "open</w>": 4634,
    "opened</w>": 4635,
    "opening</w>": 4636,
    "openings</w>": 4637,
    "opi</w>": 4638,
    "opini": 4639,
    "opinion</w>": 4640,
    "opp": 4641,
    "oppo": 4642,
    "oppon": 4643,
    "opponent</w>": 4644,
    "opponents</w>": 4645,
    "oppor": 4646,
    "opportunity</w>": 4647,
    "opposing</w>": 4648,
    "opposite</w>": 4649,
    "opted</w>": 4650,
    "options</w>": 4651,
    "or": 4652,
    "or</w>": 4653,
    "orange</w>": 4654,
    "ord": 4655,
    "ord</w>": 4656,
    "order</w>": 4657,
    "ordin": 4658,
    "ordinary</w>": 4659,
    "ore": 4660,
    "ore</w>": 4661,
    "ores</w>": 4662,
    "org": 4663,
    "organi": 4664,
    "organization</w>": 4665,
    "ori": 4666,
    "oria</w>": 4667,
    "ories</w>": 4668,
    "origin": 4669,
    "original</w>": 4670,
    "ority</w>": 4671,
    "orleans</w>": 4672,
    "orr": 4673,
    "orrr</w>": 4674,
    "ors</w>": 4675,
    "ort</w>": 4676,
    "ory</w>": 4677,
    "os</w>": 4678,
    "osc": 4679,
    "oscar</w>": 4680,
    "ose</w>": 4681,
    "ot</w>": 4682,
    "other</w>": 4683,
    "others</w>": 4684,
    "otherwise</w>": 4685,
    "ou": 4686,
    "ou</w>": 4687,
    "oud</w>": 4688,
    "ough": 4689,
    "ough</w>": 4690,
    "ought</w>": 4691,
    "ould": 4692,
    "ould</w>": 4693,
    "oun": 4694,
    "ound</w>": 4695,
    "ounded</w>": 4696,
    "our": 4697,
    "our</w>": 4698,
    "ours</w>": 4699,
    "ous": 4700,
    "ous</w>": 4701,
    "ously</w>": 4702,
    "ousy</w>": 4703,
    "out": 4704,
    "out</w>": 4705,
    "outcome</w>": 4706,
    "outfit</w>": 4707,
    "outplayed</w>": 4708,
    "outro</w>": 4709,
    "outs</w>": 4710,
    "outside</w>": 4711,
    "outstanding</w>": 4712,
    "outta</w>": 4713,
    "ov": 4714,
    "ov</w>": 4715,
    "over": 4716,
    "over</w>": 4717,
    "overall</w>": 4718,
    "overconfidence</w>": 4719,
    "overconfident</w>": 4720,
    "overly</w>": 4721,
    "overrated</w>": 4722,
    "overwhel": 4723,
    "ovhoes</w>": 4724,
    "ow": 4725,
    "ow</w>": 4726,
    "owe</w>": 4727,
    "owed</w>": 4728,
    "ower</w>": 4729,
    "owing</w>": 4730,
    "owly</w>": 4731,
    "own</w>": 4732,
    "owned</w>": 4733,
    "owner</w>": 4734,
    "owners</w>": 4735,
    "owns</w>": 4736,
    "ows</w>": 4737,
    "owww</w>": 4738,
    "p": 4739,
    "p</w>": 4740,
    "pa": 4741,
    "pa</w>": 4742,
    "pac": 4743,
    "pac</w>": 4744,
    "pack": 4745,
    "pack</w>": 4746,
    "package</w>": 4747,
    "packers</w>": 4748,
    "pad</w>": 4749,
    "padding</w>": 4750,
    "page</w>": 4751,
    "paid</w>": 4752,
    "pain</w>": 4753,
    "pal": 4754,
    "palest": 4755,
    "palestine</w>": 4756,
    "pan": 4757,
    "pan</w>": 4758,
    "panther</w>": 4759,
    "panthers</w>": 4760,
    "pants</w>": 4761,
    "paper</w>": 4762,
    "par": 4763,
    "par</w>": 4764,
    "para": 4765,
    "para</w>": 4766,
    "parade</w>": 4767,
    "parents</w>": 4768,
    "park</w>": 4769,
    "part": 4770,
    "part</w>": 4771,
    "parte</w>": 4772,
    "parti": 4773,
    "partici": 4774,
    "participa": 4775,
    "particul": 4776,
    "particularly</w>": 4777,
    "parts</w>": 4778,
    "party</w>": 4779,
    "pas": 4780,
    "pas</w>": 4781,
    "pass": 4782,
    "pass</w>": 4783,
    "passed</w>": 4784,
    "passer</w>": 4785,
    "passes</w>": 4786,
    "passing</w>": 4787,
    "past": 4788,
    "past</w>": 4789,
    "pasti</w>": 4790,
    "pat": 4791,
    "pat</w>": 4792,
    "pathetic</w>": 4793,
    "pathy</w>": 4794,
    "pati": 4795,
    "patr": 4796,
    "patricia</w>": 4797,
    "patrick</w>": 4798,
    "patrio": 4799,
    "patriots</w>": 4800,
    "pats</w>": 4801,
    "patty</w>": 4802,
    "paul</w>": 4803,
    "pause</w>": 4804,
    "paw": 4805,
    "pawn</w>": 4806,
    "pawns</w>": 4807,
    "pay": 4808,
    "pay</w>": 4809,
    "payback</w>": 4810,
    "payed</w>": 4811,
    "paying</w>": 4812,
    "payment</w>": 4813,
    "pc</w>": 4814,
    "pd": 4815,
    "pdf</w>": 4816,
    "pe": 4817,
    "pe</w>": 4818,
    "pea": 4819,
    "peace</w>": 4820,
    "peaceful</w>": 4821,
    "peak</w>": 4822,
    "peakaboo</w>": 4823,
    "peat</w>": 4824,
    "peating</w>": 4825,
    "peats</w>": 4826,
    "ped</w>": 4827,
    "pee": 4828,
    "peek": 4829,
    "peek</w>": 4830,
    "peekab": 4831,
    "peekaboo</w>": 4832,
    "peekabooo</w>": 4833,
    "peep</w>": 4834,
    "pen": 4835,
    "penal": 4836,
    "penalties</w>": 4837,
    "penalty</w>": 4838,
    "peop": 4839,
    "people</w>": 4840,
    "peoples</w>": 4841,
    "peor</w>": 4842,
    "pep": 4843,
    "per": 4844,
    "per</w>": 4845,
    "percent</w>": 4846,
    "perf": 4847,
    "perfe": 4848,
    "perfec": 4849,
    "perfect</w>": 4850,
    "perfection</w>": 4851,
    "perfectly</w>": 4852,
    "perfom": 4853,
    "perfomance</w>": 4854,
    "perfor": 4855,
    "perform</w>": 4856,
    "performan": 4857,
    "performance</w>": 4858,
    "performances</w>": 4859,
    "performed</w>": 4860,
    "performer</w>": 4861,
    "performers</w>": 4862,
    "performing</w>": 4863,
    "performs</w>": 4864,
    "perhaps</w>": 4865,
    "peri": 4866,
    "period</w>": 4867,
    "pero</w>": 4868,
    "perry</w>": 4869,
    "pers</w>": 4870,
    "person": 4871,
    "person</w>": 4872,
    "personal</w>": 4873,
    "personality</w>": 4874,
    "personally</w>": 4875,
    "perspective</w>": 4876,
    "pes</w>": 4877,
    "pet</w>": 4878,
    "peti": 4879,
    "pett": 4880,
    "petty</w>": 4881,
    "pey": 4882,
    "pglang</w>": 4883,
    "ph": 4884,
    "ph</w>": 4885,
    "pha": 4886,
    "phantom</w>": 4887,
    "phe": 4888,
    "phenomen": 4889,
    "phenomenal</w>": 4890,
    "phi": 4891,
    "phi</w>": 4892,
    "phia</w>": 4893,
    "phil": 4894,
    "phila": 4895,
    "philadelphia</w>": 4896,
    "phili": 4897,
    "philipp": 4898,
    "philippines</w>": 4899,
    "philly</w>": 4900,
    "phillys</w>": 4901,
    "pho": 4902,
    "phone</w>": 4903,
    "phones</w>": 4904,
    "phra": 4905,
    "phrase</w>": 4906,
    "phy</w>": 4907,
    "phys": 4908,
    "physical</w>": 4909,
    "physically</w>": 4910,
    "pi": 4911,
    "pi</w>": 4912,
    "pia</w>": 4913,
    "pic": 4914,
    "pic</w>": 4915,
    "pick": 4916,
    "pick</w>": 4917,
    "picked</w>": 4918,
    "picket</w>": 4919,
    "pickett</w>": 4920,
    "picking</w>": 4921,
    "picks</w>": 4922,
    "pico</w>": 4923,
    "picture</w>": 4924,
    "pie": 4925,
    "pie</w>": 4926,
    "piece</w>": 4927,
    "pieces</w>": 4928,
    "pin": 4929,
    "pin</w>": 4930,
    "ping</w>": 4931,
    "pint</w>": 4932,
    "pissed</w>": 4933,
    "pitch</w>": 4934,
    "pittsburgh</w>": 4935,
    "pity</w>": 4936,
    "pl": 4937,
    "pla": 4938,
    "place</w>": 4939,
    "placed</w>": 4940,
    "places</w>": 4941,
    "plain</w>": 4942,
    "plan": 4943,
    "plan</w>": 4944,
    "plane</w>": 4945,
    "planet</w>": 4946,
    "planning</w>": 4947,
    "plans</w>": 4948,
    "plat": 4949,
    "platform</w>": 4950,
    "play": 4951,
    "play</w>": 4952,
    "playback</w>": 4953,
    "played</w>": 4954,
    "player</w>": 4955,
    "players</w>": 4956,
    "playing</w>": 4957,
    "playlist</w>": 4958,
    "playoff</w>": 4959,
    "playoffs</w>": 4960,
    "plays</w>": 4961,
    "playstation</w>": 4962,
    "ple": 4963,
    "ple</w>": 4964,
    "plea": 4965,
    "pleasant</w>": 4966,
    "please</w>": 4967,
    "pleased</w>": 4968,
    "pleasure</w>": 4969,
    "plo": 4970,
    "plot</w>": 4971,
    "pls</w>": 4972,
    "plu": 4973,
    "plus</w>": 4974,
    "plz</w>": 4975,
    "pm</w>": 4976,
    "po": 4977,
    "po</w>": 4978,
    "pocket</w>": 4979,
    "podcast</w>": 4980,
    "poet</w>": 4981,
    "poetic</w>": 4982,
    "poin": 4983,
    "point</w>": 4984,
    "pointing</w>": 4985,
    "points</w>": 4986,
    "poker</w>": 4987,
    "pole</w>": 4988,
    "poles</w>": 4989,
    "poli": 4990,
    "police</w>": 4991,
    "polite</w>": 4992,
    "political</w>": 4993,
    "politics</w>": 4994,
    "poo": 4995,
    "pool</w>": 4996,
    "poor": 4997,
    "poor</w>": 4998,
    "poorly</w>": 4999,
    "pop</w>": 5000,
    "popped</w>": 5001,
    "popping</w>": 5002,
    "pops</w>": 5003,
    "popu": 5004,
    "popular</w>": 5005,
    "por": 5006,
    "por</w>": 5007,
    "portu": 5008,
    "pos</w>": 5009,
    "pose</w>": 5010,
    "posi": 5011,
    "position</w>": 5012,
    "positional</w>": 5013,
    "positive</w>": 5014,
    "poss": 5015,
    "possession</w>": 5016,
    "possi": 5017,
    "possible</w>": 5018,
    "possibly</w>": 5019,
    "post": 5020,
    "post</w>": 5021,
    "posted</w>": 5022,
    "posting</w>": 5023,
    "postseason</w>": 5024,
    "pot": 5025,
    "potential</w>": 5026,
    "pour</w>": 5027,
    "pov</w>": 5028,
    "pow": 5029,
    "power": 5030,
    "power</w>": 5031,
    "powerful</w>": 5032,
    "pp": 5033,
    "pp</w>": 5034,
    "pped</w>": 5035,
    "pper</w>": 5036,
    "ppin</w>": 5037,
    "pping</w>": 5038,
    "ppl</w>": 5039,
    "ppp</w>": 5040,
    "ppy</w>": 5041,
    "pr": 5042,
    "pra": 5043,
    "pra</w>": 5044,
    "practi": 5045,
    "practice</w>": 5046,
    "praise</w>": 5047,
    "pray</w>": 5048,
    "pre": 5049,
    "pre</w>": 5050,
    "preci": 5051,
    "predic": 5052,
    "predictable</w>": 5053,
    "predicted</w>": 5054,
    "pref": 5055,
    "prefer": 5056,
    "prefer</w>": 5057,
    "prefor": 5058,
    "preform</w>": 5059,
    "premi": 5060,
    "prepar": 5061,
    "prepared</w>": 5062,
    "pres": 5063,
    "presale</w>": 5064,
    "presence</w>": 5065,
    "present</w>": 5066,
    "presenta": 5067,
    "presentacin</w>": 5068,
    "presentation</w>": 5069,
    "presi": 5070,
    "president</w>": 5071,
    "press</w>": 5072,
    "pressur": 5073,
    "pressure</w>": 5074,
    "pressured</w>": 5075,
    "pret": 5076,
    "pretend</w>": 5077,
    "pretending</w>": 5078,
    "pretty</w>": 5079,
    "prevent</w>": 5080,
    "previous</w>": 5081,
    "pri": 5082,
    "pric": 5083,
    "price</w>": 5084,
    "priceless</w>": 5085,
    "pride</w>": 5086,
    "prime</w>": 5087,
    "prince</w>": 5088,
    "print</w>": 5089,
    "prior</w>": 5090,
    "privile": 5091,
    "prize</w>": 5092,
    "pro": 5093,
    "pro</w>": 5094,
    "prob</w>": 5095,
    "probab": 5096,
    "probably</w>": 5097,
    "proble": 5098,
    "problem</w>": 5099,
    "problems</w>": 5100,
    "proc": 5101,
    "process</w>": 5102,
    "produ": 5103,
    "produced</w>": 5104,
    "producer</w>": 5105,
    "product</w>": 5106,
    "production</w>": 5107,
    "prof": 5108,
    "professi": 5109,
    "professional</w>": 5110,
    "profit</w>": 5111,
    "progre": 5112,
    "progress</w>": 5113,
    "project</w>": 5114,
    "prolly</w>": 5115,
    "prom": 5116,
    "promise</w>": 5117,
    "promo": 5118,
    "pron": 5119,
    "proof</w>": 5120,
    "proper": 5121,
    "proper</w>": 5122,
    "properly</w>": 5123,
    "proph": 5124,
    "prophetic</w>": 5125,
    "propo": 5126,
    "propose</w>": 5127,
    "props</w>": 5128,
    "prote": 5129,
    "protect</w>": 5130,
    "protected</w>": 5131,
    "protecting</w>": 5132,
    "protection</w>": 5133,
    "protester</w>": 5134,
    "prou": 5135,
    "proud</w>": 5136,
    "prove</w>": 5137,
    "proved</w>": 5138,
    "proven</w>": 5139,
    "proves</w>": 5140,
    "proving</w>": 5141,
    "ps</w>": 5142,
    "psy": 5143,
    "psycho": 5144,
    "pt</w>": 5145,
    "pts</w>": 5146,
    "pu": 5147,
    "publi": 5148,
    "public</w>": 5149,
    "pul": 5150,
    "pulitzer</w>": 5151,
    "pull</w>": 5152,
    "pulled</w>": 5153,
    "pulling</w>": 5154,
    "pun": 5155,
    "punch</w>": 5156,
    "punching</w>": 5157,
    "puni": 5158,
    "punk</w>": 5159,
    "punt</w>": 5160,
    "puppy</w>": 5161,
    "pur": 5162,
    "purdy</w>": 5163,
    "pure</w>": 5164,
    "purple</w>": 5165,
    "purpo": 5166,
    "purpose</w>": 5167,
    "push</w>": 5168,
    "put</w>": 5169,
    "puts</w>": 5170,
    "putting</w>": 5171,
    "py": 5172,
    "py</w>": 5173,
    "q": 5174,
    "q</w>": 5175,
    "qb</w>": 5176,
    "qbs</w>": 5177,
    "qtr</w>": 5178,
    "qu": 5179,
    "qu</w>": 5180,
    "quality</w>": 5181,
    "quar": 5182,
    "quarter": 5183,
    "quarter</w>": 5184,
    "quarterback</w>": 5185,
    "quarterbacks</w>": 5186,
    "quarters</w>": 5187,
    "que": 5188,
    "que</w>": 5189,
    "queefs</w>": 5190,
    "queen</w>": 5191,
    "queens</w>": 5192,
    "quer": 5193,
    "ques": 5194,
    "question": 5195,
    "question</w>": 5196,
    "questionable</w>": 5197,
    "questions</w>": 5198,
    "qui": 5199,
    "quick": 5200,
    "quick</w>": 5201,
    "quickly</w>": 5202,
    "quiet</w>": 5203,
    "quit</w>": 5204,
    "quite</w>": 5205,
    "quo": 5206,
    "quote</w>": 5207,
    "qx": 5208,
    "r": 5209,
    "r</w>": 5210,
    "ra": 5211,
    "ra</w>": 5212,
    "race</w>": 5213,
    "raci": 5214,
    "racism</w>": 5215,
    "racist</w>": 5216,
    "radio</w>": 5217,
    "rai": 5218,
    "raid</w>": 5219,
    "raider</w>": 5220,
    "raiders</w>": 5221,
    "rain</w>": 5222,
    "raise</w>": 5223,
    "raised</w>": 5224,
    "ral</w>": 5225,
    "rally</w>": 5226,
    "rame</w>": 5227,
    "rams</w>": 5228,
    "ran": 5229,
    "ran</w>": 5230,
    "random</w>": 5231,
    "rap": 5232,
    "rap</w>": 5233,
    "rapi": 5234,
    "rappers</w>": 5235,
    "raps</w>": 5236,
    "rar": 5237,
    "rare</w>": 5238,
    "rarely</w>": 5239,
    "rate</w>": 5240,
    "rated</w>": 5241,
    "rather</w>": 5242,
    "rating</w>": 5243,
    "ratings</w>": 5244,
    "ravens</w>": 5245,
    "raw</w>": 5246,
    "ray</w>": 5247,
    "rb</w>": 5248,
    "rd</w>": 5249,
    "re": 5250,
    "re</w>": 5251,
    "rea": 5252,
    "reach</w>": 5253,
    "reached</w>": 5254,
    "reaches</w>": 5255,
    "react</w>": 5256,
    "reaction</w>": 5257,
    "reactions</w>": 5258,
    "read</w>": 5259,
    "reading</w>": 5260,
    "reads</w>": 5261,
    "ready</w>": 5262,
    "real": 5263,
    "real</w>": 5264,
    "reali": 5265,
    "realise</w>": 5266,
    "realised</w>": 5267,
    "reality</w>": 5268,
    "realize</w>": 5269,
    "realized</w>": 5270,
    "realizing</w>": 5271,
    "really</w>": 5272,
    "realy</w>": 5273,
    "reason</w>": 5274,
    "reasons</w>": 5275,
    "rec": 5276,
    "recei": 5277,
    "received</w>": 5278,
    "receiver</w>": 5279,
    "receivers</w>": 5280,
    "receiving</w>": 5281,
    "recent</w>": 5282,
    "reci": 5283,
    "recipe</w>": 5284,
    "reck": 5285,
    "reckless</w>": 5286,
    "reco": 5287,
    "recogni": 5288,
    "recognition</w>": 5289,
    "recognize</w>": 5290,
    "recomm": 5291,
    "recommend</w>": 5292,
    "recommended</w>": 5293,
    "recor": 5294,
    "record</w>": 5295,
    "recorded</w>": 5296,
    "records</w>": 5297,
    "recover</w>": 5298,
    "recru": 5299,
    "rect</w>": 5300,
    "red": 5301,
    "red</w>": 5302,
    "redemption</w>": 5303,
    "redskins</w>": 5304,
    "ree": 5305,
    "ree</w>": 5306,
    "reed</w>": 5307,
    "reee</w>": 5308,
    "reel</w>": 5309,
    "ref": 5310,
    "ref</w>": 5311,
    "refer": 5312,
    "refere": 5313,
    "referee</w>": 5314,
    "referees</w>": 5315,
    "reference</w>": 5316,
    "reffs</w>": 5317,
    "refle": 5318,
    "refre": 5319,
    "refreshing</w>": 5320,
    "refs</w>": 5321,
    "refused</w>": 5322,
    "regar": 5323,
    "regardless</w>": 5324,
    "regre": 5325,
    "regret</w>": 5326,
    "regu": 5327,
    "regular</w>": 5328,
    "reid</w>": 5329,
    "reign</w>": 5330,
    "reincarna": 5331,
    "reincarnated</w>": 5332,
    "rel": 5333,
    "rela": 5334,
    "relation": 5335,
    "relatively</w>": 5336,
    "relax</w>": 5337,
    "relea": 5338,
    "release</w>": 5339,
    "released</w>": 5340,
    "relevant</w>": 5341,
    "reli": 5342,
    "relive</w>": 5343,
    "rell</w>": 5344,
    "rely</w>": 5345,
    "rema": 5346,
    "remain</w>": 5347,
    "remains</w>": 5348,
    "rematch</w>": 5349,
    "reme": 5350,
    "rememb": 5351,
    "remember</w>": 5352,
    "remembered</w>": 5353,
    "remin": 5354,
    "remind</w>": 5355,
    "reminded</w>": 5356,
    "reminder</w>": 5357,
    "reminds</w>": 5358,
    "remove</w>": 5359,
    "ren": 5360,
    "rent</w>": 5361,
    "rep": 5362,
    "reparations</w>": 5363,
    "repea": 5364,
    "repeat</w>": 5365,
    "repeating</w>": 5366,
    "replace</w>": 5367,
    "replay</w>": 5368,
    "replayed</w>": 5369,
    "replaying</w>": 5370,
    "reply</w>": 5371,
    "repres": 5372,
    "represent</w>": 5373,
    "represented</w>": 5374,
    "representing</w>": 5375,
    "represents</w>": 5376,
    "requ": 5377,
    "res": 5378,
    "res</w>": 5379,
    "reset</w>": 5380,
    "resi": 5381,
    "respe": 5382,
    "respec": 5383,
    "respect</w>": 5384,
    "respected</w>": 5385,
    "respectful</w>": 5386,
    "respon": 5387,
    "respond</w>": 5388,
    "response</w>": 5389,
    "responsi": 5390,
    "responsible</w>": 5391,
    "rest</w>": 5392,
    "restor": 5393,
    "restored</w>": 5394,
    "resu": 5395,
    "resul": 5396,
    "result</w>": 5397,
    "results</w>": 5398,
    "reti": 5399,
    "retire</w>": 5400,
    "retired</w>": 5401,
    "rett</w>": 5402,
    "return</w>": 5403,
    "rev": 5404,
    "reven": 5405,
    "revenge</w>": 5406,
    "rever": 5407,
    "revolution": 5408,
    "revolution</w>": 5409,
    "revolutionary</w>": 5410,
    "rewatch</w>": 5411,
    "rewatchable</w>": 5412,
    "rewatched</w>": 5413,
    "rewatching</w>": 5414,
    "rewin": 5415,
    "rhy": 5416,
    "rhythm</w>": 5417,
    "ri": 5418,
    "ri</w>": 5419,
    "ric": 5420,
    "ric</w>": 5421,
    "rich</w>": 5422,
    "rick</w>": 5423,
    "rid</w>": 5424,
    "ride</w>": 5425,
    "ridic": 5426,
    "ridicul": 5427,
    "ridiculous</w>": 5428,
    "riding</w>": 5429,
    "ried</w>": 5430,
    "ries</w>": 5431,
    "rig</w>": 5432,
    "rigged</w>": 5433,
    "rigging</w>": 5434,
    "righ": 5435,
    "right</w>": 5436,
    "rights</w>": 5437,
    "rihanna</w>": 5438,
    "rin": 5439,
    "ring</w>": 5440,
    "rings</w>": 5441,
    "rint</w>": 5442,
    "rio": 5443,
    "rio</w>": 5444,
    "rip</w>": 5445,
    "rise</w>": 5446,
    "rite</w>": 5447,
    "ritual</w>": 5448,
    "rival": 5449,
    "rivalry</w>": 5450,
    "rn</w>": 5451,
    "ro": 5452,
    "ro</w>": 5453,
    "roa": 5454,
    "road</w>": 5455,
    "roasted</w>": 5456,
    "rob": 5457,
    "robbed</w>": 5458,
    "rock</w>": 5459,
    "rocked</w>": 5460,
    "rocking</w>": 5461,
    "rocky</w>": 5462,
    "rodgers</w>": 5463,
    "rog": 5464,
    "roger</w>": 5465,
    "rol": 5466,
    "role</w>": 5467,
    "roll</w>": 5468,
    "rolled</w>": 5469,
    "rolling</w>": 5470,
    "rom": 5471,
    "roman</w>": 5472,
    "romans</w>": 5473,
    "roo": 5474,
    "rook</w>": 5475,
    "rookie</w>": 5476,
    "room</w>": 5477,
    "rooski</w>": 5478,
    "root</w>": 5479,
    "rooted</w>": 5480,
    "rooting</w>": 5481,
    "roseman</w>": 5482,
    "ross</w>": 5483,
    "roster</w>": 5484,
    "rou": 5485,
    "rough": 5486,
    "roughing</w>": 5487,
    "roun": 5488,
    "round</w>": 5489,
    "rounds</w>": 5490,
    "route</w>": 5491,
    "routine</w>": 5492,
    "row</w>": 5493,
    "roy": 5494,
    "royalty</w>": 5495,
    "rp</w>": 5496,
    "rr": 5497,
    "rr</w>": 5498,
    "rrd</w>": 5499,
    "rrddd</w>": 5500,
    "rs</w>": 5501,
    "ru": 5502,
    "ru</w>": 5503,
    "rub": 5504,
    "rubbish</w>": 5505,
    "rude</w>": 5506,
    "rugby</w>": 5507,
    "ruin</w>": 5508,
    "ruined</w>": 5509,
    "ruining</w>": 5510,
    "rule</w>": 5511,
    "rules</w>": 5512,
    "rumor</w>": 5513,
    "run": 5514,
    "run</w>": 5515,
    "running</w>": 5516,
    "runs</w>": 5517,
    "rup": 5518,
    "rupt</w>": 5519,
    "rush</w>": 5520,
    "rushing</w>": 5521,
    "russi": 5522,
    "russia</w>": 5523,
    "rwan": 5524,
    "rx": 5525,
    "ry": 5526,
    "ry</w>": 5527,
    "rying</w>": 5528,
    "s": 5529,
    "s/": 5530,
    "s</w>": 5531,
    "sa": 5532,
    "sa</w>": 5533,
    "saa": 5534,
    "sac": 5535,
    "sac</w>": 5536,
    "sack</w>": 5537,
    "sacked</w>": 5538,
    "sacking</w>": 5539,
    "sacks</w>": 5540,
    "sacri": 5541,
    "sacrific": 5542,
    "sacrifice</w>": 5543,
    "sacrificed</w>": 5544,
    "sad</w>": 5545,
    "saf": 5546,
    "safe": 5547,
    "safe</w>": 5548,
    "safety</w>": 5549,
    "sai": 5550,
    "said</w>": 5551,
    "saints</w>": 5552,
    "sal": 5553,
    "sal</w>": 5554,
    "sales</w>": 5555,
    "salu": 5556,
    "saludos</w>": 5557,
    "salute</w>": 5558,
    "sam": 5559,
    "sam</w>": 5560,
    "same</w>": 5561,
    "samp": 5562,
    "sample</w>": 5563,
    "samu": 5564,
    "samuel</w>": 5565,
    "san": 5566,
    "san</w>": 5567,
    "sang</w>": 5568,
    "sant</w>": 5569,
    "saqu": 5570,
    "saquan</w>": 5571,
    "saquon</w>": 5572,
    "sas</w>": 5573,
    "sat</w>": 5574,
    "satan</w>": 5575,
    "satis": 5576,
    "satisfaction</w>": 5577,
    "satisfied</w>": 5578,
    "satisfying</w>": 5579,
    "saturday</w>": 5580,
    "save</w>": 5581,
    "saved</w>": 5582,
    "saving</w>": 5583,
    "saw</w>": 5584,
    "say": 5585,
    "say</w>": 5586,
    "sayin</w>": 5587,
    "saying</w>": 5588,
    "says</w>": 5589,
    "sb": 5590,
    "sb</w>": 5591,
    "sbs</w>": 5592,
    "sbur": 5593,
    "sc": 5594,
    "scale</w>": 5595,
    "scared</w>": 5596,
    "scary</w>": 5597,
    "scen": 5598,
    "scene</w>": 5599,
    "scenes</w>": 5600,
    "scent</w>": 5601,
    "sch": 5602,
    "sche": 5603,
    "schoo": 5604,
    "school</w>": 5605,
    "sci": 5606,
    "sco": 5607,
    "sco</w>": 5608,
    "scor": 5609,
    "score": 5610,
    "score</w>": 5611,
    "scoreboard</w>": 5612,
    "scorebug</w>": 5613,
    "scored</w>": 5614,
    "scores</w>": 5615,
    "scoring</w>": 5616,
    "scott</w>": 5617,
    "scra": 5618,
    "scrambling</w>": 5619,
    "scre": 5620,
    "screa": 5621,
    "scream</w>": 5622,
    "screamed</w>": 5623,
    "screaming</w>": 5624,
    "screen</w>": 5625,
    "screw</w>": 5626,
    "screwed</w>": 5627,
    "scri": 5628,
    "scrimmage</w>": 5629,
    "scrip": 5630,
    "script</w>": 5631,
    "scripted</w>": 5632,
    "scru": 5633,
    "se": 5634,
    "se</w>": 5635,
    "sea": 5636,
    "sea</w>": 5637,
    "seahaw": 5638,
    "seahawks</w>": 5639,
    "sealed</w>": 5640,
    "sear": 5641,
    "season</w>": 5642,
    "seasons</w>": 5643,
    "seat</w>": 5644,
    "seats</w>": 5645,
    "seattle</w>": 5646,
    "sec</w>": 5647,
    "secon": 5648,
    "second</w>": 5649,
    "secondary</w>": 5650,
    "seconds</w>": 5651,
    "secre": 5652,
    "secret</w>": 5653,
    "section</w>": 5654,
    "secur": 5655,
    "secure</w>": 5656,
    "security</w>": 5657,
    "sed</w>": 5658,
    "see": 5659,
    "see</w>": 5660,
    "seee</w>": 5661,
    "seeing</w>": 5662,
    "seem</w>": 5663,
    "seemed</w>": 5664,
    "seems</w>": 5665,
    "seen</w>": 5666,
    "sees</w>": 5667,
    "sel": 5668,
    "self</w>": 5669,
    "sell</w>": 5670,
    "selling</w>": 5671,
    "selves</w>": 5672,
    "sely</w>": 5673,
    "semi</w>": 5674,
    "semifinal</w>": 5675,
    "semifinals</w>": 5676,
    "semis</w>": 5677,
    "sen": 5678,
    "sen</w>": 5679,
    "send</w>": 5680,
    "sending</w>": 5681,
    "sense</w>": 5682,
    "sent</w>": 5683,
    "sequ": 5684,
    "sequence</w>": 5685,
    "ser": 5686,
    "ser</w>": 5687,
    "serena</w>": 5688,
    "seri": 5689,
    "series</w>": 5690,
    "serious</w>": 5691,
    "seriously</w>": 5692,
    "serv": 5693,
    "serve</w>": 5694,
    "served</w>": 5695,
    "service</w>": 5696,
    "ses</w>": 5697,
    "set": 5698,
    "set</w>": 5699,
    "setting</w>": 5700,
    "setup</w>": 5701,
    "seven</w>": 5702,
    "sever": 5703,
    "several</w>": 5704,
    "sex": 5705,
    "sex</w>": 5706,
    "sexism</w>": 5707,
    "sexist</w>": 5708,
    "sexu": 5709,
    "sexual</w>": 5710,
    "sexy</w>": 5711,
    "sey</w>": 5712,
    "sh": 5713,
    "sh</w>": 5714,
    "sha": 5715,
    "shak": 5716,
    "shake</w>": 5717,
    "shaked</w>": 5718,
    "shaking</w>": 5719,
    "shall</w>": 5720,
    "shame</w>": 5721,
    "shar": 5722,
    "share</w>": 5723,
    "shared</w>": 5724,
    "sharing</w>": 5725,
    "sharp</w>": 5726,
    "she": 5727,
    "she</w>": 5728,
    "shed</w>": 5729,
    "shee": 5730,
    "sheee": 5731,
    "sheeesh</w>": 5732,
    "sheep</w>": 5733,
    "sheer</w>": 5734,
    "sheesh</w>": 5735,
    "sher</w>": 5736,
    "shers</w>": 5737,
    "shes</w>": 5738,
    "shhh</w>": 5739,
    "shi": 5740,
    "shi</w>": 5741,
    "shine</w>": 5742,
    "shing</w>": 5743,
    "shining</w>": 5744,
    "ship</w>": 5745,
    "ships</w>": 5746,
    "shirt</w>": 5747,
    "shirts</w>": 5748,
    "shit</w>": 5749,
    "shitty</w>": 5750,
    "shment</w>": 5751,
    "sho": 5752,
    "sho</w>": 5753,
    "shock</w>": 5754,
    "shocked</w>": 5755,
    "shoe</w>": 5756,
    "shoes</w>": 5757,
    "shook</w>": 5758,
    "shop</w>": 5759,
    "shor": 5760,
    "short</w>": 5761,
    "shot</w>": 5762,
    "shots</w>": 5763,
    "shou": 5764,
    "should": 5765,
    "should</w>": 5766,
    "shouldn</w>": 5767,
    "shouldnt</w>": 5768,
    "shouldve</w>": 5769,
    "shout</w>": 5770,
    "shoutout</w>": 5771,
    "shovel</w>": 5772,
    "show": 5773,
    "show</w>": 5774,
    "showed</w>": 5775,
    "showing</w>": 5776,
    "shown</w>": 5777,
    "shows</w>": 5778,
    "shu": 5779,
    "shua</w>": 5780,
    "shuffle</w>": 5781,
    "shut</w>": 5782,
    "shutting</w>": 5783,
    "shy</w>": 5784,
    "si": 5785,
    "si</w>": 5786,
    "sick": 5787,
    "sick</w>": 5788,
    "side</w>": 5789,
    "sided</w>": 5790,
    "sideline</w>": 5791,
    "sidelines</w>": 5792,
    "sides</w>": 5793,
    "sig": 5794,
    "sigh</w>": 5795,
    "sight</w>": 5796,
    "sign": 5797,
    "sign</w>": 5798,
    "signific": 5799,
    "signs</w>": 5800,
    "sil": 5801,
    "silent</w>": 5802,
    "silly</w>": 5803,
    "similar</w>": 5804,
    "simp": 5805,
    "simple</w>": 5806,
    "simply</w>": 5807,
    "sin": 5808,
    "sin</w>": 5809,
    "since</w>": 5810,
    "sincer": 5811,
    "sincerely</w>": 5812,
    "sing</w>": 5813,
    "singer</w>": 5814,
    "singers</w>": 5815,
    "singing</w>": 5816,
    "single</w>": 5817,
    "sings</w>": 5818,
    "sink</w>": 5819,
    "sins</w>": 5820,
    "sion</w>": 5821,
    "sional</w>": 5822,
    "sions</w>": 5823,
    "sip</w>": 5824,
    "sir</w>": 5825,
    "siriani</w>": 5826,
    "sirianni</w>": 5827,
    "sis</w>": 5828,
    "sister</w>": 5829,
    "sisters</w>": 5830,
    "sit</w>": 5831,
    "site</w>": 5832,
    "sition</w>": 5833,
    "sitting</w>": 5834,
    "situ": 5835,
    "situation</w>": 5836,
    "sity</w>": 5837,
    "sive</w>": 5838,
    "sively</w>": 5839,
    "six": 5840,
    "six</w>": 5841,
    "size</w>": 5842,
    "sj": 5843,
    "sk": 5844,
    "sk</w>": 5845,
    "ski": 5846,
    "ski</w>": 5847,
    "skie</w>": 5848,
    "skil": 5849,
    "skill</w>": 5850,
    "skilled</w>": 5851,
    "skills</w>": 5852,
    "skin": 5853,
    "skin</w>": 5854,
    "skins</w>": 5855,
    "skip</w>": 5856,
    "sky</w>": 5857,
    "sl": 5858,
    "sla": 5859,
    "slan": 5860,
    "slap</w>": 5861,
    "slapped</w>": 5862,
    "slaps</w>": 5863,
    "slaughtered</w>": 5864,
    "slavery</w>": 5865,
    "slay</w>": 5866,
    "sle": 5867,
    "slee": 5868,
    "sleep</w>": 5869,
    "sleeping</w>": 5870,
    "slept</w>": 5871,
    "sli": 5872,
    "slide</w>": 5873,
    "sliding</w>": 5874,
    "sligh": 5875,
    "slight</w>": 5876,
    "slightly</w>": 5877,
    "slo": 5878,
    "sloppy</w>": 5879,
    "slow</w>": 5880,
    "slowly</w>": 5881,
    "sm": 5882,
    "sm</w>": 5883,
    "sma": 5884,
    "smack</w>": 5885,
    "smacked</w>": 5886,
    "small</w>": 5887,
    "smar": 5888,
    "smart</w>": 5889,
    "smashed</w>": 5890,
    "smh</w>": 5891,
    "smi": 5892,
    "smi</w>": 5893,
    "smil": 5894,
    "smile</w>": 5895,
    "smiled</w>": 5896,
    "smiles</w>": 5897,
    "smiley</w>": 5898,
    "smiling</w>": 5899,
    "smir": 5900,
    "smirk</w>": 5901,
    "smith</w>": 5902,
    "smitten</w>": 5903,
    "smitty</w>": 5904,
    "smo": 5905,
    "smoke</w>": 5906,
    "smoked</w>": 5907,
    "smoo": 5908,
    "smooth</w>": 5909,
    "smu": 5910,
    "sn": 5911,
    "sna": 5912,
    "snap</w>": 5913,
    "snapper</w>": 5914,
    "snea": 5915,
    "sni": 5916,
    "snipp": 5917,
    "snippet</w>": 5918,
    "snoo": 5919,
    "snoop</w>": 5920,
    "so": 5921,
    "so</w>": 5922,
    "soccer</w>": 5923,
    "soci": 5924,
    "social</w>": 5925,
    "society</w>": 5926,
    "sof": 5927,
    "soft</w>": 5928,
    "sol": 5929,
    "solana</w>": 5930,
    "sold</w>": 5931,
    "soli": 5932,
    "solid</w>": 5933,
    "solo</w>": 5934,
    "solu": 5935,
    "som": 5936,
    "some": 5937,
    "some</w>": 5938,
    "somebody</w>": 5939,
    "somehow</w>": 5940,
    "someone</w>": 5941,
    "something</w>": 5942,
    "sometime</w>": 5943,
    "sometimes</w>": 5944,
    "somewhat</w>": 5945,
    "somewhere</w>": 5946,
    "son": 5947,
    "son</w>": 5948,
    "song</w>": 5949,
    "songs</w>": 5950,
    "sons</w>": 5951,
    "soo": 5952,
    "soo</w>": 5953,
    "soon</w>": 5954,
    "sooner</w>": 5955,
    "sooo</w>": 5956,
    "sor": 5957,
    "sor</w>": 5958,
    "sore</w>": 5959,
    "sorry</w>": 5960,
    "sort</w>": 5961,
    "sou": 5962,
    "soul</w>": 5963,
    "soun": 5964,
    "sound</w>": 5965,
    "sounded</w>": 5966,
    "sounding</w>": 5967,
    "sounds</w>": 5968,
    "soundtrack</w>": 5969,
    "source</w>": 5970,
    "south</w>": 5971,
    "soy</w>": 5972,
    "sp": 5973,
    "sp</w>": 5974,
    "spa": 5975,
    "space</w>": 5976,
    "spags</w>": 5977,
    "span": 5978,
    "spanish</w>": 5979,
    "spanked</w>": 5980,
    "spanking</w>": 5981,
    "spar": 5982,
    "spe": 5983,
    "spea": 5984,
    "speak</w>": 5985,
    "speakers</w>": 5986,
    "speaking</w>": 5987,
    "speaks</w>": 5988,
    "speci": 5989,
    "special</w>": 5990,
    "specific</w>": 5991,
    "specifically</w>": 5992,
    "spectacle</w>": 5993,
    "spectacular</w>": 5994,
    "spee": 5995,
    "speech</w>": 5996,
    "speechless</w>": 5997,
    "speed</w>": 5998,
    "spel": 5999,
    "spell</w>": 6000,
    "spelling</w>": 6001,
    "spend</w>": 6002,
    "spent</w>": 6003,
    "sper</w>": 6004,
    "sphere</w>": 6005,
    "spi": 6006,
    "spil": 6007,
    "spill</w>": 6008,
    "spilled</w>": 6009,
    "spilling</w>": 6010,
    "spir": 6011,
    "spirit</w>": 6012,
    "spla": 6013,
    "spo": 6014,
    "spoken</w>": 6015,
    "spon": 6016,
    "spoo": 6017,
    "spooky</w>": 6018,
    "spor": 6019,
    "sport</w>": 6020,
    "sports": 6021,
    "sports</w>": 6022,
    "sportsmanship</w>": 6023,
    "spot</w>": 6024,
    "spotify</w>": 6025,
    "spotlight</w>": 6026,
    "spread</w>": 6027,
    "squ": 6028,
    "squa": 6029,
    "squab": 6030,
    "squabble</w>": 6031,
    "squad</w>": 6032,
    "square</w>": 6033,
    "squid</w>": 6034,
    "ss": 6035,
    "ss</w>": 6036,
    "ssed</w>": 6037,
    "sses</w>": 6038,
    "ssi": 6039,
    "ssin</w>": 6040,
    "ssing</w>": 6041,
    "ssions</w>": 6042,
    "sss</w>": 6043,
    "st": 6044,
    "st</w>": 6045,
    "sta": 6046,
    "sta</w>": 6047,
    "staa": 6048,
    "staaarrrddd</w>": 6049,
    "stac": 6050,
    "stacked</w>": 6051,
    "stadi": 6052,
    "stadium</w>": 6053,
    "staf": 6054,
    "staff</w>": 6055,
    "stage</w>": 6056,
    "staged</w>": 6057,
    "stain</w>": 6058,
    "stairs</w>": 6059,
    "stal": 6060,
    "stam": 6061,
    "stamina</w>": 6062,
    "stamp</w>": 6063,
    "stan": 6064,
    "stan</w>": 6065,
    "stance</w>": 6066,
    "stand": 6067,
    "stand</w>": 6068,
    "standard</w>": 6069,
    "standing</w>": 6070,
    "stands</w>": 6071,
    "stant</w>": 6072,
    "star": 6073,
    "star</w>": 6074,
    "stare</w>": 6075,
    "stars</w>": 6076,
    "start</w>": 6077,
    "started</w>": 6078,
    "starters</w>": 6079,
    "starting</w>": 6080,
    "starts</w>": 6081,
    "stat</w>": 6082,
    "state</w>": 6083,
    "stated</w>": 6084,
    "statement</w>": 6085,
    "states</w>": 6086,
    "stating</w>": 6087,
    "station</w>": 6088,
    "stats</w>": 6089,
    "status</w>": 6090,
    "stay</w>": 6091,
    "stayed</w>": 6092,
    "staying</w>": 6093,
    "ste": 6094,
    "ste</w>": 6095,
    "stea": 6096,
    "steady</w>": 6097,
    "steak</w>": 6098,
    "steal</w>": 6099,
    "sted</w>": 6100,
    "steel": 6101,
    "steelers</w>": 6102,
    "stel": 6103,
    "stellar</w>": 6104,
    "step</w>": 6105,
    "steph": 6106,
    "stepped</w>": 6107,
    "stepping</w>": 6108,
    "steps</w>": 6109,
    "ster": 6110,
    "ster</w>": 6111,
    "stere": 6112,
    "stered</w>": 6113,
    "sters</w>": 6114,
    "steve</w>": 6115,
    "sti": 6116,
    "stic</w>": 6117,
    "stick</w>": 6118,
    "still</w>": 6119,
    "stin": 6120,
    "sting</w>": 6121,
    "stly</w>": 6122,
    "sto": 6123,
    "sto</w>": 6124,
    "stole</w>": 6125,
    "stom": 6126,
    "stomp</w>": 6127,
    "stomped</w>": 6128,
    "stomping</w>": 6129,
    "ston</w>": 6130,
    "stood</w>": 6131,
    "stop": 6132,
    "stop</w>": 6133,
    "stopp": 6134,
    "stopped</w>": 6135,
    "stopping</w>": 6136,
    "stops</w>": 6137,
    "stor": 6138,
    "store</w>": 6139,
    "story": 6140,
    "story</w>": 6141,
    "storytelling</w>": 6142,
    "str": 6143,
    "stra": 6144,
    "straight</w>": 6145,
    "strange</w>": 6146,
    "strate": 6147,
    "strated</w>": 6148,
    "strategic</w>": 6149,
    "strategies</w>": 6150,
    "strategy</w>": 6151,
    "strating</w>": 6152,
    "stration</w>": 6153,
    "stre": 6154,
    "strea": 6155,
    "streak</w>": 6156,
    "stream</w>": 6157,
    "streaming</w>": 6158,
    "street</w>": 6159,
    "streets</w>": 6160,
    "strength</w>": 6161,
    "stress</w>": 6162,
    "stri": 6163,
    "stric": 6164,
    "strictly</w>": 6165,
    "strike</w>": 6166,
    "strikes</w>": 6167,
    "string</w>": 6168,
    "strip</w>": 6169,
    "stron": 6170,
    "strong</w>": 6171,
    "stronger</w>": 6172,
    "stru": 6173,
    "strug": 6174,
    "struggle</w>": 6175,
    "stry</w>": 6176,
    "sts</w>": 6177,
    "sttt": 6178,
    "stttaa": 6179,
    "stttaaarrrddd</w>": 6180,
    "stu": 6181,
    "stuck</w>": 6182,
    "study</w>": 6183,
    "studying</w>": 6184,
    "stuff</w>": 6185,
    "stun": 6186,
    "stunning</w>": 6187,
    "stupi": 6188,
    "stupid</w>": 6189,
    "sty</w>": 6190,
    "style</w>": 6191,
    "su": 6192,
    "su</w>": 6193,
    "sub": 6194,
    "sub</w>": 6195,
    "subli": 6196,
    "subscri": 6197,
    "subscribed</w>": 6198,
    "subscribers</w>": 6199,
    "subtitles</w>": 6200,
    "subtle</w>": 6201,
    "succ": 6202,
    "success</w>": 6203,
    "successful</w>": 6204,
    "such</w>": 6205,
    "suck</w>": 6206,
    "sucked</w>": 6207,
    "sudan</w>": 6208,
    "sudden</w>": 6209,
    "suddenly</w>": 6210,
    "sue</w>": 6211,
    "sued</w>": 6212,
    "suff": 6213,
    "suffer": 6214,
    "suffer</w>": 6215,
    "suffering</w>": 6216,
    "sug": 6217,
    "sugge": 6218,
    "sugges": 6219,
    "suggested</w>": 6220,
    "suggestions</w>": 6221,
    "suing</w>": 6222,
    "suis</w>": 6223,
    "suit</w>": 6224,
    "sum": 6225,
    "sum</w>": 6226,
    "summer</w>": 6227,
    "sun": 6228,
    "sunday</w>": 6229,
    "sung</w>": 6230,
    "sup</w>": 6231,
    "super": 6232,
    "super</w>": 6233,
    "superb</w>": 6234,
    "superbow": 6235,
    "superbowl</w>": 6236,
    "superbowls</w>": 6237,
    "superior</w>": 6238,
    "supp": 6239,
    "suppo": 6240,
    "suppor": 6241,
    "support</w>": 6242,
    "supporting</w>": 6243,
    "suppose</w>": 6244,
    "supposed</w>": 6245,
    "sur": 6246,
    "sure</w>": 6247,
    "sured</w>": 6248,
    "surely</w>": 6249,
    "surpass</w>": 6250,
    "surpri": 6251,
    "surprise</w>": 6252,
    "surprised</w>": 6253,
    "surroun": 6254,
    "survi": 6255,
    "sus</w>": 6256,
    "susp": 6257,
    "sw": 6258,
    "swa": 6259,
    "swe": 6260,
    "swear</w>": 6261,
    "sweat</w>": 6262,
    "swee": 6263,
    "sweet</w>": 6264,
    "sweeter</w>": 6265,
    "swi": 6266,
    "swif": 6267,
    "swift</w>": 6268,
    "swifties</w>": 6269,
    "swifts</w>": 6270,
    "swifty</w>": 6271,
    "switch</w>": 6272,
    "sy": 6273,
    "sy</w>": 6274,
    "syl": 6275,
    "sym": 6276,
    "symbo": 6277,
    "symboli": 6278,
    "symbolism</w>": 6279,
    "sympathy</w>": 6280,
    "syn": 6281,
    "sync</w>": 6282,
    "syncing</w>": 6283,
    "syst": 6284,
    "system</w>": 6285,
    "sz": 6286,
    "sza</w>": 6287,
    "szaaa</w>": 6288,
    "szas</w>": 6289,
    "t": 6290,
    "t</w>": 6291,
    "ta": 6292,
    "ta</w>": 6293,
    "tab": 6294,
    "table</w>": 6295,
    "tables</w>": 6296,
    "tac": 6297,
    "tack": 6298,
    "tackle</w>": 6299,
    "tackled</w>": 6300,
    "tackles</w>": 6301,
    "tackling</w>": 6302,
    "tactic</w>": 6303,
    "tactical</w>": 6304,
    "tactics</w>": 6305,
    "tage</w>": 6306,
    "tain</w>": 6307,
    "take</w>": 6308,
    "taken</w>": 6309,
    "takes</w>": 6310,
    "taking</w>": 6311,
    "tal": 6312,
    "tal</w>": 6313,
    "talent</w>": 6314,
    "talented</w>": 6315,
    "talents</w>": 6316,
    "talk</w>": 6317,
    "talked</w>": 6318,
    "talkin</w>": 6319,
    "talking</w>": 6320,
    "talks</w>": 6321,
    "tally</w>": 6322,
    "tam": 6323,
    "tampa</w>": 6324,
    "tan": 6325,
    "tan</w>": 6326,
    "tant</w>": 6327,
    "tantly</w>": 6328,
    "tape</w>": 6329,
    "tar": 6330,
    "tari": 6331,
    "tas</w>": 6332,
    "taste</w>": 6333,
    "tate</w>": 6334,
    "tating</w>": 6335,
    "tation</w>": 6336,
    "tations</w>": 6337,
    "taught</w>": 6338,
    "tay</w>": 6339,
    "tayl": 6340,
    "taylor</w>": 6341,
    "tb": 6342,
    "tb12</w>": 6343,
    "tb</w>": 6344,
    "tball</w>": 6345,
    "tbh</w>": 6346,
    "tch": 6347,
    "tch</w>": 6348,
    "tched</w>": 6349,
    "tches</w>": 6350,
    "tching</w>": 6351,
    "tcu": 6352,
    "tculo</w>": 6353,
    "td</w>": 6354,
    "tdown</w>": 6355,
    "tds</w>": 6356,
    "te": 6357,
    "te</w>": 6358,
    "tea": 6359,
    "tea</w>": 6360,
    "teach": 6361,
    "teach</w>": 6362,
    "teacher</w>": 6363,
    "team": 6364,
    "team</w>": 6365,
    "teammates</w>": 6366,
    "teams</w>": 6367,
    "tear</w>": 6368,
    "tears</w>": 6369,
    "tease</w>": 6370,
    "teaser</w>": 6371,
    "teasing</w>": 6372,
    "tech": 6373,
    "techn": 6374,
    "techni": 6375,
    "technically</w>": 6376,
    "ted</w>": 6377,
    "tedly</w>": 6378,
    "teen": 6379,
    "teen</w>": 6380,
    "teenth</w>": 6381,
    "teful</w>": 6382,
    "tel": 6383,
    "televi": 6384,
    "televised</w>": 6385,
    "television</w>": 6386,
    "tell</w>": 6387,
    "telling</w>": 6388,
    "tells</w>": 6389,
    "tely</w>": 6390,
    "tem</w>": 6391,
    "temp": 6392,
    "ten": 6393,
    "ten</w>": 6394,
    "tened</w>": 6395,
    "tengo</w>": 6396,
    "tening</w>": 6397,
    "tension</w>": 6398,
    "ter": 6399,
    "ter</w>": 6400,
    "teral</w>": 6401,
    "tered</w>": 6402,
    "teri": 6403,
    "term</w>": 6404,
    "terms</w>": 6405,
    "terpopuler</w>": 6406,
    "terr": 6407,
    "terri": 6408,
    "terrible</w>": 6409,
    "territory</w>": 6410,
    "ters</w>": 6411,
    "tes": 6412,
    "tes</w>": 6413,
    "test</w>": 6414,
    "tex": 6415,
    "texans</w>": 6416,
    "texas</w>": 6417,
    "text</w>": 6418,
    "tf</w>": 6419,
    "tfo": 6420,
    "tful</w>": 6421,
    "th": 6422,
    "th3</w>": 6423,
    "th</w>": 6424,
    "tha": 6425,
    "tha</w>": 6426,
    "thailand</w>": 6427,
    "than": 6428,
    "than</w>": 6429,
    "thang</w>": 6430,
    "thank": 6431,
    "thank</w>": 6432,
    "thankful</w>": 6433,
    "thankfully</w>": 6434,
    "thanks</w>": 6435,
    "thanos</w>": 6436,
    "that</w>": 6437,
    "thats</w>": 6438,
    "the": 6439,
    "the</w>": 6440,
    "thea": 6441,
    "thee</w>": 6442,
    "their</w>": 6443,
    "theless</w>": 6444,
    "them</w>": 6445,
    "theme</w>": 6446,
    "themselves</w>": 6447,
    "then</w>": 6448,
    "theory</w>": 6449,
    "ther": 6450,
    "ther</w>": 6451,
    "therapy</w>": 6452,
    "there": 6453,
    "there</w>": 6454,
    "thered</w>": 6455,
    "therefore</w>": 6456,
    "theres</w>": 6457,
    "thering</w>": 6458,
    "thers</w>": 6459,
    "these</w>": 6460,
    "they": 6461,
    "they</w>": 6462,
    "theyll</w>": 6463,
    "theyre</w>": 6464,
    "theyve</w>": 6465,
    "thi": 6466,
    "thier</w>": 6467,
    "thin": 6468,
    "thin</w>": 6469,
    "thing</w>": 6470,
    "things</w>": 6471,
    "think</w>": 6472,
    "thinking</w>": 6473,
    "thinks</w>": 6474,
    "third</w>": 6475,
    "this": 6476,
    "this</w>": 6477,
    "thless</w>": 6478,
    "thly</w>": 6479,
    "tho": 6480,
    "tho</w>": 6481,
    "thor": 6482,
    "thoroughly</w>": 6483,
    "those</w>": 6484,
    "thou": 6485,
    "though": 6486,
    "though</w>": 6487,
    "thought</w>": 6488,
    "thoughts</w>": 6489,
    "thousan": 6490,
    "thousand</w>": 6491,
    "thousands</w>": 6492,
    "thr": 6493,
    "thr</w>": 6494,
    "thra": 6495,
    "thre": 6496,
    "threa": 6497,
    "threat</w>": 6498,
    "threatened</w>": 6499,
    "threatening</w>": 6500,
    "three</w>": 6501,
    "threep": 6502,
    "threepeat</w>": 6503,
    "threw</w>": 6504,
    "thril": 6505,
    "thro": 6506,
    "throat</w>": 6507,
    "through": 6508,
    "through</w>": 6509,
    "throughout</w>": 6510,
    "throw</w>": 6511,
    "throwing</w>": 6512,
    "thrown</w>": 6513,
    "throws</w>": 6514,
    "thru</w>": 6515,
    "ths</w>": 6516,
    "tht</w>": 6517,
    "thu": 6518,
    "thumb": 6519,
    "thumbnail</w>": 6520,
    "thumbs</w>": 6521,
    "thx</w>": 6522,
    "thy</w>": 6523,
    "ti": 6524,
    "ti</w>": 6525,
    "tic</w>": 6526,
    "tical</w>": 6527,
    "tically</w>": 6528,
    "tici": 6529,
    "ticket</w>": 6530,
    "tickets</w>": 6531,
    "tics</w>": 6532,
    "tide</w>": 6533,
    "tie</w>": 6534,
    "tied</w>": 6535,
    "tiempo</w>": 6536,
    "tier</w>": 6537,
    "ties</w>": 6538,
    "tified</w>": 6539,
    "tiful</w>": 6540,
    "tight</w>": 6541,
    "tighten</w>": 6542,
    "tik": 6543,
    "tiktok</w>": 6544,
    "til</w>": 6545,
    "tili": 6546,
    "till</w>": 6547,
    "tim</w>": 6548,
    "time": 6549,
    "time</w>": 6550,
    "timed</w>": 6551,
    "timel": 6552,
    "timeless</w>": 6553,
    "timer</w>": 6554,
    "times</w>": 6555,
    "timestamp</w>": 6556,
    "timestamps</w>": 6557,
    "timi": 6558,
    "timing</w>": 6559,
    "tin": 6560,
    "tin</w>": 6561,
    "ting</w>": 6562,
    "tings</w>": 6563,
    "tiny</w>": 6564,
    "tion": 6565,
    "tion</w>": 6566,
    "tional</w>": 6567,
    "tionally</w>": 6568,
    "tions</w>": 6569,
    "tips</w>": 6570,
    "tique": 6571,
    "tira": 6572,
    "tiramisu</w>": 6573,
    "tired</w>": 6574,
    "tiri</w>": 6575,
    "tis": 6576,
    "tis</w>": 6577,
    "tish</w>": 6578,
    "tism</w>": 6579,
    "tit": 6580,
    "title</w>": 6581,
    "titles</w>": 6582,
    "tiv": 6583,
    "tive</w>": 6584,
    "tively</w>": 6585,
    "tives</w>": 6586,
    "tivity</w>": 6587,
    "tiz": 6588,
    "tle</w>": 6589,
    "tled</w>": 6590,
    "tly</w>": 6591,
    "tment</w>": 6592,
    "tney</w>": 6593,
    "to": 6594,
    "to</w>": 6595,
    "today</w>": 6596,
    "todd": 6597,
    "todo</w>": 6598,
    "todos</w>": 6599,
    "toge": 6600,
    "together</w>": 6601,
    "tograph": 6602,
    "tok</w>": 6603,
    "told</w>": 6604,
    "tom": 6605,
    "tom</w>": 6606,
    "tomorr": 6607,
    "tomorrow</w>": 6608,
    "toms</w>": 6609,
    "ton": 6610,
    "ton</w>": 6611,
    "tone</w>": 6612,
    "tonight</w>": 6613,
    "tonite</w>": 6614,
    "tons</w>": 6615,
    "tony</w>": 6616,
    "too": 6617,
    "too</w>": 6618,
    "took</w>": 6619,
    "tool</w>": 6620,
    "tooo</w>": 6621,
    "top</w>": 6622,
    "tor": 6623,
    "tor</w>": 6624,
    "tories</w>": 6625,
    "tors</w>": 6626,
    "tory</w>": 6627,
    "tos</w>": 6628,
    "toss</w>": 6629,
    "total</w>": 6630,
    "totally</w>": 6631,
    "tou": 6632,
    "touch": 6633,
    "touch</w>": 6634,
    "touchdown</w>": 6635,
    "touchdowns</w>": 6636,
    "touched</w>": 6637,
    "touches</w>": 6638,
    "touching</w>": 6639,
    "tough": 6640,
    "tough</w>": 6641,
    "tour": 6642,
    "tour</w>": 6643,
    "tournam": 6644,
    "tournament</w>": 6645,
    "tournaments</w>": 6646,
    "tout</w>": 6647,
    "towards</w>": 6648,
    "town</w>": 6649,
    "tox": 6650,
    "toxic</w>": 6651,
    "tr": 6652,
    "tr</w>": 6653,
    "tra": 6654,
    "tra</w>": 6655,
    "track</w>": 6656,
    "tracks</w>": 6657,
    "trade</w>": 6658,
    "traded</w>": 6659,
    "tradition</w>": 6660,
    "trailer</w>": 6661,
    "train</w>": 6662,
    "training</w>": 6663,
    "tral</w>": 6664,
    "tran": 6665,
    "trans": 6666,
    "transition</w>": 6667,
    "trap</w>": 6668,
    "trav": 6669,
    "travis</w>": 6670,
    "tre": 6671,
    "trea": 6672,
    "treated</w>": 6673,
    "treatment</w>": 6674,
    "trees</w>": 6675,
    "trem": 6676,
    "trenches</w>": 6677,
    "trend</w>": 6678,
    "trending</w>": 6679,
    "tri": 6680,
    "tribu": 6681,
    "tribute</w>": 6682,
    "trick": 6683,
    "trick</w>": 6684,
    "tricky</w>": 6685,
    "tried</w>": 6686,
    "tries</w>": 6687,
    "trip</w>": 6688,
    "trippin</w>": 6689,
    "tripping</w>": 6690,
    "tro": 6691,
    "tro</w>": 6692,
    "trol": 6693,
    "trolling</w>": 6694,
    "trophy</w>": 6695,
    "tros</w>": 6696,
    "trou": 6697,
    "trouble</w>": 6698,
    "tru": 6699,
    "truck</w>": 6700,
    "true</w>": 6701,
    "truly</w>": 6702,
    "trumps</w>": 6703,
    "trust</w>": 6704,
    "truth</w>": 6705,
    "try": 6706,
    "try</w>": 6707,
    "trying</w>": 6708,
    "tryna</w>": 6709,
    "ts": 6710,
    "ts</w>": 6711,
    "tt": 6712,
    "tt</w>": 6713,
    "tta</w>": 6714,
    "tte</w>": 6715,
    "tted</w>": 6716,
    "tten</w>": 6717,
    "tter": 6718,
    "tter</w>": 6719,
    "ttered</w>": 6720,
    "tterly</w>": 6721,
    "tters</w>": 6722,
    "tti</w>": 6723,
    "tting</w>": 6724,
    "ttle</w>": 6725,
    "tto</w>": 6726,
    "ttt</w>": 6727,
    "tty</w>": 6728,
    "tu": 6729,
    "tu</w>": 6730,
    "tua</w>": 6731,
    "tual</w>": 6732,
    "tually</w>": 6733,
    "tubi</w>": 6734,
    "tude</w>": 6735,
    "tuff</w>": 6736,
    "tum</w>": 6737,
    "tun": 6738,
    "tune</w>": 6739,
    "tuned</w>": 6740,
    "tuni": 6741,
    "tunity</w>": 6742,
    "tupac</w>": 6743,
    "tur": 6744,
    "ture</w>": 6745,
    "tured</w>": 6746,
    "tures</w>": 6747,
    "turf</w>": 6748,
    "turing</w>": 6749,
    "turn": 6750,
    "turn</w>": 6751,
    "turned</w>": 6752,
    "turning</w>": 6753,
    "turnover</w>": 6754,
    "turnovers</w>": 6755,
    "turns</w>": 6756,
    "tus</w>": 6757,
    "tv</w>": 6758,
    "tw": 6759,
    "twea": 6760,
    "twi": 6761,
    "twice</w>": 6762,
    "two</w>": 6763,
    "ty": 6764,
    "ty</w>": 6765,
    "tyl": 6766,
    "tyler</w>": 6767,
    "typ": 6768,
    "type</w>": 6769,
    "typical</w>": 6770,
    "tyreek</w>": 6771,
    "tz</w>": 6772,
    "u": 6773,
    "u</w>": 6774,
    "ud</w>": 6775,
    "ue</w>": 6776,
    "ugh</w>": 6777,
    "ught</w>": 6778,
    "ugly</w>": 6779,
    "uh</w>": 6780,
    "uk</w>": 6781,
    "ukra": 6782,
    "ukrainian</w>": 6783,
    "ul": 6784,
    "ul</w>": 6785,
    "ular</w>": 6786,
    "ult</w>": 6787,
    "ulti": 6788,
    "um": 6789,
    "um</w>": 6790,
    "uma</w>": 6791,
    "ump": 6792,
    "umpteenth</w>": 6793,
    "un": 6794,
    "un</w>": 6795,
    "una</w>": 6796,
    "unbeliev": 6797,
    "unbelievable</w>": 6798,
    "unch</w>": 6799,
    "uncle</w>": 6800,
    "undefeated</w>": 6801,
    "undeni": 6802,
    "under": 6803,
    "under</w>": 6804,
    "underdogs</w>": 6805,
    "underesti": 6806,
    "underestimate</w>": 6807,
    "underestimated</w>": 6808,
    "underrated</w>": 6809,
    "understand</w>": 6810,
    "understanding</w>": 6811,
    "understood</w>": 6812,
    "unexpected</w>": 6813,
    "unfair</w>": 6814,
    "unfor": 6815,
    "unforgettable</w>": 6816,
    "unfortun": 6817,
    "unfortunately</w>": 6818,
    "unhealthy</w>": 6819,
    "uni": 6820,
    "union</w>": 6821,
    "unique</w>": 6822,
    "unit</w>": 6823,
    "unite</w>": 6824,
    "united</w>": 6825,
    "unity</w>": 6826,
    "universe</w>": 6827,
    "unk</w>": 6828,
    "unless</w>": 6829,
    "unlike</w>": 6830,
    "unmatched</w>": 6831,
    "unnecessary</w>": 6832,
    "uno</w>": 6833,
    "unreal</w>": 6834,
    "unreleased</w>": 6835,
    "unstoppable</w>": 6836,
    "unt</w>": 6837,
    "until</w>": 6838,
    "up": 6839,
    "up</w>": 6840,
    "uplo": 6841,
    "upload</w>": 6842,
    "uploaded</w>": 6843,
    "upon</w>": 6844,
    "uppp</w>": 6845,
    "ups</w>": 6846,
    "upset</w>": 6847,
    "ur": 6848,
    "ur</w>": 6849,
    "ura</w>": 6850,
    "ure</w>": 6851,
    "urs</w>": 6852,
    "us": 6853,
    "us</w>": 6854,
    "usa</w>": 6855,
    "use</w>": 6856,
    "used</w>": 6857,
    "useful</w>": 6858,
    "usel": 6859,
    "useless</w>": 6860,
    "uses</w>": 6861,
    "usher</w>": 6862,
    "using</w>": 6863,
    "usu": 6864,
    "usual</w>": 6865,
    "usually</w>": 6866,
    "ut</w>": 6867,
    "utili": 6868,
    "utter</w>": 6869,
    "utterly</w>": 6870,
    "uu": 6871,
    "uu</w>": 6872,
    "v": 6873,
    "v</w>": 6874,
    "va": 6875,
    "va</w>": 6876,
    "vage</w>": 6877,
    "val": 6878,
    "val</w>": 6879,
    "valu": 6880,
    "value</w>": 6881,
    "van</w>": 6882,
    "var": 6883,
    "ve": 6884,
    "ve</w>": 6885,
    "veces</w>": 6886,
    "ved</w>": 6887,
    "vegas</w>": 6888,
    "vel": 6889,
    "vel</w>": 6890,
    "vely</w>": 6891,
    "ven": 6892,
    "ven</w>": 6893,
    "vengeance</w>": 6894,
    "vens</w>": 6895,
    "vent</w>": 6896,
    "ver": 6897,
    "ver</w>": 6898,
    "vered</w>": 6899,
    "vering</w>": 6900,
    "vers</w>": 6901,
    "verse</w>": 6902,
    "versi": 6903,
    "version</w>": 6904,
    "versions</w>": 6905,
    "versity</w>": 6906,
    "very</w>": 6907,
    "ves</w>": 6908,
    "vez</w>": 6909,
    "vi": 6910,
    "vi</w>": 6911,
    "vib": 6912,
    "vibe</w>": 6913,
    "vibes</w>": 6914,
    "vibing</w>": 6915,
    "vic": 6916,
    "vic</w>": 6917,
    "vice</w>": 6918,
    "victories</w>": 6919,
    "victory</w>": 6920,
    "vid</w>": 6921,
    "vida</w>": 6922,
    "vide": 6923,
    "video</w>": 6924,
    "videos</w>": 6925,
    "vie": 6926,
    "view": 6927,
    "view</w>": 6928,
    "viewed</w>": 6929,
    "viewer": 6930,
    "viewer</w>": 6931,
    "viewers</w>": 6932,
    "viewing</w>": 6933,
    "views</w>": 6934,
    "vii</w>": 6935,
    "vikings</w>": 6936,
    "vil": 6937,
    "villa": 6938,
    "vin": 6939,
    "vin</w>": 6940,
    "vince</w>": 6941,
    "ving</w>": 6942,
    "vio": 6943,
    "viol": 6944,
    "violence</w>": 6945,
    "violent</w>": 6946,
    "vior</w>": 6947,
    "vious</w>": 6948,
    "vir": 6949,
    "viral</w>": 6950,
    "visi": 6951,
    "vision</w>": 6952,
    "visit</w>": 6953,
    "visu": 6954,
    "visuals</w>": 6955,
    "vity</w>": 6956,
    "vo": 6957,
    "vo</w>": 6958,
    "voc": 6959,
    "vocal</w>": 6960,
    "vocals</w>": 6961,
    "voic": 6962,
    "voice</w>": 6963,
    "vol": 6964,
    "volu": 6965,
    "volume</w>": 6966,
    "voo": 6967,
    "voodoo</w>": 6968,
    "vote</w>": 6969,
    "vous</w>": 6970,
    "vs</w>": 6971,
    "vu": 6972,
    "vy</w>": 6973,
    "w": 6974,
    "w/": 6975,
    "w/</w>": 6976,
    "w</w>": 6977,
    "wa": 6978,
    "wa</w>": 6979,
    "wac": 6980,
    "wacced</w>": 6981,
    "wack</w>": 6982,
    "wah</w>": 6983,
    "wai": 6984,
    "wait</w>": 6985,
    "waited</w>": 6986,
    "waiting</w>": 6987,
    "wakanda</w>": 6988,
    "wake</w>": 6989,
    "wal": 6990,
    "walk</w>": 6991,
    "walked</w>": 6992,
    "walkin</w>": 6993,
    "walking</w>": 6994,
    "wall</w>": 6995,
    "wan": 6996,
    "wanna</w>": 6997,
    "want</w>": 6998,
    "wanted</w>": 6999,
    "wanting</w>": 7000,
    "wants</w>": 7001,
    "wap</w>": 7002,
    "war": 7003,
    "war</w>": 7004,
    "ward</w>": 7005,
    "wards</w>": 7006,
    "warm</w>": 7007,
    "warri": 7008,
    "warriors</w>": 7009,
    "wars</w>": 7010,
    "was": 7011,
    "was</w>": 7012,
    "washed</w>": 7013,
    "washington</w>": 7014,
    "wasn</w>": 7015,
    "wasnt</w>": 7016,
    "waste</w>": 7017,
    "wasted</w>": 7018,
    "wat</w>": 7019,
    "watch": 7020,
    "watch</w>": 7021,
    "watchable</w>": 7022,
    "watched</w>": 7023,
    "watches</w>": 7024,
    "watchin</w>": 7025,
    "watching</w>": 7026,
    "water</w>": 7027,
    "watson</w>": 7028,
    "way": 7029,
    "way</w>": 7030,
    "wayne</w>": 7031,
    "ways</w>": 7032,
    "we": 7033,
    "we</w>": 7034,
    "wea": 7035,
    "weak</w>": 7036,
    "weakness</w>": 7037,
    "weapon</w>": 7038,
    "weapons</w>": 7039,
    "wear</w>": 7040,
    "wearing</w>": 7041,
    "wed</w>": 7042,
    "wee": 7043,
    "week": 7044,
    "week</w>": 7045,
    "weekend</w>": 7046,
    "weekly</w>": 7047,
    "weeknd</w>": 7048,
    "weeks</w>": 7049,
    "weight</w>": 7050,
    "weir": 7051,
    "weird</w>": 7052,
    "wel": 7053,
    "welcome</w>": 7054,
    "well</w>": 7055,
    "welp</w>": 7056,
    "went</w>": 7057,
    "wentz</w>": 7058,
    "wer": 7059,
    "were</w>": 7060,
    "weren</w>": 7061,
    "werent</w>": 7062,
    "west</w>": 7063,
    "wet</w>": 7064,
    "weve</w>": 7065,
    "wh": 7066,
    "wha": 7067,
    "what": 7068,
    "what</w>": 7069,
    "whatever</w>": 7070,
    "whats</w>": 7071,
    "whe": 7072,
    "whel": 7073,
    "when": 7074,
    "when</w>": 7075,
    "whenever</w>": 7076,
    "where</w>": 7077,
    "wheres</w>": 7078,
    "whether</w>": 7079,
    "whi": 7080,
    "which</w>": 7081,
    "while</w>": 7082,
    "whilst</w>": 7083,
    "whining</w>": 7084,
    "white</w>": 7085,
    "whites</w>": 7086,
    "who": 7087,
    "who</w>": 7088,
    "whoa</w>": 7089,
    "whoever</w>": 7090,
    "whole</w>": 7091,
    "wholesome</w>": 7092,
    "whom": 7093,
    "whoo": 7094,
    "whoop</w>": 7095,
    "whooped</w>": 7096,
    "whooping</w>": 7097,
    "whopped</w>": 7098,
    "whos</w>": 7099,
    "whose</w>": 7100,
    "why</w>": 7101,
    "wi": 7102,
    "wick</w>": 7103,
    "wide</w>": 7104,
    "wif": 7105,
    "wife</w>": 7106,
    "wil": 7107,
    "wild</w>": 7108,
    "will</w>": 7109,
    "willi": 7110,
    "williams</w>": 7111,
    "win": 7112,
    "win</w>": 7113,
    "wind": 7114,
    "window</w>": 7115,
    "wine</w>": 7116,
    "wing</w>": 7117,
    "winner</w>": 7118,
    "winners</w>": 7119,
    "winning</w>": 7120,
    "wins</w>": 7121,
    "wiped</w>": 7122,
    "wise</w>": 7123,
    "wish</w>": 7124,
    "wished</w>": 7125,
    "wishing</w>": 7126,
    "wit": 7127,
    "wit</w>": 7128,
    "with": 7129,
    "with</w>": 7130,
    "within</w>": 7131,
    "without</w>": 7132,
    "witness</w>": 7133,
    "witnessed</w>": 7134,
    "witnessing</w>": 7135,
    "wl</w>": 7136,
    "wn</w>": 7137,
    "wo": 7138,
    "woke</w>": 7139,
    "wol": 7140,
    "wolves</w>": 7141,
    "wom": 7142,
    "wom</w>": 7143,
    "woman</w>": 7144,
    "women</w>": 7145,
    "womp</w>": 7146,
    "won": 7147,
    "won</w>": 7148,
    "wonder": 7149,
    "wonder</w>": 7150,
    "wonderful</w>": 7151,
    "wondering</w>": 7152,
    "wont</w>": 7153,
    "woo": 7154,
    "wood</w>": 7155,
    "wooo</w>": 7156,
    "wooow</w>": 7157,
    "wop": 7158,
    "wor": 7159,
    "word</w>": 7160,
    "words</w>": 7161,
    "wore</w>": 7162,
    "work": 7163,
    "work</w>": 7164,
    "worked</w>": 7165,
    "working</w>": 7166,
    "workout</w>": 7167,
    "works</w>": 7168,
    "world": 7169,
    "world</w>": 7170,
    "worldwide</w>": 7171,
    "worried</w>": 7172,
    "worry</w>": 7173,
    "worse</w>": 7174,
    "worst</w>": 7175,
    "worth</w>": 7176,
    "worthy</w>": 7177,
    "would</w>": 7178,
    "woulda</w>": 7179,
    "wouldn</w>": 7180,
    "wouldnt</w>": 7181,
    "wouldve</w>": 7182,
    "wow": 7183,
    "wow</w>": 7184,
    "wowww</w>": 7185,
    "wr": 7186,
    "wr</w>": 7187,
    "wra": 7188,
    "wrap</w>": 7189,
    "wre": 7190,
    "wrecked</w>": 7191,
    "wri": 7192,
    "wright</w>": 7193,
    "write</w>": 7194,
    "writing</w>": 7195,
    "written</w>": 7196,
    "wro": 7197,
    "wrong</w>": 7198,
    "ws</w>": 7199,
    "wtf</w>": 7200,
    "wu": 7201,
    "ww": 7202,
    "ww</w>": 7203,
    "wwe</w>": 7204,
    "x": 7205,
    "x</w>": 7206,
    "xa": 7207,
    "xai315k</w>": 7208,
    "xavier</w>": 7209,
    "xd</w>": 7210,
    "xed</w>": 7211,
    "xes</w>": 7212,
    "xi": 7213,
    "xing</w>": 7214,
    "xious</w>": 7215,
    "xrp</w>": 7216,
    "xs</w>": 7217,
    "xt</w>": 7218,
    "xx": 7219,
    "xx</w>": 7220,
    "xxx": 7221,
    "xxxt": 7222,
    "xxxten": 7223,
    "xxxtentac": 7224,
    "xxxtentacion</w>": 7225,
    "y": 7226,
    "y</w>": 7227,
    "ya": 7228,
    "ya</w>": 7229,
    "yaa": 7230,
    "yah</w>": 7231,
    "yall</w>": 7232,
    "yan": 7233,
    "yang</w>": 7234,
    "yard</w>": 7235,
    "yards</w>": 7236,
    "yas</w>": 7237,
    "yasss</w>": 7238,
    "yay</w>": 7239,
    "yd</w>": 7240,
    "yds</w>": 7241,
    "ye": 7242,
    "ye</w>": 7243,
    "yea": 7244,
    "yea</w>": 7245,
    "yeah</w>": 7246,
    "year</w>": 7247,
    "years</w>": 7248,
    "yed</w>": 7249,
    "yee": 7250,
    "yel": 7251,
    "yelled</w>": 7252,
    "yelling</w>": 7253,
    "yellow</w>": 7254,
    "yep</w>": 7255,
    "yer</w>": 7256,
    "yers</w>": 7257,
    "yes</w>": 7258,
    "yessir</w>": 7259,
    "yesss</w>": 7260,
    "yesterday</w>": 7261,
    "yet</w>": 7262,
    "yi": 7263,
    "yi</w>": 7264,
    "yikes</w>": 7265,
    "ying</w>": 7266,
    "yk": 7267,
    "yk</w>": 7268,
    "yl": 7269,
    "yle</w>": 7270,
    "yo": 7271,
    "yo</w>": 7272,
    "yooo</w>": 7273,
    "yor": 7274,
    "york</w>": 7275,
    "you": 7276,
    "you</w>": 7277,
    "youll</w>": 7278,
    "youn": 7279,
    "young</w>": 7280,
    "younger</w>": 7281,
    "your": 7282,
    "your</w>": 7283,
    "youre</w>": 7284,
    "yours</w>": 7285,
    "yourself</w>": 7286,
    "youtu": 7287,
    "youtube</w>": 7288,
    "youtuber</w>": 7289,
    "youve</w>": 7290,
    "yp": 7291,
    "yr</w>": 7292,
    "yrs</w>": 7293,
    "ys": 7294,
    "ys</w>": 7295,
    "yt</w>": 7296,
    "yu": 7297,
    "yu</w>": 7298,
    "yup</w>": 7299,
    "yy": 7300,
    "yy</w>": 7301,
    "yyy</w>": 7302,
    "z": 7303,
    "z</w>": 7304,
    "za</w>": 7305,
    "zation</w>": 7306,
    "ze": 7307,
    "ze</w>": 7308,
    "zebra</w>": 7309,
    "zebras</w>": 7310,
    "zed</w>": 7311,
    "zer</w>": 7312,
    "zero</w>": 7313,
    "zes</w>": 7314,
    "zing</w>": 7315,
    "zo</w>": 7316,
    "zone</w>": 7317,
    "zy</w>": 7318,
    "zz": 7319,
    "zz</w>": 7320,
    "zzy</w>": 7321,
    "[PAD]": 7322,
    "[CLS]": 7323,
    "[SEP]": 7324
  },
  "merges": [
    [
      "e",
      "</w>"
    ],
    [
      "s",
      "</w>"
    ],
    [
      "t",
      "h"
    ],
    [
      "t",
      "</w>"
    ],
    [
      "i",
      "n"
    ],
    [
      "d",
      "</w>"
    ],
    [
      "e",
      "r"
    ],
    [
      "y",
      "</w>"
    ],
    [
      "a",
      "n"
    ],
    [
      "th",
      "e</w>"
    ],
    [
      "o",
      "</w>"
    ],
    [
      "o",
      "n"
    ],
    [
      "i",
      "s</w>"
    ],
    [
      "g",
      "</w>"
    ],
    [
      "e",
      "n"
    ],
    [
      "e",
      "a"
    ],
    [
      "l",
      "</w>"
    ],
    [
      "o",
      "u"
    ],
    [
      "o",
      "r"
    ],
    [
      "in",
      "g</w>"
    ],
    [
      "a",
      "</w>"
    ],
    [
      "c",
      "h"
    ],
    [
      "i",
      "</w>"
    ],
    [
      "e",
      "s</w>"
    ],
    [
      "w",
      "a"
    ],
    [
      "er",
      "</w>"
    ],
    [
      "o",
      "w"
    ],
    [
      "e",
      "d</w>"
    ],
    [
      "a",
      "l"
    ],
    [
      "t",
      "i"
    ],
    [
      "k",
      "</w>"
    ],
    [
      "m",
      "e</w>"
    ],
    [
      "m",
      "</w>"
    ],
    [
      "t",
      "o</w>"
    ],
    [
      "a",
      "r"
    ],
    [
      "a",
      "t</w>"
    ],
    [
      "th",
      "is</w>"
    ],
    [
      "in",
      "</w>"
    ],
    [
      "f",
      "</w>"
    ],
    [
      "an",
      "d</w>"
    ],
    [
      "s",
      "t</w>"
    ],
    [
      "on",
      "</w>"
    ],
    [
      "l",
      "i"
    ],
    [
      "w",
      "h"
    ],
    [
      "f",
      "or"
    ],
    [
      "s",
      "t"
    ],
    [
      "r",
      "a"
    ],
    [
      "l",
      "y</w>"
    ],
    [
      "l",
      "a"
    ],
    [
      "y",
      "ou"
    ],
    [
      "i",
      "c"
    ],
    [
      "i",
      "t</w>"
    ],
    [
      "v",
      "e</w>"
    ],
    [
      "h",
      "a"
    ],
    [
      "k",
      "e</w>"
    ],
    [
      "r",
      "e"
    ],
    [
      "en",
      "</w>"
    ],
    [
      "ow",
      "</w>"
    ],
    [
      "g",
      "a"
    ],
    [
      "m",
      "a"
    ],
    [
      "an",
      "</w>"
    ],
    [
      "b",
      "e"
    ],
    [
      "o",
      "m"
    ],
    [
      "l",
      "o"
    ],
    [
      "o",
      "f</w>"
    ],
    [
      "wa",
      "s</w>"
    ],
    [
      "e",
      "v"
    ],
    [
      "s",
      "h"
    ],
    [
      "a",
      "c"
    ],
    [
      "p",
      "</w>"
    ],
    [
      "you",
      "</w>"
    ],
    [
      "e",
      "f"
    ],
    [
      "th",
      "e"
    ],
    [
      "g",
      "l"
    ],
    [
      "t",
      "s</w>"
    ],
    [
      "0",
      "</w>"
    ],
    [
      "th",
      "at</w>"
    ],
    [
      "o",
      "t</w>"
    ],
    [
      "e",
      "l"
    ],
    [
      "s",
      "u"
    ],
    [
      "for",
      "</w>"
    ],
    [
      "ea",
      "gl"
    ],
    [
      "i",
      "l"
    ],
    [
      "er",
      "e</w>"
    ],
    [
      "eagl",
      "es</w>"
    ],
    [
      "s",
      "e</w>"
    ],
    [
      "r",
      "</w>"
    ],
    [
      "s",
      "a"
    ],
    [
      "r",
      "ea"
    ],
    [
      "d",
      "i"
    ],
    [
      "t",
      "ch"
    ],
    [
      "o",
      "o"
    ],
    [
      "c",
      "e</w>"
    ],
    [
      "al",
      "l</w>"
    ],
    [
      "e",
      "s"
    ],
    [
      "l",
      "e</w>"
    ],
    [
      "b",
      "u"
    ],
    [
      "th",
      "</w>"
    ],
    [
      "n",
      "</w>"
    ],
    [
      "r",
      "o"
    ],
    [
      "wa",
      "tch"
    ],
    [
      "p",
      "er"
    ],
    [
      "g",
      "h"
    ],
    [
      "h",
      "e</w>"
    ],
    [
      "ch",
      "i"
    ],
    [
      "ti",
      "me</w>"
    ],
    [
      "ef",
      "s</w>"
    ],
    [
      "chi",
      "efs</w>"
    ],
    [
      "on",
      "e</w>"
    ],
    [
      "s",
      "o</w>"
    ],
    [
      "li",
      "ke</w>"
    ],
    [
      "w",
      "i"
    ],
    [
      "ga",
      "me</w>"
    ],
    [
      "s",
      "e"
    ],
    [
      "a",
      "b"
    ],
    [
      "r",
      "i"
    ],
    [
      "ou",
      "t</w>"
    ],
    [
      "n",
      "ot</w>"
    ],
    [
      "b",
      "ac"
    ],
    [
      "en",
      "d"
    ],
    [
      "p",
      "la"
    ],
    [
      "h",
      "i"
    ],
    [
      "l",
      "d</w>"
    ],
    [
      "ic",
      "k</w>"
    ],
    [
      "the",
      "y</w>"
    ],
    [
      "b",
      "ow"
    ],
    [
      "v",
      "i"
    ],
    [
      "t",
      "t"
    ],
    [
      "bu",
      "t</w>"
    ],
    [
      "bac",
      "k</w>"
    ],
    [
      "bow",
      "l</w>"
    ],
    [
      "t",
      "o"
    ],
    [
      "b",
      "e</w>"
    ],
    [
      "g",
      "e"
    ],
    [
      "m",
      "an"
    ],
    [
      "t",
      "e</w>"
    ],
    [
      "m",
      "u"
    ],
    [
      "e",
      "e"
    ],
    [
      "r",
      "ick</w>"
    ],
    [
      "a",
      "ga"
    ],
    [
      "j",
      "u"
    ],
    [
      "ev",
      "er</w>"
    ],
    [
      "d",
      "e"
    ],
    [
      "s",
      "i"
    ],
    [
      "p",
      "p"
    ],
    [
      "k",
      "end"
    ],
    [
      "m",
      "y</w>"
    ],
    [
      "c",
      "on"
    ],
    [
      "c",
      "a"
    ],
    [
      "u",
      "n"
    ],
    [
      "i",
      "r"
    ],
    [
      "p",
      "er</w>"
    ],
    [
      "ha",
      "ve</w>"
    ],
    [
      "d",
      "ra"
    ],
    [
      "wh",
      "at</w>"
    ],
    [
      "3",
      "</w>"
    ],
    [
      "kend",
      "rick</w>"
    ],
    [
      "h",
      "ere</w>"
    ],
    [
      "ar",
      "e</w>"
    ],
    [
      "ju",
      "st</w>"
    ],
    [
      "wi",
      "th</w>"
    ],
    [
      "u",
      "r"
    ],
    [
      "or",
      "</w>"
    ],
    [
      "5",
      "</w>"
    ],
    [
      "l",
      "e"
    ],
    [
      "ou",
      "ld</w>"
    ],
    [
      "d",
      "a"
    ],
    [
      "g",
      "o"
    ],
    [
      "en",
      "t</w>"
    ],
    [
      "su",
      "per</w>"
    ],
    [
      "aga",
      "in</w>"
    ],
    [
      "n",
      "ow</w>"
    ],
    [
      "n",
      "e"
    ],
    [
      "dra",
      "ke</w>"
    ],
    [
      "c",
      "om"
    ],
    [
      "ch",
      "</w>"
    ],
    [
      "a",
      "m"
    ],
    [
      "a",
      "s</w>"
    ],
    [
      "h",
      "is</w>"
    ],
    [
      "ma",
      "h"
    ],
    [
      "sh",
      "ow</w>"
    ],
    [
      "1",
      "</w>"
    ],
    [
      "ev",
      "er"
    ],
    [
      "per",
      "for"
    ],
    [
      "l",
      "l</w>"
    ],
    [
      "2",
      "</w>"
    ],
    [
      "t",
      "a"
    ],
    [
      "mah",
      "om"
    ],
    [
      "es",
      "s</w>"
    ],
    [
      "gh",
      "t</w>"
    ],
    [
      "t",
      "ed</w>"
    ],
    [
      "h",
      "al"
    ],
    [
      "h",
      "ow</w>"
    ],
    [
      "m",
      "o"
    ],
    [
      "p",
      "e"
    ],
    [
      "er",
      "s</w>"
    ],
    [
      "g",
      "oo"
    ],
    [
      "1",
      "0</w>"
    ],
    [
      "mahom",
      "es</w>"
    ],
    [
      "b",
      "o"
    ],
    [
      "c",
      "o"
    ],
    [
      "pla",
      "y"
    ],
    [
      "c",
      "an</w>"
    ],
    [
      "w",
      "or"
    ],
    [
      "0",
      "0</w>"
    ],
    [
      "q",
      "u"
    ],
    [
      "k",
      "s</w>"
    ],
    [
      "p",
      "a"
    ],
    [
      "c",
      "</w>"
    ],
    [
      "g",
      "u"
    ],
    [
      "w",
      "e</w>"
    ],
    [
      "s",
      "ti"
    ],
    [
      "u",
      "p</w>"
    ],
    [
      "perfor",
      "man"
    ],
    [
      "i",
      "m</w>"
    ],
    [
      "d",
      "s</w>"
    ],
    [
      "g",
      "rea"
    ],
    [
      "wh",
      "en</w>"
    ],
    [
      "p",
      "o"
    ],
    [
      "4",
      "</w>"
    ],
    [
      "t",
      "er</w>"
    ],
    [
      "d",
      "y</w>"
    ],
    [
      "or",
      "e</w>"
    ],
    [
      "n",
      "o</w>"
    ],
    [
      "watch",
      "ing</w>"
    ],
    [
      "ea",
      "r"
    ],
    [
      "v",
      "er"
    ],
    [
      "d",
      "e</w>"
    ],
    [
      "y",
      "s</w>"
    ],
    [
      "t",
      "ing</w>"
    ],
    [
      "6",
      "</w>"
    ],
    [
      "performan",
      "ce</w>"
    ],
    [
      "be",
      "st</w>"
    ],
    [
      "t",
      "e"
    ],
    [
      "o",
      "p"
    ],
    [
      "lo",
      "ve</w>"
    ],
    [
      "9",
      "</w>"
    ],
    [
      "an",
      "t</w>"
    ],
    [
      "ge",
      "t</w>"
    ],
    [
      "s",
      "o"
    ],
    [
      "t",
      "ea"
    ],
    [
      "ar",
      "</w>"
    ],
    [
      "th",
      "an"
    ],
    [
      "goo",
      "d</w>"
    ],
    [
      "d",
      "ef"
    ],
    [
      "f",
      "ro"
    ],
    [
      "c",
      "i"
    ],
    [
      "r",
      "u"
    ],
    [
      "fro",
      "m</w>"
    ],
    [
      "w",
      "</w>"
    ],
    [
      "m",
      "i"
    ],
    [
      "g",
      "ot</w>"
    ],
    [
      "watch",
      "</w>"
    ],
    [
      "k",
      "ing</w>"
    ],
    [
      "7",
      "</w>"
    ],
    [
      "ti",
      "on</w>"
    ],
    [
      "r",
      "e</w>"
    ],
    [
      "b",
      "</w>"
    ],
    [
      "g",
      "o</w>"
    ],
    [
      "re",
      "f"
    ],
    [
      "o",
      "f"
    ],
    [
      "m",
      "il"
    ],
    [
      "you",
      "r</w>"
    ],
    [
      "el",
      "l</w>"
    ],
    [
      "sti",
      "ll</w>"
    ],
    [
      "l",
      "u"
    ],
    [
      "ow",
      "n</w>"
    ],
    [
      "m",
      "es</w>"
    ],
    [
      "8",
      "</w>"
    ],
    [
      "e",
      "x"
    ],
    [
      "grea",
      "t</w>"
    ],
    [
      "f",
      "u"
    ],
    [
      "th",
      "ing</w>"
    ],
    [
      "a",
      "l</w>"
    ],
    [
      "da",
      "y</w>"
    ],
    [
      "th",
      "er</w>"
    ],
    [
      "p",
      "h"
    ],
    [
      "vi",
      "de"
    ],
    [
      "g",
      "ra"
    ],
    [
      "w",
      "ere</w>"
    ],
    [
      "ou",
      "n"
    ],
    [
      "al",
      "ly</w>"
    ],
    [
      "se",
      "e</w>"
    ],
    [
      "on",
      "g</w>"
    ],
    [
      "di",
      "d</w>"
    ],
    [
      "ab",
      "out</w>"
    ],
    [
      "m",
      "ore</w>"
    ],
    [
      "hal",
      "f"
    ],
    [
      "s",
      "c"
    ],
    [
      "ea",
      "r</w>"
    ],
    [
      "u",
      "s</w>"
    ],
    [
      "w",
      "il"
    ],
    [
      "sa",
      "y</w>"
    ],
    [
      "ea",
      "t</w>"
    ],
    [
      "wh",
      "o</w>"
    ],
    [
      "d",
      "o"
    ],
    [
      "lo",
      "o"
    ],
    [
      "half",
      "time</w>"
    ],
    [
      "i",
      "f</w>"
    ],
    [
      "l",
      "ly</w>"
    ],
    [
      "b",
      "y</w>"
    ],
    [
      "h",
      "</w>"
    ],
    [
      "in",
      "e</w>"
    ],
    [
      "s",
      "s</w>"
    ],
    [
      "n",
      "f"
    ],
    [
      "g",
      "e</w>"
    ],
    [
      "t",
      "y</w>"
    ],
    [
      "p",
      "i"
    ],
    [
      "d",
      "o</w>"
    ],
    [
      "t",
      "er"
    ],
    [
      "s",
      "on</w>"
    ],
    [
      "t",
      "u"
    ],
    [
      "tea",
      "m</w>"
    ],
    [
      "su",
      "per"
    ],
    [
      "n",
      "a</w>"
    ],
    [
      "v",
      "er</w>"
    ],
    [
      "ref",
      "s</w>"
    ],
    [
      "a",
      "f"
    ],
    [
      "b",
      "r"
    ],
    [
      "w",
      "in</w>"
    ],
    [
      "def",
      "en"
    ],
    [
      "i",
      "ts</w>"
    ],
    [
      "st",
      "ar"
    ],
    [
      "ic",
      "</w>"
    ],
    [
      "c",
      "k</w>"
    ],
    [
      "f",
      "an</w>"
    ],
    [
      "b",
      "ra"
    ],
    [
      "s",
      "ed</w>"
    ],
    [
      "th",
      "in"
    ],
    [
      "l",
      "ea"
    ],
    [
      "k",
      "ed</w>"
    ],
    [
      "f",
      "a"
    ],
    [
      "f",
      "ir"
    ],
    [
      "vide",
      "o</w>"
    ],
    [
      "on",
      "s</w>"
    ],
    [
      "i",
      "r</w>"
    ],
    [
      "k",
      "now</w>"
    ],
    [
      "be",
      "en</w>"
    ],
    [
      "j",
      "o"
    ],
    [
      "nf",
      "l</w>"
    ],
    [
      "m",
      "in"
    ],
    [
      "ha",
      "d</w>"
    ],
    [
      "b",
      "a"
    ],
    [
      "than",
      "k</w>"
    ],
    [
      "the",
      "m</w>"
    ],
    [
      "w",
      "ould</w>"
    ],
    [
      "y",
      "ing</w>"
    ],
    [
      "di",
      "d"
    ],
    [
      "hi",
      "m</w>"
    ],
    [
      "m",
      "e"
    ],
    [
      "rea",
      "lly</w>"
    ],
    [
      "pla",
      "y</w>"
    ],
    [
      "ever",
      "y"
    ],
    [
      "wil",
      "l</w>"
    ],
    [
      "th",
      "ere</w>"
    ],
    [
      "ev",
      "en</w>"
    ],
    [
      "n",
      "t</w>"
    ],
    [
      "p",
      "ro"
    ],
    [
      "2",
      "0"
    ],
    [
      "super",
      "bowl</w>"
    ],
    [
      "st",
      "a"
    ],
    [
      "an",
      "s</w>"
    ],
    [
      "ha",
      "pp"
    ],
    [
      "b",
      "i"
    ],
    [
      "gh",
      "</w>"
    ],
    [
      "o",
      "ver</w>"
    ],
    [
      "tt",
      "er</w>"
    ],
    [
      "wa",
      "y</w>"
    ],
    [
      "n",
      "ever</w>"
    ],
    [
      "m",
      "b"
    ],
    [
      "m",
      "an</w>"
    ],
    [
      "u",
      "se</w>"
    ],
    [
      "vi",
      "e"
    ],
    [
      "n",
      "o"
    ],
    [
      "l",
      "s</w>"
    ],
    [
      "ti",
      "mes</w>"
    ],
    [
      "wh",
      "y</w>"
    ],
    [
      "af",
      "ter</w>"
    ],
    [
      "i",
      "d</w>"
    ],
    [
      "pe",
      "op"
    ],
    [
      "f",
      "e"
    ],
    [
      "g",
      "i"
    ],
    [
      "watch",
      "ed</w>"
    ],
    [
      "on",
      "t</w>"
    ],
    [
      "mu",
      "ch</w>"
    ],
    [
      "ever",
      "y</w>"
    ],
    [
      "peop",
      "le</w>"
    ],
    [
      "s",
      "p"
    ],
    [
      "o",
      "p</w>"
    ],
    [
      "mo",
      "st</w>"
    ],
    [
      "f",
      "i"
    ],
    [
      "w",
      "ell</w>"
    ],
    [
      "f",
      "ly</w>"
    ],
    [
      "f",
      "in"
    ],
    [
      "d",
      "own</w>"
    ],
    [
      "the",
      "ir</w>"
    ],
    [
      "p",
      "re"
    ],
    [
      "ch",
      "ess</w>"
    ],
    [
      "on",
      "ly</w>"
    ],
    [
      "an",
      "y"
    ],
    [
      "ha",
      "s</w>"
    ],
    [
      "la",
      "m"
    ],
    [
      "vie",
      "w"
    ],
    [
      "s",
      "in"
    ],
    [
      "con",
      "gra"
    ],
    [
      "lo",
      "l</w>"
    ],
    [
      "om",
      "e"
    ],
    [
      "t",
      "r"
    ],
    [
      "p",
      "ar"
    ],
    [
      "n",
      "a"
    ],
    [
      "to",
      "m</w>"
    ],
    [
      "v",
      "ed</w>"
    ],
    [
      "w",
      "on</w>"
    ],
    [
      "defen",
      "se</w>"
    ],
    [
      "be",
      "tter</w>"
    ],
    [
      "p",
      "u"
    ],
    [
      "l",
      "d"
    ],
    [
      "thin",
      "k</w>"
    ],
    [
      "ca",
      "use</w>"
    ],
    [
      "s",
      "ome"
    ],
    [
      "b",
      "all</w>"
    ],
    [
      "ic",
      "e</w>"
    ],
    [
      "p",
      "s</w>"
    ],
    [
      "ou",
      "gh</w>"
    ],
    [
      "d",
      "on</w>"
    ],
    [
      "th",
      "an</w>"
    ],
    [
      "to",
      "o</w>"
    ],
    [
      "fir",
      "st</w>"
    ],
    [
      "c",
      "u"
    ],
    [
      "lam",
      "ar</w>"
    ],
    [
      "g",
      "s</w>"
    ],
    [
      "wh",
      "o"
    ],
    [
      "m",
      "on"
    ],
    [
      "k",
      "c</w>"
    ],
    [
      "ver",
      "y</w>"
    ],
    [
      "t",
      "ur"
    ],
    [
      "view",
      "s</w>"
    ],
    [
      "a",
      "m</w>"
    ],
    [
      "of",
      "f</w>"
    ],
    [
      "c",
      "ra"
    ],
    [
      "n",
      "ing</w>"
    ],
    [
      "h",
      "el"
    ],
    [
      "1",
      "1</w>"
    ],
    [
      "p",
      "hi"
    ],
    [
      "tt",
      "ing</w>"
    ],
    [
      "l",
      "ine</w>"
    ],
    [
      "en",
      "d</w>"
    ],
    [
      "h",
      "ur"
    ],
    [
      "co",
      "me</w>"
    ],
    [
      "d",
      "ont</w>"
    ],
    [
      "te",
      "ly</w>"
    ],
    [
      "ar",
      "d</w>"
    ],
    [
      "k",
      "ee"
    ],
    [
      "man",
      "y</w>"
    ],
    [
      "i",
      "ght</w>"
    ],
    [
      "d",
      "u"
    ],
    [
      "z",
      "ing</w>"
    ],
    [
      "s",
      "ong</w>"
    ],
    [
      "a",
      "ma"
    ],
    [
      "be",
      "cause</w>"
    ],
    [
      "sh",
      "</w>"
    ],
    [
      "d",
      "d"
    ],
    [
      "x",
      "</w>"
    ],
    [
      "bra",
      "dy</w>"
    ],
    [
      "mil",
      "li"
    ],
    [
      "20",
      "2"
    ],
    [
      "o",
      "ther</w>"
    ],
    [
      "x",
      "t</w>"
    ],
    [
      "y",
      "ear</w>"
    ],
    [
      "ph",
      "il"
    ],
    [
      "c",
      "ant</w>"
    ],
    [
      "1",
      "0"
    ],
    [
      "ne",
      "xt</w>"
    ],
    [
      "b",
      "le</w>"
    ],
    [
      "t",
      "al"
    ],
    [
      "an",
      "na</w>"
    ],
    [
      "st",
      "op</w>"
    ],
    [
      "ou",
      "ld"
    ],
    [
      "w",
      "in"
    ],
    [
      "hur",
      "ts</w>"
    ],
    [
      "or",
      "y</w>"
    ],
    [
      "oun",
      "d</w>"
    ],
    [
      "w",
      "ee"
    ],
    [
      "s",
      "ea"
    ],
    [
      "ti",
      "ons</w>"
    ],
    [
      "cra",
      "z"
    ],
    [
      "phil",
      "ly</w>"
    ],
    [
      "h",
      "u"
    ],
    [
      "ch",
      "am"
    ],
    [
      "d",
      "es"
    ],
    [
      "ama",
      "zing</w>"
    ],
    [
      "m",
      "ar"
    ],
    [
      "e",
      "y</w>"
    ],
    [
      "m",
      "s</w>"
    ],
    [
      "milli",
      "on</w>"
    ],
    [
      "i",
      "te</w>"
    ],
    [
      "f",
      "ans</w>"
    ],
    [
      "com",
      "ing</w>"
    ],
    [
      "go",
      "ing</w>"
    ],
    [
      "of",
      "f"
    ],
    [
      "t",
      "w"
    ],
    [
      "s",
      "ing</w>"
    ],
    [
      "sh",
      "ould</w>"
    ],
    [
      "fu",
      "l</w>"
    ],
    [
      "ne",
      "w</w>"
    ],
    [
      "play",
      "ed</w>"
    ],
    [
      "mu",
      "s"
    ],
    [
      "d",
      "er"
    ],
    [
      "so",
      "me</w>"
    ],
    [
      "b",
      "eat</w>"
    ],
    [
      "c",
      "t</w>"
    ],
    [
      "ou",
      "s</w>"
    ],
    [
      "f",
      "oo"
    ],
    [
      "ch",
      "e"
    ],
    [
      "al",
      "l"
    ],
    [
      "v",
      "</w>"
    ],
    [
      "craz",
      "y</w>"
    ],
    [
      "did",
      "n</w>"
    ],
    [
      "1",
      "00</w>"
    ],
    [
      "sa",
      "id</w>"
    ],
    [
      "e",
      "st"
    ],
    [
      "b",
      "l"
    ],
    [
      "ma",
      "ke</w>"
    ],
    [
      "wi",
      "f"
    ],
    [
      "com",
      "m"
    ],
    [
      "ma",
      "de</w>"
    ],
    [
      "s",
      "z"
    ],
    [
      "hal",
      "f</w>"
    ],
    [
      "am",
      "er"
    ],
    [
      "kee",
      "p</w>"
    ],
    [
      "r",
      "y</w>"
    ],
    [
      "ou",
      "ght</w>"
    ],
    [
      "v",
      "ing</w>"
    ],
    [
      "s",
      "mil"
    ],
    [
      "d",
      "an"
    ],
    [
      "amer",
      "ic"
    ],
    [
      "b",
      "ea"
    ],
    [
      "e",
      "l</w>"
    ],
    [
      "wa",
      "ys</w>"
    ],
    [
      "k",
      "es</w>"
    ],
    [
      "g",
      "g"
    ],
    [
      "ear",
      "s</w>"
    ],
    [
      "e",
      "p"
    ],
    [
      "le",
      "t</w>"
    ],
    [
      "c",
      "ould</w>"
    ],
    [
      "s",
      "wif"
    ],
    [
      "h",
      "o"
    ],
    [
      "t",
      "ball</w>"
    ],
    [
      "se",
      "e"
    ],
    [
      "th",
      "r"
    ],
    [
      "sz",
      "a</w>"
    ],
    [
      "en",
      "ce</w>"
    ],
    [
      "t",
      "ra"
    ],
    [
      "y",
      "l"
    ],
    [
      "f",
      "ac"
    ],
    [
      "foo",
      "tball</w>"
    ],
    [
      "v",
      "es</w>"
    ],
    [
      "lo",
      "st</w>"
    ],
    [
      "who",
      "le</w>"
    ],
    [
      "al",
      "ways</w>"
    ],
    [
      "ab",
      "le</w>"
    ],
    [
      "se",
      "en</w>"
    ],
    [
      "happ",
      "y</w>"
    ],
    [
      "d",
      "one</w>"
    ],
    [
      "mus",
      "ic</w>"
    ],
    [
      "so",
      "lu"
    ],
    [
      "la",
      "st</w>"
    ],
    [
      "b",
      "ir"
    ],
    [
      "sea",
      "son</w>"
    ],
    [
      "gu",
      "y</w>"
    ],
    [
      "ba",
      "d</w>"
    ],
    [
      "ab",
      "solu"
    ],
    [
      "o",
      "se</w>"
    ],
    [
      "wh",
      "ere</w>"
    ],
    [
      "ou",
      "r</w>"
    ],
    [
      "sh",
      "ow"
    ],
    [
      "202",
      "5</w>"
    ],
    [
      "in",
      "t</w>"
    ],
    [
      "i",
      "m"
    ],
    [
      "si",
      "ve</w>"
    ],
    [
      "congra",
      "ts</w>"
    ],
    [
      "br",
      "o</w>"
    ],
    [
      "s",
      "er"
    ],
    [
      "b",
      "la"
    ],
    [
      "st",
      "ory</w>"
    ],
    [
      "v",
      "o"
    ],
    [
      "a",
      "pp"
    ],
    [
      "cham",
      "pi"
    ],
    [
      "c",
      "k"
    ],
    [
      "rea",
      "l</w>"
    ],
    [
      "be",
      "ing</w>"
    ],
    [
      "c",
      "oo"
    ],
    [
      "did",
      "nt</w>"
    ],
    [
      "h",
      "er</w>"
    ],
    [
      "sh",
      "e</w>"
    ],
    [
      "b",
      "ab"
    ],
    [
      "a",
      "d"
    ],
    [
      "in",
      "ter"
    ],
    [
      "ta",
      "yl"
    ],
    [
      "d",
      "ot</w>"
    ],
    [
      "des",
      "er"
    ],
    [
      "f",
      "o"
    ],
    [
      "1",
      "3</w>"
    ],
    [
      "i",
      "ve</w>"
    ],
    [
      "tayl",
      "or</w>"
    ],
    [
      "ge",
      "tting</w>"
    ],
    [
      "bo",
      "dy</w>"
    ],
    [
      "w",
      "ant</w>"
    ],
    [
      "th",
      "ought</w>"
    ],
    [
      "y",
      "es</w>"
    ],
    [
      "bi",
      "g</w>"
    ],
    [
      "go",
      "at</w>"
    ],
    [
      "e",
      "t</w>"
    ],
    [
      "for",
      "e</w>"
    ],
    [
      "aga",
      "in"
    ],
    [
      "th",
      "ose</w>"
    ],
    [
      "j",
      "al"
    ],
    [
      "th",
      "en</w>"
    ],
    [
      "any",
      "one</w>"
    ],
    [
      "ha",
      "ha"
    ],
    [
      "ca",
      "me</w>"
    ],
    [
      "con",
      "t"
    ],
    [
      "u",
      "</w>"
    ],
    [
      "wor",
      "st</w>"
    ],
    [
      "be",
      "fore</w>"
    ],
    [
      "par",
      "t</w>"
    ],
    [
      "jal",
      "en</w>"
    ],
    [
      "d",
      "ed</w>"
    ],
    [
      "d",
      "om"
    ],
    [
      "go",
      "d</w>"
    ],
    [
      "g",
      "la"
    ],
    [
      "swif",
      "t</w>"
    ],
    [
      "play",
      "ing</w>"
    ],
    [
      "y",
      "ears</w>"
    ],
    [
      "every",
      "one</w>"
    ],
    [
      "p",
      "eat</w>"
    ],
    [
      "lo",
      "se</w>"
    ],
    [
      "su",
      "re</w>"
    ],
    [
      "p",
      "r"
    ],
    [
      "ne",
      "ed</w>"
    ],
    [
      "k",
      "an"
    ],
    [
      "s",
      "ac"
    ],
    [
      "k",
      "in"
    ],
    [
      "p",
      "lea"
    ],
    [
      "pa",
      "t"
    ],
    [
      "re",
      "e</w>"
    ],
    [
      "loo",
      "k</w>"
    ],
    [
      "than",
      "ks</w>"
    ],
    [
      "d",
      "er</w>"
    ],
    [
      "10",
      "0"
    ],
    [
      "again",
      "st</w>"
    ],
    [
      "d",
      "el"
    ],
    [
      "dom",
      "in"
    ],
    [
      "a",
      "ts</w>"
    ],
    [
      "f",
      "f"
    ],
    [
      "m",
      "er"
    ],
    [
      "r",
      "d</w>"
    ],
    [
      "sa",
      "s</w>"
    ],
    [
      "k",
      "el"
    ],
    [
      "en",
      "t"
    ],
    [
      "pre",
      "s"
    ],
    [
      "hel",
      "p</w>"
    ],
    [
      "n",
      "ed</w>"
    ],
    [
      "the",
      "se</w>"
    ],
    [
      "pu",
      "t</w>"
    ],
    [
      "fa",
      "v"
    ],
    [
      "en",
      "jo"
    ],
    [
      "an",
      "y</w>"
    ],
    [
      "sin",
      "ce</w>"
    ],
    [
      "t",
      "v</w>"
    ],
    [
      "kan",
      "sas</w>"
    ],
    [
      "un",
      "der"
    ],
    [
      "z",
      "</w>"
    ],
    [
      "w",
      "ow</w>"
    ],
    [
      "s",
      "pe"
    ],
    [
      "li",
      "st"
    ],
    [
      "s",
      "b</w>"
    ],
    [
      "n",
      "ice</w>"
    ],
    [
      "happ",
      "en"
    ],
    [
      "congra",
      "tu"
    ],
    [
      "a",
      "w"
    ],
    [
      "a",
      "te</w>"
    ],
    [
      "en",
      "ti"
    ],
    [
      "congratu",
      "la"
    ],
    [
      "hi",
      "story</w>"
    ],
    [
      "wor",
      "ld</w>"
    ],
    [
      "al",
      "so</w>"
    ],
    [
      "tw",
      "o</w>"
    ],
    [
      "lo",
      "t</w>"
    ],
    [
      "t",
      "ru"
    ],
    [
      "ac",
      "k"
    ],
    [
      "d",
      "ing</w>"
    ],
    [
      "c",
      "r"
    ],
    [
      "mu",
      "star"
    ],
    [
      "jo",
      "b</w>"
    ],
    [
      "ar",
      "y</w>"
    ],
    [
      "y",
      "ed</w>"
    ],
    [
      "com",
      "p"
    ],
    [
      "l",
      "ing</w>"
    ],
    [
      "plea",
      "se</w>"
    ],
    [
      "s",
      "el"
    ],
    [
      "1",
      "2</w>"
    ],
    [
      "sh",
      "i"
    ],
    [
      "ea",
      "d</w>"
    ],
    [
      "ci",
      "ty</w>"
    ],
    [
      "l",
      "ear"
    ],
    [
      "c",
      "ar"
    ],
    [
      "ch",
      "an"
    ],
    [
      "g",
      "on"
    ],
    [
      "gu",
      "ys</w>"
    ],
    [
      "p",
      "ri"
    ],
    [
      "ra",
      "ting</w>"
    ],
    [
      "gla",
      "d</w>"
    ],
    [
      "m",
      "p"
    ],
    [
      "phi",
      "a</w>"
    ],
    [
      "5",
      "0</w>"
    ],
    [
      "congratula",
      "tions</w>"
    ],
    [
      "il",
      "e</w>"
    ],
    [
      "del",
      "phia</w>"
    ],
    [
      "in",
      "to</w>"
    ],
    [
      "k",
      "i"
    ],
    [
      "e",
      "st</w>"
    ],
    [
      "li",
      "f"
    ],
    [
      "phi",
      "la"
    ],
    [
      "al",
      "s</w>"
    ],
    [
      "b",
      "il"
    ],
    [
      "phila",
      "delphia</w>"
    ],
    [
      "t",
      "ou"
    ],
    [
      "2",
      "0</w>"
    ],
    [
      "d",
      "a</w>"
    ],
    [
      "g",
      "r"
    ],
    [
      "gon",
      "na</w>"
    ],
    [
      "o",
      "pp"
    ],
    [
      "c",
      "ould"
    ],
    [
      "r",
      "ed</w>"
    ],
    [
      "bla",
      "ck</w>"
    ],
    [
      "l",
      "ed</w>"
    ],
    [
      "en",
      "ts</w>"
    ],
    [
      "or",
      "t</w>"
    ],
    [
      "en",
      "ough</w>"
    ],
    [
      "b",
      "or"
    ],
    [
      "c",
      "re"
    ],
    [
      "di",
      "s"
    ],
    [
      "bir",
      "ds</w>"
    ],
    [
      "ga",
      "mes</w>"
    ],
    [
      "lo",
      "ved</w>"
    ],
    [
      "h",
      "ey</w>"
    ],
    [
      "a",
      "s"
    ],
    [
      "o",
      "ver"
    ],
    [
      "or",
      "i"
    ],
    [
      "ti",
      "ve</w>"
    ],
    [
      "4",
      "0</w>"
    ],
    [
      "h",
      "a</w>"
    ],
    [
      "b",
      "ar"
    ],
    [
      "g",
      "en"
    ],
    [
      "te",
      "st</w>"
    ],
    [
      "h",
      "ear"
    ],
    [
      "mon",
      "th</w>"
    ],
    [
      "w",
      "an"
    ],
    [
      "li",
      "gh"
    ],
    [
      "absolu",
      "tely</w>"
    ],
    [
      "smil",
      "e</w>"
    ],
    [
      "h",
      "ear</w>"
    ],
    [
      "ac",
      "tu"
    ],
    [
      "1",
      "5</w>"
    ],
    [
      "o",
      "me</w>"
    ],
    [
      "dan",
      "c"
    ],
    [
      "tch",
      "</w>"
    ],
    [
      "st",
      "ra"
    ],
    [
      "some",
      "one</w>"
    ],
    [
      "i",
      "s"
    ],
    [
      "wh",
      "ile</w>"
    ],
    [
      "wi",
      "th"
    ],
    [
      "s",
      "on"
    ],
    [
      "o",
      "s</w>"
    ],
    [
      "be",
      "li"
    ],
    [
      "t",
      "es</w>"
    ],
    [
      "n",
      "ight</w>"
    ],
    [
      "kel",
      "ce</w>"
    ],
    [
      "f",
      "ee"
    ],
    [
      "st",
      "and</w>"
    ],
    [
      "oo",
      "k</w>"
    ],
    [
      "3",
      "0</w>"
    ],
    [
      "lif",
      "e</w>"
    ],
    [
      "s",
      "an"
    ],
    [
      "qu",
      "ar"
    ],
    [
      "n",
      "i"
    ],
    [
      "hi",
      "gh"
    ],
    [
      "mb",
      "er</w>"
    ],
    [
      "1",
      "4</w>"
    ],
    [
      "c",
      "all"
    ],
    [
      "in",
      "i"
    ],
    [
      "fin",
      "ally</w>"
    ],
    [
      "h",
      "op"
    ],
    [
      "s",
      "s"
    ],
    [
      "se",
      "con"
    ],
    [
      "m",
      "om"
    ],
    [
      "gu",
      "ess</w>"
    ],
    [
      "wa",
      "s"
    ],
    [
      "a",
      "tion</w>"
    ],
    [
      "n",
      "ee"
    ],
    [
      "off",
      "en"
    ],
    [
      "ab",
      "o"
    ],
    [
      "bo",
      "th</w>"
    ],
    [
      "wor",
      "k</w>"
    ],
    [
      "fav",
      "or"
    ],
    [
      "l",
      "ess</w>"
    ],
    [
      "pi",
      "e"
    ],
    [
      "to",
      "p</w>"
    ],
    [
      "r",
      "ic"
    ],
    [
      "c",
      "all</w>"
    ],
    [
      "5",
      "3</w>"
    ],
    [
      "americ",
      "a</w>"
    ],
    [
      "bea",
      "u"
    ],
    [
      "es",
      "ome</w>"
    ],
    [
      "i",
      "d"
    ],
    [
      "oo",
      "o</w>"
    ],
    [
      "o",
      "ld</w>"
    ],
    [
      "l",
      "ong</w>"
    ],
    [
      "n",
      "g</w>"
    ],
    [
      "mar",
      "ch</w>"
    ],
    [
      "ta",
      "ke</w>"
    ],
    [
      "tt",
      "le</w>"
    ],
    [
      "le",
      "ts</w>"
    ],
    [
      "y",
      "all</w>"
    ],
    [
      "g",
      "ir"
    ],
    [
      "re",
      "c"
    ],
    [
      "rea",
      "dy</w>"
    ],
    [
      "m",
      "ent</w>"
    ],
    [
      "fu",
      "n</w>"
    ],
    [
      "en",
      "ing</w>"
    ],
    [
      "with",
      "out</w>"
    ],
    [
      "fee",
      "l</w>"
    ],
    [
      "st",
      "u"
    ],
    [
      "to",
      "day</w>"
    ],
    [
      "aw",
      "esome</w>"
    ],
    [
      "ha",
      "te</w>"
    ],
    [
      "c",
      "er"
    ],
    [
      "al",
      "most</w>"
    ],
    [
      "ca",
      "mer"
    ],
    [
      "grea",
      "test</w>"
    ],
    [
      "wee",
      "ks</w>"
    ],
    [
      "some",
      "thing</w>"
    ],
    [
      "c",
      "es</w>"
    ],
    [
      "c",
      "oun"
    ],
    [
      "sc",
      "ri"
    ],
    [
      "j",
      "e"
    ],
    [
      "lea",
      "st</w>"
    ],
    [
      "h",
      "ard</w>"
    ],
    [
      "an",
      "other</w>"
    ],
    [
      "pa",
      "ss</w>"
    ],
    [
      "pat",
      "rick</w>"
    ],
    [
      "y",
      "ea"
    ],
    [
      "li",
      "ve</w>"
    ],
    [
      "sa",
      "ying</w>"
    ],
    [
      "t",
      "ri"
    ],
    [
      "th",
      "ats</w>"
    ],
    [
      "win",
      "ning</w>"
    ],
    [
      "sel",
      "f</w>"
    ],
    [
      "wh",
      "ite</w>"
    ],
    [
      "ma",
      "st"
    ],
    [
      "do",
      "es</w>"
    ],
    [
      "sc",
      "ore</w>"
    ],
    [
      "gi",
      "ve</w>"
    ],
    [
      "t",
      "ly</w>"
    ],
    [
      "per",
      "fe"
    ],
    [
      "m",
      "v"
    ],
    [
      "el",
      "se</w>"
    ],
    [
      "on",
      "ce</w>"
    ],
    [
      "loo",
      "ks</w>"
    ],
    [
      "ge",
      "ts</w>"
    ],
    [
      "or",
      "e"
    ],
    [
      "no",
      "thing</w>"
    ],
    [
      "c",
      "el"
    ],
    [
      "s",
      "sed</w>"
    ],
    [
      "you",
      "ng</w>"
    ],
    [
      "sa",
      "me</w>"
    ],
    [
      "star",
      "t</w>"
    ],
    [
      "a",
      "ted</w>"
    ],
    [
      "le",
      "g"
    ],
    [
      "c",
      "tion</w>"
    ],
    [
      "v",
      "en"
    ],
    [
      "h",
      "an"
    ],
    [
      "actu",
      "ally</w>"
    ],
    [
      "o",
      "b"
    ],
    [
      "wh",
      "i"
    ],
    [
      "dd",
      "d</w>"
    ],
    [
      "n",
      "y</w>"
    ],
    [
      "e",
      "i"
    ],
    [
      "f",
      "un"
    ],
    [
      "a",
      "u"
    ],
    [
      "tea",
      "ms</w>"
    ],
    [
      "q",
      "b</w>"
    ],
    [
      "e",
      "ve</w>"
    ],
    [
      "c",
      "an"
    ],
    [
      "bor",
      "ing</w>"
    ],
    [
      "mv",
      "p</w>"
    ],
    [
      "ma",
      "y"
    ],
    [
      "ar",
      "ound</w>"
    ],
    [
      "p",
      "le</w>"
    ],
    [
      "beau",
      "ti"
    ],
    [
      "p",
      "l"
    ],
    [
      "loo",
      "king</w>"
    ],
    [
      "f",
      "an"
    ],
    [
      "e",
      "m</w>"
    ],
    [
      "en",
      "a</w>"
    ],
    [
      "re",
      "ci"
    ],
    [
      "wa",
      "l"
    ],
    [
      "bil",
      "ls</w>"
    ],
    [
      "m",
      "ed</w>"
    ],
    [
      "f",
      "r"
    ],
    [
      "win",
      "s</w>"
    ],
    [
      "la",
      "ter</w>"
    ],
    [
      "tur",
      "n</w>"
    ],
    [
      "favor",
      "ite</w>"
    ],
    [
      "b",
      "rea"
    ],
    [
      "po",
      "int</w>"
    ],
    [
      "c",
      "al"
    ],
    [
      "e",
      "ly</w>"
    ],
    [
      "see",
      "ing</w>"
    ],
    [
      "ou",
      "t"
    ],
    [
      "1",
      "7</w>"
    ],
    [
      "e",
      "f</w>"
    ],
    [
      "n",
      "u"
    ],
    [
      "j",
      "ack"
    ],
    [
      "t",
      "ers</w>"
    ],
    [
      "k",
      "new</w>"
    ],
    [
      "l",
      "l"
    ],
    [
      "b",
      "ro"
    ],
    [
      "in",
      "ts</w>"
    ],
    [
      "ma",
      "g"
    ],
    [
      "every",
      "thing</w>"
    ],
    [
      "an",
      "ce</w>"
    ],
    [
      "qu",
      "e</w>"
    ],
    [
      "p",
      "ee"
    ],
    [
      "100",
      "m</w>"
    ],
    [
      "beauti",
      "ful</w>"
    ],
    [
      "r",
      "un"
    ],
    [
      "mb",
      "le</w>"
    ],
    [
      "h",
      "it</w>"
    ],
    [
      "su",
      "ch</w>"
    ],
    [
      "h",
      "on"
    ],
    [
      "l",
      "a</w>"
    ],
    [
      "in",
      "san"
    ],
    [
      "w",
      "om"
    ],
    [
      "t",
      "ell</w>"
    ],
    [
      "pro",
      "bab"
    ],
    [
      "wan",
      "ted</w>"
    ],
    [
      "probab",
      "ly</w>"
    ],
    [
      "ou",
      "r"
    ],
    [
      "fir",
      "e</w>"
    ],
    [
      "mom",
      "ent</w>"
    ],
    [
      "may",
      "be</w>"
    ],
    [
      "c",
      "ked</w>"
    ],
    [
      "enti",
      "re</w>"
    ],
    [
      "pie",
      "ce</w>"
    ],
    [
      "l",
      "es</w>"
    ],
    [
      "under",
      "stand</w>"
    ],
    [
      "si",
      "on</w>"
    ],
    [
      "si",
      "de</w>"
    ],
    [
      "k",
      "dot</w>"
    ],
    [
      "f",
      "ri"
    ],
    [
      "tr",
      "ying</w>"
    ],
    [
      "g",
      "ing</w>"
    ],
    [
      "th",
      "ough</w>"
    ],
    [
      "camer",
      "a</w>"
    ],
    [
      "ri",
      "ble</w>"
    ],
    [
      "min",
      "u"
    ],
    [
      "j",
      "</w>"
    ],
    [
      "ch",
      "ea"
    ],
    [
      "ti",
      "s"
    ],
    [
      "o",
      "h</w>"
    ],
    [
      "st",
      "r"
    ],
    [
      "g",
      "n"
    ],
    [
      "do",
      "ing</w>"
    ],
    [
      "y",
      "p"
    ],
    [
      "app",
      "reci"
    ],
    [
      "1",
      "6</w>"
    ],
    [
      "ru",
      "n</w>"
    ],
    [
      "t",
      "on"
    ],
    [
      "e",
      "en</w>"
    ],
    [
      "ti",
      "on"
    ],
    [
      "di",
      "ff"
    ],
    [
      "al",
      "ready</w>"
    ],
    [
      "t",
      "a</w>"
    ],
    [
      "m",
      "es"
    ],
    [
      "i",
      "ly</w>"
    ],
    [
      "p",
      "ur"
    ],
    [
      "sh",
      "ed</w>"
    ],
    [
      "s",
      "or"
    ],
    [
      "l",
      "ev"
    ],
    [
      "ligh",
      "ts</w>"
    ],
    [
      "beli",
      "eve</w>"
    ],
    [
      "hel",
      "p"
    ],
    [
      "gg",
      "ed</w>"
    ],
    [
      "def",
      "ini"
    ],
    [
      "tur",
      "e</w>"
    ],
    [
      "tt",
      "y</w>"
    ],
    [
      "w",
      "on"
    ],
    [
      "whi",
      "ch</w>"
    ],
    [
      "re",
      "me"
    ],
    [
      "ser",
      "ena</w>"
    ],
    [
      "play",
      "er</w>"
    ],
    [
      "th",
      "ree</w>"
    ],
    [
      "deser",
      "ved</w>"
    ],
    [
      "le",
      "y</w>"
    ],
    [
      "sta",
      "a"
    ],
    [
      "c",
      "ri"
    ],
    [
      "ra",
      "p</w>"
    ],
    [
      ">",
      "</w>"
    ],
    [
      "a",
      "t"
    ],
    [
      "ou",
      "d</w>"
    ],
    [
      "champi",
      "on"
    ],
    [
      "appreci",
      "ate</w>"
    ],
    [
      "c",
      "la"
    ],
    [
      "fi",
      "d"
    ],
    [
      "sa",
      "tis"
    ],
    [
      "s",
      "qu"
    ],
    [
      "insan",
      "e</w>"
    ],
    [
      "na",
      "me</w>"
    ],
    [
      "yea",
      "h</w>"
    ],
    [
      "abo",
      "o</w>"
    ],
    [
      "pee",
      "k"
    ],
    [
      "con",
      "fid"
    ],
    [
      "call",
      "ed</w>"
    ],
    [
      "j",
      "a"
    ],
    [
      "c",
      "le</w>"
    ],
    [
      "champion",
      "shi"
    ],
    [
      "mustar",
      "d</w>"
    ],
    [
      "li",
      "ttle</w>"
    ],
    [
      "w",
      "ent</w>"
    ],
    [
      "tr",
      "y</w>"
    ],
    [
      "k",
      "n"
    ],
    [
      "c",
      "ep"
    ],
    [
      "m",
      "ing</w>"
    ],
    [
      "5",
      "9</w>"
    ],
    [
      "mast",
      "er"
    ],
    [
      "danc",
      "ers</w>"
    ],
    [
      "bar",
      "k"
    ],
    [
      "comp",
      "le"
    ],
    [
      "loo",
      "ked</w>"
    ],
    [
      "sp",
      "ort</w>"
    ],
    [
      "ch",
      "a"
    ],
    [
      "t",
      "el"
    ],
    [
      "h",
      "es</w>"
    ],
    [
      "m",
      "a</w>"
    ],
    [
      "i",
      "l</w>"
    ],
    [
      "jack",
      "son</w>"
    ],
    [
      "de",
      "st"
    ],
    [
      "g",
      "in"
    ],
    [
      "fe",
      "el"
    ],
    [
      "1",
      "8"
    ],
    [
      "mo",
      "ve</w>"
    ],
    [
      "fac",
      "e</w>"
    ],
    [
      "ti",
      "l</w>"
    ],
    [
      "tt",
      "a</w>"
    ],
    [
      "bo",
      "ard</w>"
    ],
    [
      "d",
      "ur"
    ],
    [
      "co",
      "l"
    ],
    [
      "2",
      "2</w>"
    ],
    [
      "2",
      "5</w>"
    ],
    [
      "defini",
      "tely</w>"
    ],
    [
      "ar",
      "ti"
    ],
    [
      "ic",
      "i"
    ],
    [
      "a",
      "dd"
    ],
    [
      "bark",
      "ley</w>"
    ],
    [
      "bac",
      "k"
    ],
    [
      "do",
      "es"
    ],
    [
      "sa",
      "ys</w>"
    ],
    [
      "a",
      "ge</w>"
    ],
    [
      "re",
      "spe"
    ],
    [
      "wa",
      "rd</w>"
    ],
    [
      "happen",
      "s</w>"
    ],
    [
      "tal",
      "k</w>"
    ],
    [
      "every",
      "day</w>"
    ],
    [
      "diff",
      "er"
    ],
    [
      "secon",
      "d</w>"
    ],
    [
      "o",
      "k</w>"
    ],
    [
      "a",
      "a"
    ],
    [
      "b",
      "s</w>"
    ],
    [
      "vide",
      "os</w>"
    ],
    [
      "t",
      "ook</w>"
    ],
    [
      "w",
      "ould"
    ],
    [
      "show",
      "s</w>"
    ],
    [
      "peek",
      "aboo</w>"
    ],
    [
      "ri",
      "gged</w>"
    ],
    [
      "dur",
      "ing</w>"
    ],
    [
      "fac",
      "t</w>"
    ],
    [
      "tou",
      "ch"
    ],
    [
      "ma",
      "king</w>"
    ],
    [
      "s",
      "es</w>"
    ],
    [
      "sa",
      "m</w>"
    ],
    [
      "play",
      "ers</w>"
    ],
    [
[...]
