{
  "vocab": {
    " ": 0,
    "/": 1,
    "/05": 2,
    "/05/2025": 3,
    "/10": 4,
    "/2025": 5,
    "/2026": 6,
    "/26": 7,
    "/5": 8,
    "0": 9,
    "00": 10,
    "000": 11,
    "01": 12,
    "02": 13,
    "03": 14,
    "04": 15,
    "05": 16,
    "06": 17,
    "07": 18,
    "08": 19,
    "09": 20,
    "1": 21,
    "1/": 22,
    "10": 23,
    "100": 24,
    "1000": 25,
    "100m": 26,
    "100mil": 27,
    "100million": 28,
    "101": 29,
    "102": 30,
    "10th": 31,
    "11": 32,
    "12": 33,
    "1200": 34,
    "13": 35,
    "14": 36,
    "1400": 37,
    "15": 38,
    "150": 39,
    "1500": 40,
    "15k": 41,
    "16": 42,
    "1600": 43,
    "1650": 44,
    "17": 45,
    "1700": 46,
    "1750": 47,
    "18": 48,
    "1800": 49,
    "1850": 50,
    "19": 51,
    "1900": 52,
    "1950": 53,
    "198": 54,
    "1k": 55,
    "1m": 56,
    "1st": 57,
    "2": 58,
    "20": 59,
    "200": 60,
    "2000": 61,
    "2004": 62,
    "2013": 63,
    "2016": 64,
    "2017": 65,
    "2018": 66,
    "202": 67,
    "2020": 68,
    "2021": 69,
    "2022": 70,
    "2023": 71,
    "2024": 72,
    "2025": 73,
    "2026": 74,
    "2027": 75,
    "2028": 76,
    "2029": 77,
    "2030": 78,
    "2035": 79,
    "2040": 80,
    "2050": 81,
    "2077": 82,
    "21": 83,
    "2100": 84,
    "22": 85,
    "2200": 86,
    "22nd": 87,
    "23": 88,
    "2300": 89,
    "24": 90,
    "25": 91,
    "26": 92,
    "26th": 93,
    "27": 94,
    "28": 95,
    "29": 96,
    "2k": 97,
    "2nd": 98,
    "3": 99,
    "30": 100,
    "300": 101,
    "30fps": 102,
    "31": 103,
    "32": 104,
    "33": 105,
    "34": 106,
    "35": 107,
    "36": 108,
    "37": 109,
    "379": 110,
    "38": 111,
    "380": 112,
    "381": 113,
    "382": 114,
    "39": 115,
    "3d": 116,
    "3peat": 117,
    "3rd": 118,
    "4": 119,
    "40": 120,
    "400": 121,
    "41": 122,
    "42": 123,
    "43": 124,
    "44": 125,
    "45": 126,
    "46": 127,
    "47": 128,
    "48": 129,
    "49": 130,
    "49er": 131,
    "49ers": 132,
    "4k": 133,
    "4th": 134,
    "5": 135,
    "50": 136,
    "500": 137,
    "5090": 138,
    "51": 139,
    "52": 140,
    "53": 141,
    "54": 142,
    "55": 143,
    "56": 144,
    "57": 145,
    "58": 146,
    "59": 147,
    "5th": 148,
    "6": 149,
    "60": 150,
    "600": 151,
    "60fps": 152,
    "65": 153,
    "66": 154,
    "67": 155,
    "68": 156,
    "69": 157,
    "7": 158,
    "70": 159,
    "700": 160,
    "74": 161,
    "75": 162,
    "76": 163,
    "77": 164,
    "8": 165,
    "80": 166,
    "800": 167,
    "80s": 168,
    "84": 169,
    "85": 170,
    "9": 171,
    "90": 172,
    "900": 173,
    "93": 174,
    "94": 175,
    "95": 176,
    "95m": 177,
    "96": 178,
    "97": 179,
    "98": 180,
    "99": 181,
    "9ers": 182,
    "<": 183,
    "<3": 184,
    "<URL>": 185,
    "<unk>": 186,
    ">": 187,
    ">>": 188,
    ">>>": 189,
    "_": 190,
    "__": 191,
    "a": 192,
    "aa": 193,
    "aaa": 194,
    "aaat": 195,
    "aahhh": 196,
    "aap": 197,
    "aapki": 198,
    "ab": 199,
    "aba": 200,
    "abilities": 201,
    "ability": 202,
    "able": 203,
    "ably": 204,
    "abo": 205,
    "abor": 206,
    "about": 207,
    "above": 208,
    "absol": 209,
    "absolut": 210,
    "absolute": 211,
    "absolutely": 212,
    "ac": 213,
    "acc": 214,
    "acce": 215,
    "accent": 216,
    "accept": 217,
    "acceptable": 218,
    "access": 219,
    "accompl": 220,
    "accomplished": 221,
    "accor": 222,
    "according": 223,
    "account": 224,
    "accur": 225,
    "accurate": 226,
    "ach": 227,
    "achie": 228,
    "achieve": 229,
    "achieved": 230,
    "acho": 231,
    "aciones": 232,
    "ack": 233,
    "acked": 234,
    "across": 235,
    "act": 236,
    "acting": 237,
    "action": 238,
    "activ": 239,
    "active": 240,
    "actor": 241,
    "actors": 242,
    "actual": 243,
    "actually": 244,
    "ad": 245,
    "ada": 246,
    "adam": 247,
    "add": 248,
    "added": 249,
    "addi": 250,
    "adding": 251,
    "address": 252,
    "ade": 253,
    "ades": 254,
    "adi": 255,
    "adjust": 256,
    "admit": 257,
    "ado": 258,
    "ador": 259,
    "adorable": 260,
    "ads": 261,
    "adult": 262,
    "advan": 263,
    "advance": 264,
    "advantage": 265,
    "adver": 266,
    "advert": 267,
    "advertise": 268,
    "advice": 269,
    "aes": 270,
    "af": 271,
    "afc": 272,
    "aff": 273,
    "affect": 274,
    "affected": 275,
    "afford": 276,
    "afraid": 277,
    "africa": 278,
    "after": 279,
    "ag": 280,
    "aga": 281,
    "again": 282,
    "against": 283,
    "age": 284,
    "ages": 285,
    "agg": 286,
    "aggressive": 287,
    "ago": 288,
    "agora": 289,
    "agree": 290,
    "agus": 291,
    "ah": 292,
    "ahead": 293,
    "ahh": 294,
    "ahhh": 295,
    "ahora": 296,
    "ai": 297,
    "ain": 298,
    "aint": 299,
    "air": 300,
    "aire": 301,
    "ais": 302,
    "aj": 303,
    "ak": 304,
    "aka": 305,
    "al": 306,
    "alab": 307,
    "alabama": 308,
    "alco": 309,
    "alcohol": 310,
    "ald": 311,
    "ale": 312,
    "alex": 313,
    "algor": 314,
    "algorith": 315,
    "algorithm": 316,
    "algu": 317,
    "ali": 318,
    "aliens": 319,
    "ality": 320,
    "alive": 321,
    "all": 322,
    "alle": 323,
    "allen": 324,
    "alll": 325,
    "allow": 326,
    "allowed": 327,
    "allowing": 328,
    "ally": 329,
    "almost": 330,
    "alo": 331,
    "alone": 332,
    "along": 333,
    "alot": 334,
    "already": 335,
    "alright": 336,
    "als": 337,
    "also": 338,
    "although": 339,
    "always": 340,
    "aly": 341,
    "am": 342,
    "ama": 343,
    "amateur": 344,
    "amazed": 345,
    "amazing": 346,
    "ament": 347,
    "amente": 348,
    "amento": 349,
    "ameri": 350,
    "america": 351,
    "american": 352,
    "americans": 353,
    "americas": 354,
    "ames": 355,
    "ami": 356,
    "ammun": 357,
    "ammunation": 358,
    "amo": 359,
    "among": 360,
    "amount": 361,
    "amp": 362,
    "an": 363,
    "ana": 364,
    "analy": 365,
    "analysis": 366,
    "analyst": 367,
    "ance": 368,
    "ances": 369,
    "and": 370,
    "anda": 371,
    "ande": 372,
    "ando": 373,
    "andre": 374,
    "andreas": 375,
    "andy": 376,
    "ane": 377,
    "ang": 378,
    "ange": 379,
    "angle": 380,
    "angry": 381,
    "ani": 382,
    "anim": 383,
    "animals": 384,
    "animated": 385,
    "animation": 386,
    "animations": 387,
    "ank": 388,
    "ann": 389,
    "anna": 390,
    "anni": 391,
    "annihilated": 392,
    "annihilation": 393,
    "anno": 394,
    "announ": 395,
    "announcer": 396,
    "announcers": 397,
    "announcing": 398,
    "annoying": 399,
    "ano": 400,
    "anos": 401,
    "another": 402,
    "ans": 403,
    "ansi": 404,
    "ansioso": 405,
    "answer": 406,
    "answered": 407,
    "ant": 408,
    "anta": 409,
    "antagon": 410,
    "ante": 411,
    "antes": 412,
    "anthem": 413,
    "anti": 414,
    "anticip": 415,
    "anticipat": 416,
    "anticipated": 417,
    "anticipation": 418,
    "ants": 419,
    "anx": 420,
    "any": 421,
    "anybody": 422,
    "anymore": 423,
    "anyone": 424,
    "anything": 425,
    "anytime": 426,
    "anyway": 427,
    "anyways": 428,
    "anywhere": 429,
    "ao": 430,
    "aos": 431,
    "ap": 432,
    "apart": 433,
    "apo": 434,
    "apology": 435,
    "app": 436,
    "apparent": 437,
    "apparently": 438,
    "appeal": 439,
    "appear": 440,
    "appearance": 441,
    "appearances": 442,
    "appeared": 443,
    "appears": 444,
    "appreci": 445,
    "appreciate": 446,
    "appro": 447,
    "appropriate": 448,
    "apri": 449,
    "april": 450,
    "aps": 451,
    "aqu": 452,
    "aqui": 453,
    "ar": 454,
    "ara": 455,
    "arab": 456,
    "arc": 457,
    "ard": 458,
    "ards": 459,
    "are": 460,
    "area": 461,
    "ared": 462,
    "aren": 463,
    "arent": 464,
    "argu": 465,
    "arguably": 466,
    "argument": 467,
    "ari": 468,
    "aria": 469,
    "arily": 470,
    "arm": 471,
    "arms": 472,
    "army": 473,
    "aron": 474,
    "around": 475,
    "arr": 476,
    "arri": 477,
    "arrogance": 478,
    "arrogant": 479,
    "arrow": 480,
    "ars": 481,
    "arse": 482,
    "art": 483,
    "arte": 484,
    "arthur": 485,
    "arti": 486,
    "ary": 487,
    "as": 488,
    "ase": 489,
    "asf": 490,
    "ash": 491,
    "ashed": 492,
    "asi": 493,
    "aside": 494,
    "ask": 495,
    "asked": 496,
    "asking": 497,
    "ason": 498,
    "ass": 499,
    "assassin": 500,
    "asses": 501,
    "assin": 502,
    "assist": 503,
    "assu": 504,
    "assume": 505,
    "assuming": 506,
    "ast": 507,
    "aster": 508,
    "asts": 509,
    "asty": 510,
    "at": 511,
    "ata": 512,
    "atch": 513,
    "ate": 514,
    "ated": 515,
    "ately": 516,
    "ater": 517,
    "ates": 518,
    "ateur": 519,
    "ath": 520,
    "ati": 521,
    "ating": 522,
    "ation": 523,
    "ational": 524,
    "ations": 525,
    "ative": 526,
    "atleast": 527,
    "ato": 528,
    "ator": 529,
    "ators": 530,
    "atrocious": 531,
    "ats": 532,
    "att": 533,
    "atta": 534,
    "attack": 535,
    "attacks": 536,
    "attem": 537,
    "attempt": 538,
    "atten": 539,
    "attend": 540,
    "attendance": 541,
    "attention": 542,
    "attitude": 543,
    "attra": 544,
    "attractive": 545,
    "au": 546,
    "aun": 547,
    "aura": 548,
    "aus": 549,
    "austral": 550,
    "australia": 551,
    "aut": 552,
    "auto": 553,
    "automat": 554,
    "av": 555,
    "ava": 556,
    "avail": 557,
    "available": 558,
    "ave": 559,
    "avec": 560,
    "aven": 561,
    "avengers": 562,
    "average": 563,
    "avi": 564,
    "avoid": 565,
    "aw": 566,
    "award": 567,
    "away": 568,
    "awesome": 569,
    "awful": 570,
    "awk": 571,
    "awkward": 572,
    "ay": 573,
    "aya": 574,
    "aye": 575,
    "az": 576,
    "b": 577,
    "b4": 578,
    "b6": 579,
    "ba": 580,
    "bab": 581,
    "babe": 582,
    "babies": 583,
    "baby": 584,
    "babyyy": 585,
    "back": 586,
    "background": 587,
    "backs": 588,
    "backup": 589,
    "backups": 590,
    "bad": 591,
    "badass": 592,
    "badly": 593,
    "bag": 594,
    "bags": 595,
    "bah": 596,
    "bahut": 597,
    "bai": 598,
    "bail": 599,
    "bait": 600,
    "baker": 601,
    "bal": 602,
    "balan": 603,
    "balance": 604,
    "balanced": 605,
    "ball": 606,
    "balled": 607,
    "balls": 608,
    "baltimore": 609,
    "bama": 610,
    "ban": 611,
    "bananero": 612,
    "band": 613,
    "bandwagon": 614,
    "bang": 615,
    "banger": 616,
    "bank": 617,
    "banter": 618,
    "bar": 619,
    "bare": 620,
    "barely": 621,
    "barkley": 622,
    "bas": 623,
    "base": 624,
    "baseball": 625,
    "based": 626,
    "basic": 627,
    "basically": 628,
    "basket": 629,
    "bat": 630,
    "battle": 631,
    "baun": 632,
    "bay": 633,
    "bb": 634,
    "bby": 635,
    "bc": 636,
    "bday": 637,
    "be": 638,
    "bea": 639,
    "bear": 640,
    "bears": 641,
    "beast": 642,
    "beat": 643,
    "beatdown": 644,
    "beaten": 645,
    "beating": 646,
    "beats": 647,
    "beaut": 648,
    "beauti": 649,
    "beautiful": 650,
    "beauty": 651,
    "became": 652,
    "because": 653,
    "become": 654,
    "becomes": 655,
    "becoming": 656,
    "bed": 657,
    "been": 658,
    "beer": 659,
    "beers": 660,
    "before": 661,
    "beg": 662,
    "begging": 663,
    "begin": 664,
    "beginning": 665,
    "begins": 666,
    "beha": 667,
    "behalf": 668,
    "behavior": 669,
    "behind": 670,
    "being": 671,
    "bek": 672,
    "belie": 673,
    "believ": 674,
    "believe": 675,
    "believed": 676,
    "believes": 677,
    "believing": 678,
    "bell": 679,
    "belong": 680,
    "below": 681,
    "belt": 682,
    "bem": 683,
    "ben": 684,
    "bench": 685,
    "bengals": 686,
    "ber": 687,
    "bers": 688,
    "bert": 689,
    "bes": 690,
    "beside": 691,
    "besides": 692,
    "best": 693,
    "bet": 694,
    "beta": 695,
    "betraal": 696,
    "betray": 697,
    "bets": 698,
    "better": 699,
    "betting": 700,
    "between": 701,
    "beyond": 702,
    "bf": 703,
    "bg": 704,
    "bh": 705,
    "bi": 706,
    "bias": 707,
    "biased": 708,
    "bie": 709,
    "bien": 710,
    "big": 711,
    "bigg": 712,
    "bigger": 713,
    "biggest": 714,
    "bike": 715,
    "bil": 716,
    "bile": 717,
    "bility": 718,
    "bill": 719,
    "billion": 720,
    "billions": 721,
    "bills": 722,
    "bin": 723,
    "bing": 724,
    "bir": 725,
    "bird": 726,
    "birds": 727,
    "birdsss": 728,
    "birth": 729,
    "birthday": 730,
    "bis": 731,
    "bishop": 732,
    "bit": 733,
    "bitter": 734,
    "bl": 735,
    "bla": 736,
    "black": 737,
    "blame": 738,
    "blast": 739,
    "blatant": 740,
    "ble": 741,
    "bled": 742,
    "bles": 743,
    "bless": 744,
    "blessed": 745,
    "bli": 746,
    "blind": 747,
    "bling": 748,
    "blit": 749,
    "blitz": 750,
    "blo": 751,
    "block": 752,
    "blocking": 753,
    "blon": 754,
    "blood": 755,
    "blow": 756,
    "blowing": 757,
    "blown": 758,
    "blowout": 759,
    "blowouts": 760,
    "blows": 761,
    "blue": 762,
    "blueprint": 763,
    "blunder": 764,
    "bly": 765,
    "bo": 766,
    "boa": 767,
    "board": 768,
    "boat": 769,
    "bobby": 770,
    "body": 771,
    "bol": 772,
    "bom": 773,
    "bomb": 774,
    "bon": 775,
    "bonito": 776,
    "bonnie": 777,
    "bonus": 778,
    "boo": 779,
    "boob": 780,
    "boobs": 781,
    "booed": 782,
    "book": 783,
    "books": 784,
    "boom": 785,
    "booo": 786,
    "boost": 787,
    "boot": 788,
    "booth": 789,
    "booty": 790,
    "bor": 791,
    "bored": 792,
    "boring": 793,
    "born": 794,
    "boss": 795,
    "bot": 796,
    "both": 797,
    "bother": 798,
    "bots": 799,
    "bott": 800,
    "bottle": 801,
    "bottom": 802,
    "bought": 803,
    "boun": 804,
    "bounce": 805,
    "bound": 806,
    "bout": 807,
    "bow": 808,
    "bowl": 809,
    "bowls": 810,
    "box": 811,
    "boy": 812,
    "boyfriend": 813,
    "boys": 814,
    "br": 815,
    "bra": 816,
    "brad": 817,
    "brady": 818,
    "bradys": 819,
    "brain": 820,
    "brand": 821,
    "brands": 822,
    "brap": 823,
    "bras": 824,
    "brasil": 825,
    "brasile": 826,
    "bravo": 827,
    "braz": 828,
    "brazil": 829,
    "brazilian": 830,
    "bre": 831,
    "brea": 832,
    "bread": 833,
    "break": 834,
    "breaking": 835,
    "breaks": 836,
    "breakup": 837,
    "breath": 838,
    "bri": 839,
    "brian": 840,
    "brick": 841,
    "bright": 842,
    "brilli": 843,
    "brilliant": 844,
    "bring": 845,
    "bringing": 846,
    "brings": 847,
    "brit": 848,
    "british": 849,
    "bro": 850,
    "broad": 851,
    "broadcast": 852,
    "broke": 853,
    "broken": 854,
    "bron": 855,
    "broncos": 856,
    "brooo": 857,
    "bros": 858,
    "brother": 859,
    "brotherly": 860,
    "brothers": 861,
    "brought": 862,
    "brown": 863,
    "browns": 864,
    "bru": 865,
    "bruh": 866,
    "brut": 867,
    "brutal": 868,
    "bs": 869,
    "bt": 870,
    "bta": 871,
    "btw": 872,
    "bu": 873,
    "bub": 874,
    "buc": 875,
    "buccaneers": 876,
    "buck": 877,
    "bucks": 878,
    "bucs": 879,
    "bud": 880,
    "buddy": 881,
    "budget": 882,
    "budu": 883,
    "budunosti": 884,
    "buen": 885,
    "bueno": 886,
    "buff": 887,
    "buffalo": 888,
    "bug": 889,
    "buil": 890,
    "build": 891,
    "building": 892,
    "buildings": 893,
    "built": 894,
    "bul": 895,
    "bull": 896,
    "bullied": 897,
    "bully": 898,
    "bum": 899,
    "bun": 900,
    "bunch": 901,
    "bund": 902,
    "bundleroo": 903,
    "bur": 904,
    "burn": 905,
    "burrow": 906,
    "bus": 907,
    "business": 908,
    "bust": 909,
    "buster": 910,
    "busy": 911,
    "but": 912,
    "bute": 913,
    "butt": 914,
    "button": 915,
    "buy": 916,
    "buying": 917,
    "buzz": 918,
    "bx": 919,
    "by": 920,
    "bye": 921,
    "c": 922,
    "c5": 923,
    "ca": 924,
    "cab": 925,
    "cad": 926,
    "cada": 927,
    "cade": 928,
    "cake": 929,
    "cakes": 930,
    "cal": 931,
    "cale": 932,
    "call": 933,
    "called": 934,
    "calling": 935,
    "calls": 936,
    "calm": 937,
    "cam": 938,
    "came": 939,
    "cameo": 940,
    "camera": 941,
    "caminos": 942,
    "campa": 943,
    "can": 944,
    "canada": 945,
    "cance": 946,
    "cand": 947,
    "cando": 948,
    "cane": 949,
    "cannot": 950,
    "cant": 951,
    "cap": 952,
    "capable": 953,
    "capital": 954,
    "capt": 955,
    "capture": 956,
    "captured": 957,
    "car": 958,
    "cara": 959,
    "card": 960,
    "care": 961,
    "career": 962,
    "cares": 963,
    "carried": 964,
    "carry": 965,
    "carrying": 966,
    "cars": 967,
    "carson": 968,
    "carter": 969,
    "cartoon": 970,
    "cas": 971,
    "case": 972,
    "cash": 973,
    "cassidy": 974,
    "cast": 975,
    "castle": 976,
    "castles": 977,
    "castling": 978,
    "casual": 979,
    "casually": 980,
    "cat": 981,
    "catch": 982,
    "catches": 983,
    "catching": 984,
    "caught": 985,
    "cause": 986,
    "caused": 987,
    "cc": 988,
    "ccp": 989,
    "ce": 990,
    "ced": 991,
    "ceed": 992,
    "cei": 993,
    "celeb": 994,
    "celebr": 995,
    "celebrate": 996,
    "celebrating": 997,
    "celebration": 998,
    "celebrities": 999,
    "cement": 1000,
    "cen": 1001,
    "cending": 1002,
    "cent": 1003,
    "center": 1004,
    "century": 1005,
    "cer": 1006,
    "cere": 1007,
    "cers": 1008,
    "certain": 1009,
    "certainly": 1010,
    "certe": 1011,
    "ces": 1012,
    "cess": 1013,
    "cet": 1014,
    "ch": 1015,
    "cha": 1016,
    "challen": 1017,
    "challenge": 1018,
    "cham": 1019,
    "champ": 1020,
    "champion": 1021,
    "champions": 1022,
    "championship": 1023,
    "championships": 1024,
    "champs": 1025,
    "chan": 1026,
    "chance": 1027,
    "change": 1028,
    "changed": 1029,
    "changes": 1030,
    "changing": 1031,
    "channel": 1032,
    "chap": 1033,
    "chapter": 1034,
    "char": 1035,
    "character": 1036,
    "characters": 1037,
    "charming": 1038,
    "chas": 1039,
    "chase": 1040,
    "chasing": 1041,
    "chass": 1042,
    "chat": 1043,
    "che": 1044,
    "chea": 1045,
    "cheat": 1046,
    "cheated": 1047,
    "cheaters": 1048,
    "cheating": 1049,
    "cheats": 1050,
    "check": 1051,
    "checked": 1052,
    "checkmate": 1053,
    "checks": 1054,
    "ched": 1055,
    "chee": 1056,
    "cheeks": 1057,
    "cheer": 1058,
    "cheering": 1059,
    "cheers": 1060,
    "chees": 1061,
    "cheese": 1062,
    "cheesest": 1063,
    "cheesesteak": 1064,
    "chefs": 1065,
    "chei": 1066,
    "cheifs": 1067,
    "chemistry": 1068,
    "cher": 1069,
    "cherry": 1070,
    "ches": 1071,
    "chess": 1072,
    "chest": 1073,
    "chi": 1074,
    "chica": 1075,
    "chicago": 1076,
    "chick": 1077,
    "chie": 1078,
    "chief": 1079,
    "chiefs": 1080,
    "child": 1081,
    "childhood": 1082,
    "children": 1083,
    "chill": 1084,
    "chills": 1085,
    "chin": 1086,
    "china": 1087,
    "chinese": 1088,
    "chip": 1089,
    "cho": 1090,
    "choice": 1091,
    "chok": 1092,
    "choke": 1093,
    "choked": 1094,
    "choo": 1095,
    "choose": 1096,
    "choosing": 1097,
    "chr": 1098,
    "chris": 1099,
    "christ": 1100,
    "christmas": 1101,
    "cht": 1102,
    "chu": 1103,
    "chung": 1104,
    "chur": 1105,
    "ci": 1106,
    "cia": 1107,
    "cial": 1108,
    "cially": 1109,
    "cias": 1110,
    "cide": 1111,
    "cies": 1112,
    "cil": 1113,
    "cin": 1114,
    "cine": 1115,
    "cinema": 1116,
    "cinemat": 1117,
    "cinematic": 1118,
    "cing": 1119,
    "cio": 1120,
    "cion": 1121,
    "cious": 1122,
    "cir": 1123,
    "cis": 1124,
    "cise": 1125,
    "ciss": 1126,
    "cit": 1127,
    "city": 1128,
    "cj": 1129,
    "ck": 1130,
    "cked": 1131,
    "cket": 1132,
    "ckets": 1133,
    "cking": 1134,
    "cks": 1135,
    "cky": 1136,
    "cl": 1137,
    "cla": 1138,
    "claim": 1139,
    "clar": 1140,
    "clas": 1141,
    "class": 1142,
    "classic": 1143,
    "cle": 1144,
    "clea": 1145,
    "clean": 1146,
    "clear": 1147,
    "clearly": 1148,
    "cleavage": 1149,
    "cles": 1150,
    "cli": 1151,
    "click": 1152,
    "clickbait": 1153,
    "clin": 1154,
    "clinic": 1155,
    "clip": 1156,
    "clo": 1157,
    "clock": 1158,
    "clos": 1159,
    "close": 1160,
    "closed": 1161,
    "closely": 1162,
    "closer": 1163,
    "clothes": 1164,
    "clown": 1165,
    "clowns": 1166,
    "clu": 1167,
    "club": 1168,
    "clubs": 1169,
    "clue": 1170,
    "clutch": 1171,
    "cly": 1172,
    "clyde": 1173,
    "cmon": 1174,
    "co": 1175,
    "coach": 1176,
    "coached": 1177,
    "coaches": 1178,
    "coaching": 1179,
    "coast": 1180,
    "cocky": 1181,
    "cod": 1182,
    "cof": 1183,
    "coin": 1184,
    "col": 1185,
    "cold": 1186,
    "coll": 1187,
    "collaps": 1188,
    "colle": 1189,
    "college": 1190,
    "collins": 1191,
    "colo": 1192,
    "color": 1193,
    "colors": 1194,
    "com": 1195,
    "comb": 1196,
    "combin": 1197,
    "combination": 1198,
    "combined": 1199,
    "come": 1200,
    "comeback": 1201,
    "coment": 1202,
    "comentar": 1203,
    "comentario": 1204,
    "comentrio": 1205,
    "comes": 1206,
    "coming": 1207,
    "comm": 1208,
    "command": 1209,
    "commanders": 1210,
    "comment": 1211,
    "commentary": 1212,
    "commentator": 1213,
    "commentators": 1214,
    "commented": 1215,
    "commenting": 1216,
    "comments": 1217,
    "commercial": 1218,
    "commercials": 1219,
    "commit": 1220,
    "common": 1221,
    "community": 1222,
    "como": 1223,
    "comp": 1224,
    "compan": 1225,
    "companies": 1226,
    "company": 1227,
    "compar": 1228,
    "compare": 1229,
    "compared": 1230,
    "compe": 1231,
    "compet": 1232,
    "compete": 1233,
    "competit": 1234,
    "competition": 1235,
    "competitive": 1236,
    "compl": 1237,
    "complain": 1238,
    "complaining": 1239,
    "comple": 1240,
    "complete": 1241,
    "completed": 1242,
    "completely": 1243,
    "compli": 1244,
    "compr": 1245,
    "comprar": 1246,
    "comput": 1247,
    "computer": 1248,
    "con": 1249,
    "conce": 1250,
    "concent": 1251,
    "concentrate": 1252,
    "concer": 1253,
    "concert": 1254,
    "condescending": 1255,
    "conf": 1256,
    "confidence": 1257,
    "confident": 1258,
    "confir": 1259,
    "confirm": 1260,
    "confirmed": 1261,
    "confused": 1262,
    "congrat": 1263,
    "congrats": 1264,
    "congratul": 1265,
    "congratulation": 1266,
    "congratulations": 1267,
    "conne": 1268,
    "connection": 1269,
    "cons": 1270,
    "consecu": 1271,
    "consecutive": 1272,
    "consegu": 1273,
    "consider": 1274,
    "considered": 1275,
    "considering": 1276,
    "consistency": 1277,
    "consistent": 1278,
    "consistently": 1279,
    "conso": 1280,
    "consol": 1281,
    "console": 1282,
    "consoles": 1283,
    "consp": 1284,
    "conspira": 1285,
    "conspiracy": 1286,
    "const": 1287,
    "constant": 1288,
    "constantly": 1289,
    "cont": 1290,
    "conta": 1291,
    "contact": 1292,
    "contain": 1293,
    "content": 1294,
    "contest": 1295,
    "contin": 1296,
    "continu": 1297,
    "continuation": 1298,
    "continue": 1299,
    "continues": 1300,
    "contra": 1301,
    "contract": 1302,
    "contro": 1303,
    "control": 1304,
    "controller": 1305,
    "controversial": 1306,
    "conven": 1307,
    "convers": 1308,
    "conversation": 1309,
    "convin": 1310,
    "convinced": 1311,
    "convo": 1312,
    "cook": 1313,
    "cooked": 1314,
    "cooking": 1315,
    "cool": 1316,
    "coop": 1317,
    "cooper": 1318,
    "coordin": 1319,
    "coordinator": 1320,
    "cop": 1321,
    "cope": 1322,
    "copies": 1323,
    "cops": 1324,
    "copy": 1325,
    "cor": 1326,
    "core": 1327,
    "corinthians": 1328,
    "corner": 1329,
    "cornerback": 1330,
    "correct": 1331,
    "correctly": 1332,
    "corrup": 1333,
    "corrupt": 1334,
    "cos": 1335,
    "cost": 1336,
    "costs": 1337,
    "cot": 1338,
    "cott": 1339,
    "cou": 1340,
    "could": 1341,
    "couldn": 1342,
    "couldnt": 1343,
    "couldve": 1344,
    "coun": 1345,
    "count": 1346,
    "countdown": 1347,
    "counter": 1348,
    "counting": 1349,
    "country": 1350,
    "couple": 1351,
    "cour": 1352,
    "course": 1353,
    "cous": 1354,
    "cover": 1355,
    "coverage": 1356,
    "covered": 1357,
    "covid": 1358,
    "cow": 1359,
    "cowboy": 1360,
    "cowboys": 1361,
    "coz": 1362,
    "cr": 1363,
    "cra": 1364,
    "crack": 1365,
    "cracking": 1366,
    "craft": 1367,
    "cram": 1368,
    "cramling": 1369,
    "crap": 1370,
    "crash": 1371,
    "crat": 1372,
    "crazy": 1373,
    "crazyyy": 1374,
    "cre": 1375,
    "create": 1376,
    "created": 1377,
    "creating": 1378,
    "creator": 1379,
    "cred": 1380,
    "credit": 1381,
    "cri": 1382,
    "cried": 1383,
    "crime": 1384,
    "crimes": 1385,
    "crimin": 1386,
    "criminal": 1387,
    "cring": 1388,
    "cringe": 1389,
    "crit": 1390,
    "critical": 1391,
    "cro": 1392,
    "crook": 1393,
    "cross": 1394,
    "crossed": 1395,
    "crow": 1396,
    "crowd": 1397,
    "crs": 1398,
    "cru": 1399,
    "crucial": 1400,
    "crum": 1401,
    "crush": 1402,
    "crushed": 1403,
    "crushing": 1404,
    "cry": 1405,
    "crying": 1406,
    "crypto": 1407,
    "cs": 1408,
    "ct": 1409,
    "ctable": 1410,
    "cted": 1411,
    "cti": 1412,
    "ctic": 1413,
    "cting": 1414,
    "ction": 1415,
    "ctions": 1416,
    "ctive": 1417,
    "ctor": 1418,
    "cts": 1419,
    "cture": 1420,
    "cu": 1421,
    "cuando": 1422,
    "cuer": 1423,
    "cul": 1424,
    "cular": 1425,
    "cult": 1426,
    "cultural": 1427,
    "culture": 1428,
    "cum": 1429,
    "cup": 1430,
    "cur": 1431,
    "cura": 1432,
    "curious": 1433,
    "current": 1434,
    "currently": 1435,
    "curse": 1436,
    "cus": 1437,
    "cut": 1438,
    "cute": 1439,
    "cutscene": 1440,
    "cutscenes": 1441,
    "cuz": 1442,
    "cy": 1443,
    "cyber": 1444,
    "cyberpunk": 1445,
    "cycle": 1446,
    "cz": 1447,
    "d": 1448,
    "da": 1449,
    "daa": 1450,
    "daaam": 1451,
    "dad": 1452,
    "daddy": 1453,
    "dagger": 1454,
    "daily": 1455,
    "dak": 1456,
    "dall": 1457,
    "dallas": 1458,
    "dam": 1459,
    "dama": 1460,
    "damage": 1461,
    "damm": 1462,
    "damn": 1463,
    "damnnn": 1464,
    "dan": 1465,
    "dance": 1466,
    "dancing": 1467,
    "dang": 1468,
    "danger": 1469,
    "dans": 1470,
    "dar": 1471,
    "dare": 1472,
    "dark": 1473,
    "das": 1474,
    "dat": 1475,
    "date": 1476,
    "dating": 1477,
    "daugh": 1478,
    "daughter": 1479,
    "daw": 1480,
    "dawg": 1481,
    "dawgs": 1482,
    "day": 1483,
    "days": 1484,
    "dayum": 1485,
    "dc": 1486,
    "dd": 1487,
    "de": 1488,
    "dea": 1489,
    "dead": 1490,
    "deal": 1491,
    "deandre": 1492,
    "dear": 1493,
    "death": 1494,
    "deb": 1495,
    "debate": 1496,
    "dec": 1497,
    "decade": 1498,
    "decades": 1499,
    "dece": 1500,
    "december": 1501,
    "decent": 1502,
    "decide": 1503,
    "decided": 1504,
    "decis": 1505,
    "decisions": 1506,
    "decked": 1507,
    "ded": 1508,
    "dedic": 1509,
    "dee": 1510,
    "deep": 1511,
    "def": 1512,
    "defe": 1513,
    "defeat": 1514,
    "defeated": 1515,
    "defen": 1516,
    "defence": 1517,
    "defending": 1518,
    "defense": 1519,
    "defenses": 1520,
    "defensive": 1521,
    "defin": 1522,
    "definitely": 1523,
    "dei": 1524,
    "deix": 1525,
    "deje": 1526,
    "dejean": 1527,
    "del": 1528,
    "delay": 1529,
    "delayed": 1530,
    "delaying": 1531,
    "delays": 1532,
    "deli": 1533,
    "delight": 1534,
    "deliver": 1535,
    "delivered": 1536,
    "dell": 1537,
    "delphia": 1538,
    "dem": 1539,
    "demais": 1540,
    "demo": 1541,
    "demol": 1542,
    "demolished": 1543,
    "demon": 1544,
    "den": 1545,
    "denied": 1546,
    "denver": 1547,
    "dep": 1548,
    "depress": 1549,
    "der": 1550,
    "ders": 1551,
    "des": 1552,
    "descri": 1553,
    "describe": 1554,
    "deser": 1555,
    "deserve": 1556,
    "deserved": 1557,
    "deserves": 1558,
    "deserving": 1559,
    "design": 1560,
    "desp": 1561,
    "desper": 1562,
    "despite": 1563,
    "desse": 1564,
    "dest": 1565,
    "destroy": 1566,
    "destroyed": 1567,
    "destroying": 1568,
    "det": 1569,
    "detail": 1570,
    "detailed": 1571,
    "details": 1572,
    "dete": 1573,
    "determin": 1574,
    "detroit": 1575,
    "deus": 1576,
    "dev": 1577,
    "devast": 1578,
    "develo": 1579,
    "develop": 1580,
    "developed": 1581,
    "developers": 1582,
    "development": 1583,
    "devil": 1584,
    "devon": 1585,
    "devonta": 1586,
    "devonte": 1587,
    "devs": 1588,
    "di": 1589,
    "dia": 1590,
    "dial": 1591,
    "dialo": 1592,
    "dias": 1593,
    "dick": 1594,
    "did": 1595,
    "diddy": 1596,
    "didn": 1597,
    "didnt": 1598,
    "die": 1599,
    "died": 1600,
    "diehard": 1601,
    "dies": 1602,
    "dif": 1603,
    "differ": 1604,
    "difference": 1605,
    "different": 1606,
    "differently": 1607,
    "diffi": 1608,
    "difficult": 1609,
    "dig": 1610,
    "dim": 1611,
    "din": 1612,
    "ding": 1613,
    "dinner": 1614,
    "dio": 1615,
    "dios": 1616,
    "dire": 1617,
    "direct": 1618,
    "dirt": 1619,
    "dirty": 1620,
    "dis": 1621,
    "disagree": 1622,
    "disapp": 1623,
    "disappo": 1624,
    "disappoint": 1625,
    "disappointed": 1626,
    "disappointing": 1627,
    "disaster": 1628,
    "discus": 1629,
    "disfr": 1630,
    "disgrace": 1631,
    "disgust": 1632,
    "disgusting": 1633,
    "dislike": 1634,
    "disman": 1635,
    "dismantled": 1636,
    "disney": 1637,
    "display": 1638,
    "disrespect": 1639,
    "dist": 1640,
    "distra": 1641,
    "distract": 1642,
    "distracted": 1643,
    "distracting": 1644,
    "distraction": 1645,
    "dit": 1646,
    "dition": 1647,
    "dive": 1648,
    "division": 1649,
    "dj": 1650,
    "dl": 1651,
    "dle": 1652,
    "dline": 1653,
    "do": 1654,
    "does": 1655,
    "doesn": 1656,
    "doesnt": 1657,
    "dog": 1658,
    "dogs": 1659,
    "doing": 1660,
    "doll": 1661,
    "dollar": 1662,
    "dollars": 1663,
    "dolph": 1664,
    "dolphins": 1665,
    "dom": 1666,
    "domin": 1667,
    "dominance": 1668,
    "dominant": 1669,
    "dominate": 1670,
    "dominated": 1671,
    "dominating": 1672,
    "domination": 1673,
    "don": 1674,
    "done": 1675,
    "dono": 1676,
    "dont": 1677,
    "doo": 1678,
    "door": 1679,
    "dope": 1680,
    "dor": 1681,
    "dos": 1682,
    "dose": 1683,
    "dotson": 1684,
    "dou": 1685,
    "doub": 1686,
    "double": 1687,
    "doubt": 1688,
    "doubted": 1689,
    "doubters": 1690,
    "douche": 1691,
    "down": 1692,
    "downfall": 1693,
    "download": 1694,
    "downs": 1695,
    "dr": 1696,
    "dra": 1697,
    "draft": 1698,
    "drafted": 1699,
    "drake": 1700,
    "drama": 1701,
    "dre": 1702,
    "dream": 1703,
    "dreaming": 1704,
    "dress": 1705,
    "dri": 1706,
    "drink": 1707,
    "drinking": 1708,
    "drive": 1709,
    "driver": 1710,
    "driving": 1711,
    "dro": 1712,
    "drop": 1713,
    "dropped": 1714,
    "dropping": 1715,
    "drops": 1716,
    "drug": 1717,
    "drun": 1718,
    "drunk": 1719,
    "ds": 1720,
    "dt": 1721,
    "du": 1722,
    "dub": 1723,
    "dubl": 1724,
    "dubla": 1725,
    "dublado": 1726,
    "dublagem": 1727,
    "duck": 1728,
    "dude": 1729,
    "dudes": 1730,
    "due": 1731,
    "dum": 1732,
    "dumb": 1733,
    "dump": 1734,
    "dun": 1735,
    "duo": 1736,
    "dur": 1737,
    "during": 1738,
    "dust": 1739,
    "duval": 1740,
    "dy": 1741,
    "dying": 1742,
    "dyn": 1743,
    "dynam": 1744,
    "dynasty": 1745,
    "e": 1746,
    "ea": 1747,
    "eable": 1748,
    "each": 1749,
    "ead": 1750,
    "eager": 1751,
    "eagle": 1752,
    "eagles": 1753,
    "eaglesss": 1754,
    "eak": 1755,
    "eal": 1756,
    "ear": 1757,
    "earch": 1758,
    "eared": 1759,
    "earlier": 1760,
    "early": 1761,
    "earn": 1762,
    "earned": 1763,
    "ears": 1764,
    "earth": 1765,
    "eas": 1766,
    "easily": 1767,
    "east": 1768,
    "easter": 1769,
    "easy": 1770,
    "eat": 1771,
    "eating": 1772,
    "ec": 1773,
    "ech": 1774,
    "ect": 1775,
    "ed": 1776,
    "eder": 1777,
    "edge": 1778,
    "edi": 1779,
    "edit": 1780,
    "editing": 1781,
    "editor": 1782,
    "edu": 1783,
    "ee": 1784,
    "eee": 1785,
    "ef": 1786,
    "effe": 1787,
    "effici": 1788,
    "effort": 1789,
    "eful": 1790,
    "ega": 1791,
    "egg": 1792,
    "ego": 1793,
    "eh": 1794,
    "ei": 1795,
    "ein": 1796,
    "either": 1797,
    "ek": 1798,
    "el": 1799,
    "eld": 1800,
    "elder": 1801,
    "ele": 1802,
    "election": 1803,
    "eli": 1804,
    "elimin": 1805,
    "elite": 1806,
    "elli": 1807,
    "elliot": 1808,
    "elliott": 1809,
    "elo": 1810,
    "elon": 1811,
    "els": 1812,
    "else": 1813,
    "em": 1814,
    "embar": 1815,
    "embarrass": 1816,
    "embarrassed": 1817,
    "embarrassing": 1818,
    "embarrassment": 1819,
    "emo": 1820,
    "emotion": 1821,
    "emotional": 1822,
    "emp": 1823,
    "emplo": 1824,
    "employe": 1825,
    "empty": 1826,
    "en": 1827,
    "ena": 1828,
    "ence": 1829,
    "enced": 1830,
    "ences": 1831,
    "encia": 1832,
    "ency": 1833,
    "end": 1834,
    "enda": 1835,
    "ended": 1836,
    "ender": 1837,
    "endgame": 1838,
    "ending": 1839,
    "endo": 1840,
    "ends": 1841,
    "ene": 1842,
    "ened": 1843,
    "enen": 1844,
    "ener": 1845,
    "energy": 1846,
    "eness": 1847,
    "eng": 1848,
    "enga": 1849,
    "engaged": 1850,
    "engine": 1851,
    "england": 1852,
    "english": 1853,
    "eni": 1854,
    "ening": 1855,
    "enjoy": 1856,
    "enjoyable": 1857,
    "enjoyed": 1858,
    "enjoying": 1859,
    "enlightening": 1860,
    "eno": 1861,
    "enough": 1862,
    "ens": 1863,
    "ense": 1864,
    "ent": 1865,
    "ente": 1866,
    "enter": 1867,
    "entertain": 1868,
    "entertaining": 1869,
    "entertainment": 1870,
    "enti": 1871,
    "ential": 1872,
    "entire": 1873,
    "ento": 1874,
    "entre": 1875,
    "environ": 1876,
    "ep": 1877,
    "epic": 1878,
    "equ": 1879,
    "equal": 1880,
    "equally": 1881,
    "equi": 1882,
    "er": 1883,
    "era": 1884,
    "eral": 1885,
    "eras": 1886,
    "ere": 1887,
    "ered": 1888,
    "eres": 1889,
    "eri": 1890,
    "eric": 1891,
    "ering": 1892,
    "ero": 1893,
    "eron": 1894,
    "err": 1895,
    "ers": 1896,
    "ert": 1897,
    "ery": 1898,
    "es": 1899,
    "esa": 1900,
    "ese": 1901,
    "esh": 1902,
    "eso": 1903,
    "esome": 1904,
    "espa": 1905,
    "espaol": 1906,
    "espe": 1907,
    "especially": 1908,
    "esper": 1909,
    "espera": 1910,
    "esperando": 1911,
    "esperar": 1912,
    "espero": 1913,
    "espn": 1914,
    "ess": 1915,
    "essa": 1916,
    "esse": 1917,
    "est": 1918,
    "esta": 1919,
    "estar": 1920,
    "este": 1921,
    "esti": 1922,
    "estion": 1923,
    "estive": 1924,
    "esto": 1925,
    "estou": 1926,
    "estoy": 1927,
    "estu": 1928,
    "estuve": 1929,
    "et": 1930,
    "etc": 1931,
    "etern": 1932,
    "eternal": 1933,
    "eu": 1934,
    "euro": 1935,
    "europe": 1936,
    "european": 1937,
    "ev": 1938,
    "even": 1939,
    "event": 1940,
    "eventually": 1941,
    "ever": 1942,
    "every": 1943,
    "everybody": 1944,
    "everyday": 1945,
    "everyone": 1946,
    "everyones": 1947,
    "everything": 1948,
    "everytime": 1949,
    "everywhere": 1950,
    "evil": 1951,
    "ex": 1952,
    "exact": 1953,
    "exactly": 1954,
    "exam": 1955,
    "example": 1956,
    "exc": 1957,
    "exce": 1958,
    "excell": 1959,
    "excellent": 1960,
    "except": 1961,
    "exception": 1962,
    "excite": 1963,
    "excited": 1964,
    "excitement": 1965,
    "exciting": 1966,
    "exclu": 1967,
    "exclusi": 1968,
    "exclusiveness": 1969,
    "excuse": 1970,
    "excuses": 1971,
    "exe": 1972,
    "exer": 1973,
    "exhi": 1974,
    "exist": 1975,
    "exp": 1976,
    "expect": 1977,
    "expectations": 1978,
    "expected": 1979,
    "expecting": 1980,
    "exper": 1981,
    "experi": 1982,
    "experience": 1983,
    "expert": 1984,
    "explain": 1985,
    "explained": 1986,
    "explaining": 1987,
    "explanation": 1988,
    "explanations": 1989,
    "explo": 1990,
    "explode": 1991,
    "expo": 1992,
    "expos": 1993,
    "exposed": 1994,
    "exposic": 1995,
    "exposing": 1996,
    "express": 1997,
    "ext": 1998,
    "extend": 1999,
    "extra": 2000,
    "extre": 2001,
    "extreme": 2002,
    "extremely": 2003,
    "eye": 2004,
    "eyes": 2005,
    "ez": 2006,
    "f": 2007,
    "f2": 2008,
    "f3": 2009,
    "f6": 2010,
    "fa": 2011,
    "fab": 2012,
    "face": 2013,
    "faced": 2014,
    "facemask": 2015,
    "faces": 2016,
    "facing": 2017,
    "fact": 2018,
    "factor": 2019,
    "fail": 2020,
    "failed": 2021,
    "fair": 2022,
    "fairly": 2023,
    "faith": 2024,
    "fake": 2025,
    "fal": 2026,
    "falcons": 2027,
    "fall": 2028,
    "fallen": 2029,
    "falling": 2030,
    "falls": 2031,
    "false": 2032,
    "fam": 2033,
    "famili": 2034,
    "familiar": 2035,
    "family": 2036,
    "famous": 2037,
    "fan": 2038,
    "fanbase": 2039,
    "fangio": 2040,
    "fans": 2041,
    "fantas": 2042,
    "fantastic": 2043,
    "far": 2044,
    "farcry": 2045,
    "fare": 2046,
    "farm": 2047,
    "fas": 2048,
    "fascin": 2049,
    "fashion": 2050,
    "fast": 2051,
    "faster": 2052,
    "fat": 2053,
    "fate": 2054,
    "father": 2055,
    "fault": 2056,
    "fav": 2057,
    "favo": 2058,
    "favor": 2059,
    "favorable": 2060,
    "favored": 2061,
    "favorite": 2062,
    "favorites": 2063,
    "favour": 2064,
    "favourite": 2065,
    "faz": 2066,
    "fc": 2067,
    "fck": 2068,
    "fe": 2069,
    "fear": 2070,
    "feat": 2071,
    "feature": 2072,
    "fecha": 2073,
    "fect": 2074,
    "fed": 2075,
    "fee": 2076,
    "feed": 2077,
    "feel": 2078,
    "feeling": 2079,
    "feels": 2080,
    "feet": 2081,
    "felic": 2082,
    "fell": 2083,
    "fellas": 2084,
    "fellow": 2085,
    "felt": 2086,
    "female": 2087,
    "femin": 2088,
    "fen": 2089,
    "fer": 2090,
    "ference": 2091,
    "fest": 2092,
    "few": 2093,
    "ff": 2094,
    "ffe": 2095,
    "ffs": 2096,
    "fg": 2097,
    "fi": 2098,
    "fic": 2099,
    "fici": 2100,
    "fide": 2101,
    "fied": 2102,
    "field": 2103,
    "fif": 2104,
    "fight": 2105,
    "fighting": 2106,
    "figure": 2107,
    "figured": 2108,
    "fil": 2109,
    "fill": 2110,
    "film": 2111,
    "filme": 2112,
    "filmed": 2113,
    "fin": 2114,
    "final": 2115,
    "finally": 2116,
    "finals": 2117,
    "find": 2118,
    "finding": 2119,
    "fine": 2120,
    "fing": 2121,
    "finger": 2122,
    "fingers": 2123,
    "finish": 2124,
    "finished": 2125,
    "finna": 2126,
    "fir": 2127,
    "fire": 2128,
    "fired": 2129,
    "first": 2130,
    "fish": 2131,
    "fit": 2132,
    "five": 2133,
    "fix": 2134,
    "fixed": 2135,
    "fixing": 2136,
    "fl": 2137,
    "fla": 2138,
    "flag": 2139,
    "flags": 2140,
    "flash": 2141,
    "flat": 2142,
    "flaw": 2143,
    "fle": 2144,
    "fli": 2145,
    "flip": 2146,
    "flir": 2147,
    "flirt": 2148,
    "flirting": 2149,
    "flo": 2150,
    "floor": 2151,
    "flop": 2152,
    "flor": 2153,
    "florida": 2154,
    "flow": 2155,
    "flowers": 2156,
    "flu": 2157,
    "fly": 2158,
    "flying": 2159,
    "flyyy": 2160,
    "fm": 2161,
    "fo": 2162,
    "foc": 2163,
    "focus": 2164,
    "focused": 2165,
    "fol": 2166,
    "fold": 2167,
    "folded": 2168,
    "folks": 2169,
    "follow": 2170,
    "followed": 2171,
    "following": 2172,
    "foo": 2173,
    "food": 2174,
    "fool": 2175,
    "fools": 2176,
    "foot": 2177,
    "footage": 2178,
    "football": 2179,
    "for": 2180,
    "force": 2181,
    "forced": 2182,
    "forcing": 2183,
    "ford": 2184,
    "fore": 2185,
    "forever": 2186,
    "forget": 2187,
    "forgive": 2188,
    "forgiven": 2189,
    "forgot": 2190,
    "form": 2191,
    "format": 2192,
    "formation": 2193,
    "former": 2194,
    "formid": 2195,
    "formidable": 2196,
    "forms": 2197,
    "formula": 2198,
    "fort": 2199,
    "forth": 2200,
    "fortnite": 2201,
    "fortun": 2202,
    "fortunately": 2203,
    "forward": 2204,
    "fou": 2205,
    "found": 2206,
    "four": 2207,
    "fourth": 2208,
    "fox": 2209,
    "fps": 2210,
    "fr": 2211,
    "fra": 2212,
    "frame": 2213,
    "fran": 2214,
    "france": 2215,
    "franch": 2216,
    "franchise": 2217,
    "francis": 2218,
    "francisco": 2219,
    "frank": 2220,
    "franklin": 2221,
    "frau": 2222,
    "fraud": 2223,
    "frauds": 2224,
    "frea": 2225,
    "freaking": 2226,
    "free": 2227,
    "freedom": 2228,
    "frequ": 2229,
    "fresh": 2230,
    "fri": 2231,
    "frid": 2232,
    "fridge": 2233,
    "friend": 2234,
    "friendly": 2235,
    "friends": 2236,
    "frog": 2237,
    "from": 2238,
    "front": 2239,
    "frust": 2240,
    "fs": 2241,
    "ft": 2242,
    "fty": 2243,
    "fu": 2244,
    "fuck": 2245,
    "fue": 2246,
    "fuel": 2247,
    "ful": 2248,
    "full": 2249,
    "fully": 2250,
    "fum": 2251,
    "fumble": 2252,
    "fun": 2253,
    "funny": 2254,
    "fur": 2255,
    "furious": 2256,
    "further": 2257,
    "fut": 2258,
    "futher": 2259,
    "future": 2260,
    "fy": 2261,
    "fying": 2262,
    "g": 2263,
    "ga": 2264,
    "gad": 2265,
    "gains": 2266,
    "gal": 2267,
    "gals": 2268,
    "gam": 2269,
    "gambit": 2270,
    "gambling": 2271,
    "game": 2272,
    "gameplan": 2273,
    "gameplay": 2274,
    "gamer": 2275,
    "gamers": 2276,
    "games": 2277,
    "gaming": 2278,
    "gan": 2279,
    "gando": 2280,
    "gang": 2281,
    "gar": 2282,
    "garb": 2283,
    "garbage": 2284,
    "gas": 2285,
    "gave": 2286,
    "gay": 2287,
    "gb": 2288,
    "ge": 2289,
    "ged": 2290,
    "gee": 2291,
    "gel": 2292,
    "gem": 2293,
    "gen": 2294,
    "gency": 2295,
    "gender": 2296,
    "gener": 2297,
    "general": 2298,
    "generated": 2299,
    "generation": 2300,
    "generations": 2301,
    "generic": 2302,
    "geni": 2303,
    "genius": 2304,
    "gent": 2305,
    "gente": 2306,
    "gentle": 2307,
    "genu": 2308,
    "genuine": 2309,
    "genuinely": 2310,
    "geous": 2311,
    "ger": 2312,
    "german": 2313,
    "germany": 2314,
    "gers": 2315,
    "ges": 2316,
    "gest": 2317,
    "get": 2318,
    "gether": 2319,
    "gets": 2320,
    "getting": 2321,
    "gf": 2322,
    "gg": 2323,
    "gged": 2324,
    "gger": 2325,
    "ggers": 2326,
    "ggg": 2327,
    "gging": 2328,
    "ggle": 2329,
    "ggs": 2330,
    "gh": 2331,
    "ghost": 2332,
    "ght": 2333,
    "ghts": 2334,
    "gi": 2335,
    "gia": 2336,
    "giant": 2337,
    "giants": 2338,
    "gic": 2339,
    "gif": 2340,
    "gift": 2341,
    "gig": 2342,
    "giggling": 2343,
    "gin": 2344,
    "ging": 2345,
    "gio": 2346,
    "girl": 2347,
    "girlfri": 2348,
    "girlfriend": 2349,
    "girls": 2350,
    "give": 2351,
    "given": 2352,
    "gives": 2353,
    "giving": 2354,
    "gl": 2355,
    "gla": 2356,
    "glad": 2357,
    "glass": 2358,
    "glasses": 2359,
    "glazing": 2360,
    "gle": 2361,
    "gles": 2362,
    "gling": 2363,
    "glit": 2364,
    "glo": 2365,
    "global": 2366,
    "glor": 2367,
    "glorious": 2368,
    "gly": 2369,
    "gm": 2370,
    "gn": 2371,
    "gne": 2372,
    "go": 2373,
    "goal": 2374,
    "goals": 2375,
    "goat": 2376,
    "goated": 2377,
    "god": 2378,
    "gods": 2379,
    "goes": 2380,
    "going": 2381,
    "gold": 2382,
    "golden": 2383,
    "gon": 2384,
    "gona": 2385,
    "gone": 2386,
    "gonna": 2387,
    "goo": 2388,
    "good": 2389,
    "goodbye": 2390,
    "goodell": 2391,
    "goodness": 2392,
    "googling": 2393,
    "goon": 2394,
    "gooner": 2395,
    "gooners": 2396,
    "gooning": 2397,
    "gooo": 2398,
    "goose": 2399,
    "goosebumps": 2400,
    "gor": 2401,
    "gorgeous": 2402,
    "gorilla": 2403,
    "gos": 2404,
    "got": 2405,
    "gotta": 2406,
    "gotten": 2407,
    "goty": 2408,
    "gover": 2409,
    "govern": 2410,
    "gr": 2411,
    "gra": 2412,
    "grab": 2413,
    "grace": 2414,
    "grade": 2415,
    "gradu": 2416,
    "graduated": 2417,
    "grafi": 2418,
    "gram": 2419,
    "grand": 2420,
    "grande": 2421,
    "grandfather": 2422,
    "grandpa": 2423,
    "grandson": 2424,
    "grant": 2425,
    "graphi": 2426,
    "graphic": 2427,
    "graphics": 2428,
    "grass": 2429,
    "grat": 2430,
    "grateful": 2431,
    "gre": 2432,
    "great": 2433,
    "greatest": 2434,
    "greatness": 2435,
    "gree": 2436,
    "greed": 2437,
    "greedy": 2438,
    "green": 2439,
    "greetings": 2440,
    "gress": 2441,
    "gret": 2442,
    "grew": 2443,
    "grey": 2444,
    "grfi": 2445,
    "grficos": 2446,
    "gri": 2447,
    "gronk": 2448,
    "grou": 2449,
    "ground": 2450,
    "group": 2451,
    "grow": 2452,
    "growing": 2453,
    "grown": 2454,
    "gs": 2455,
    "gt": 2456,
    "gt6": 2457,
    "gta": 2458,
    "gta5": 2459,
    "gta6": 2460,
    "gta7": 2461,
    "gtav": 2462,
    "gtavi": 2463,
    "gu": 2464,
    "gua": 2465,
    "guar": 2466,
    "guaranteed": 2467,
    "guard": 2468,
    "gue": 2469,
    "gues": 2470,
    "guess": 2471,
    "guessing": 2472,
    "gular": 2473,
    "gun": 2474,
    "gunna": 2475,
    "guns": 2476,
    "gur": 2477,
    "gus": 2478,
    "gust": 2479,
    "gut": 2480,
    "guy": 2481,
    "guys": 2482,
    "gy": 2483,
    "gyat": 2484,
    "gyatt": 2485,
    "gym": 2486,
    "h": 2487,
    "ha": 2488,
    "hacer": 2489,
    "had": 2490,
    "hadn": 2491,
    "haha": 2492,
    "hahah": 2493,
    "hahaha": 2494,
    "hahahah": 2495,
    "hahahaha": 2496,
    "hahahahah": 2497,
    "hahahahaha": 2498,
    "hahahahahaha": 2499,
    "hai": 2500,
    "hail": 2501,
    "hair": 2502,
    "haiti": 2503,
    "haitian": 2504,
    "hal": 2505,
    "half": 2506,
    "halftime": 2507,
    "halfway": 2508,
    "hall": 2509,
    "ham": 2510,
    "hamed": 2511,
    "hammer": 2512,
    "han": 2513,
    "hand": 2514,
    "handed": 2515,
    "handle": 2516,
    "handled": 2517,
    "hands": 2518,
    "handsome": 2519,
    "hang": 2520,
    "hanging": 2521,
    "happ": 2522,
    "happen": 2523,
    "happened": 2524,
    "happening": 2525,
    "happens": 2526,
    "happier": 2527,
    "happiness": 2528,
    "happy": 2529,
    "har": 2530,
    "hard": 2531,
    "harder": 2532,
    "hardly": 2533,
    "has": 2534,
    "hasn": 2535,
    "hasnt": 2536,
    "hasta": 2537,
    "hat": 2538,
    "hate": 2539,
    "hated": 2540,
    "hater": 2541,
    "haters": 2542,
    "hates": 2543,
    "hati": 2544,
    "hating": 2545,
    "hats": 2546,
    "have": 2547,
    "haven": 2548,
    "havent": 2549,
    "having": 2550,
    "haw": 2551,
    "hay": 2552,
    "hd": 2553,
    "he": 2554,
    "hea": 2555,
    "head": 2556,
    "heads": 2557,
    "heal": 2558,
    "healing": 2559,
    "health": 2560,
    "healthy": 2561,
    "hear": 2562,
    "heard": 2563,
    "hearing": 2564,
    "heart": 2565,
    "hearts": 2566,
    "heaven": 2567,
    "heavy": 2568,
    "heck": 2569,
    "hehe": 2570,
    "heist": 2571,
    "hel": 2572,
    "held": 2573,
    "hell": 2574,
    "hello": 2575,
    "helmet": 2576,
    "help": 2577,
    "helped": 2578,
    "helpful": 2579,
    "helping": 2580,
    "helps": 2581,
    "hen": 2582,
    "her": 2583,
    "herbert": 2584,
    "here": 2585,
    "hero": 2586,
    "hes": 2587,
    "hey": 2588,
    "hh": 2589,
    "hhh": 2590,
    "hi": 2591,
    "hide": 2592,
    "high": 2593,
    "higher": 2594,
    "highest": 2595,
    "highlight": 2596,
    "highlights": 2597,
    "highly": 2598,
    "hiii": 2599,
    "hil": 2600,
    "hilar": 2601,
    "hilarious": 2602,
    "hill": 2603,
    "him": 2604,
    "himself": 2605,
    "hind": 2606,
    "hip": 2607,
    "hips": 2608,
    "his": 2609,
    "histori": 2610,
    "historia": 2611,
    "historic": 2612,
    "historical": 2613,
    "history": 2614,
    "histri": 2615,
    "histria": 2616,
    "hit": 2617,
    "hits": 2618,
    "hitting": 2619,
    "hmm": 2620,
    "hmmm": 2621,
    "ho": 2622,
    "hol": 2623,
    "hola": 2624,
    "hold": 2625,
    "holding": 2626,
    "holds": 2627,
    "hole": 2628,
    "holes": 2629,
    "holi": 2630,
    "holiday": 2631,
    "holly": 2632,
    "hollywood": 2633,
    "holy": 2634,
    "hom": 2635,
    "home": 2636,
    "homes": 2637,
    "homework": 2638,
    "homie": 2639,
    "hon": 2640,
    "honest": 2641,
    "honestly": 2642,
    "honor": 2643,
    "hoo": 2644,
    "hood": 2645,
    "hook": 2646,
    "hooked": 2647,
    "hop": 2648,
    "hope": 2649,
    "hopefully": 2650,
    "hoping": 2651,
    "hopkins": 2652,
    "hor": 2653,
    "horrible": 2654,
    "hot": 2655,
    "hour": 2656,
    "hours": 2657,
    "hous": 2658,
    "house": 2659,
    "how": 2660,
    "however": 2661,
    "howie": 2662,
    "ht": 2663,
    "hu": 2664,
    "huge": 2665,
    "huh": 2666,
    "hum": 2667,
    "human": 2668,
    "humanity": 2669,
    "humans": 2670,
    "humble": 2671,
    "humbled": 2672,
    "humili": 2673,
    "humiliate": 2674,
    "humiliated": 2675,
    "hun": 2676,
    "hund": 2677,
    "hung": 2678,
    "hungry": 2679,
    "hunt": 2680,
    "hur": 2681,
    "hurry": 2682,
    "hurt": 2683,
    "hurts": 2684,
    "hust": 2685,
    "hustler": 2686,
    "hy": 2687,
    "hype": 2688,
    "hyped": 2689,
    "i": 2690,
    "ia": 2691,
    "iam": 2692,
    "ian": 2693,
    "ible": 2694,
    "ic": 2695,
    "ical": 2696,
    "ically": 2697,
    "ice": 2698,
    "ick": 2699,
    "icon": 2700,
    "iconic": 2701,
    "ics": 2702,
    "id": 2703,
    "ida": 2704,
    "idad": 2705,
    "idc": 2706,
    "ide": 2707,
    "idea": 2708,
    "ided": 2709,
    "idence": 2710,
    "ident": 2711,
    "ideo": 2712,
    "ideology": 2713,
    "ider": 2714,
    "ides": 2715,
    "idi": 2716,
    "iding": 2717,
    "idio": 2718,
    "idiots": 2719,
    "idk": 2720,
    "ido": 2721,
    "idy": 2722,
    "ie": 2723,
    "ied": 2724,
    "iel": 2725,
    "ield": 2726,
    "ier": 2727,
    "ies": 2728,
    "iest": 2729,
    "iet": 2730,
    "iety": 2731,
    "if": 2732,
    "iff": 2733,
    "ifi": 2734,
    "ific": 2735,
    "ified": 2736,
    "iful": 2737,
    "ig": 2738,
    "igh": 2739,
    "ight": 2740,
    "ign": 2741,
    "igned": 2742,
    "igno": 2743,
    "ignor": 2744,
    "ignore": 2745,
    "igra": 2746,
    "igu": 2747,
    "ii": 2748,
    "iii": 2749,
    "ik": 2750,
    "il": 2751,
    "ilar": 2752,
    "ild": 2753,
    "ile": 2754,
    "iled": 2755,
    "iles": 2756,
    "ili": 2757,
    "iling": 2758,
    "ility": 2759,
    "ill": 2760,
    "ille": 2761,
    "illegal": 2762,
    "illion": 2763,
    "ills": 2764,
    "illy": 2765,
    "ily": 2766,
    "im": 2767,
    "ima": 2768,
    "imag": 2769,
    "imagin": 2770,
    "imagine": 2771,
    "imma": 2772,
    "immediately": 2773,
    "immer": 2774,
    "imo": 2775,
    "imp": 2776,
    "impact": 2777,
    "import": 2778,
    "important": 2779,
    "impossible": 2780,
    "impress": 2781,
    "impressed": 2782,
    "impression": 2783,
    "impressive": 2784,
    "improve": 2785,
    "in": 2786,
    "ina": 2787,
    "inal": 2788,
    "inals": 2789,
    "inc": 2790,
    "inclu": 2791,
    "include": 2792,
    "including": 2793,
    "incoming": 2794,
    "incre": 2795,
    "incredi": 2796,
    "incredible": 2797,
    "incredibly": 2798,
    "incrvel": 2799,
    "ind": 2800,
    "inde": 2801,
    "indeed": 2802,
    "indi": 2803,
    "india": 2804,
    "indian": 2805,
    "indic": 2806,
    "indo": 2807,
    "indust": 2808,
    "industry": 2809,
    "ine": 2810,
    "ined": 2811,
    "ines": 2812,
    "iness": 2813,
    "inevit": 2814,
    "inevitable": 2815,
    "influ": 2816,
    "informative": 2817,
    "ing": 2818,
    "inga": 2819,
    "ingame": 2820,
    "ings": 2821,
    "ini": 2822,
    "ining": 2823,
    "initi": 2824,
    "inju": 2825,
    "injured": 2826,
    "injury": 2827,
    "ink": 2828,
    "ino": 2829,
    "inos": 2830,
    "ins": 2831,
    "insan": 2832,
    "insane": 2833,
    "insanely": 2834,
    "insi": 2835,
    "inside": 2836,
    "insights": 2837,
    "insp": 2838,
    "inspir": 2839,
    "inspiration": 2840,
    "inspired": 2841,
    "inspiring": 2842,
    "inspiringkeep": 2843,
    "inst": 2844,
    "insta": 2845,
    "install": 2846,
    "instant": 2847,
    "instead": 2848,
    "int": 2849,
    "inte": 2850,
    "intell": 2851,
    "intellig": 2852,
    "intelligent": 2853,
    "inten": 2854,
    "intended": 2855,
    "intense": 2856,
    "intention": 2857,
    "inter": 2858,
    "interaction": 2859,
    "interactions": 2860,
    "interce": 2861,
    "intercepted": 2862,
    "interception": 2863,
    "interceptions": 2864,
    "interest": 2865,
    "interested": 2866,
    "interesting": 2867,
    "interference": 2868,
    "internet": 2869,
    "inti": 2870,
    "intimid": 2871,
    "intimidated": 2872,
    "inting": 2873,
    "into": 2874,
    "intro": 2875,
    "introdu": 2876,
    "ints": 2877,
    "inv": 2878,
    "inves": 2879,
    "invest": 2880,
    "invested": 2881,
    "investi": 2882,
    "investig": 2883,
    "investing": 2884,
    "investment": 2885,
    "invol": 2886,
    "involved": 2887,
    "io": 2888,
    "ion": 2889,
    "ional": 2890,
    "iones": 2891,
    "ions": 2892,
    "ior": 2893,
    "ious": 2894,
    "ir": 2895,
    "ira": 2896,
    "iran": 2897,
    "ire": 2898,
    "ired": 2899,
    "ires": 2900,
    "irl": 2901,
    "iro": 2902,
    "iron": 2903,
    "irr": 2904,
    "irrit": 2905,
    "is": 2906,
    "ise": 2907,
    "ised": 2908,
    "ish": 2909,
    "ished": 2910,
    "ishing": 2911,
    "ishow": 2912,
    "ishowspeed": 2913,
    "isi": 2914,
    "ising": 2915,
    "island": 2916,
    "ism": 2917,
    "isn": 2918,
    "isnt": 2919,
    "ison": 2920,
    "iss": 2921,
    "isso": 2922,
    "issu": 2923,
    "issue": 2924,
    "ist": 2925,
    "istas": 2926,
    "istic": 2927,
    "ists": 2928,
    "it": 2929,
    "ita": 2930,
    "ital": 2931,
    "ite": 2932,
    "ited": 2933,
    "itely": 2934,
    "ites": 2935,
    "ith": 2936,
    "iti": 2937,
    "ities": 2938,
    "iting": 2939,
    "ition": 2940,
    "itions": 2941,
    "itive": 2942,
    "itll": 2943,
    "ito": 2944,
    "its": 2945,
    "itself": 2946,
    "ity": 2947,
    "iv": 2948,
    "ive": 2949,
    "iz": 2950,
    "ize": 2951,
    "ized": 2952,
    "izing": 2953,
    "j": 2954,
    "ja": 2955,
    "jack": 2956,
    "jackson": 2957,
    "jah": 2958,
    "jail": 2959,
    "jaja": 2960,
    "jake": 2961,
    "jal": 2962,
    "jalen": 2963,
    "jam": 2964,
    "james": 2965,
    "jan": 2966,
    "jar": 2967,
    "jas": 2968,
    "jason": 2969,
    "jasons": 2970,
    "jay": 2971,
    "je": 2972,
    "jer": 2973,
    "jersey": 2974,
    "jes": 2975,
    "jesus": 2976,
    "jet": 2977,
    "jets": 2978,
    "ji": 2979,
    "jig": 2980,
    "jiggle": 2981,
    "jim": 2982,
    "jin": 2983,
    "jinx": 2984,
    "jo": 2985,
    "job": 2986,
    "jobs": 2987,
    "joe": 2988,
    "jogar": 2989,
    "jogo": 2990,
    "joh": 2991,
    "john": 2992,
    "johnny": 2993,
    "join": 2994,
    "jok": 2995,
    "joke": 2996,
    "jokes": 2997,
    "jon": 2998,
    "jones": 2999,
    "jor": 3000,
    "jordan": 3001,
    "josh": 3002,
    "jou": 3003,
    "jour": 3004,
    "journey": 3005,
    "joy": 3006,
    "js": 3007,
    "ju": 3008,
    "jud": 3009,
    "judge": 3010,
    "juego": 3011,
    "jugar": 3012,
    "jugarlo": 3013,
    "jump": 3014,
    "jumping": 3015,
    "jun": 3016,
    "june": 3017,
    "junk": 3018,
    "jus": 3019,
    "just": 3020,
    "justice": 3021,
    "k": 3022,
    "ka": 3023,
    "kal": 3024,
    "kans": 3025,
    "kansas": 3026,
    "kar": 3027,
    "kare": 3028,
    "karma": 3029,
    "kas": 3030,
    "kc": 3031,
    "kcs": 3032,
    "ke": 3033,
    "ked": 3034,
    "kee": 3035,
    "keep": 3036,
    "keeping": 3037,
    "keeps": 3038,
    "kel": 3039,
    "kelce": 3040,
    "kell": 3041,
    "kellen": 3042,
    "kelsey": 3043,
    "ken": 3044,
    "kend": 3045,
    "kendrick": 3046,
    "kenny": 3047,
    "kept": 3048,
    "ker": 3049,
    "kermit": 3050,
    "kers": 3051,
    "kes": 3052,
    "ket": 3053,
    "kets": 3054,
    "kevin": 3055,
    "key": 3056,
    "kg": 3057,
    "kh": 3058,
    "khat": 3059,
    "ki": 3060,
    "kick": 3061,
    "kicked": 3062,
    "kicker": 3063,
    "kicking": 3064,
    "kid": 3065,
    "kidding": 3066,
    "kids": 3067,
    "kie": 3068,
    "kill": 3069,
    "killed": 3070,
    "killer": 3071,
    "killers": 3072,
    "kim": 3073,
    "kin": 3074,
    "kind": 3075,
    "kinda": 3076,
    "king": 3077,
    "kingdom": 3078,
    "kings": 3079,
    "kins": 3080,
    "kish": 3081,
    "kiss": 3082,
    "kit": 3083,
    "kk": 3084,
    "kkk": 3085,
    "kley": 3086,
    "kne": 3087,
    "knew": 3088,
    "knight": 3089,
    "kno": 3090,
    "knock": 3091,
    "know": 3092,
    "knowing": 3093,
    "knowledge": 3094,
    "known": 3095,
    "knows": 3096,
    "ko": 3097,
    "kobe": 3098,
    "kom": 3099,
    "kompa": 3100,
    "kon": 3101,
    "kor": 3102,
    "kr": 3103,
    "ks": 3104,
    "kt": 3105,
    "ku": 3106,
    "kudos": 3107,
    "ky": 3108,
    "l": 3109,
    "la": 3110,
    "lack": 3111,
    "lad": 3112,
    "ladies": 3113,
    "lady": 3114,
    "laid": 3115,
    "lam": 3116,
    "lamar": 3117,
    "lame": 3118,
    "lan": 3119,
    "land": 3120,
    "landed": 3121,
    "langu": 3122,
    "language": 3123,
    "lap": 3124,
    "laptop": 3125,
    "lar": 3126,
    "las": 3127,
    "lash": 3128,
    "last": 3129,
    "lat": 3130,
    "late": 3131,
    "later": 3132,
    "latina": 3133,
    "laugh": 3134,
    "laughed": 3135,
    "laughing": 3136,
    "laughs": 3137,
    "launch": 3138,
    "launched": 3139,
    "law": 3140,
    "lax": 3141,
    "lay": 3142,
    "ld": 3143,
    "le": 3144,
    "lea": 3145,
    "lead": 3146,
    "leader": 3147,
    "leading": 3148,
    "league": 3149,
    "leak": 3150,
    "leaks": 3151,
    "lear": 3152,
    "learn": 3153,
    "learned": 3154,
    "learning": 3155,
    "least": 3156,
    "leave": 3157,
    "leaving": 3158,
    "lebron": 3159,
    "led": 3160,
    "ledge": 3161,
    "left": 3162,
    "leg": 3163,
    "lega": 3164,
    "legacy": 3165,
    "legen": 3166,
    "legend": 3167,
    "legendary": 3168,
    "legit": 3169,
    "legs": 3170,
    "lem": 3171,
    "len": 3172,
    "leon": 3173,
    "ler": 3174,
    "les": 3175,
    "less": 3176,
    "lesson": 3177,
    "lester": 3178,
    "let": 3179,
    "lete": 3180,
    "lets": 3181,
    "letting": 3182,
    "level": 3183,
    "levels": 3184,
    "levy": 3185,
    "ley": 3186,
    "lf": 3187,
    "lfg": 3188,
    "li": 3189,
    "lian": 3190,
    "liber": 3191,
    "liberty": 3192,
    "lic": 3193,
    "lice": 3194,
    "lick": 3195,
    "lie": 3196,
    "lied": 3197,
    "lier": 3198,
    "lies": 3199,
    "lif": 3200,
    "life": 3201,
    "lifelong": 3202,
    "lifes": 3203,
    "lifetime": 3204,
    "lifting": 3205,
    "light": 3206,
    "lights": 3207,
    "lik": 3208,
    "like": 3209,
    "liked": 3210,
    "likely": 3211,
    "likes": 3212,
    "lil": 3213,
    "lim": 3214,
    "lin": 3215,
    "line": 3216,
    "lineback": 3217,
    "lineman": 3218,
    "linemen": 3219,
    "lines": 3220,
    "ling": 3221,
    "link": 3222,
    "lio": 3223,
    "lions": 3224,
    "lis": 3225,
    "list": 3226,
    "listen": 3227,
    "listening": 3228,
    "lit": 3229,
    "liter": 3230,
    "literal": 3231,
    "literally": 3232,
    "little": 3233,
    "live": 3234,
    "lived": 3235,
    "lives": 3236,
    "living": 3237,
    "lix": 3238,
    "lju": 3239,
    "ll": 3240,
    "lla": 3241,
    "llar": 3242,
    "lle": 3243,
    "lled": 3244,
    "lli": 3245,
    "lling": 3246,
    "lll": 3247,
    "llo": 3248,
    "llow": 3249,
    "lly": 3250,
    "lm": 3251,
    "lma": 3252,
    "lmao": 3253,
    "lmfa": 3254,
    "lmfao": 3255,
    "lo": 3256,
    "load": 3257,
    "loc": 3258,
    "local": 3259,
    "lock": 3260,
    "locked": 3261,
    "log": 3262,
    "logic": 3263,
    "logical": 3264,
    "logo": 3265,
    "logy": 3266,
    "lol": 3267,
    "lolo": 3268,
    "lom": 3269,
    "lombardi": 3270,
    "lon": 3271,
    "london": 3272,
    "long": 3273,
    "longer": 3274,
    "longest": 3275,
    "loo": 3276,
    "look": 3277,
    "looked": 3278,
    "looking": 3279,
    "looks": 3280,
    "looo": 3281,
    "loos": 3282,
    "loose": 3283,
    "loosing": 3284,
    "lop": 3285,
    "lor": 3286,
    "lord": 3287,
    "los": 3288,
    "lose": 3289,
    "loser": 3290,
    "losers": 3291,
    "loses": 3292,
    "losing": 3293,
    "loss": 3294,
    "losses": 3295,
    "lost": 3296,
    "lot": 3297,
    "lots": 3298,
    "lou": 3299,
    "love": 3300,
    "loved": 3301,
    "lovely": 3302,
    "loves": 3303,
    "loving": 3304,
    "low": 3305,
    "lower": 3306,
    "lowkey": 3307,
    "ls": 3308,
    "lt": 3309,
    "lu": 3310,
    "lucia": 3311,
    "luck": 3312,
    "lucky": 3313,
    "lution": 3314,
    "lv": 3315,
    "ly": 3316,
    "lying": 3317,
    "m": 3318,
    "ma": 3319,
    "mac": 3320,
    "mach": 3321,
    "machine": 3322,
    "mad": 3323,
    "madden": 3324,
    "made": 3325,
    "mag": 3326,
    "mage": 3327,
    "magic": 3328,
    "magn": 3329,
    "mah": 3330,
    "maholmes": 3331,
    "mahom": 3332,
    "mahome": 3333,
    "mahomes": 3334,
    "mahommes": 3335,
    "mahomo": 3336,
    "mahones": 3337,
    "mai": 3338,
    "mail": 3339,
    "mailata": 3340,
    "main": 3341,
    "mais": 3342,
    "major": 3343,
    "majority": 3344,
    "make": 3345,
    "maker": 3346,
    "makers": 3347,
    "makes": 3348,
    "making": 3349,
    "mal": 3350,
    "male": 3351,
    "man": 3352,
    "mana": 3353,
    "manhandled": 3354,
    "mani": 3355,
    "manipul": 3356,
    "mankind": 3357,
    "manning": 3358,
    "mano": 3359,
    "mans": 3360,
    "mansplain": 3361,
    "mansplaining": 3362,
    "many": 3363,
    "map": 3364,
    "mar": 3365,
    "mara": 3366,
    "marcando": 3367,
    "march": 3368,
    "mare": 3369,
    "mark": 3370,
    "marke": 3371,
    "market": 3372,
    "marketing": 3373,
    "married": 3374,
    "marry": 3375,
    "mart": 3376,
    "mary": 3377,
    "mas": 3378,
    "mask": 3379,
    "massa": 3380,
    "massacre": 3381,
    "massive": 3382,
    "master": 3383,
    "masterclass": 3384,
    "masterpiece": 3385,
    "mat": 3386,
    "match": 3387,
    "matched": 3388,
    "matches": 3389,
    "matchup": 3390,
    "mate": 3391,
    "mated": 3392,
    "mates": 3393,
    "matter": 3394,
    "matters": 3395,
    "max": 3396,
    "may": 3397,
    "maybe": 3398,
    "mayo": 3399,
    "mber": 3400,
    "mc": 3401,
    "mcdu": 3402,
    "mcduff": 3403,
    "mch": 3404,
    "me": 3405,
    "mean": 3406,
    "meaning": 3407,
    "means": 3408,
    "meant": 3409,
    "meanwhile": 3410,
    "mechan": 3411,
    "mechanics": 3412,
    "med": 3413,
    "medi": 3414,
    "media": 3415,
    "medicine": 3416,
    "medio": 3417,
    "mediocre": 3418,
    "mee": 3419,
    "meet": 3420,
    "meh": 3421,
    "mejor": 3422,
    "mel": 3423,
    "melhor": 3424,
    "mell": 3425,
    "melo": 3426,
    "mem": 3427,
    "meme": 3428,
    "memor": 3429,
    "memories": 3430,
    "memory": 3431,
    "men": 3432,
    "menos": 3433,
    "ment": 3434,
    "mental": 3435,
    "mentally": 3436,
    "mente": 3437,
    "mention": 3438,
    "mentioned": 3439,
    "ments": 3440,
    "mer": 3441,
    "mera": 3442,
    "mercy": 3443,
    "mere": 3444,
    "mes": 3445,
    "mess": 3446,
    "message": 3447,
    "messed": 3448,
    "met": 3449,
    "mete": 3450,
    "meu": 3451,
    "mexi": 3452,
    "mf": 3453,
    "mi": 3454,
    "miami": 3455,
    "mic": 3456,
    "mich": 3457,
    "micha": 3458,
    "michael": 3459,
    "michaels": 3460,
    "micheal": 3461,
    "micheals": 3462,
    "micro": 3463,
    "mid": 3464,
    "middle": 3465,
    "midnight": 3466,
    "mie": 3467,
    "might": 3468,
    "mike": 3469,
    "mil": 3470,
    "milhes": 3471,
    "mili": 3472,
    "milion": 3473,
    "mill": 3474,
    "million": 3475,
    "millions": 3476,
    "millones": 3477,
    "min": 3478,
    "mind": 3479,
    "minds": 3480,
    "mine": 3481,
    "ming": 3482,
    "minha": 3483,
    "mini": 3484,
    "minim": 3485,
    "minimum": 3486,
    "minist": 3487,
    "mins": 3488,
    "minu": 3489,
    "minute": 3490,
    "minutes": 3491,
    "minuto": 3492,
    "mio": 3493,
    "mir": 3494,
    "mira": 3495,
    "mis": 3496,
    "mismo": 3497,
    "misogy": 3498,
    "miss": 3499,
    "missed": 3500,
    "missing": 3501,
    "mission": 3502,
    "missions": 3503,
    "mist": 3504,
    "mistake": 3505,
    "mistakes": 3506,
    "mit": 3507,
    "mix": 3508,
    "mk": 3509,
    "ml": 3510,
    "mm": 3511,
    "mmm": 3512,
    "mo": 3513,
    "mobile": 3514,
    "mode": 3515,
    "model": 3516,
    "modelo": 3517,
    "moder": 3518,
    "modern": 3519,
    "molly": 3520,
    "mom": 3521,
    "moment": 3522,
    "momento": 3523,
    "moments": 3524,
    "momentum": 3525,
    "mon": 3526,
    "money": 3527,
    "monster": 3528,
    "montan": 3529,
    "montana": 3530,
    "month": 3531,
    "months": 3532,
    "moon": 3533,
    "moore": 3534,
    "mor": 3535,
    "moral": 3536,
    "more": 3537,
    "morgan": 3538,
    "morning": 3539,
    "mos": 3540,
    "most": 3541,
    "mostly": 3542,
    "mother": 3543,
    "motion": 3544,
    "motiv": 3545,
    "mou": 3546,
    "mouth": 3547,
    "move": 3548,
    "moved": 3549,
    "movement": 3550,
    "moves": 3551,
    "movie": 3552,
    "movies": 3553,
    "moving": 3554,
    "mr": 3555,
    "ms": 3556,
    "mu": 3557,
    "much": 3558,
    "mucho": 3559,
    "muito": 3560,
    "multi": 3561,
    "multiple": 3562,
    "mum": 3563,
    "mun": 3564,
    "mundo": 3565,
    "mur": 3566,
    "mus": 3567,
    "muscle": 3568,
    "muscles": 3569,
    "music": 3570,
    "musk": 3571,
    "must": 3572,
    "muy": 3573,
    "mv": 3574,
    "mvp": 3575,
    "mvps": 3576,
    "my": 3577,
    "myself": 3578,
    "n": 3579,
    "na": 3580,
    "nab": 3581,
    "nada": 3582,
    "nah": 3583,
    "nail": 3584,
    "nam": 3585,
    "name": 3586,
    "named": 3587,
    "names": 3588,
    "nar": 3589,
    "narciss": 3590,
    "narrat": 3591,
    "narrative": 3592,
    "nas": 3593,
    "nasty": 3594,
    "nat": 3595,
    "nation": 3596,
    "national": 3597,
    "native": 3598,
    "natur": 3599,
    "natural": 3600,
    "nature": 3601,
    "nay": 3602,
    "nba": 3603,
    "nc": 3604,
    "ncia": 3605,
    "nd": 3606,
    "ne": 3607,
    "near": 3608,
    "nearly": 3609,
    "neces": 3610,
    "necess": 3611,
    "necessary": 3612,
    "neck": 3613,
    "ned": 3614,
    "need": 3615,
    "needed": 3616,
    "needs": 3617,
    "neg": 3618,
    "negative": 3619,
    "nei": 3620,
    "neigh": 3621,
    "neighbor": 3622,
    "neither": 3623,
    "nel": 3624,
    "ner": 3625,
    "ners": 3626,
    "nervous": 3627,
    "nes": 3628,
    "ness": 3629,
    "nesse": 3630,
    "net": 3631,
    "netflix": 3632,
    "neut": 3633,
    "neutral": 3634,
    "never": 3635,
    "new": 3636,
    "news": 3637,
    "next": 3638,
    "ney": 3639,
    "nfc": 3640,
    "nfl": 3641,
    "ng": 3642,
    "ngl": 3643,
    "ni": 3644,
    "nia": 3645,
    "nic": 3646,
    "nice": 3647,
    "nicely": 3648,
    "nick": 3649,
    "nico": 3650,
    "nie": 3651,
    "night": 3652,
    "nightmare": 3653,
    "niko": 3654,
    "nin": 3655,
    "nine": 3656,
    "niners": 3657,
    "ning": 3658,
    "nite": 3659,
    "nn": 3660,
    "no": 3661,
    "nobody": 3662,
    "nolo": 3663,
    "non": 3664,
    "none": 3665,
    "nonsense": 3666,
    "noo": 3667,
    "noob": 3668,
    "nooo": 3669,
    "nope": 3670,
    "nor": 3671,
    "normal": 3672,
    "normally": 3673,
    "nos": 3674,
    "nose": 3675,
    "nost": 3676,
    "nostal": 3677,
    "nosti": 3678,
    "not": 3679,
    "note": 3680,
    "nothing": 3681,
    "noti": 3682,
    "notic": 3683,
    "notice": 3684,
    "noticed": 3685,
    "nou": 3686,
    "nous": 3687,
    "now": 3688,
    "nowadays": 3689,
    "nowhere": 3690,
    "npc": 3691,
    "ns": 3692,
    "nt": 3693,
    "nu": 3694,
    "nuclear": 3695,
    "nue": 3696,
    "num": 3697,
    "numb": 3698,
    "number": 3699,
    "numbers": 3700,
    "nun": 3701,
    "nunca": 3702,
    "nut": 3703,
    "nuts": 3704,
    "ny": 3705,
    "o": 3706,
    "ob": 3707,
    "obje": 3708,
    "objecti": 3709,
    "objective": 3710,
    "objetivo": 3711,
    "obli": 3712,
    "obliter": 3713,
    "obra": 3714,
    "obser": 3715,
    "obvious": 3716,
    "obviously": 3717,
    "oc": 3718,
    "occur": 3719,
    "och": 3720,
    "octo": 3721,
    "october": 3722,
    "od": 3723,
    "odd": 3724,
    "odds": 3725,
    "ode": 3726,
    "of": 3727,
    "off": 3728,
    "offen": 3729,
    "offence": 3730,
    "offense": 3731,
    "offensive": 3732,
    "offi": 3733,
    "office": 3734,
    "officer": 3735,
    "offici": 3736,
    "official": 3737,
    "officially": 3738,
    "officials": 3739,
    "officiating": 3740,
    "offs": 3741,
    "offseason": 3742,
    "oft": 3743,
    "often": 3744,
    "og": 3745,
    "oh": 3746,
    "ohh": 3747,
    "ohhh": 3748,
    "ohio": 3749,
    "ok": 3750,
    "okay": 3751,
    "oko": 3752,
    "ol": 3753,
    "ola": 3754,
    "old": 3755,
    "older": 3756,
    "ole": 3757,
    "oline": 3758,
    "olmes": 3759,
    "olo": 3760,
    "om": 3761,
    "ome": 3762,
    "omen": 3763,
    "omg": 3764,
    "oms": 3765,
    "on": 3766,
    "once": 3767,
    "one": 3768,
    "oned": 3769,
    "onent": 3770,
    "ones": 3771,
    "oney": 3772,
    "ong": 3773,
    "onk": 3774,
    "online": 3775,
    "only": 3776,
    "ons": 3777,
    "ont": 3778,
    "onto": 3779,
    "oo": 3780,
    "ooo": 3781,
    "op": 3782,
    "open": 3783,
    "opened": 3784,
    "opening": 3785,
    "oper": 3786,
    "opi": 3787,
    "opin": 3788,
    "opinion": 3789,
    "opp": 3790,
    "opponent": 3791,
    "opponents": 3792,
    "opport": 3793,
    "opportunity": 3794,
    "oppos": 3795,
    "opposite": 3796,
    "oppress": 3797,
    "option": 3798,
    "options": 3799,
    "or": 3800,
    "ora": 3801,
    "orange": 3802,
    "order": 3803,
    "ordin": 3804,
    "ore": 3805,
    "organ": 3806,
    "organiz": 3807,
    "organization": 3808,
    "orig": 3809,
    "original": 3810,
    "orle": 3811,
    "orleans": 3812,
    "ors": 3813,
    "ort": 3814,
    "orts": 3815,
    "ory": 3816,
    "os": 3817,
    "osed": 3818,
    "oso": 3819,
    "ost": 3820,
    "ot": 3821,
    "ote": 3822,
    "oth": 3823,
    "other": 3824,
    "others": 3825,
    "otherwise": 3826,
    "ou": 3827,
    "ouch": 3828,
    "oud": 3829,
    "ough": 3830,
    "ought": 3831,
    "ould": 3832,
    "oun": 3833,
    "ounce": 3834,
    "ound": 3835,
    "ounds": 3836,
    "ount": 3837,
    "our": 3838,
    "ous": 3839,
    "ouse": 3840,
    "ously": 3841,
    "ousy": 3842,
    "out": 3843,
    "outcome": 3844,
    "outfit": 3845,
    "outplayed": 3846,
    "outs": 3847,
    "outside": 3848,
    "outstanding": 3849,
    "outta": 3850,
    "over": 3851,
    "overall": 3852,
    "overconfidence": 3853,
    "overconfident": 3854,
    "overly": 3855,
    "overrated": 3856,
    "ow": 3857,
    "owed": 3858,
    "own": 3859,
    "owned": 3860,
    "owner": 3861,
    "owners": 3862,
    "oy": 3863,
    "oyun": 3864,
    "p": 3865,
    "pa": 3866,
    "pack": 3867,
    "packers": 3868,
    "pad": 3869,
    "padding": 3870,
    "page": 3871,
    "paid": 3872,
    "pain": 3873,
    "pair": 3874,
    "pak": 3875,
    "pakist": 3876,
    "pakistan": 3877,
    "pal": 3878,
    "palest": 3879,
    "pan": 3880,
    "panam": 3881,
    "panic": 3882,
    "panthers": 3883,
    "pants": 3884,
    "par": 3885,
    "para": 3886,
    "parade": 3887,
    "pare": 3888,
    "parece": 3889,
    "parents": 3890,
    "park": 3891,
    "part": 3892,
    "parte": 3893,
    "parti": 3894,
    "partic": 3895,
    "partici": 3896,
    "particular": 3897,
    "particularly": 3898,
    "parts": 3899,
    "party": 3900,
    "pas": 3901,
    "pass": 3902,
    "passe": 3903,
    "passed": 3904,
    "passer": 3905,
    "passes": 3906,
    "passing": 3907,
    "passion": 3908,
    "past": 3909,
    "pat": 3910,
    "pathetic": 3911,
    "pathy": 3912,
    "pati": 3913,
    "patient": 3914,
    "patri": 3915,
    "patrick": 3916,
    "patriots": 3917,
    "pats": 3918,
    "patty": 3919,
    "paul": 3920,
    "pause": 3921,
    "pawn": 3922,
    "pawns": 3923,
    "pay": 3924,
    "paying": 3925,
    "pc": 3926,
    "pcion": 3927,
    "pcs": 3928,
    "pe": 3929,
    "pea": 3930,
    "peace": 3931,
    "peak": 3932,
    "peat": 3933,
    "pect": 3934,
    "pects": 3935,
    "ped": 3936,
    "pel": 3937,
    "pen": 3938,
    "penal": 3939,
    "penalties": 3940,
    "penalty": 3941,
    "peo": 3942,
    "people": 3943,
    "per": 3944,
    "percent": 3945,
    "perfe": 3946,
    "perfect": 3947,
    "perfection": 3948,
    "perfectly": 3949,
    "perfor": 3950,
    "perform": 3951,
    "performance": 3952,
    "performances": 3953,
    "performed": 3954,
    "perhaps": 3955,
    "peri": 3956,
    "period": 3957,
    "pero": 3958,
    "pers": 3959,
    "persi": 3960,
    "persian": 3961,
    "person": 3962,
    "personal": 3963,
    "personality": 3964,
    "personally": 3965,
    "perspective": 3966,
    "pes": 3967,
    "pet": 3968,
    "ph": 3969,
    "phe": 3970,
    "phenomen": 3971,
    "phenomenal": 3972,
    "phi": 3973,
    "phia": 3974,
    "phil": 3975,
    "phila": 3976,
    "philadelphia": 3977,
    "phili": 3978,
    "philipp": 3979,
    "phill": 3980,
    "philly": 3981,
    "phon": 3982,
    "phone": 3983,
    "phy": 3984,
    "physic": 3985,
    "physical": 3986,
    "physically": 3987,
    "physics": 3988,
    "pi": 3989,
    "pic": 3990,
    "pical": 3991,
    "pick": 3992,
    "picked": 3993,
    "picket": 3994,
    "pickett": 3995,
    "picking": 3996,
    "picks": 3997,
    "picture": 3998,
    "pie": 3999,
    "piece": 4000,
    "pieces": 4001,
    "pin": 4002,
    "ping": 4003,
    "pint": 4004,
    "piss": 4005,
    "pissed": 4006,
    "pit": 4007,
    "pittsburgh": 4008,
    "pity": 4009,
    "pix": 4010,
    "pl": 4011,
    "pla": 4012,
    "plac": 4013,
    "place": 4014,
    "placed": 4015,
    "places": 4016,
    "plain": 4017,
    "plaining": 4018,
    "plan": 4019,
    "plane": 4020,
    "planet": 4021,
    "planning": 4022,
    "plans": 4023,
    "plat": 4024,
    "play": 4025,
    "playable": 4026,
    "played": 4027,
    "player": 4028,
    "players": 4029,
    "playing": 4030,
    "playlist": 4031,
    "playoff": 4032,
    "playoffs": 4033,
    "plays": 4034,
    "playstation": 4035,
    "ple": 4036,
    "pleas": 4037,
    "pleasant": 4038,
    "please": 4039,
    "plenty": 4040,
    "ples": 4041,
    "pless": 4042,
    "plo": 4043,
    "plot": 4044,
    "pls": 4045,
    "plss": 4046,
    "plus": 4047,
    "ply": 4048,
    "plz": 4049,
    "pm": 4050,
    "pn": 4051,
    "po": 4052,
    "pocket": 4053,
    "poder": 4054,
    "point": 4055,
    "pointer": 4056,
    "points": 4057,
    "pois": 4058,
    "pok": 4059,
    "pol": 4060,
    "police": 4061,
    "polit": 4062,
    "polite": 4063,
    "pon": 4064,
    "pons": 4065,
    "pool": 4066,
    "poor": 4067,
    "poorly": 4068,
    "pop": 4069,
    "pope": 4070,
    "popped": 4071,
    "popul": 4072,
    "popular": 4073,
    "por": 4074,
    "porn": 4075,
    "porno": 4076,
    "porque": 4077,
    "port": 4078,
    "portu": 4079,
    "portugus": 4080,
    "pos": 4081,
    "pose": 4082,
    "position": 4083,
    "positional": 4084,
    "positive": 4085,
    "possession": 4086,
    "possi": 4087,
    "possibil": 4088,
    "possible": 4089,
    "possibly": 4090,
    "post": 4091,
    "posting": 4092,
    "postpon": 4093,
    "postpone": 4094,
    "postseason": 4095,
    "pot": 4096,
    "poten": 4097,
    "potential": 4098,
    "pour": 4099,
    "pov": 4100,
    "pow": 4101,
    "power": 4102,
    "powerful": 4103,
    "pp": 4104,
    "ppable": 4105,
    "pped": 4106,
    "pping": 4107,
    "ppl": 4108,
    "ppy": 4109,
    "pr": 4110,
    "pra": 4111,
    "practic": 4112,
    "practice": 4113,
    "pray": 4114,
    "pre": 4115,
    "precis": 4116,
    "predi": 4117,
    "predictable": 4118,
    "predicted": 4119,
    "prediction": 4120,
    "prefer": 4121,
    "pregn": 4122,
    "pregnant": 4123,
    "pregun": 4124,
    "premi": 4125,
    "preorder": 4126,
    "prepar": 4127,
    "prepare": 4128,
    "prepared": 4129,
    "preparing": 4130,
    "pres": 4131,
    "presale": 4132,
    "presena": 4133,
    "presence": 4134,
    "present": 4135,
    "president": 4136,
    "press": 4137,
    "pressure": 4138,
    "pressured": 4139,
    "pret": 4140,
    "pretend": 4141,
    "pretty": 4142,
    "prevent": 4143,
    "previous": 4144,
    "pri": 4145,
    "price": 4146,
    "pride": 4147,
    "prime": 4148,
    "prin": 4149,
    "princi": 4150,
    "print": 4151,
    "prior": 4152,
    "pris": 4153,
    "prise": 4154,
    "prison": 4155,
    "privi": 4156,
    "prize": 4157,
    "pro": 4158,
    "prob": 4159,
    "probably": 4160,
    "proble": 4161,
    "problem": 4162,
    "process": 4163,
    "produ": 4164,
    "product": 4165,
    "production": 4166,
    "prof": 4167,
    "profess": 4168,
    "professional": 4169,
    "profit": 4170,
    "progress": 4171,
    "proje": 4172,
    "prom": 4173,
    "promise": 4174,
    "pron": 4175,
    "proof": 4176,
    "proper": 4177,
    "properly": 4178,
    "property": 4179,
    "propos": 4180,
    "props": 4181,
    "protagon": 4182,
    "protagonist": 4183,
    "protagonists": 4184,
    "prote": 4185,
    "protect": 4186,
    "protected": 4187,
    "protecting": 4188,
    "protection": 4189,
    "proud": 4190,
    "prove": 4191,
    "proved": 4192,
    "proves": 4193,
    "ps": 4194,
    "ps2": 4195,
    "ps4": 4196,
    "ps5": 4197,
    "ps6": 4198,
    "psy": 4199,
    "psycho": 4200,
    "pt": 4201,
    "pted": 4202,
    "pting": 4203,
    "ption": 4204,
    "pto": 4205,
    "pts": 4206,
    "pu": 4207,
    "pub": 4208,
    "public": 4209,
    "pued": 4210,
    "puede": 4211,
    "puedo": 4212,
    "pul": 4213,
    "pull": 4214,
    "pulled": 4215,
    "pulling": 4216,
    "pun": 4217,
    "punch": 4218,
    "punk": 4219,
    "pur": 4220,
    "purchase": 4221,
    "purdy": 4222,
    "pure": 4223,
    "purple": 4224,
    "purpose": 4225,
    "push": 4226,
    "pushed": 4227,
    "pushing": 4228,
    "put": 4229,
    "puts": 4230,
    "putting": 4231,
    "q": 4232,
    "qb": 4233,
    "qbs": 4234,
    "qtr": 4235,
    "qu": 4236,
    "quality": 4237,
    "quando": 4238,
    "quant": 4239,
    "quar": 4240,
    "quarter": 4241,
    "quarterback": 4242,
    "quarterbacks": 4243,
    "quarters": 4244,
    "que": 4245,
    "quee": 4246,
    "queefs": 4247,
    "queen": 4248,
    "queens": 4249,
    "quem": 4250,
    "quest": 4251,
    "question": 4252,
    "questionable": 4253,
    "qui": 4254,
    "quick": 4255,
    "quickly": 4256,
    "quiero": 4257,
    "quiet": 4258,
    "quit": 4259,
    "quite": 4260,
    "quote": 4261,
    "qx": 4262,
    "r": 4263,
    "ra": 4264,
    "rac": 4265,
    "race": 4266,
    "racism": 4267,
    "racist": 4268,
    "rad": 4269,
    "radbrad": 4270,
    "radio": 4271,
    "rage": 4272,
    "raid": 4273,
    "raider": 4274,
    "raiders": 4275,
    "rain": 4276,
    "raise": 4277,
    "ral": 4278,
    "ram": 4279,
    "rams": 4280,
    "ran": 4281,
    "rand": 4282,
    "random": 4283,
    "randomly": 4284,
    "rank": 4285,
    "rap": 4286,
    "rare": 4287,
    "rass": 4288,
    "rat": 4289,
    "rate": 4290,
    "rated": 4291,
    "rather": 4292,
    "rating": 4293,
    "ratings": 4294,
    "ration": 4295,
    "ravens": 4296,
    "ray": 4297,
    "raz": 4298,
    "rb": 4299,
    "rckstar": 4300,
    "rckstargames": 4301,
    "rd": 4302,
    "re": 4303,
    "rea": 4304,
    "reach": 4305,
    "reached": 4306,
    "react": 4307,
    "reaction": 4308,
    "reactions": 4309,
    "read": 4310,
    "reading": 4311,
    "ready": 4312,
    "reak": 4313,
    "real": 4314,
    "reale": 4315,
    "realease": 4316,
    "realis": 4317,
    "realise": 4318,
    "realised": 4319,
    "realism": 4320,
    "realista": 4321,
    "realistic": 4322,
    "reality": 4323,
    "realiz": 4324,
    "realize": 4325,
    "realized": 4326,
    "really": 4327,
    "ream": 4328,
    "reason": 4329,
    "reasons": 4330,
    "rec": 4331,
    "recei": 4332,
    "received": 4333,
    "receiver": 4334,
    "receivers": 4335,
    "recent": 4336,
    "reci": 4337,
    "reck": 4338,
    "reckon": 4339,
    "reco": 4340,
    "recogn": 4341,
    "recogni": 4342,
    "recognition": 4343,
    "recomm": 4344,
    "recommend": 4345,
    "recommended": 4346,
    "recor": 4347,
    "record": 4348,
    "recorded": 4349,
    "records": 4350,
    "recover": 4351,
    "rect": 4352,
    "red": 4353,
    "redemption": 4354,
    "reds": 4355,
    "redskins": 4356,
    "ree": 4357,
    "reed": 4358,
    "reel": 4359,
    "ref": 4360,
    "refer": 4361,
    "refere": 4362,
    "referee": 4363,
    "referees": 4364,
    "reference": 4365,
    "reffs": 4366,
    "refle": 4367,
    "refresh": 4368,
    "refreshing": 4369,
    "refs": 4370,
    "refused": 4371,
    "regar": 4372,
    "regard": 4373,
    "regardless": 4374,
    "regret": 4375,
    "regular": 4376,
    "reid": 4377,
    "reign": 4378,
    "rel": 4379,
    "relat": 4380,
    "relations": 4381,
    "relationship": 4382,
    "relative": 4383,
    "relax": 4384,
    "rele": 4385,
    "release": 4386,
    "released": 4387,
    "releases": 4388,
    "releasing": 4389,
    "relie": 4390,
    "remain": 4391,
    "remake": 4392,
    "remaster": 4393,
    "rematch": 4394,
    "remem": 4395,
    "remember": 4396,
    "remembered": 4397,
    "remin": 4398,
    "remind": 4399,
    "reminded": 4400,
    "reminder": 4401,
    "reminds": 4402,
    "remove": 4403,
    "ren": 4404,
    "rench": 4405,
    "render": 4406,
    "renounce": 4407,
    "rent": 4408,
    "rep": 4409,
    "repeat": 4410,
    "repeating": 4411,
    "replace": 4412,
    "replay": 4413,
    "replayed": 4414,
    "reply": 4415,
    "represent": 4416,
    "requ": 4417,
    "request": 4418,
    "requi": 4419,
    "require": 4420,
    "requirements": 4421,
    "rer": 4422,
    "res": 4423,
    "reser": 4424,
    "respect": 4425,
    "respon": 4426,
    "responsi": 4427,
    "ress": 4428,
    "rest": 4429,
    "resto": 4430,
    "restored": 4431,
    "result": 4432,
    "reti": 4433,
    "retire": 4434,
    "retired": 4435,
    "retirement": 4436,
    "return": 4437,
    "reveal": 4438,
    "revenge": 4439,
    "revenue": 4440,
    "rewatch": 4441,
    "rewatched": 4442,
    "rewatching": 4443,
    "rework": 4444,
    "rhy": 4445,
    "ri": 4446,
    "ric": 4447,
    "rica": 4448,
    "rich": 4449,
    "rick": 4450,
    "rid": 4451,
    "ride": 4452,
    "ridic": 4453,
    "ridicul": 4454,
    "ridiculous": 4455,
    "riding": 4456,
    "ried": 4457,
    "ries": 4458,
    "rig": 4459,
    "rigg": 4460,
    "rigged": 4461,
    "rigging": 4462,
    "right": 4463,
    "rights": 4464,
    "ring": 4465,
    "rings": 4466,
    "rio": 4467,
    "riots": 4468,
    "rious": 4469,
    "rip": 4470,
    "ris": 4471,
    "rise": 4472,
    "rival": 4473,
    "rn": 4474,
    "ro": 4475,
    "road": 4476,
    "rob": 4477,
    "robbed": 4478,
    "rock": 4479,
    "rocksore": 4480,
    "rockstar": 4481,
    "rockstargames": 4482,
    "rockstargamescrs": 4483,
    "rockstars": 4484,
    "rockstoned": 4485,
    "rocky": 4486,
    "rod": 4487,
    "rodgers": 4488,
    "rog": 4489,
    "roger": 4490,
    "roid": 4491,
    "rok": 4492,
    "role": 4493,
    "roll": 4494,
    "rolled": 4495,
    "roller": 4496,
    "rolling": 4497,
    "rom": 4498,
    "roman": 4499,
    "romance": 4500,
    "romantic": 4501,
    "ron": 4502,
    "roo": 4503,
    "roof": 4504,
    "rook": 4505,
    "rookie": 4506,
    "room": 4507,
    "roos": 4508,
    "root": 4509,
    "rooted": 4510,
    "rooting": 4511,
    "ror": 4512,
    "ros": 4513,
    "rose": 4514,
    "roseman": 4515,
    "ross": 4516,
    "roster": 4517,
    "rough": 4518,
    "roughing": 4519,
    "round": 4520,
    "rout": 4521,
    "route": 4522,
    "row": 4523,
    "roy": 4524,
    "rp": 4525,
    "rr": 4526,
    "rs": 4527,
    "rt": 4528,
    "rtx": 4529,
    "ru": 4530,
    "rub": 4531,
    "ruction": 4532,
    "rude": 4533,
    "rug": 4534,
    "rugby": 4535,
    "ruin": 4536,
    "ruined": 4537,
    "ruining": 4538,
    "rul": 4539,
    "rule": 4540,
    "rules": 4541,
    "rum": 4542,
    "run": 4543,
    "running": 4544,
    "runs": 4545,
    "rup": 4546,
    "rus": 4547,
    "rush": 4548,
    "rushing": 4549,
    "russi": 4550,
    "russia": 4551,
    "rx": 4552,
    "ry": 4553,
    "ryan": 4554,
    "s": 4555,
    "sa": 4556,
    "sab": 4557,
    "sabe": 4558,
    "sac": 4559,
    "sack": 4560,
    "sacked": 4561,
    "sacking": 4562,
    "sacks": 4563,
    "sacrifi": 4564,
    "sacrifice": 4565,
    "sad": 4566,
    "safe": 4567,
    "said": 4568,
    "saints": 4569,
    "sak": 4570,
    "sakta": 4571,
    "sal": 4572,
    "sales": 4573,
    "salga": 4574,
    "salute": 4575,
    "sam": 4576,
    "same": 4577,
    "san": 4578,
    "sand": 4579,
    "santa": 4580,
    "santos": 4581,
    "saqu": 4582,
    "saquan": 4583,
    "saquon": 4584,
    "sat": 4585,
    "satan": 4586,
    "satis": 4587,
    "satisfied": 4588,
    "satisfying": 4589,
    "sau": 4590,
    "save": 4591,
    "saved": 4592,
    "saving": 4593,
    "saw": 4594,
    "say": 4595,
    "saying": 4596,
    "says": 4597,
    "sb": 4598,
    "sbs": 4599,
    "sc": 4600,
    "scam": 4601,
    "scan": 4602,
    "scar": 4603,
    "scared": 4604,
    "scary": 4605,
    "scen": 4606,
    "scene": 4607,
    "scenes": 4608,
    "sch": 4609,
    "sche": 4610,
    "schoo": 4611,
    "school": 4612,
    "sci": 4613,
    "sco": 4614,
    "scor": 4615,
    "score": 4616,
    "scoreboard": 4617,
    "scorebug": 4618,
    "scored": 4619,
    "scores": 4620,
    "scoring": 4621,
    "scott": 4622,
    "scr": 4623,
    "scram": 4624,
    "scrambling": 4625,
    "scre": 4626,
    "scream": 4627,
    "screen": 4628,
    "screw": 4629,
    "screwed": 4630,
    "scri": 4631,
    "scrimmage": 4632,
    "script": 4633,
    "scripted": 4634,
    "scroll": 4635,
    "scrolls": 4636,
    "se": 4637,
    "sea": 4638,
    "seahaw": 4639,
    "seahawks": 4640,
    "seal": 4641,
    "season": 4642,
    "seasons": 4643,
    "seat": 4644,
    "seats": 4645,
    "seattle": 4646,
    "sec": 4647,
    "secon": 4648,
    "second": 4649,
    "secondary": 4650,
    "seconds": 4651,
    "secre": 4652,
    "section": 4653,
    "secu": 4654,
    "secure": 4655,
    "sed": 4656,
    "see": 4657,
    "seeing": 4658,
    "seem": 4659,
    "seemed": 4660,
    "seems": 4661,
    "seen": 4662,
    "sees": 4663,
    "segu": 4664,
    "seja": 4665,
    "sel": 4666,
    "self": 4667,
    "sell": 4668,
    "selling": 4669,
    "selves": 4670,
    "sem": 4671,
    "semi": 4672,
    "semifinal": 4673,
    "semifinals": 4674,
    "sen": 4675,
    "send": 4676,
    "sending": 4677,
    "sense": 4678,
    "sent": 4679,
    "separ": 4680,
    "september": 4681,
    "sequ": 4682,
    "sequence": 4683,
    "ser": 4684,
    "seri": 4685,
    "series": 4686,
    "serious": 4687,
    "seriously": 4688,
    "served": 4689,
    "service": 4690,
    "ses": 4691,
    "sess": 4692,
    "session": 4693,
    "set": 4694,
    "sets": 4695,
    "setting": 4696,
    "setup": 4697,
    "seven": 4698,
    "sever": 4699,
    "several": 4700,
    "sex": 4701,
    "sexual": 4702,
    "sexy": 4703,
    "sey": 4704,
    "sh": 4705,
    "sha": 4706,
    "shad": 4707,
    "shadow": 4708,
    "shake": 4709,
    "shaked": 4710,
    "shaking": 4711,
    "shall": 4712,
    "shame": 4713,
    "shar": 4714,
    "share": 4715,
    "shared": 4716,
    "sharing": 4717,
    "sharp": 4718,
    "shat": 4719,
    "she": 4720,
    "shed": 4721,
    "sheesh": 4722,
    "shell": 4723,
    "shes": 4724,
    "shi": 4725,
    "shine": 4726,
    "ship": 4727,
    "shirt": 4728,
    "shirts": 4729,
    "shit": 4730,
    "shitty": 4731,
    "sho": 4732,
    "shock": 4733,
    "shocked": 4734,
    "shocking": 4735,
    "shoe": 4736,
    "shoo": 4737,
    "shook": 4738,
    "shoot": 4739,
    "shooting": 4740,
    "shop": 4741,
    "short": 4742,
    "shot": 4743,
    "shots": 4744,
    "should": 4745,
    "shouldn": 4746,
    "shouldnt": 4747,
    "shouldve": 4748,
    "shout": 4749,
    "shovel": 4750,
    "show": 4751,
    "showed": 4752,
    "showing": 4753,
    "shown": 4754,
    "shows": 4755,
    "shuffle": 4756,
    "shut": 4757,
    "shutting": 4758,
    "si": 4759,
    "sic": 4760,
    "sick": 4761,
    "sics": 4762,
    "side": 4763,
    "sided": 4764,
    "sidelines": 4765,
    "sides": 4766,
    "sie": 4767,
    "sig": 4768,
    "sight": 4769,
    "sign": 4770,
    "signifi": 4771,
    "sil": 4772,
    "silence": 4773,
    "silent": 4774,
    "silly": 4775,
    "sim": 4776,
    "similar": 4777,
    "simple": 4778,
    "simplesmente": 4779,
    "simply": 4780,
    "sims": 4781,
    "simul": 4782,
    "simulator": 4783,
    "sin": 4784,
    "since": 4785,
    "sincere": 4786,
    "sincerely": 4787,
    "sing": 4788,
    "singing": 4789,
    "single": 4790,
    "sink": 4791,
    "sins": 4792,
    "sion": 4793,
    "sip": 4794,
    "sir": 4795,
    "siri": 4796,
    "siriani": 4797,
    "sirianni": 4798,
    "sis": 4799,
    "sister": 4800,
    "sisters": 4801,
    "sit": 4802,
    "sitting": 4803,
    "situ": 4804,
    "situation": 4805,
    "sive": 4806,
    "six": 4807,
    "size": 4808,
    "sk": 4809,
    "ski": 4810,
    "skill": 4811,
    "skills": 4812,
    "skin": 4813,
    "skip": 4814,
    "sky": 4815,
    "sl": 4816,
    "sla": 4817,
    "slaugh": 4818,
    "slaughtered": 4819,
    "slay": 4820,
    "sle": 4821,
    "sleep": 4822,
    "sleeping": 4823,
    "sli": 4824,
    "slide": 4825,
    "slight": 4826,
    "slightly": 4827,
    "slo": 4828,
    "slow": 4829,
    "sm": 4830,
    "sma": 4831,
    "smack": 4832,
    "smacked": 4833,
    "small": 4834,
    "smart": 4835,
    "smash": 4836,
    "smashed": 4837,
    "smell": 4838,
    "smh": 4839,
    "smi": 4840,
    "smile": 4841,
    "smiles": 4842,
    "smiley": 4843,
    "smiling": 4844,
    "smith": 4845,
    "smitten": 4846,
    "smitty": 4847,
    "smo": 4848,
    "smoked": 4849,
    "smooth": 4850,
    "smug": 4851,
    "sn": 4852,
    "sna": 4853,
    "snap": 4854,
    "snapper": 4855,
    "snow": 4856,
    "so": 4857,
    "sobre": 4858,
    "sobrevi": 4859,
    "sobrevivir": 4860,
    "soc": 4861,
    "soccer": 4862,
    "social": 4863,
    "soft": 4864,
    "sol": 4865,
    "sold": 4866,
    "soli": 4867,
    "solid": 4868,
    "solo": 4869,
    "som": 4870,
    "some": 4871,
    "somebody": 4872,
    "somehow": 4873,
    "someone": 4874,
    "something": 4875,
    "sometime": 4876,
    "sometimes": 4877,
    "somewhat": 4878,
    "somewhere": 4879,
    "son": 4880,
    "song": 4881,
    "songs": 4882,
    "sons": 4883,
    "soo": 4884,
    "soon": 4885,
    "sooner": 4886,
    "sooo": 4887,
    "sor": 4888,
    "sore": 4889,
    "sorry": 4890,
    "sort": 4891,
    "sou": 4892,
    "soul": 4893,
    "sound": 4894,
    "sounds": 4895,
    "soundtrack": 4896,
    "south": 4897,
    "soy": 4898,
    "sp": 4899,
    "spa": 4900,
    "spaa": 4901,
    "space": 4902,
    "span": 4903,
    "spanish": 4904,
    "spanked": 4905,
    "spanking": 4906,
    "spe": 4907,
    "spea": 4908,
    "speak": 4909,
    "speaking": 4910,
    "spec": 4911,
    "special": 4912,
    "specif": 4913,
    "specific": 4914,
    "specta": 4915,
    "speech": 4916,
    "speed": 4917,
    "spend": 4918,
    "spending": 4919,
    "spent": 4920,
    "sper": 4921,
    "spi": 4922,
    "spill": 4923,
    "spir": 4924,
    "spirit": 4925,
    "spl": 4926,
    "spo": 4927,
    "spoil": 4928,
    "spoiled": 4929,
    "spoiler": 4930,
    "sport": 4931,
    "sports": 4932,
    "sportsman": 4933,
    "spot": 4934,
    "spotify": 4935,
    "spotted": 4936,
    "spr": 4937,
    "squ": 4938,
    "squad": 4939,
    "square": 4940,
    "ss": 4941,
    "st": 4942,
    "sta": 4943,
    "stacked": 4944,
    "stadium": 4945,
    "staff": 4946,
    "stage": 4947,
    "staged": 4948,
    "stain": 4949,
    "stand": 4950,
    "standing": 4951,
    "star": 4952,
    "stars": 4953,
    "start": 4954,
    "started": 4955,
    "starters": 4956,
    "starting": 4957,
    "starts": 4958,
    "stat": 4959,
    "state": 4960,
    "statement": 4961,
    "states": 4962,
    "station": 4963,
    "stations": 4964,
    "stats": 4965,
    "status": 4966,
    "stay": 4967,
    "stayed": 4968,
    "staying": 4969,
    "ste": 4970,
    "stea": 4971,
    "steak": 4972,
    "steal": 4973,
    "stealth": 4974,
    "steam": 4975,
    "steel": 4976,
    "steelers": 4977,
    "stellar": 4978,
    "step": 4979,
    "stephen": 4980,
    "stepped": 4981,
    "steps": 4982,
    "ster": 4983,
    "sters": 4984,
    "steve": 4985,
    "stick": 4986,
    "still": 4987,
    "stink": 4988,
    "sto": 4989,
    "stole": 4990,
    "stolen": 4991,
    "stom": 4992,
    "stomped": 4993,
    "ston": 4994,
    "stood": 4995,
    "stop": 4996,
    "stopped": 4997,
    "stopping": 4998,
    "stops": 4999,
    "store": 5000,
    "stores": 5001,
    "stories": 5002,
    "story": 5003,
    "storyline": 5004,
    "str": 5005,
    "stra": 5006,
    "straight": 5007,
    "strange": 5008,
    "strate": 5009,
    "strategi": 5010,
    "strategic": 5011,
    "strategies": 5012,
    "strategy": 5013,
    "stre": 5014,
    "streak": 5015,
    "stream": 5016,
    "street": 5017,
    "streets": 5018,
    "strength": 5019,
    "stress": 5020,
    "stretch": 5021,
    "stri": 5022,
    "strickland": 5023,
    "strikes": 5024,
    "string": 5025,
    "strip": 5026,
    "strong": 5027,
    "stronger": 5028,
    "stru": 5029,
    "strug": 5030,
    "struggle": 5031,
    "stu": 5032,
    "stuck": 5033,
    "stud": 5034,
    "studio": 5035,
    "stuff": 5036,
    "stun": 5037,
    "stunning": 5038,
    "stup": 5039,
    "stupid": 5040,
    "sty": 5041,
    "style": 5042,
    "su": 5043,
    "sub": 5044,
    "subscri": 5045,
    "subscribe": 5046,
    "subscribed": 5047,
    "subscriber": 5048,
    "subscribers": 5049,
    "suc": 5050,
    "success": 5051,
    "such": 5052,
    "suck": 5053,
    "sucked": 5054,
    "sudden": 5055,
    "suddenly": 5056,
    "suf": 5057,
    "suffer": 5058,
    "sugg": 5059,
    "suggest": 5060,
    "suggestion": 5061,
    "sum": 5062,
    "summer": 5063,
    "sun": 5064,
    "sunday": 5065,
    "super": 5066,
    "superb": 5067,
    "superbowl": 5068,
    "superbowls": 5069,
    "superior": 5070,
    "superiority": 5071,
    "supp": 5072,
    "suppo": 5073,
    "suppor": 5074,
    "support": 5075,
    "supporting": 5076,
    "suppose": 5077,
    "supposed": 5078,
    "supre": 5079,
    "supreme": 5080,
    "sur": 5081,
    "sure": 5082,
    "sured": 5083,
    "surely": 5084,
    "surpris": 5085,
    "surprise": 5086,
    "surprised": 5087,
    "surround": 5088,
    "survi": 5089,
    "survival": 5090,
    "survive": 5091,
    "survived": 5092,
    "surviving": 5093,
    "sus": 5094,
    "sw": 5095,
    "swa": 5096,
    "swe": 5097,
    "swear": 5098,
    "sweat": 5099,
    "swee": 5100,
    "sweet": 5101,
    "swi": 5102,
    "swif": 5103,
    "swift": 5104,
    "swifties": 5105,
    "swifts": 5106,
    "swifty": 5107,
    "switch": 5108,
    "sy": 5109,
    "sym": 5110,
    "syn": 5111,
    "syst": 5112,
    "system": 5113,
    "t": 5114,
    "ta": 5115,
    "table": 5116,
    "tack": 5117,
    "tackle": 5118,
    "tackles": 5119,
    "tackling": 5120,
    "tactic": 5121,
    "tactical": 5122,
    "tactics": 5123,
    "tage": 5124,
    "tai": 5125,
    "tail": 5126,
    "tain": 5127,
    "taiwan": 5128,
    "tak": 5129,
    "take": 5130,
    "taken": 5131,
    "takes": 5132,
    "taking": 5133,
    "tal": 5134,
    "talent": 5135,
    "talented": 5136,
    "talk": 5137,
    "talked": 5138,
    "talking": 5139,
    "talks": 5140,
    "tam": 5141,
    "tampa": 5142,
    "tan": 5143,
    "tank": 5144,
    "tap": 5145,
    "tape": 5146,
    "tar": 5147,
    "target": 5148,
    "tas": 5149,
    "tast": 5150,
    "taste": 5151,
    "tat": 5152,
    "taught": 5153,
    "tay": 5154,
    "taylor": 5155,
    "tb": 5156,
    "tb12": 5157,
    "tbh": 5158,
    "tch": 5159,
    "td": 5160,
    "tds": 5161,
    "te": 5162,
    "tea": 5163,
    "teach": 5164,
    "team": 5165,
    "teammates": 5166,
    "teams": 5167,
    "tear": 5168,
    "tears": 5169,
    "teas": 5170,
    "teaser": 5171,
    "tech": 5172,
    "techni": 5173,
    "techno": 5174,
    "ted": 5175,
    "teen": 5176,
    "teh": 5177,
    "tehnolo": 5178,
    "tehnologi": 5179,
    "tele": 5180,
    "tell": 5181,
    "telling": 5182,
    "tells": 5183,
    "tem": 5184,
    "ten": 5185,
    "tener": 5186,
    "tenga": 5187,
    "tengo": 5188,
    "tenho": 5189,
    "tension": 5190,
    "ter": 5191,
    "tered": 5192,
    "term": 5193,
    "termin": 5194,
    "terms": 5195,
    "tern": 5196,
    "terri": 5197,
    "terrible": 5198,
    "territory": 5199,
    "ters": 5200,
    "tes": 5201,
    "test": 5202,
    "tex": 5203,
    "texans": 5204,
    "texas": 5205,
    "tf": 5206,
    "th": 5207,
    "tha": 5208,
    "than": 5209,
    "thank": 5210,
    "thanks": 5211,
    "that": 5212,
    "thats": 5213,
    "the": 5214,
    "theft": 5215,
    "their": 5216,
    "theless": 5217,
    "them": 5218,
    "theme": 5219,
    "themselves": 5220,
    "then": 5221,
    "theory": 5222,
    "ther": 5223,
    "there": 5224,
    "thered": 5225,
    "therefore": 5226,
    "theres": 5227,
    "thers": 5228,
    "thes": 5229,
    "these": 5230,
    "thetic": 5231,
    "thew": 5232,
    "they": 5233,
    "theyll": 5234,
    "theyre": 5235,
    "theyve": 5236,
    "thi": 5237,
    "thick": 5238,
    "thie": 5239,
    "thier": 5240,
    "thin": 5241,
    "thing": 5242,
    "things": 5243,
    "think": 5244,
    "thinking": 5245,
    "thinks": 5246,
    "third": 5247,
    "this": 5248,
    "tho": 5249,
    "thom": 5250,
    "thor": 5251,
    "thorough": 5252,
    "thoroughly": 5253,
    "those": 5254,
    "though": 5255,
    "thought": 5256,
    "thoughts": 5257,
    "thousand": 5258,
    "thousands": 5259,
    "thr": 5260,
    "thre": 5261,
    "threat": 5262,
    "threatened": 5263,
    "threatening": 5264,
    "three": 5265,
    "threepeat": 5266,
    "threw": 5267,
    "thri": 5268,
    "thrilling": 5269,
    "thro": 5270,
    "throat": 5271,
    "through": 5272,
    "throughout": 5273,
    "throw": 5274,
    "throwing": 5275,
    "thrown": 5276,
    "throws": 5277,
    "thu": 5278,
    "thumb": 5279,
    "thumbnail": 5280,
    "thur": 5281,
    "thy": 5282,
    "ti": 5283,
    "tial": 5284,
    "tic": 5285,
    "tical": 5286,
    "ticket": 5287,
    "tide": 5288,
    "tie": 5289,
    "tiene": 5290,
    "tier": 5291,
    "ties": 5292,
    "tight": 5293,
    "til": 5294,
    "till": 5295,
    "tim": 5296,
    "time": 5297,
    "timer": 5298,
    "times": 5299,
    "tin": 5300,
    "ting": 5301,
    "tings": 5302,
    "tion": 5303,
    "tions": 5304,
    "tips": 5305,
    "tir": 5306,
    "tired": 5307,
    "tit": 5308,
    "title": 5309,
    "titles": 5310,
    "titude": 5311,
    "tiv": 5312,
    "tive": 5313,
    "tivo": 5314,
    "tle": 5315,
    "tled": 5316,
    "tly": 5317,
    "to": 5318,
    "toda": 5319,
    "today": 5320,
    "todo": 5321,
    "todos": 5322,
    "together": 5323,
    "told": 5324,
    "tom": 5325,
    "tommy": 5326,
    "tomorrow": 5327,
    "toms": 5328,
    "ton": 5329,
    "tone": 5330,
    "tonight": 5331,
    "tons": 5332,
    "tony": 5333,
    "too": 5334,
    "took": 5335,
    "tool": 5336,
    "tooo": 5337,
    "top": 5338,
    "tor": 5339,
    "tori": 5340,
    "tory": 5341,
    "tos": 5342,
    "toss": 5343,
    "tot": 5344,
    "total": 5345,
    "totally": 5346,
    "touch": 5347,
    "touchdown": 5348,
    "touchdowns": 5349,
    "touched": 5350,
    "touches": 5351,
    "touching": 5352,
    "tough": 5353,
    "tour": 5354,
    "tourn": 5355,
    "tournament": 5356,
    "tournaments": 5357,
    "tout": 5358,
    "towards": 5359,
    "town": 5360,
    "tox": 5361,
    "toxic": 5362,
    "tr": 5363,
    "tra": 5364,
    "track": 5365,
    "trade": 5366,
    "traded": 5367,
    "trail": 5368,
    "trailer": 5369,
    "trailers": 5370,
    "train": 5371,
    "training": 5372,
    "trans": 5373,
    "transition": 5374,
    "tras": 5375,
    "trash": 5376,
    "travel": 5377,
    "travis": 5378,
    "tre": 5379,
    "treat": 5380,
    "trem": 5381,
    "tren": 5382,
    "trenches": 5383,
    "trend": 5384,
    "trending": 5385,
    "trevor": 5386,
    "tri": 5387,
    "trick": 5388,
    "tried": 5389,
    "triler": 5390,
    "trip": 5391,
    "trke": 5392,
    "tro": 5393,
    "trolling": 5394,
    "trophy": 5395,
    "trou": 5396,
    "trouble": 5397,
    "troy": 5398,
    "tru": 5399,
    "truck": 5400,
    "true": 5401,
    "truly": 5402,
    "trump": 5403,
    "trust": 5404,
    "truth": 5405,
    "try": 5406,
    "trying": 5407,
    "ts": 5408,
    "tt": 5409,
    "tu": 5410,
    "tua": 5411,
    "tudo": 5412,
    "tues": 5413,
    "tuesday": 5414,
    "tuff": 5415,
    "tune": 5416,
    "tung": 5417,
    "tur": 5418,
    "ture": 5419,
    "turf": 5420,
    "turkish": 5421,
    "turn": 5422,
    "turned": 5423,
    "turning": 5424,
    "turno": 5425,
    "turnovers": 5426,
    "turns": 5427,
    "tv": 5428,
    "tw": 5429,
    "twice": 5430,
    "twist": 5431,
    "two": 5432,
    "ty": 5433,
    "type": 5434,
    "typical": 5435,
    "tyreek": 5436,
    "u": 5437,
    "ual": 5438,
    "ually": 5439,
    "uals": 5440,
    "ubis": 5441,
    "ud": 5442,
    "ude": 5443,
    "ue": 5444,
    "uff": 5445,
    "ug": 5446,
    "ugh": 5447,
    "ught": 5448,
    "ugly": 5449,
    "uh": 5450,
    "uk": 5451,
    "ukrainian": 5452,
    "ul": 5453,
    "ular": 5454,
    "ulent": 5455,
    "ult": 5456,
    "ulti": 5457,
    "ultimate": 5458,
    "ults": 5459,
    "um": 5460,
    "uma": 5461,
    "umb": 5462,
    "ump": 5463,
    "umped": 5464,
    "umps": 5465,
    "un": 5466,
    "una": 5467,
    "unbeliev": 5468,
    "unbelievable": 5469,
    "unch": 5470,
    "uncle": 5471,
    "under": 5472,
    "undercover": 5473,
    "underesti": 5474,
    "underestimated": 5475,
    "underrated": 5476,
    "unders": 5477,
    "understand": 5478,
    "understanding": 5479,
    "underwhelming": 5480,
    "une": 5481,
    "unfair": 5482,
    "unfortunately": 5483,
    "ung": 5484,
    "uni": 5485,
    "union": 5486,
    "unit": 5487,
    "united": 5488,
    "unity": 5489,
    "universe": 5490,
    "unless": 5491,
    "unlike": 5492,
    "unlocked": 5493,
    "unnecessary": 5494,
    "unreal": 5495,
    "unstoppable": 5496,
    "unt": 5497,
    "until": 5498,
    "untill": 5499,
    "up": 5500,
    "upd": 5501,
    "update": 5502,
    "updated": 5503,
    "upgra": 5504,
    "upgrade": 5505,
    "upload": 5506,
    "upon": 5507,
    "ups": 5508,
    "upset": 5509,
    "ur": 5510,
    "ura": 5511,
    "ure": 5512,
    "ured": 5513,
    "ures": 5514,
    "uring": 5515,
    "urs": 5516,
    "ury": 5517,
    "us": 5518,
    "usa": 5519,
    "use": 5520,
    "used": 5521,
    "useful": 5522,
    "useless": 5523,
    "users": 5524,
    "uses": 5525,
    "using": 5526,
    "usion": 5527,
    "ust": 5528,
    "usu": 5529,
    "usual": 5530,
    "usually": 5531,
    "ut": 5532,
    "utch": 5533,
    "ute": 5534,
    "utes": 5535,
    "uti": 5536,
    "utter": 5537,
    "uu": 5538,
    "ux": 5539,
    "uz": 5540,
    "v": 5541,
    "va": 5542,
    "vac": 5543,
    "vacation": 5544,
    "vage": 5545,
    "vai": 5546,
    "val": 5547,
    "valu": 5548,
    "vamos": 5549,
    "van": 5550,
    "vance": 5551,
    "var": 5552,
    "vas": 5553,
    "vc": 5554,
    "vdeo": 5555,
    "ve": 5556,
    "vea": 5557,
    "veal": 5558,
    "ved": 5559,
    "vegas": 5560,
    "vehi": 5561,
    "vehicle": 5562,
    "vel": 5563,
    "vem": 5564,
    "ven": 5565,
    "veness": 5566,
    "venge": 5567,
    "vengeance": 5568,
    "vens": 5569,
    "vent": 5570,
    "venue": 5571,
    "ver": 5572,
    "verage": 5573,
    "vercet": 5574,
    "vercetti": 5575,
    "verified": 5576,
    "vers": 5577,
    "verse": 5578,
    "versi": 5579,
    "version": 5580,
    "versity": 5581,
    "verso": 5582,
    "very": 5583,
    "ves": 5584,
    "vez": 5585,
    "vi": 5586,
    "vib": 5587,
    "vibe": 5588,
    "vibes": 5589,
    "vic": 5590,
    "vice": 5591,
    "victories": 5592,
    "victory": 5593,
    "vid": 5594,
    "vida": 5595,
    "video": 5596,
    "videogame": 5597,
    "videos": 5598,
    "vie": 5599,
    "viene": 5600,
    "view": 5601,
    "viewed": 5602,
    "viewer": 5603,
    "viewers": 5604,
    "views": 5605,
    "vii": 5606,
    "vikings": 5607,
    "vil": 5608,
    "vin": 5609,
    "ving": 5610,
    "viol": 5611,
    "violence": 5612,
    "violent": 5613,
    "vior": 5614,
    "vious": 5615,
    "vir": 5616,
    "virtu": 5617,
    "vis": 5618,
    "vision": 5619,
    "visit": 5620,
    "visitas": 5621,
    "vistas": 5622,
    "visual": 5623,
    "visualiz": 5624,
    "vit": 5625,
    "vive": 5626,
    "vivo": 5627,
    "vl": 5628,
    "vo": 5629,
    "voic": 5630,
    "voice": 5631,
    "voiceover": 5632,
    "void": 5633,
    "vol": 5634,
    "volution": 5635,
    "von": 5636,
    "vor": 5637,
    "vot": 5638,
    "vote": 5639,
    "vou": 5640,
    "vous": 5641,
    "voy": 5642,
    "vr": 5643,
    "vs": 5644,
    "vu": 5645,
    "vul": 5646,
    "vy": 5647,
    "w": 5648,
    "w/": 5649,
    "wa": 5650,
    "wagon": 5651,
    "wait": 5652,
    "waited": 5653,
    "waiting": 5654,
    "wake": 5655,
    "wal": 5656,
    "walk": 5657,
    "walked": 5658,
    "walking": 5659,
    "wall": 5660,
    "wan": 5661,
    "wang": 5662,
    "wanna": 5663,
    "want": 5664,
    "wanted": 5665,
    "wanting": 5666,
    "wants": 5667,
    "war": 5668,
    "ward": 5669,
    "wards": 5670,
    "warning": 5671,
    "warri": 5672,
    "wars": 5673,
    "was": 5674,
    "wash": 5675,
    "washed": 5676,
    "washington": 5677,
    "wasn": 5678,
    "wasnt": 5679,
    "waste": 5680,
    "wasted": 5681,
    "wasting": 5682,
    "wat": 5683,
    "watch": 5684,
    "watched": 5685,
    "watches": 5686,
    "watching": 5687,
    "water": 5688,
    "way": 5689,
    "ways": 5690,
    "we": 5691,
    "wea": 5692,
    "weak": 5693,
    "weakness": 5694,
    "weapon": 5695,
    "weapons": 5696,
    "wear": 5697,
    "wearing": 5698,
    "weather": 5699,
    "web": 5700,
    "wed": 5701,
    "wee": 5702,
    "week": 5703,
    "weekend": 5704,
    "weeks": 5705,
    "ween": 5706,
    "weight": 5707,
    "weird": 5708,
    "wel": 5709,
    "welcome": 5710,
    "well": 5711,
    "welp": 5712,
    "wen": 5713,
    "went": 5714,
    "wentz": 5715,
    "wer": 5716,
    "were": 5717,
    "weren": 5718,
    "werent": 5719,
    "west": 5720,
    "weve": 5721,
    "wh": 5722,
    "what": 5723,
    "whatever": 5724,
    "whats": 5725,
    "whe": 5726,
    "wheel": 5727,
    "whel": 5728,
    "whelming": 5729,
    "when": 5730,
    "whenever": 5731,
    "where": 5732,
    "wheres": 5733,
    "whether": 5734,
    "whi": 5735,
    "which": 5736,
    "while": 5737,
    "white": 5738,
    "who": 5739,
    "whoa": 5740,
    "whoever": 5741,
    "whole": 5742,
    "wholesome": 5743,
    "whoop": 5744,
    "whooped": 5745,
    "whooping": 5746,
    "whos": 5747,
    "whose": 5748,
    "why": 5749,
    "whyyy": 5750,
    "wi": 5751,
    "wide": 5752,
    "wie": 5753,
    "wife": 5754,
    "wil": 5755,
    "wild": 5756,
    "will": 5757,
    "william": 5758,
    "williams": 5759,
    "willing": 5760,
    "willnever": 5761,
    "win": 5762,
    "wind": 5763,
    "window": 5764,
    "wine": 5765,
    "wing": 5766,
    "winner": 5767,
    "winners": 5768,
    "winning": 5769,
    "wins": 5770,
    "wiped": 5771,
    "wise": 5772,
    "wish": 5773,
    "wished": 5774,
    "wit": 5775,
    "witch": 5776,
    "with": 5777,
    "within": 5778,
    "without": 5779,
    "witness": 5780,
    "witnessed": 5781,
    "witnessing": 5782,
    "wn": 5783,
    "wo": 5784,
    "woah": 5785,
    "wok": 5786,
    "woke": 5787,
    "wom": 5788,
    "woman": 5789,
    "women": 5790,
    "won": 5791,
    "wonder": 5792,
    "wonderful": 5793,
    "wondering": 5794,
    "wont": 5795,
    "woo": 5796,
    "wood": 5797,
    "wooo": 5798,
    "wooow": 5799,
    "wor": 5800,
    "word": 5801,
    "words": 5802,
    "work": 5803,
    "worked": 5804,
    "working": 5805,
    "workout": 5806,
    "works": 5807,
    "world": 5808,
    "worldwide": 5809,
    "worried": 5810,
    "worry": 5811,
    "worse": 5812,
    "worst": 5813,
    "worth": 5814,
    "worthless": 5815,
    "worthy": 5816,
    "would": 5817,
    "woulda": 5818,
    "wouldn": 5819,
    "wouldnt": 5820,
    "wouldve": 5821,
    "wow": 5822,
    "wr": 5823,
    "wra": 5824,
    "wright": 5825,
    "writ": 5826,
    "write": 5827,
    "writers": 5828,
    "writing": 5829,
    "wro": 5830,
    "wrong": 5831,
    "wrote": 5832,
    "ws": 5833,
    "wtf": 5834,
    "wu": 5835,
    "ww": 5836,
    "ww3": 5837,
    "wwe": 5838,
    "wy": 5839,
    "x": 5840,
    "xai": 5841,
    "xai315k": 5842,
    "xavier": 5843,
    "xbox": 5844,
    "xd": 5845,
    "xi": 5846,
    "xious": 5847,
    "xrp": 5848,
    "xt": 5849,
    "xx": 5850,
    "xxx": 5851,
    "y": 5852,
    "ya": 5853,
    "yal": 5854,
    "yall": 5855,
    "yard": 5856,
    "yards": 5857,
    "yay": 5858,
    "yds": 5859,
    "ye": 5860,
    "yea": 5861,
    "yeah": 5862,
    "yeahhh": 5863,
    "year": 5864,
    "years": 5865,
    "yed": 5866,
    "yep": 5867,
    "yes": 5868,
    "yess": 5869,
    "yesss": 5870,
    "yesterday": 5871,
    "yet": 5872,
    "yi": 5873,
    "ying": 5874,
    "yle": 5875,
    "yo": 5876,
    "yon": 5877,
    "yooo": 5878,
    "yor": 5879,
    "york": 5880,
    "you": 5881,
    "youll": 5882,
    "young": 5883,
    "younger": 5884,
    "your": 5885,
    "youre": 5886,
    "yours": 5887,
    "yourself": 5888,
    "youtube": 5889,
    "youtuber": 5890,
    "youtubers": 5891,
    "youve": 5892,
    "yr": 5893,
    "yrs": 5894,
    "yt": 5895,
    "yu": 5896,
    "yy": 5897,
    "z": 5898,
    "za": 5899,
    "zar": 5900,
    "ze": 5901,
    "zebras": 5902,
    "zed": 5903,
    "zen": 5904,
    "zenglen": 5905,
    "zer": 5906,
    "zero": 5907,
    "zes": 5908,
    "zi": 5909,
    "zing": 5910,
    "zo": 5911,
    "zone": 5912,
    "zoom": 5913,
    "zy": 5914,
    "zz": 5915,
    "zzz": 5916
  },
  "merges": [
    [
      "t",
      "h"
    ],
    [
      "i",
      "n"
    ],
    [
      "th",
      "e"
    ],
    [
      "a",
      "n"
    ],
    [
      "e",
      "r"
    ],
    [
      "o",
      "n"
    ],
    [
      "a",
      "t"
    ],
    [
      "i",
      "s"
    ],
    [
      "e",
      "s"
    ],
    [
      "r",
      "e"
    ],
    [
      "o",
      "u"
    ],
    [
      "in",
      "g"
    ],
    [
      "t",
      "o"
    ],
    [
      "e",
      "n"
    ],
    [
      "a",
      "s"
    ],
    [
      "l",
      "l"
    ],
    [
      "m",
      "e"
    ],
    [
      "o",
      "r"
    ],
    [
      "i",
      "t"
    ],
    [
      "c",
      "h"
    ],
    [
      "e",
      "a"
    ],
    [
      "e",
      "d"
    ],
    [
      "s",
      "t"
    ],
    [
      "a",
      "y"
    ],
    [
      "an",
      "d"
    ],
    [
      "o",
      "w"
    ],
    [
      "b",
      "e"
    ],
    [
      "th",
      "is"
    ],
    [
      "s",
      "e"
    ],
    [
      "g",
      "a"
    ],
    [
      "l",
      "e"
    ],
    [
      "v",
      "e"
    ],
    [
      "a",
      "r"
    ],
    [
      "y",
      "ou"
    ],
    [
      "w",
      "h"
    ],
    [
      "a",
      "l"
    ],
    [
      "o",
      "m"
    ],
    [
      "a",
      "ll"
    ],
    [
      "d",
      "e"
    ],
    [
      "o",
      "f"
    ],
    [
      "g",
      "o"
    ],
    [
      "l",
      "o"
    ],
    [
      "f",
      "or"
    ],
    [
      "t",
      "i"
    ],
    [
      "h",
      "a"
    ],
    [
      "i",
      "e"
    ],
    [
      "g",
      "l"
    ],
    [
      "k",
      "e"
    ],
    [
      "s",
      "o"
    ],
    [
      "m",
      "a"
    ],
    [
      "c",
      "k"
    ],
    [
      "w",
      "as"
    ],
    [
      "v",
      "er"
    ],
    [
      "l",
      "i"
    ],
    [
      "ga",
      "me"
    ],
    [
      "r",
      "a"
    ],
    [
      "f",
      "s"
    ],
    [
      "n",
      "o"
    ],
    [
      "th",
      "at"
    ],
    [
      "gl",
      "es"
    ],
    [
      "ea",
      "gles"
    ],
    [
      "w",
      "i"
    ],
    [
      "l",
      "y"
    ],
    [
      "u",
      "t"
    ],
    [
      "p",
      "l"
    ],
    [
      "c",
      "e"
    ],
    [
      "r",
      "o"
    ],
    [
      "s",
      "u"
    ],
    [
      "i",
      "d"
    ],
    [
      "h",
      "e"
    ],
    [
      "l",
      "d"
    ],
    [
      "t",
      "a"
    ],
    [
      "ch",
      "ie"
    ],
    [
      "h",
      "i"
    ],
    [
      "g",
      "h"
    ],
    [
      "w",
      "e"
    ],
    [
      "v",
      "i"
    ],
    [
      "n",
      "e"
    ],
    [
      "chie",
      "fs"
    ],
    [
      "ea",
      "r"
    ],
    [
      "r",
      "i"
    ],
    [
      "m",
      "o"
    ],
    [
      "p",
      "er"
    ],
    [
      "t",
      "er"
    ],
    [
      "pl",
      "ay"
    ],
    [
      "ou",
      "t"
    ],
    [
      "on",
      "e"
    ],
    [
      "g",
      "e"
    ],
    [
      "u",
      "n"
    ],
    [
      "i",
      "r"
    ],
    [
      "i",
      "on"
    ],
    [
      "en",
      "t"
    ],
    [
      "the",
      "y"
    ],
    [
      "p",
      "e"
    ],
    [
      "er",
      "e"
    ],
    [
      "li",
      "ke"
    ],
    [
      "a",
      "b"
    ],
    [
      "a",
      "d"
    ],
    [
      "c",
      "o"
    ],
    [
      "c",
      "on"
    ],
    [
      "a",
      "m"
    ],
    [
      "t",
      "s"
    ],
    [
      "u",
      "st"
    ],
    [
      "s",
      "h"
    ],
    [
      "c",
      "an"
    ],
    [
      "a",
      "re"
    ],
    [
      "ou",
      "ld"
    ],
    [
      "b",
      "ut"
    ],
    [
      "es",
      "s"
    ],
    [
      "no",
      "t"
    ],
    [
      "i",
      "l"
    ],
    [
      "2",
      "0"
    ],
    [
      "th",
      "an"
    ],
    [
      "es",
      "t"
    ],
    [
      "p",
      "p"
    ],
    [
      "all",
      "y"
    ],
    [
      "j",
      "ust"
    ],
    [
      "o",
      "k"
    ],
    [
      "ha",
      "ve"
    ],
    [
      "su",
      "per"
    ],
    [
      "m",
      "y"
    ],
    [
      "wi",
      "th"
    ],
    [
      "c",
      "om"
    ],
    [
      "d",
      "o"
    ],
    [
      "gh",
      "t"
    ],
    [
      "wh",
      "at"
    ],
    [
      "i",
      "ll"
    ],
    [
      "n",
      "ow"
    ],
    [
      "d",
      "id"
    ],
    [
      "at",
      "ch"
    ],
    [
      "b",
      "ow"
    ],
    [
      "0",
      "0"
    ],
    [
      "bow",
      "l"
    ],
    [
      "ma",
      "h"
    ],
    [
      "ver",
      "y"
    ],
    [
      "s",
      "a"
    ],
    [
      "b",
      "o"
    ],
    [
      "s",
      "i"
    ],
    [
      "y",
      "ear"
    ],
    [
      "u",
      "r"
    ],
    [
      "q",
      "u"
    ],
    [
      "mah",
      "om"
    ],
    [
      "u",
      "p"
    ],
    [
      "g",
      "ta"
    ],
    [
      "n",
      "a"
    ],
    [
      "p",
      "hi"
    ],
    [
      "se",
      "e"
    ],
    [
      "f",
      "an"
    ],
    [
      "t",
      "ra"
    ],
    [
      "f",
      "e"
    ],
    [
      "mahom",
      "es"
    ],
    [
      "r",
      "at"
    ],
    [
      "r",
      "y"
    ],
    [
      "p",
      "o"
    ],
    [
      "p",
      "le"
    ],
    [
      "ge",
      "t"
    ],
    [
      "ti",
      "me"
    ],
    [
      "h",
      "is"
    ],
    [
      "g",
      "re"
    ],
    [
      "w",
      "atch"
    ],
    [
      "than",
      "k"
    ],
    [
      "i",
      "f"
    ],
    [
      "wi",
      "ll"
    ],
    [
      "c",
      "a"
    ],
    [
      "g",
      "u"
    ],
    [
      "w",
      "in"
    ],
    [
      "20",
      "2"
    ],
    [
      "f",
      "r"
    ],
    [
      "f",
      "o"
    ],
    [
      "e",
      "x"
    ],
    [
      "st",
      "ar"
    ],
    [
      "go",
      "t"
    ],
    [
      "c",
      "t"
    ],
    [
      "w",
      "or"
    ],
    [
      "go",
      "o"
    ],
    [
      "lo",
      "ok"
    ],
    [
      "u",
      "l"
    ],
    [
      "m",
      "an"
    ],
    [
      "wh",
      "en"
    ],
    [
      "a",
      "ck"
    ],
    [
      "d",
      "ay"
    ],
    [
      "mo",
      "re"
    ],
    [
      "w",
      "ay"
    ],
    [
      "wh",
      "o"
    ],
    [
      "i",
      "m"
    ],
    [
      "de",
      "o"
    ],
    [
      "h",
      "o"
    ],
    [
      "you",
      "r"
    ],
    [
      "f",
      "en"
    ],
    [
      "vi",
      "deo"
    ],
    [
      "e",
      "l"
    ],
    [
      "h",
      "ow"
    ],
    [
      "gre",
      "at"
    ],
    [
      "the",
      "r"
    ],
    [
      "d",
      "on"
    ],
    [
      "at",
      "e"
    ],
    [
      "in",
      "e"
    ],
    [
      "t",
      "ea"
    ],
    [
      "c",
      "i"
    ],
    [
      "v",
      "en"
    ],
    [
      "er",
      "s"
    ],
    [
      "tea",
      "m"
    ],
    [
      "p",
      "s"
    ],
    [
      "w",
      "a"
    ],
    [
      "goo",
      "d"
    ],
    [
      "th",
      "ing"
    ],
    [
      "u",
      "s"
    ],
    [
      "as",
      "t"
    ],
    [
      "so",
      "me"
    ],
    [
      "fr",
      "om"
    ],
    [
      "l",
      "a"
    ],
    [
      "b",
      "y"
    ],
    [
      "tra",
      "il"
    ],
    [
      "d",
      "s"
    ],
    [
      "f",
      "in"
    ],
    [
      "ow",
      "n"
    ],
    [
      "at",
      "ion"
    ],
    [
      "ro",
      "ck"
    ],
    [
      "d",
      "y"
    ],
    [
      "w",
      "ere"
    ],
    [
      "an",
      "t"
    ],
    [
      "m",
      "es"
    ],
    [
      "j",
      "o"
    ],
    [
      "w",
      "ould"
    ],
    [
      "trail",
      "er"
    ],
    [
      "n",
      "t"
    ],
    [
      "wa",
      "it"
    ],
    [
      "f",
      "a"
    ],
    [
      "it",
      "y"
    ],
    [
      "e",
      "very"
    ],
    [
      "re",
      "fs"
    ],
    [
      "de",
      "fen"
    ],
    [
      "rock",
      "star"
    ],
    [
      "i",
      "ve"
    ],
    [
      "m",
      "u"
    ],
    [
      "m",
      "i"
    ],
    [
      "as",
      "e"
    ],
    [
      "as",
      "on"
    ],
    [
      "b",
      "ack"
    ],
    [
      "an",
      "y"
    ],
    [
      "b",
      "l"
    ],
    [
      "t",
      "e"
    ],
    [
      "be",
      "t"
    ],
    [
      "w",
      "on"
    ],
    [
      "in",
      "k"
    ],
    [
      "to",
      "m"
    ],
    [
      "p",
      "r"
    ],
    [
      "it",
      "s"
    ],
    [
      "202",
      "6"
    ],
    [
      "n",
      "i"
    ],
    [
      "en",
      "d"
    ],
    [
      "a",
      "ga"
    ],
    [
      "v",
      "ie"
    ],
    [
      "ab",
      "out"
    ],
    [
      "the",
      "m"
    ],
    [
      "aga",
      "in"
    ],
    [
      "1",
      "00"
    ],
    [
      "t",
      "ing"
    ],
    [
      "h",
      "ere"
    ],
    [
      "f",
      "l"
    ],
    [
      "d",
      "i"
    ],
    [
      "ha",
      "d"
    ],
    [
      "k",
      "now"
    ],
    [
      "s",
      "to"
    ],
    [
      "be",
      "en"
    ],
    [
      "on",
      "g"
    ],
    [
      "lo",
      "ve"
    ],
    [
      "f",
      "ly"
    ],
    [
      "b",
      "ra"
    ],
    [
      "ha",
      "pp"
    ],
    [
      "u",
      "m"
    ],
    [
      "re",
      "ally"
    ],
    [
      "the",
      "re"
    ],
    [
      "o",
      "ver"
    ],
    [
      "go",
      "ing"
    ],
    [
      "u",
      "se"
    ],
    [
      "a",
      "f"
    ],
    [
      "re",
      "al"
    ],
    [
      "e",
      "ven"
    ],
    [
      "p",
      "ro"
    ],
    [
      "th",
      "ink"
    ],
    [
      "ch",
      "e"
    ],
    [
      "d",
      "er"
    ],
    [
      "s",
      "c"
    ],
    [
      "i",
      "g"
    ],
    [
      "ou",
      "n"
    ],
    [
      "m",
      "ent"
    ],
    [
      "ll",
      "y"
    ],
    [
      "b",
      "est"
    ],
    [
      "mu",
      "ch"
    ],
    [
      "m",
      "ay"
    ],
    [
      "ch",
      "ess"
    ],
    [
      "we",
      "ll"
    ],
    [
      "l",
      "ine"
    ],
    [
      "d",
      "own"
    ],
    [
      "ti",
      "on"
    ],
    [
      "r",
      "u"
    ],
    [
      "fo",
      "re"
    ],
    [
      "s",
      "p"
    ],
    [
      "g",
      "rat"
    ],
    [
      "the",
      "ir"
    ],
    [
      "gu",
      "y"
    ],
    [
      "as",
      "s"
    ],
    [
      "x",
      "t"
    ],
    [
      "b",
      "u"
    ],
    [
      "defen",
      "se"
    ],
    [
      "o",
      "ther"
    ],
    [
      "ou",
      "r"
    ],
    [
      "ne",
      "xt"
    ],
    [
      "e",
      "ver"
    ],
    [
      "con",
      "grat"
    ],
    [
      "f",
      "i"
    ],
    [
      "ne",
      "w"
    ],
    [
      "v",
      "ed"
    ],
    [
      "ar",
      "d"
    ],
    [
      "n",
      "fl"
    ],
    [
      "l",
      "u"
    ],
    [
      "ga",
      "mes"
    ],
    [
      "s",
      "ay"
    ],
    [
      "wh",
      "y"
    ],
    [
      "c",
      "ould"
    ],
    [
      "k",
      "c"
    ],
    [
      "ou",
      "s"
    ],
    [
      "d",
      "es"
    ],
    [
      "ne",
      "ver"
    ],
    [
      "hi",
      "m"
    ],
    [
      "m",
      "in"
    ],
    [
      "bet",
      "ter"
    ],
    [
      "vie",
      "w"
    ],
    [
      "e",
      "p"
    ],
    [
      "k",
      "ing"
    ],
    [
      "h",
      "as"
    ],
    [
      "st",
      "ill"
    ],
    [
      "sh",
      "ow"
    ],
    [
      "on",
      "ly"
    ],
    [
      "g",
      "on"
    ],
    [
      "year",
      "s"
    ],
    [
      "f",
      "t"
    ],
    [
      "ne",
      "ed"
    ],
    [
      "h",
      "ur"
    ],
    [
      "ma",
      "ke"
    ],
    [
      "be",
      "fore"
    ],
    [
      "c",
      "ity"
    ],
    [
      "f",
      "ir"
    ],
    [
      "b",
      "all"
    ],
    [
      "watch",
      "ing"
    ],
    [
      "c",
      "all"
    ],
    [
      "an",
      "s"
    ],
    [
      "er",
      "i"
    ],
    [
      "ca",
      "use"
    ],
    [
      "w",
      "ant"
    ],
    [
      "mo",
      "st"
    ],
    [
      "bra",
      "dy"
    ],
    [
      "b",
      "le"
    ],
    [
      "ou",
      "gh"
    ],
    [
      "be",
      "at"
    ],
    [
      "to",
      "o"
    ],
    [
      "de",
      "l"
    ],
    [
      "af",
      "ter"
    ],
    [
      "o",
      "t"
    ],
    [
      "super",
      "bowl"
    ],
    [
      "a",
      "c"
    ],
    [
      "sh",
      "ould"
    ],
    [
      "fir",
      "st"
    ],
    [
      "i",
      "c"
    ],
    [
      "he",
      "l"
    ],
    [
      "pe",
      "o"
    ],
    [
      "p",
      "ar"
    ],
    [
      "ti",
      "c"
    ],
    [
      "qu",
      "e"
    ],
    [
      "look",
      "s"
    ],
    [
      "ut",
      "e"
    ],
    [
      "n",
      "ing"
    ],
    [
      "peo",
      "ple"
    ],
    [
      "it",
      "e"
    ],
    [
      "p",
      "at"
    ],
    [
      "hur",
      "ts"
    ],
    [
      "view",
      "s"
    ],
    [
      "re",
      "le"
    ],
    [
      "is",
      "t"
    ],
    [
      "re",
      "d"
    ],
    [
      "an",
      "na"
    ],
    [
      "phi",
      "lly"
    ],
    [
      "v",
      "es"
    ],
    [
      "lo",
      "l"
    ],
    [
      "o",
      "o"
    ],
    [
      "b",
      "ro"
    ],
    [
      "don",
      "t"
    ],
    [
      "gon",
      "na"
    ],
    [
      "hel",
      "p"
    ],
    [
      "play",
      "ed"
    ],
    [
      "f",
      "ul"
    ],
    [
      "l",
      "ear"
    ],
    [
      "b",
      "r"
    ],
    [
      "be",
      "cause"
    ],
    [
      "b",
      "er"
    ],
    [
      "co",
      "me"
    ],
    [
      "ch",
      "am"
    ],
    [
      "c",
      "ra"
    ],
    [
      "oun",
      "d"
    ],
    [
      "did",
      "n"
    ],
    [
      "ha",
      "ha"
    ],
    [
      "a",
      "ct"
    ],
    [
      "in",
      "t"
    ],
    [
      "fan",
      "s"
    ],
    [
      "g",
      "g"
    ],
    [
      "t",
      "y"
    ],
    [
      "ple",
      "ase"
    ],
    [
      "t",
      "al"
    ],
    [
      "le",
      "t"
    ],
    [
      "a",
      "ma"
    ],
    [
      "des",
      "er"
    ],
    [
      "v",
      "ing"
    ],
    [
      "ill",
      "ion"
    ],
    [
      "p",
      "a"
    ],
    [
      "b",
      "ir"
    ],
    [
      "p",
      "re"
    ],
    [
      "1",
      "0"
    ],
    [
      "b",
      "ad"
    ],
    [
      "a",
      "pp"
    ],
    [
      "thank",
      "s"
    ],
    [
      "s",
      "wi"
    ],
    [
      "ho",
      "pe"
    ],
    [
      "so",
      "l"
    ],
    [
      "l",
      "or"
    ],
    [
      "c",
      "s"
    ],
    [
      "n",
      "ed"
    ],
    [
      "fin",
      "ally"
    ],
    [
      "g",
      "ra"
    ],
    [
      "is",
      "h"
    ],
    [
      "ke",
      "ep"
    ],
    [
      "i",
      "ck"
    ],
    [
      "ation",
      "s"
    ],
    [
      "2",
      "6"
    ],
    [
      "z",
      "ing"
    ],
    [
      "b",
      "ig"
    ],
    [
      "lo",
      "s"
    ],
    [
      "pe",
      "at"
    ],
    [
      "su",
      "r"
    ],
    [
      "g",
      "i"
    ],
    [
      "se",
      "ason"
    ],
    [
      "ou",
      "ght"
    ],
    [
      "wh",
      "ere"
    ],
    [
      "of",
      "f"
    ],
    [
      "d",
      "a"
    ],
    [
      "d",
      "u"
    ],
    [
      "day",
      "s"
    ],
    [
      "can",
      "t"
    ],
    [
      "at",
      "ed"
    ],
    [
      "ab",
      "le"
    ],
    [
      "l",
      "ong"
    ],
    [
      "r",
      "un"
    ],
    [
      "s",
      "m"
    ],
    [
      "way",
      "s"
    ],
    [
      "m",
      "is"
    ],
    [
      "do",
      "es"
    ],
    [
      "li",
      "fe"
    ],
    [
      "d",
      "is"
    ],
    [
      "re",
      "ad"
    ],
    [
      "play",
      "ing"
    ],
    [
      "to",
      "ry"
    ],
    [
      "ea",
      "d"
    ],
    [
      "un",
      "der"
    ],
    [
      "s",
      "co"
    ],
    [
      "ma",
      "de"
    ],
    [
      "or",
      "t"
    ],
    [
      "b",
      "ab"
    ],
    [
      "th",
      "o"
    ],
    [
      "ab",
      "sol"
    ],
    [
      "fe",
      "el"
    ],
    [
      "l",
      "ast"
    ],
    [
      "w",
      "o"
    ],
    [
      "j",
      "ason"
    ],
    [
      "e",
      "t"
    ],
    [
      "m",
      "illion"
    ],
    [
      "h",
      "er"
    ],
    [
      "ion",
      "s"
    ],
    [
      "th",
      "r"
    ],
    [
      "happ",
      "y"
    ],
    [
      "cham",
      "p"
    ],
    [
      "con",
      "t"
    ],
    [
      "h",
      "al"
    ],
    [
      "ama",
      "zing"
    ],
    [
      "absol",
      "ute"
    ],
    [
      "com",
      "ment"
    ],
    [
      "g",
      "r"
    ],
    [
      "lo",
      "st"
    ],
    [
      "the",
      "n"
    ],
    [
      "v",
      "o"
    ],
    [
      "in",
      "ter"
    ],
    [
      "t",
      "ay"
    ],
    [
      "ch",
      "an"
    ],
    [
      "f",
      "un"
    ],
    [
      "d",
      "om"
    ],
    [
      "congrat",
      "s"
    ],
    [
      "wh",
      "i"
    ],
    [
      "al",
      "ways"
    ],
    [
      "s",
      "he"
    ],
    [
      "j",
      "al"
    ],
    [
      "com",
      "ing"
    ],
    [
      "rat",
      "ing"
    ],
    [
      "z",
      "y"
    ],
    [
      "tay",
      "lor"
    ],
    [
      "j",
      "e"
    ],
    [
      "happ",
      "en"
    ],
    [
      "jo",
      "y"
    ],
    [
      "b",
      "ar"
    ],
    [
      "fo",
      "ot"
    ],
    [
      "swi",
      "ft"
    ],
    [
      "p",
      "u"
    ],
    [
      "gl",
      "ad"
    ],
    [
      "guy",
      "s"
    ],
    [
      "hal",
      "f"
    ],
    [
      "p",
      "ass"
    ],
    [
      "d",
      "one"
    ],
    [
      "in",
      "s"
    ],
    [
      "1",
      "5"
    ],
    [
      "jal",
      "en"
    ],
    [
      "p",
      "ut"
    ],
    [
      "lo",
      "se"
    ],
    [
      "f",
      "u"
    ],
    [
      "ta",
      "ke"
    ],
    [
      "ni",
      "ce"
    ],
    [
      "sc",
      "ri"
    ],
    [
      "th",
      "ought"
    ],
    [
      "cra",
      "zy"
    ],
    [
      "c",
      "ar"
    ],
    [
      "lo",
      "t"
    ],
    [
      "get",
      "ting"
    ],
    [
      "c",
      "re"
    ],
    [
      "foot",
      "ball"
    ],
    [
      "si",
      "ve"
    ],
    [
      "su",
      "re"
    ],
    [
      "p",
      "c"
    ],
    [
      "ri",
      "ck"
    ],
    [
      "l",
      "it"
    ],
    [
      "sto",
      "p"
    ],
    [
      "en",
      "ce"
    ],
    [
      "wor",
      "ld"
    ],
    [
      "hi",
      "gh"
    ],
    [
      "h",
      "y"
    ],
    [
      "rele",
      "ase"
    ],
    [
      "p",
      "t"
    ],
    [
      "man",
      "y"
    ],
    [
      "k",
      "es"
    ],
    [
      "e",
      "m"
    ],
    [
      "an",
      "other"
    ],
    [
      "pl",
      "a"
    ],
    [
      "dom",
      "in"
    ],
    [
      "did",
      "nt"
    ],
    [
      "m",
      "s"
    ],
    [
      "y",
      "es"
    ],
    [
      "pe",
      "ct"
    ],
    [
      "o",
      "s"
    ],
    [
      "jo",
      "b"
    ],
    [
      "vi",
      "ce"
    ],
    [
      "i",
      "ght"
    ],
    [
      "1",
      "3"
    ],
    [
      "in",
      "to"
    ],
    [
      "k",
      "ans"
    ],
    [
      "be",
      "ing"
    ],
    [
      "ci",
      "a"
    ],
    [
      "202",
      "5"
    ],
    [
      "re",
      "e"
    ],
    [
      "o",
      "l"
    ],
    [
      "en",
      "joy"
    ],
    [
      "a",
      "w"
    ],
    [
      "re",
      "f"
    ],
    [
      "s",
      "b"
    ],
    [
      "kans",
      "as"
    ],
    [
      "the",
      "se"
    ],
    [
      "sco",
      "re"
    ],
    [
      "read",
      "y"
    ],
    [
      "champ",
      "ions"
    ],
    [
      "r",
      "es"
    ],
    [
      "congrat",
      "ul"
    ],
    [
      "again",
      "st"
    ],
    [
      "wait",
      "ing"
    ],
    [
      "his",
      "tory"
    ],
    [
      "po",
      "s"
    ],
    [
      "tho",
      "se"
    ],
    [
      "l",
      "ea"
    ],
    [
      "ri",
      "ght"
    ],
    [
      "ti",
      "l"
    ],
    [
      "ke",
      "l"
    ],
    [
      "act",
      "u"
    ],
    [
      "ill",
      "s"
    ],
    [
      "wor",
      "k"
    ],
    [
      "phi",
      "la"
    ],
    [
      "t",
      "u"
    ],
    [
      "phi",
      "a"
    ],
    [
      "s",
      "on"
    ],
    [
      "w",
      "ow"
    ],
    [
      "ca",
      "me"
    ],
    [
      "sa",
      "id"
    ],
    [
      "se",
      "en"
    ],
    [
      "del",
      "phia"
    ],
    [
      "se",
      "con"
    ],
    [
      "1",
      "8"
    ],
    [
      "bl",
      "ow"
    ],
    [
      "sa",
      "ck"
    ],
    [
      "bo",
      "y"
    ],
    [
      "am",
      "eri"
    ],
    [
      "t",
      "ur"
    ],
    [
      "phila",
      "delphia"
    ],
    [
      "every",
      "one"
    ],
    [
      "congratul",
      "ations"
    ],
    [
      "bir",
      "ds"
    ],
    [
      "who",
      "le"
    ],
    [
      "sa",
      "me"
    ],
    [
      "s",
      "in"
    ],
    [
      "sur",
      "vi"
    ],
    [
      "h",
      "ear"
    ],
    [
      "l",
      "ie"
    ],
    [
      "g",
      "ive"
    ],
    [
      "m",
      "as"
    ],
    [
      "go",
      "d"
    ],
    [
      "o",
      "p"
    ],
    [
      "t",
      "on"
    ],
    [
      "t",
      "r"
    ],
    [
      "at",
      "ing"
    ],
    [
      "t",
      "wo"
    ],
    [
      "t",
      "ry"
    ],
    [
      "ti",
      "mes"
    ],
    [
      "un",
      "til"
    ],
    [
      "k",
      "s"
    ],
    [
      "of",
      "fen"
    ],
    [
      "some",
      "thing"
    ],
    [
      "m",
      "om"
    ],
    [
      "v",
      "a"
    ],
    [
      "star",
      "t"
    ],
    [
      "al",
      "so"
    ],
    [
      "gu",
      "ess"
    ],
    [
      "ti",
      "ll"
    ],
    [
      "lu",
      "cia"
    ],
    [
      "h",
      "and"
    ],
    [
      "h",
      "u"
    ],
    [
      "re",
      "a"
    ],
    [
      "m",
      "er"
    ],
    [
      "o",
      "b"
    ],
    [
      "kel",
      "ce"
    ],
    [
      "1",
      "2"
    ],
    [
      "v",
      "or"
    ],
    [
      "absolute",
      "ly"
    ],
    [
      "t",
      "le"
    ],
    [
      "ni",
      "ght"
    ],
    [
      "gh",
      "ts"
    ],
    [
      "mis",
      "s"
    ],
    [
      "q",
      "b"
    ],
    [
      "f",
      "er"
    ],
    [
      "pp",
      "ed"
    ],
    [
      "bo",
      "th"
    ],
    [
      "qu",
      "ar"
    ],
    [
      "gra",
      "phi"
    ],
    [
      "l",
      "f"
    ],
    [
      "o",
      "me"
    ],
    [
      "re",
      "ci"
    ],
    [
      "quar",
      "ter"
    ],
    [
      "l",
      "ess"
    ],
    [
      "m",
      "ar"
    ],
    [
      "5",
      "0"
    ],
    [
      "v",
      "is"
    ],
    [
      "watch",
      "ed"
    ],
    [
      "st",
      "and"
    ],
    [
      "to",
      "p"
    ],
    [
      "al",
      "s"
    ],
    [
      "app",
      "reci"
    ],
    [
      "lo",
      "ved"
    ],
    [
      "a",
      "ge"
    ],
    [
      "s",
      "eri"
    ],
    [
      "any",
      "one"
    ],
    [
      "g",
      "le"
    ],
    [
      "t",
      "en"
    ],
    [
      "y",
      "ing"
    ],
    [
      "k",
      "in"
    ],
    [
      "survi",
      "ve"
    ],
    [
      "bo",
      "dy"
    ],
    [
      "appreci",
      "ate"
    ],
    [
      "el",
      "se"
    ],
    [
      "1",
      "4"
    ],
    [
      "be",
      "lie"
    ],
    [
      "p",
      "ick"
    ],
    [
      "4",
      "0"
    ],
    [
      "actu",
      "ally"
    ],
    [
      "c",
      "y"
    ],
    [
      "go",
      "at"
    ],
    [
      "<",
      "U"
    ],
    [
      "<U",
      "R"
    ],
    [
      "<UR",
      "L"
    ],
    [
      "<URL",
      ">"
    ],
    [
      "pat",
      "rick"
    ],
    [
      "pr",
      "es"
    ],
    [
      "m",
      "at"
    ],
    [
      "o",
      "ld"
    ],
    [
      "with",
      "out"
    ],
    [
      "ch",
      "a"
    ],
    [
      "per",
      "for"
    ],
    [
      "s",
      "s"
    ],
    [
      "look",
      "ing"
    ],
    [
      "o",
      "h"
    ],
    [
      "mom",
      "ent"
    ],
    [
      "te",
      "ll"
    ],
    [
      "pla",
      "in"
    ],
    [
      "g",
      "ir"
    ],
    [
      "3",
      "0"
    ],
    [
      "d",
      "ro"
    ],
    [
      "lear",
      "ned"
    ],
    [
      "sin",
      "ce"
    ],
    [
      "le",
      "ts"
    ],
    [
      "1",
      "6"
    ],
    [
      "b",
      "a"
    ],
    [
      "par",
      "t"
    ],
    [
      "c",
      "ou"
    ],
    [
      "c",
      "ry"
    ],
    [
      "1",
      "7"
    ],
    [
      "ea",
      "l"
    ],
    [
      "cont",
      "ent"
    ],
    [
      "wor",
      "st"
    ],
    [
      "m",
      "on"
    ],
    [
      "ps",
      "5"
    ],
    [
      "graphi",
      "cs"
    ],
    [
      "st",
      "ay"
    ],
    [
      "al",
      "ready"
    ],
    [
      "m",
      "v"
    ],
    [
      "sto",
      "ry"
    ],
    [
      "es",
      "ome"
    ],
    [
      "c",
      "u"
    ],
    [
      "c",
      "or"
    ],
    [
      "y",
      "ea"
    ],
    [
      "pr",
      "ess"
    ],
    [
      "that",
      "s"
    ],
    [
      "ar",
      "ound"
    ],
    [
      "thr",
      "ow"
    ],
    [
      "b",
      "or"
    ],
    [
      "m",
      "en"
    ],
    [
      "ex",
      "c"
    ],
    [
      "mo",
      "vie"
    ],
    [
      "100",
      "m"
    ],
    [
      "ch",
      "ar"
    ],
    [
      "may",
      "be"
    ],
    [
      "b",
      "ills"
    ],
    [
      "bab",
      "y"
    ],
    [
      "win",
      "ning"
    ],
    [
      "j",
      "u"
    ],
    [
      "b",
      "i"
    ],
    [
      "fa",
      "vor"
    ],
    [
      "n",
      "y"
    ],
    [
      "c",
      "l"
    ],
    [
      "an",
      "e"
    ],
    [
      "1",
      "9"
    ],
    [
      "ver",
      "s"
    ],
    [
      "win",
      "s"
    ],
    [
      "il",
      "ing"
    ],
    [
      "ga",
      "ve"
    ],
    [
      "b",
      "ea"
    ],
    [
      "aw",
      "esome"
    ],
    [
      "li",
      "ght"
    ],
    [
      "whi",
      "le"
    ],
    [
      "t",
      "ru"
    ],
    [
      "play",
      "er"
    ],
    [
      "mv",
      "p"
    ],
    [
      "c",
      "lear"
    ],
    [
      "in",
      "ts"
    ],
    [
      "su",
      "b"
    ],
    [
      "perfor",
      "man"
    ],
    [
      "secon",
      "d"
    ],
    [
      "ma",
      "g"
    ],
    [
      "con",
      "f"
    ],
    [
      "is",
      "e"
    ],
    [
      "com",
      "es"
    ],
    [
      "h",
      "ard"
    ],
    [
      "a",
      "h"
    ],
    [
      "del",
      "ay"
    ],
    [
      "it",
      "ion"
    ],
    [
      "d",
      "am"
    ],
    [
      "k",
      "ed"
    ],
    [
      "le",
      "y"
    ],
    [
      "team",
      "s"
    ],
    [
      "c",
      "tion"
    ],
    [
      "no",
      "thing"
    ],
    [
      "he",
      "ll"
    ],
    [
      "2",
      "2"
    ],
    [
      "wor",
      "th"
    ],
    [
      "an",
      "ce"
    ],
    [
      "rele",
      "as"
    ],
    [
      "su",
      "ch"
    ],
    [
      "game",
      "play"
    ],
    [
      "n",
      "ess"
    ],
    [
      "g",
      "y"
    ],
    [
      "one",
      "y"
    ],
    [
      "ou",
      "ch"
    ],
    [
      "se",
      "lf"
    ],
    [
      "gir",
      "l"
    ],
    [
      "y",
      "all"
    ],
    [
      "play",
      "ers"
    ],
    [
      "i",
      "z"
    ],
    [
      "si",
      "de"
    ],
    [
      "t",
      "as"
    ],
    [
      "th",
      "ree"
    ],
    [
      "s",
      "at"
    ],
    [
      "ex",
      "pect"
    ],
    [
      "rat",
      "ed"
    ],
    [
      "ous",
      "ly"
    ],
    [
      "b",
      "it"
    ],
    [
      "s",
      "mi"
    ],
    [
      "li",
      "ve"
    ],
    [
      "at",
      "or"
    ],
    [
      "le",
      "ast"
    ],
    [
      "lit",
      "tle"
    ],
    [
      "sm",
      "iling"
    ],
    [
      "en",
      "ough"
    ],
    [
      "com",
      "ple"
    ],
    [
      "t",
      "ouch"
    ],
    [
      "g",
      "n"
    ],
    [
      "ri",
      "gg"
    ],
    [
      "lo",
      "ck"
    ],
    [
      "en",
      "ti"
    ],
    [
      "d",
      "if"
    ],
    [
      "m",
      "oney"
    ],
    [
      "yea",
      "h"
    ],
    [
      "r",
      "ing"
    ],
    [
      "d",
      "ate"
    ],
    [
      "s",
      "pe"
    ],
    [
      "deser",
      "ves"
    ],
    [
      "me",
      "m"
    ],
    [
      "ex",
      "plain"
    ],
    [
      "th",
      "ough"
    ],
    [
      "see",
      "ing"
    ],
    [
      "im",
      "press"
    ],
    [
      "bo",
      "at"
    ],
    [
      "w",
      "om"
    ],
    [
      "performan",
      "ce"
    ],
    [
      "c",
      "es"
    ],
    [
      "al",
      "most"
    ],
    [
      "ri",
      "ed"
    ],
    [
      "li",
      "ghts"
    ],
    [
      "j",
      "a"
    ],
    [
      "as",
      "h"
    ],
    [
      "ve",
      "l"
    ],
    [
      "f",
      "f"
    ],
    [
      "con",
      "s"
    ],
    [
      "h",
      "on"
    ],
    [
      "mo",
      "ve"
    ],
    [
      "bo",
      "ard"
    ],
    [
      "po",
      "int"
    ],
    [
      "o",
      "pp"
    ],
    [
      "mi",
      "ght"
    ],
    [
      "try",
      "ing"
    ],
    [
      "s",
      "ong"
    ],
    [
      "deser",
      "ved"
    ],
    [
      "ar",
      "y"
    ],
    [
      "some",
      "one"
    ],
    [
      "u",
      "re"
    ],
    [
      "h",
      "ate"
    ],
    [
      "want",
      "ed"
    ],
    [
      "champions",
      "hi"
    ],
    [
      "k",
      "ley"
    ],
    [
      "c",
      "lu"
    ],
    [
      "g",
      "en"
    ],
    [
      "belie",
      "ve"
    ],
    [
      "ins",
      "ane"
    ],
    [
      "p",
      "hy"
    ],
    [
      "b",
      "es"
    ],
    [
      "3",
      "4"
    ],
    [
      "k",
      "new"
    ],
    [
      "y",
      "a"
    ],
    [
      "u",
      "ti"
    ],
    [
      "id",
      "ent"
    ],
    [
      "si",
      "m"
    ],
    [
      "sat",
      "is"
    ],
    [
      "ma",
      "king"
    ],
    [
      "i",
      "ce"
    ],
    [
      "ton",
      "ight"
    ],
    [
      "p",
      "ie"
    ],
    [
      "an",
      "ts"
    ],
    [
      "video",
      "s"
    ],
    [
      "sh",
      "ar"
    ],
    [
      "in",
      "st"
    ],
    [
      "l",
      "es"
    ],
    [
      "fan",
      "tas"
    ],
    [
      "m",
      "atch"
    ],
    [
      "bar",
      "kley"
    ],
    [
      "su",
      "pp"
    ],
    [
      "ter",
      "s"
    ],
    [
      "c",
      "r"
    ],
    [
      "p",
      "or"
    ],
    [
      "v",
      "s"
    ],
    [
      "w",
      "ard"
    ],
    [
      "ri",
      "ble"
    ],
    [
      "defen",
      "sive"
    ],
    [
      "pro",
      "bab"
    ],
    [
      "probab",
      "ly"
    ],
    [
      "a",
      "i"
    ],
    [
      "d",
      "est"
    ],
    [
      "pl",
      "an"
    ],
    [
      "a",
      "u"
    ],
    [
      "me",
      "d"
    ],
    [
      "call",
      "ed"
    ],
    [
      "ti",
      "ve"
    ],
    [
      "f",
      "ar"
    ],
    [
      "happen",
      "s"
    ],
    [
      "rigg",
      "ed"
    ],
    [
      "p",
      "are"
    ],
    [
      "bea",
      "uti"
    ],
    [
      "won",
      "der"
    ],
    [
      "de",
      "fin"
    ],
    [
      "um",
      "b"
    ],
    [
      "be",
      "er"
    ],
    [
      "you",
      "tu"
    ],
    [
      "we",
      "e"
    ],
    [
      "fantas",
      "tic"
    ],
    [
      "sc",
      "en"
    ],
    [
      "che",
      "ck"
    ],
    [
      "ad",
      "d"
    ],
    [
      "t",
      "it"
    ],
    [
      "sp",
      "ort"
    ],
    [
      "look",
      "ed"
    ],
    [
      "char",
      "ac"
    ],
    [
      "to",
      "day"
    ],
    [
      "sh",
      "o"
    ],
    [
      "si",
      "c"
    ],
    [
      "s",
      "hi"
    ],
    [
      "ameri",
      "ca"
    ],
    [
      "sa",
      "qu"
    ],
    [
      "bor",
      "ing"
    ],
    [
      "mi",
      "cha"
    ],
    [
      "per",
      "son"
    ],
    [
      "i",
      "ld"
    ],
    [
      "gr",
      "and"
    ],
    [
      "min",
      "d"
    ],
    [
      "beauti",
      "ful"
    ],
    [
      "whi",
      "ch"
    ],
    [
      "boy",
      "s"
    ],
    [
      "micha",
      "el"
    ],
    [
      "1",
      "1"
    ],
    [
      "dam",
      "n"
    ],
    [
      "c",
      "er"
    ],
    [
      "an",
      "g"
    ],
    [
      "see",
      "ms"
    ],
    [
      "enti",
      "re"
    ],
    [
      "po",
      "ints"
    ],
    [
      "it",
      "ing"
    ],
    [
      "fa",
      "ce"
    ],
    [
      "k",
      "id"
    ],
    [
      "p",
      "ay"
    ],
    [
      "at",
      "s"
    ],
    [
      "w",
      "r"
    ],
    [
      "ga",
      "m"
    ],
    [
      "s",
      "or"
    ],
    [
      "enjoy",
      "ed"
    ],
    [
      "sub",
      "scri"
    ],
    [
      "t",
      "re"
    ],
    [
      "f",
      "ri"
    ],
    [
      "i",
      "mag"
    ],
    [
      "bl",
      "ack"
    ],
    [
      "fin",
      "al"
    ],
    [
      "s",
      "ha"
    ],
    [
      "g",
      "in"
    ],
    [
      "to",
      "ok"
    ],
    [
      "ru",
      "sh"
    ],
    [
      "comple",
      "te"
    ],
    [
      "l",
      "ist"
    ],
    [
      "w",
      "ar"
    ],
    [
      "s",
      "er"
    ],
    [
      "bu",
      "y"
    ],
    [
      "d",
      "r"
    ],
    [
      "c",
      "lose"
    ],
    [
      "ho",
      "p"
    ],
    [
      "half",
      "time"
    ],
    [
      "pre",
      "t"
    ],
    [
      "p",
      "ri"
    ],
    [
      "n",
      "er"
    ],
    [
      "dif",
      "fer"
    ],
    [
      "w",
      "it"
    ],
    [
      "i",
      "es"
    ],
    [
      "f",
      "ying"
    ],
    [
      "re",
      "mem"
    ],
    [
      "on",
      "ce"
    ],
    [
      "st",
      "ra"
    ],
    [
      "us",
      "ed"
    ],
    [
      "say",
      "ing"
    ],
    [
      "ut",
      "es"
    ],
    [
      "t",
      "f"
    ],
    [
      "m",
      "id"
    ],
    [
      "ro",
      "y"
    ],
    [
      "shar",
      "ing"
    ],
    [
      "los",
      "s"
    ],
    [
      "me",
      "an"
    ],
    [
      "en",
      "ing"
    ],
    [
      "w",
      "ent"
    ],
    [
      "ite",
      "ly"
    ],
    [
      "for",
      "ward"
    ],
    [
      "high",
      "lights"
    ],
    [
      "real",
      "is"
    ],
    [
      "a",
      "go"
    ],
    [
      "l",
      "at"
    ],
    [
      "sa",
      "w"
    ],
    [
      "it",
      "ed"
    ],
    [
      "g",
      "s"
    ],
    [
      "c",
      "are"
    ],
    [
      "satis",
      "fying"
    ],
    [
      "got",
      "ta"
    ],
    [
      "min",
      "utes"
    ],
    [
      "ga",
      "r"
    ],
    [
      "fa",
      "ir"
    ],
    [
      "on",
      "es"
    ],
    [
      "remem",
      "ber"
    ],
    [
      "fu",
      "lly"
    ],
    [
      "do",
      "ing"
    ],
    [
      "d",
      "ie"
    ],
    [
      "h",
      "it"
    ],
    [
      "ta",
      "in"
    ],
    [
      "impress",
      "ive"
    ],
    [
      "s",
      "k"
    ],
    [
      "gre",
      "e"
    ],
    [
      "mas",
      "ter"
    ],
    [
      "h",
      "es"
    ],
    [
      "bir",
      "th"
    ],
    [
      "thr",
      "ough"
    ],
    [
      "big",
      "g"
    ],
    [
      "rat",
      "e"
    ],
    [
      "call",
      "s"
    ],
    [
      "every",
      "thing"
    ],
    [
      "defin",
      "itely"
    ],
    [
      "r",
      "est"
    ],
    [
      "e",
      "as"
    ],
    [
      "under",
      "stand"
    ],
    [
      "p",
      "ed"
    ],
    [
      "vi",
      "c"
    ],
    [
      "ha",
      "ving"
    ],
    [
      "fe",
      "ct"
    ],
    [
      "blow",
      "out"
    ],
    [
      "a",
      "ch"
    ],
    [
      "b",
      "rea"
    ],
    [
      "me",
      "di"
    ],
    [
      "imag",
      "ine"
    ],
    [
      "p",
      "en"
    ],
    [
      "ho",
      "ld"
    ],
    [
      "lu",
      "ck"
    ],
    [
      "b",
      "as"
    ],
    [
      "a",
      "a"
    ],
    [
      "hon",
      "est"
    ],
    [
      "tal",
      "k"
    ],
    [
      "saqu",
      "on"
    ],
    [
      "fi",
      "x"
    ],
    [
      "n",
      "g"
    ],
    [
      "ho",
      "t"
    ],
    [
      "o",
      "d"
    ],
    [
      "ge",
      "ts"
    ],
    [
      "h",
      "at"
    ],
    [
      "gu",
      "e"
    ],
    [
      "of",
      "fi"
    ],
    [
      "wor",
      "ds"
    ],
    [
      "ci",
      "al"
    ],
    [
      "ma",
      "kes"
    ],
    [
      "l",
      "ow"
    ],
    [
      "g",
      "or"
    ],
    [
      "tal",
      "ent"
    ],
    [
      "thing",
      "s"
    ],
    [
      "birth",
      "day"
    ],
    [
      "ameri",
      "can"
    ],
    [
      "conf",
      "ident"
    ],
    [
      "u",
      "gh"
    ],
    [
      "l",
      "ed"
    ],
    [
      "se",
      "t"
    ],
    [
      "show",
      "ed"
    ],
    [
      "d",
      "en"
    ],
    [
      "stra",
      "ight"
    ],
    [
      "help",
      "ful"
    ],
    [
      "dest",
      "roy"
    ],
    [
      "ea",
      "gle"
    ],
    [
      "seri",
      "ously"
    ],
    [
      "ps",
      "6"
    ],
    [
      "on",
      "s"
    ],
    [
      "need",
      "ed"
    ],
    [
      "ke",
      "t"
    ],
    [
      "che",
      "i"
    ],
    [
      "o",
      "per"
    ],
    [
      "na",
      "me"
    ],
    [
      "explain",
      "ed"
    ],
    [
      "ea",
      "k"
    ],
    [
      "vi",
      "bes"
    ],
    [
      "and",
      "o"
    ],
    [
      "pret",
      "ty"
    ],
    [
      "st",
      "r"
    ],
    [
      "tra",
      "vis"
    ],
    [
      "offen",
      "se"
    ],
    [
      "for",
      "t"
    ],
    [
      "3",
      "5"
    ],
    [
      "e",
      "i"
    ],
    [
      "could",
      "n"
    ],
    [
      "touch",
      "down"
    ],
    [
      "b",
      "s"
    ],
    [
      "s",
      "ch"
    ],
    [
      "ex",
      "act"
    ],
    [
      "s",
      "we"
    ],
    [
      "re",
      "ason"
    ],
    [
      "l",
      "t"
    ],
    [
      "offen",
      "sive"
    ],
    [
      "de",
      "c"
    ],
    [
      "co",
      "ol"
    ],
    [
      "par",
      "a"
    ],
    [
      "w",
      "er"
    ],
    [
      "d",
      "ri"
    ],
    [
      "m",
      "ust"
    ],
    [
      "r",
      "t"
    ],
    [
      "co",
      "s"
    ],
    [
      "inter",
      "est"
    ],
    [
      "n",
      "d"
    ],
    [
      "p",
      "tion"
    ],
    [
      "ti",
      "es"
    ],
    [
      "on",
      "ent"
    ],
    [
      "s",
      "ing"
    ],
    [
      "fr",
      "an"
    ],
    [
      "com",
      "m"
    ],
    [
      "any",
      "thing"
    ],
    [
      "kin",
      "d"
    ],
    [
      "be",
      "gin"
    ],
    [
      "y",
      "et"
    ],
    [
      "sh",
      "ut"
    ],
    [
      "chei",
      "fs"
    ],
    [
      "202",
      "7"
    ],
    [
      "qu",
      "i"
    ],
    [
      "8",
      "0"
    ],
    [
      "c",
      "tive"
    ],
    [
      "r",
      "d"
    ],
    [
      "res",
      "pect"
    ],
    [
      "ck",
      "ed"
    ],
    [
      "re",
      "peat"
    ],
    [
      "ie",
      "ld"
    ],
    [
      "e",
      "f"
    ],
    [
      "k",
      "en"
    ],
    [
      "pu",
      "re"
    ],
    [
      "h",
      "or"
    ],
    [
      "haha",
      "haha"
    ],
    [
      "chie",
      "f"
    ],
    [
      "opp",
      "onent"
    ],
    [
      "sor",
      "ry"
    ],
    [
      "run",
      "ning"
    ],
    [
      "p",
      "ur"
    ],
    [
      "c",
      "ri"
    ],
    [
      "r",
      "ow"
    ],
    [
      "co",
      "oper"
    ],
    [
      "a",
      "gree"
    ],
    [
      "le",
      "ft"
    ],
    [
      "c",
      "ut"
    ],
    [
      "l",
      "in"
    ],
    [
      "comment",
      "s"
    ],
    [
      "du",
      "de"
    ],
    [
      "ou",
      "d"
    ],
    [
      "cou",
      "nt"
    ],
    [
      "in",
      "sp"
    ],
    [
      "en",
      "ter"
    ],
    [
      "h",
      "our"
    ],
    [
      "w",
      "ish"
    ],
    [
      "lit",
      "er"
    ],
    [
      "or",
      "ts"
    ],
    [
      "cham",
      "ps"
    ],
    [
      "i",
      "a"
    ],
    [
      "c",
      "al"
    ],
    [
      "ri",
      "p"
    ],
    [
      "c",
      "ed"
    ],
    [
      "per",
      "fect"
    ],
    [
      "le",
      "vel"
    ],
    [
      "ri",
      "o"
    ],
    [
      "play",
      "s"
    ],
    [
      "f",
      "ield"
    ],
    [
      "i",
      "th"
    ],
    [
      "er",
      "a"
    ],
    [
      "am",
      "i"
    ],
    [
      "so",
      "on"
    ],
    [
      "tur",
      "n"
    ],
    [
      "bigg",
      "est"
    ],
    [
      "20",
      "0"
    ],
    [
      "ir",
      "d"
    ],
    [
      "does",
      "n"
    ],
    [
      "un",
      "ch"
    ],
    [
      "v",
      "ent"
    ],
    [
      "l",
      "an"
    ],
    [
      "h",
      "ead"
    ],
    [
      "s",
      "an"
    ],
    [
      "a",
      "way"
    ],
    [
      "g",
      "an"
    ],
    [
      "al",
      "ive"
    ],
    [
      "happen",
      "ed"
    ],
    [
      "la",
      "ugh"
    ],
    [
      "de",
      "je"
    ],
    [
      "br",
      "on"
    ],
    [
      "18",
      "00"
    ],
    [
      "h",
      "h"
    ],
    [
      "re",
      "co"
    ],
    [
      "inst",
      "ead"
    ],
    [
      "great",
      "est"
    ],
    [
      "na",
      "il"
    ],
    [
      "que",
      "en"
    ],
    [
      "smi",
      "th"
    ],
    [
      "realis",
      "tic"
    ],
    [
      "d",
      "ra"
    ],
    [
      "d",
      "ing"
    ],
    [
      "ar",
      "t"
    ],
    [
      "exact",
      "ly"
    ],
    [
      "releas",
      "ed"
    ],
    [
      "br",
      "ing"
    ],
    [
      "si",
      "cs"
    ],
    [
      "was",
      "n"
    ],
    [
      "fe",
      "w"
    ],
    [
      "could",
      "nt"
    ],
    [
      "on",
      "t"
    ],
    [
      "ll",
      "i"
    ],
    [
      "t",
      "ed"
    ],
    [
      "phi",
      "l"
    ],
    [
      "mu",
      "sic"
    ],
    [
      "pie",
      "ce"
    ],
    [
      "ce",
      "le"
    ],
    [
      "sp",
      "orts"
    ],
    [
      "deje",
      "an"
    ],
    [
      "ear",
      "ned"
    ],
    [
      "w",
      "tf"
    ],
    [
      "ei",
      "ther"
    ],
    [
      "liter",
      "ally"
    ],
    [
      "e",
      "go"
    ],
    [
      "ear",
      "ly"
    ],
    [
      "lea",
      "gue"
    ],
    [
      "ex",
      "ce"
    ],
    [
      "dy",
      "n"
    ],
    [
      "e",
      "u"
    ],
    [
      "z",
      "e"
    ],
    [
      "p",
      "h"
    ],
    [
      "s",
      "ad"
    ],
    [
      "scri",
      "pt"
    ],
    [
      "po",
      "st"
    ],
    [
      "fa",
      "ct"
    ],
    [
      "c",
      "atch"
    ],
    [
      "em",
      "bar"
    ],
    [
      "domin",
      "ated"
    ],
    [
      "ge",
      "ther"
    ],
    [
      "r",
      "and"
    ],
    [
      "co",
      "p"
    ],
    [
      "c",
      "ur"
    ],
    [
      "p",
      "ast"
    ],
    [
      "need",
      "s"
    ],
    [
      "phy",
      "sics"
    ],
    [
      "ter",
      "rible"
    ],
    [
      "ast",
      "y"
    ],
    [
      "c",
      "ine"
    ],
    [
      "to",
      "gether"
    ],
    [
      "pp",
      "ing"
    ],
    [
      "ci",
      "ally"
    ],
    [
      "th",
      "umb"
    ],
    [
      "ma",
      "in"
    ],
    [
      "co",
      "ach"
    ],
    [
      "sack",
      "ed"
    ],
    [
      "sack",
      "s"
    ],
    [
      "c",
      "ul"
    ],
    [
      "you",
      "ng"
    ],
    [
      "m",
      "or"
    ],
    [
      "ll",
      "ow"
    ],
    [
      "um",
      "p"
    ],
    [
      "k",
      "o"
    ],
    [
      "ob",
      "vi"
    ],
    [
      "b",
      "ur"
    ],
    [
      "m",
      "ate"
    ],
    [
      "inter",
      "ce"
    ],
    [
      "ex",
      "pos"
    ],
    [
      "fun",
      "ny"
    ],
    [
      "ur",
      "ing"
    ],
    [
      "say",
      "s"
    ],
    [
      "pr",
      "oud"
    ],
    [
      "any",
      "more"
    ],
    [
      "dro",
      "p"
    ],
    [
      "chan",
      "ce"
    ],
    [
      "mo",
      "ves"
    ],
    [
      "ma",
      "ge"
    ],
    [
      "an",
      "n"
    ],
    [
      "to",
      "r"
    ],
    [
      "cons",
      "ist"
    ],
    [
      "all",
      "ow"
    ],
    [
      "am",
      "ent"
    ],
    [
      "stay",
      "ed"
    ],
    [
      "y",
      "e"
    ],
    [
      "st",
      "e"
    ],
    [
      "k",
      "ick"
    ],
    [
      "y",
      "y"
    ],
    [
      "f",
      "ast"
    ],
    [
      "f",
      "ree"
    ],
    [
      "wit",
      "ness"
    ],
    [
      "ro",
      "ll"
    ],
    [
      "we",
      "en"
    ],
    [
      "2",
      "4"
    ],
    [
      "wee",
      "k"
    ],
    [
      "insp",
      "ir"
    ],
    [
      "v",
      "al"
    ],
    [
      "j",
      "ig"
    ],
    [
      "in",
      "cre"
    ],
    [
      "for",
      "get"
    ],
    [
      "was",
      "nt"
    ],
    [
      "h",
      "um"
    ],
    [
      "r",
      "ass"
    ],
    [
      "x",
      "ai"
    ],
    [
      "hour",
      "s"
    ],
    [
      "d",
      "ou"
    ],
    [
      "exc",
      "ited"
    ],
    [
      "in",
      "d"
    ],
    [
      "rand",
      "om"
    ],
    [
      "bet",
      "ween"
    ],
    [
      "u",
      "e"
    ],
    [
      "st",
      "u"
    ],
    [
      "f",
      "li"
    ],
    [
      "st",
      "up"
    ],
    [
      "c",
      "ow"
    ],
    [
      "t",
      "d"
    ],
    [
      "gi",
      "ants"
    ],
    [
      "ref",
      "ere"
    ],
    [
      "hy",
      "pe"
    ],
    [
      "wh",
      "ite"
    ],
    [
      "f",
      "ut"
    ],
    [
      "en",
      "cy"
    ],
    [
      "th",
      "re"
    ],
    [
      "c",
      "ent"
    ],
    [
      "embar",
      "rass"
    ],
    [
      "rio",
      "ts"
    ],
    [
      "15",
      "k"
    ],
    [
      "wom",
      "an"
    ],
    [
      "ob",
      "je"
    ],
    [
      "miss",
      "ion"
    ],
    [
      "s",
      "al"
    ],
    [
      "youtu",
      "be"
    ],
    [
      "c",
      "ess"
    ],
    [
      "ea",
      "ch"
    ],
    [
      "w",
      "n"
    ],
    [
      "f",
      "ra"
    ],
    [
      "le",
      "g"
    ],
    [
      "3",
      "rd"
    ],
    [
      "tal",
      "king"
    ],
    [
      "start",
      "ed"
    ],
    [
      "stup",
      "id"
    ],
    [
      "destroy",
      "ed"
    ],
    [
      "xai",
      "3"
    ],
    [
      "xai3",
      "15k"
    ],
    [
      "he",
      "y"
    ],
    [
      "b",
      "on"
    ],
    [
      "chan",
      "ge"
    ],
    [
      "vo",
      "ice"
    ],
    [
      "l",
      "ar"
    ],
    [
      "thumb",
      "nail"
    ],
    [
      "00",
      "0"
    ],
    [
      "it",
      "es"
    ],
    [
      "fe",
      "lt"
    ],
    [
      "g",
      "ed"
    ],
    [
      "dr",
      "ink"
    ],
    [
      "ho",
      "me"
    ],
    [
      "m",
      "il"
    ],
    [
      "t",
      "our"
    ],
    [
      "deser",
      "ve"
    ],
    [
      "w",
      "ear"
    ],
    [
      "p",
      "ra"
    ],
    [
      "pos",
      "si"
    ],
    [
      "m",
      "m"
    ],
    [
      "c",
      "am"
    ],
    [
      "scri",
      "m"
    ],
    [
      "scrim",
      "mage"
    ],
    [
      "pat",
      "riots"
    ],
    [
      "differ",
      "ent"
    ],
    [
      "al",
      "gor"
    ],
    [
      "charac",
      "ter"
    ],
    [
      "d",
      "an"
    ],
    [
      "feel",
      "s"
    ],
    [
      "r",
      "ound"
    ],
    [
      "bowl",
      "s"
    ],
    [
      "c",
      "us"
    ],
    [
      "l",
      "ate"
    ],
    [
      "algor",
      "ith"
    ],
    [
      "s",
      "po"
    ],
    [
      "secon",
      "ds"
    ],
    [
      "pla",
      "ce"
    ],
    [
      "is",
      "s"
    ],
    [
      "hope",
      "fully"
    ],
    [
      "p",
      "i"
    ],
    [
      "fri",
      "end"
    ],
    [
      "los",
      "ing"
    ],
    [
      "cele",
      "b"
    ],
    [
      "3",
      "8"
    ],
    [
      "c",
      "our"
    ],
    [
      "t",
      "ried"
    ],
    [
      "c",
      "ast"
    ],
    [
      "dyn",
      "asty"
    ],
    [
      "expos",
      "ed"
    ],
    [
      "championshi",
      "p"
    ],
    [
      "ed",
      "iting"
    ],
    [
      "ti",
      "er"
    ],
    [
      "ti",
      "red"
    ],
    [
      "ch",
      "ild"
    ],
    [
      "b",
      "t"
    ],
    [
      "2",
      "8"
    ],
    [
      "ne",
      "l"
    ],
    [
      "sch",
      "oo"
    ],
    [
      "it",
      "i"
    ],
    [
      "l",
      "ma"
    ],
    [
      "fin",
      "d"
    ],
    [
      "j",
      "ack"
    ],
    [
      "algorith",
      "m"
    ],
    [
      "d",
      "uring"
    ],
    [
      "ro",
      "ss"
    ],
    [
      "re",
      "n"
    ],
    [
      "f",
      "la"
    ],
    [
      "en",
      "ds"
    ],
    [
      "think",
      "ing"
    ],
    [
      "ch",
      "o"
    ],
    [
      "n",
      "or"
    ],
    [
      "jig",
      "gle"
    ],
    [
      "2",
      "7"
    ],
    [
      "tru",
      "e"
    ],
    [
      "ta",
      "king"
    ],
    [
      "c",
      "le"
    ],
    [
      "begin",
      "ning"
    ],
    [
      "fr",
      "ont"
    ],
    [
      "t",
      "v"
    ],
    [
      "ac",
      "tion"
    ],
    [
      "gi",
      "ving"
    ],
    [
      "4",
      "9"
    ],
    [
      "ar",
      "ds"
    ],
    [
      "ven",
      "ge"
    ],
    [
      "cou",
      "ple"
    ],
    [
      "a",
      "int"
    ],
    [
      "fin",
      "ish"
    ],
    [
      "ru",
      "g"
    ],
    [
      "w",
      "anna"
    ],
    [
      "lat",
      "er"
    ],
    [
      "eas",
      "y"
    ],
    [
      "championshi",
      "ps"
    ],
    [
      "st",
      "ation"
    ],
    [
      "con",
      "so"
    ],
    [
      "es",
      "tion"
    ],
    [
      "fut",
      "ure"
    ],
    [
      "end",
      "ing"
    ],
    [
      "inspir",
      "ing"
    ],
    [
      "goo",
      "o"
    ],
    [
      "ma",
      "d"
    ],
    [
      "com",
      "p"
    ],
    [
      "5",
      "9"
    ],
    [
      "b",
      "ed"
    ],
    [
      "j",
      "or"
    ],
    [
      "fo",
      "llow"
    ],
    [
      "k",
      "a"
    ],
    [
      "oun",
      "ds"
    ],
    [
      "p",
      "ort"
    ],
    [
      "bo",
      "x"
    ],
    [
      "po",
      "pped"
    ],
    [
      "clu",
      "b"
    ],
    [
      "pr",
      "is"
    ],
    [
      "blow",
      "s"
    ],
    [
      "seri",
      "es"
    ],
    [
      "ear",
      "s"
    ],
    [
      "interest",
      "ing"
    ],
    [
      "ct",
      "ed"
    ],
    [
      "ci",
      "als"
    ],
    [
      "vic",
      "tory"
    ],
    [
      "br",
      "own"
    ],
    [
      "over",
      "confident"
    ],
    [
      "subscri",
      "ber"
    ],
    [
      "26",
      "th"
    ],
    [
      "cre",
      "ator"
    ],
    [
      "chan",
      "nel"
    ],
    [
      "per",
      "i"
    ],
    [
      "te",
      "m"
    ],
    [
      "si",
      "ck"
    ],
    [
      "che",
      "at"
    ],
    [
      "wom",
      "en"
    ],
    [
      "cour",
      "se"
    ],
    [
      "bron",
      "cos"
    ],
    [
      "pen",
      "al"
    ],
    [
      "mon",
      "th"
    ],
    [
      "gl",
      "ing"
    ],
    [
      "re",
      "cor"
    ],
    [
      "brea",
      "k"
    ],
    [
      "clear",
      "ly"
    ],
    [
      "au",
      "to"
    ],
    [
      "schoo",
      "l"
    ],
    [
      "kid",
      "s"
    ],
    [
      "t",
      "t"
    ],
    [
      "id",
      "es"
    ],
    [
      "pro",
      "te"
    ],
    [
      "is",
      "n"
    ],
    [
      "incre",
      "di"
    ],
    [
      "jo",
      "go"
    ],
    [
      "ef",
      "fort"
    ],
    [
      "wor",
      "se"
    ],
    [
      "ga",
      "l"
    ],
    [
      "reco",
      "gn"
    ],
    [
      "random",
      "ly"
    ],
    [
      "tru",
      "ly"
    ],
    [
      "consist",
      "ency"
    ],
    [
      "inspiring",
      "keep"
    ],
    [
      "y",
      "o"
    ],
    [
      "ro",
      "ok"
    ],
    [
      "li",
      "kes"
    ],
    [
      "b",
      "is"
    ],
    [
      "es",
      "pe"
    ],
    [
      "s",
      "y"
    ],
    [
      "g",
      "er"
    ],
    [
      "dis",
      "app"
    ],
    [
      "complete",
      "ly"
    ],
    [
      "conso",
      "le"
    ],
    [
      "d",
      "ead"
    ],
    [
      "scen",
      "e"
    ],
    [
      "end",
      "ed"
    ],
    [
      "c",
      "as"
    ],
    [
      "go",
      "es"
    ],
    [
      "fu",
      "ll"
    ],
    [
      "swe",
      "et"
    ],
    [
      "ta",
      "kes"
    ],
    [
      "all",
      "en"
    ],
    [
      "v",
      "id"
    ],
    [
      "ic",
      "ally"
    ],
    [
      "di",
      "o"
    ],
    [
      "pu",
      "sh"
    ],
    [
      "b",
      "ri"
    ],
    [
      "lma",
      "o"
    ],
    [
      "e",
      "e"
    ],
    [
      "tit",
      "le"
    ],
    [
      "de",
      "v"
    ],
    [
      "f",
      "c"
    ],
    [
      "won",
      "t"
    ],
    [
      "h",
      "un"
    ],
    [
      "m",
      "al"
    ],
    [
      "tom",
      "my"
    ],
    [
      "recogn",
      "ition"
    ],
    [
      "n",
      "ation"
    ],
    [
      "co",
      "ll"
    ],
    [
      "n",
      "um"
    ],
    [
      "under",
      "rated"
    ],
    [
      "on",
      "line"
    ],
    [
      "2",
      "5"
    ],
    [
      "t",
      "ri"
    ],
    [
      "bo",
      "o"
    ],
    [
      "kin",
      "da"
    ],
    [
      "w",
      "al"
    ],
    [
      "espe",
      "cially"
    ],
    [
      "r",
      "id"
    ],
    [
      "bl",
      "own"
    ],
    [
      "de",
      "fe"
    ],
    [
      "un",
      "a"
    ],
    [
      "supp",
      "ort"
    ],
    [
      "sing",
      "le"
    ],
    [
      "sa",
      "ve"
    ],
    [
      "is",
      "nt"
    ],
    [
      "ke",
      "y"
    ],
    [
      "feel",
      "ing"
    ],
    [
      "call",
      "ing"
    ],
    [
      "bro",
      "ther"
    ],
    [
      "str",
      "ong"
    ],
    [
      "rockstar",
      "games"
    ],
    [
      "r",
      "an"
    ],
    [
      "b",
      "en"
    ],
    [
      "show",
      "s"
    ],
    [
      "honest",
      "ly"
    ],
    [
      "dis",
      "tra"
    ],
    [
      "wr",
      "ong"
    ],
    [
      "om",
      "g"
    ],
    [
      "l",
      "ing"
    ],
    [
      "tour",
      "n"
    ],
    [
      "quarter",
      "back"
    ],
    [
      "4",
      "5"
    ],
    [
      "c",
      "li"
    ],
    [
      "lo",
      "ad"
    ],
    [
      "gen",
      "er"
    ],
    [
      "l",
      "ad"
    ],
    [
      "er",
      "o"
    ],
    [
      "t",
      "wi"
    ],
    [
      "twi",
      "ce"
    ],
    [
      "wo",
      "ke"
    ],
    [
      "di",
      "a"
    ],
    [
      "ta",
      "ck"
    ],
    [
      "m",
      "it"
    ],
    [
      "s",
      "ea"
    ],
    [
      "shi",
      "rt"
    ],
    [
      "in",
      "v"
    ],
    [
      "you",
      "re"
    ],
    [
      "2",
      "nd"
    ],
    [
      "hu",
      "ge"
    ],
    [
      "en",
      "gl"
    ],
    [
      "of",
      "fs"
    ],
    [
      "interce",
      "ption"
    ],
    [
      "s",
      "il"
    ],
    [
      "id",
      "ed"
    ],
    [
      "s",
      "ounds"
    ],
    [
      "ma",
      "le"
    ],
    [
      "k",
      "er"
    ],
    [
      "c",
      "ing"
    ],
    [
      "t",
      "b"
    ],
    [
      "b",
      "an"
    ],
    [
      "2",
      "3"
    ],
    [
      "b",
      "la"
    ],
    [
      "l",
      "er"
    ],
    [
      "9",
      "9"
    ],
    [
      "favor",
      "ite"
    ],
    [
      "mat",
      "ter"
    ],
    [
      "min",
      "ute"
    ],
    [
      "disapp",
      "o"
    ],
    [
      "c",
      "ute"
    ],
    [
      "tourn",
      "ament"
    ],
    [
      "ni",
      "ck"
    ],
    [
      "defen",
      "ce"
    ],
    [
      "re",
      "am"
    ],
    [
      "en",
      "light"
    ],
    [
      "enlight",
      "ening"
    ],
    [
      "w",
      "oo"
    ],
    [
      "f",
      "al"
    ],
    [
      "i",
      "o"
    ],
    [
      "es",
      "per"
    ],
    [
      "obje",
      "ctive"
    ],
    [
      "play",
      "list"
    ],
    [
      "hold",
      "ing"
    ],
    [
      "com",
      "pe"
    ],
    [
      "num",
      "ber"
    ],
    [
      "re",
      "venge"
    ],
    [
      "enter",
      "tain"
    ],
    [
      "ex",
      "plan"
    ],
    [
      "4",
      "th"
    ],
    [
      "cl",
      "ass"
    ],
    [
      "af",
      "c"
    ],
    [
      "ti",
      "ce"
    ],
    [
      "scen",
      "es"
    ],
    [
      "ch",
      "ills"
    ],
    [
      "id",
      "ea"
    ],
    [
      "the",
      "ft"
    ],
    [
      "qu",
      "estion"
    ],
    [
      "does",
      "nt"
    ],
    [
      "wi",
      "ld"
    ],
    [
      "en",
      "se"
    ],
    [
      "favor",
      "ites"
    ],
    [
      "6",
      "0"
    ],
    [
      "st",
      "at"
    ],
    [
      "hand",
      "s"
    ],
    [
      "b",
      "ru"
    ],
    [
      "ver",
      "age"
    ],
    [
      "k",
      "i"
    ],
    [
      "p",
      "ack"
    ],
    [
      "pres",
      "sure"
    ],
    [
      "domin",
      "ant"
    ],
    [
      "bu",
      "cs"
    ],
    [
      "com",
      "pare"
    ],
    [
      "fa",
      "ke"
    ],
    [
      "fi",
      "re"
    ],
    [
      "ann",
      "oun"
    ],
    [
      "s",
      "ound"
    ],
    [
      "c",
      "lock"
    ],
    [
      "l",
      "ead"
    ],
    [
      "fore",
      "ver"
    ],
    [
      "c",
      "red"
    ],
    [
      "y",
      "ards"
    ],
    [
      "swi",
      "f"
    ],
    [
      "se",
      "x"
    ],
    [
      "delay",
      "ed"
    ],
    [
      "va",
      "i"
    ],
    [
      "fi",
      "ght"
    ],
    [
      "vers",
      "ion"
    ],
    [
      "st",
      "ate"
    ],
    [
      "g",
      "as"
    ],
    [
      "b",
      "us"
    ],
    [
      "c",
      "rush"
    ],
    [
      "com",
      "mer"
    ],
    [
      "ce",
      "i"
    ],
    [
      "a",
      "j"
    ],
    [
      "cow",
      "boys"
    ],
    [
      "n",
      "fc"
    ],
    [
      "ri",
      "g"
    ],
    [
      "charac",
      "ters"
    ],
    [
      "actu",
      "al"
    ],
    [
      "100",
      "0"
    ],
    [
      "ta",
      "il"
    ],
    [
      "b",
      "illion"
    ],
    [
      "0",
      "5"
    ],
    [
      "possi",
      "ble"
    ],
    [
      "a",
      "in"
    ],
    [
      "to",
      "ld"
    ],
    [
      "beat",
      "ing"
    ],
    [
      "re",
      "id"
    ],
    [
      "score",
      "board"
    ],
    [
      "bl",
      "it"
    ],
    [
      "al",
      "ity"
    ],
    [
      "in",
      "si"
    ],
    [
      "master",
      "piece"
    ],
    [
      "ar",
      "s"
    ],
    [
      "and",
      "re"
    ],
    [
      "gam",
      "ing"
    ],
    [
      "incredi",
      "ble"
    ],
    [
      "cry",
      "ing"
    ],
    [
      "t",
      "an"
    ],
    [
      "che",
      "ats"
    ],
    [
      "for",
      "mat"
    ],
    [
      "smi",
      "le"
    ],
    [
      "pur",
      "ple"
    ],
    [
      "domin",
      "ation"
    ],
    [
      "s",
      "it"
    ],
    [
      "2",
      "1"
    ],
    [
      "i",
      "i"
    ],
    [
      "v",
      "an"
    ],
    [
      "g",
      "un"
    ],
    [
      "h",
      "ar"
    ],
    [
      "hu",
      "man"
    ],
    [
      "id",
      "er"
    ],
    [
      "f",
      "our"
    ],
    [
      "ju",
      "ego"
    ],
    [
      "ti",
      "ps"
    ],
    [
      "i",
      "ly"
    ],
    [
      "hor",
      "rible"
    ],
    [
      "re",
      "cei"
    ],
    [
      "mahom",
      "o"
    ],
    [
      "u",
      "al"
    ],
    [
      "bu",
      "ild"
    ],
    [
      "every",
      "body"
    ],
    [
      "go",
      "on"
    ],
    [
      "ad",
      "o"
    ],
    [
      "show",
      "ing"
    ],
    [
      "20",
      "00"
    ],
    [
      "sm",
      "art"
    ],
    [
      "5",
      "5"
    ],
    [
      "si",
      "x"
    ],
    [
      "inv",
      "est"
    ],
    [
      "c",
      "tic"
    ],
    [
      "play",
      "station"
    ],
    [
      "p",
      "ly"
    ],
    [
      "de",
      "tail"
    ],
    [
      "p",
      "an"
    ],
    [
      "t",
      "ro"
    ],
    [
      "d",
      "ar"
    ],
    [
      "worth",
      "y"
    ],
    [
      "gr",
      "ound"
    ],
    [
      "ta",
      "m"
    ],
    [
      "pu",
      "ll"
    ],
    [
      "sa",
      "ved"
    ],
    [
      "th",
      "ird"
    ],
    [
      "b",
      "lock"
    ],
    [
      "obvi",
      "ous"
    ],
    [
      "ven",
      "s"
    ],
    [
      "to",
      "tal"
    ],
    [
      "what",
      "s"
    ],
    [
      "to",
      "ri"
    ],
    [
      "d",
      "ed"
    ],
    [
      "n",
      "n"
    ],
    [
      "f",
      "il"
    ],
    [
      "d",
      "ad"
    ],
    [
      "use",
      "ful"
    ],
    [
      "ch",
      "r"
    ],
    [
      "k",
      "k"
    ],
    [
      "no",
      "body"
    ],
    [
      "fra",
      "u"
    ],
    [
      "by",
      "e"
    ],
    [
      "champ",
      "ion"
    ],
    [
      "ha",
      "w"
    ],
    [
      "po",
      "or"
    ],
    [
      "m",
      "ing"
    ],
    [
      "trail",
      "ers"
    ],
    [
      "k",
      "ill"
    ],
    [
      "a",
      "ir"
    ],
    [
      "mo",
      "s"
    ],
    [
      "co",
      "ok"
    ],
    [
      "f",
      "all"
    ],
    [
      "p",
      "ow"
    ],
    [
      "che",
      "fs"
    ],
    [
      "p",
      "ic"
    ],
    [
      "l",
      "am"
    ],
    [
      "4",
      "8"
    ],
    [
      "t",
      "ex"
    ],
    [
      "y",
      "r"
    ],
    [
      "n",
      "on"
    ],
    [
      "explan",
      "ation"
    ],
    [
      "st",
      "rate"
    ],
    [
      "ke",
      "pt"
    ],
    [
      "refere",
      "es"
    ],
    [
      "se",
      "mi"
    ],
    [
      "bis",
      "hop"
    ],
    [
      "goo",
      "gling"
    ],
    [
      "mo",
      "de"
    ],
    [
      "n",
      "ie"
    ],
    [
      "k",
      "ar"
    ],
    [
      "ps",
      "4"
    ],
    [
      "bas",
      "ically"
    ],
    [
      "x",
      "box"
    ],
    [
      "can",
      "not"
    ],
    [
      "est",
      "e"
    ],
    [
      "do",
      "s"
    ],
    [
      "s",
      "ou"
    ],
    [
      "ta",
      "ble"
    ],
    [
      "spe",
      "ed"
    ],
    [
      "ul",
      "t"
    ],
    [
      "play",
      "offs"
    ],
    [
      "rug",
      "by"
    ],
    [
      "un",
      "i"
    ],
    [
      "no",
      "tice"
    ],
    [
      "ate",
      "ly"
    ],
    [
      "ri",
      "ous"
    ],
    [
      "real",
      "iz"
    ],
    [
      "es",
      "se"
    ],
    [
      "vo",
      "l"
    ],
    [
      "in",
      "a"
    ],
    [
      "lo",
      "p"
    ],
    [
      "0",
      "9"
    ],
    [
      "1",
      "st"
    ],
    [
      "ad",
      "a"
    ],
    [
      "any",
      "way"
    ],
    [
      "sc",
      "re"
    ],
    [
      "do",
      "ll"
    ],
    [
      "ck",
      "ing"
    ],
    [
      "re",
      "mind"
    ],
    [
      "would",
      "n"
    ],
    [
      "insi",
      "ghts"
    ],
    [
      "tur",
      "ned"
    ],
    [
      "19",
      "00"
    ],
    [
      "ra",
      "vens"
    ],
    [
      "f",
      "ami"
    ],
    [
      "ra",
      "dio"
    ],
    [
      "l",
      "and"
    ],
    [
      "are",
      "n"
    ],
    [
      "in",
      "ess"
    ],
    [
      "luck",
      "y"
    ],
    [
      "se",
      "ll"
    ],
    [
      "op",
      "en"
    ],
    [
      "over",
      "rated"
    ],
    [
      "sur",
      "pris"
    ],
    [
      "re",
      "min"
    ],
    [
      "for",
      "got"
    ],
    [
      "dro",
      "ps"
    ],
    [
      "un",
      "ity"
    ],
    [
      "cont",
      "in"
    ],
    [
      "a",
      "g"
    ],
    [
      "pow",
      "er"
    ],
    [
      "b",
      "om"
    ],
    [
      "cine",
      "ma"
    ],
    [
      "my",
      "self"
    ],
    [
      "z",
      "z"
    ],
    [
      "to",
      "t"
    ],
    [
      "s",
      "qu"
    ],
    [
      "id",
      "a"
    ],
    [
      "f",
      "ps"
    ],
    [
      "long",
      "er"
    ],
    [
      "fri",
      "ends"
    ],
    [
      "ig",
      "n"
    ],
    [
      "so",
      "oo"
    ],
    [
      "d",
      "in"
    ],
    [
      "z",
      "a"
    ],
    [
      "is",
      "m"
    ],
    [
      "es",
      "e"
    ],
    [
      "los",
      "er"
    ],
    [
      "allow",
      "ed"
    ],
    [
      "dri",
      "ve"
    ],
    [
      "gi",
      "ven"
    ],
    [
      "pre",
      "di"
    ],
    [
      "pa",
      "wn"
    ],
    [
      "exce",
      "ll"
    ],
    [
      "and",
      "y"
    ],
    [
      "swif",
      "ties"
    ],
    [
      "b",
      "um"
    ],
    [
      "wait",
      "ed"
    ],
    [
      "p",
      "un"
    ],
    [
      "la",
      "unch"
    ],
    [
      "c",
      "ly"
    ],
    [
      "see",
      "m"
    ],
    [
      "ou",
      "se"
    ],
    [
      "pl",
      "s"
    ],
    [
      "ther",
      "es"
    ],
    [
      "we",
      "l"
    ],
    [
      "are",
      "nt"
    ],
    [
      "ck",
      "s"
    ],
    [
      "p",
      "as"
    ],
    [
      "hi",
      "p"
    ],
    [
      "cont",
      "ro"
    ],
    [
      "b",
      "ers"
    ],
    [
      "3",
      "3"
    ],
    [
      "os",
      "ed"
    ],
    [
      "p",
      "on"
    ],
    [
      "0",
      "2"
    ],
    [
      "u",
      "ght"
    ],
    [
      "pa",
      "id"
    ],
    [
      "in",
      "format"
    ],
    [
      "informat",
      "ive"
    ],
    [
      "ta",
      "ctic"
    ],
    [
      "dev",
      "on"
    ],
    [
      "commer",
      "cials"
    ],
    [
      "comment",
      "ary"
    ],
    [
      "cly",
      "de"
    ],
    [
      "month",
      "s"
    ],
    [
      "e",
      "vent"
    ],
    [
      "or",
      "der"
    ],
    [
      "m",
      "ill"
    ],
    [
      "sto",
      "pped"
    ],
    [
      "f",
      "as"
    ],
    [
      "4",
      "3"
    ],
    [
      "i",
      "to"
    ],
    [
      "leg",
      "end"
    ],
    [
      "ta",
      "ge"
    ],
    [
      "b",
      "al"
    ],
    [
      "haha",
      "ha"
    ],
    [
      "j",
      "er"
    ],
    [
      "for",
      "give"
    ],
    [
      "ul",
      "ti"
    ],
    [
      "tot",
      "ally"
    ],
    [
      "go",
      "al"
    ],
    [
      "up",
      "s"
    ],
    [
      "ch",
      "i"
    ],
    [
      "h",
      "ind"
    ],
    [
      "k",
      "ins"
    ],
    [
      "blit",
      "z"
    ],
    [
      "4",
      "2"
    ],
    [
      "p",
      "ul"
    ],
    [
      "h",
      "eal"
    ],
    [
      "w",
      "ants"
    ],
    [
      "che",
      "ating"
    ],
    [
      "ex",
      "peri"
    ],
    [
      "releas",
      "es"
    ],
    [
      "as",
      "k"
    ],
    [
      "ri",
      "es"
    ],
    [
      "lea",
      "ve"
    ],
    [
      "s",
      "mo"
    ],
    [
      "supp",
      "osed"
    ],
    [
      "lan",
      "gu"
    ],
    [
      "a",
      "verage"
    ],
    [
      "bo",
      "ok"
    ],
    [
      "f",
      "ound"
    ],
    [
      "hur",
      "t"
    ],
    [
      "differ",
      "ence"
    ],
    [
      "al",
      "o"
    ],
    [
      "bu",
      "ff"
    ],
    [
      "help",
      "ing"
    ],
    [
      "cred",
      "it"
    ],
    [
      "lea",
      "ks"
    ],
    [
      "fran",
      "k"
    ],
    [
      "co",
      "ver"
    ],
    [
      "l",
      "en"
    ],
    [
      "es",
      "to"
    ],
    [
      "cons",
      "ider"
    ],
    [
      "ro",
      "o"
    ],
    [
      "ha",
      "iti"
    ],
    [
      "lear",
      "n"
    ],
    [
      "s",
      "is"
    ],
    [
      "i",
      "de"
    ],
    [
      "gre",
      "en"
    ],
    [
      "ha",
      "ven"
    ],
    [
      "n",
      "ar"
    ],
    [
      "li",
      "ons"
    ],
    [
      "thre",
      "w"
    ],
    [
      "ha",
      "i"
    ],
    [
      "x",
      "i"
    ],
    [
      "n",
      "u"
    ],
    [
      "3",
      "1"
    ],
    [
      "sil",
      "ence"
    ],
    [
      "at",
      "t"
    ],
    [
      "they",
      "re"
    ],
    [
      "andre",
      "as"
    ],
    [
      "sk",
      "i"
    ],
    [
      "li",
      "c"
    ],
    [
      "i",
      "er"
    ],
    [
      "mar",
      "k"
    ],
    [
      "it",
      "ies"
    ],
    [
      "langu",
      "age"
    ],
    [
      "help",
      "ed"
    ],
    [
      "disappo",
      "int"
    ],
    [
      "high",
      "light"
    ],
    [
      "for",
      "m"
    ],
    [
      "w",
      "eak"
    ],
    [
      "excell",
      "ent"
    ],
    [
      "c",
      "ket"
    ],
    [
      "sco",
      "red"
    ],
    [
      "49",
      "ers"
    ],
    [
      "script",
      "ed"
    ],
    [
      "17",
      "00"
    ],
    [
      "hear",
      "d"
    ],
    [
      "mi",
      "ch"
    ],
    [
      "202",
      "4"
    ],
    [
      "x",
      "d"
    ],
    [
      "se",
      "m"
    ],
    [
      "ta",
      "gon"
    ],
    [
      "man",
      "s"
    ],
    [
      "es",
      "ta"
    ],
    [
      "recor",
      "d"
    ],
    [
      "us",
      "ing"
    ],
    [
      "ro",
      "b"
    ],
    [
      "tr",
      "ash"
    ],
    [
      "il",
      "ed"
    ],
    [
      "hear",
      "t"
    ],
    [
      "u",
      "su"
    ],
    [
      "t",
      "ough"
    ],
    [
      "real",
      "ity"
    ],
    [
      "k",
      "night"
    ],
    [
      "b",
      "ears"
    ],
    [
      "sea",
      "haw"
    ],
    [
      "an",
      "ge"
    ],
    [
      "bon",
      "nie"
    ],
    [
      "coll",
      "e"
    ],
    [
      "de",
      "ve"
    ],
    [
      "be",
      "come"
    ],
    [
      "youtu",
      "ber"
    ],
    [
      "an",
      "ti"
    ],
    [
      "re",
      "l"
    ],
    [
      "sp",
      "an"
    ],
    [
      "sa",
      "ving"
    ],
    [
      "de",
      "ep"
    ],
    [
      "li",
      "x"
    ],
    [
      "michael",
      "s"
    ],
    [
      "bru",
      "h"
    ],
    [
      "st",
      "re"
    ],
    [
      "we",
      "ird"
    ],
    [
      "surpris",
      "ed"
    ],
    [
      "si",
      "gn"
    ],
    [
      "j",
      "es"
    ],
    [
      "ca",
      "p"
    ],
    [
      "mi",
      "li"
    ],
    [
      "id",
      "k"
    ],
    [
      "bl",
      "ed"
    ],
    [
      "16",
      "00"
    ],
    [
      "fli",
      "r"
    ],
    [
      "his",
      "tori"
    ],
    [
      "ta",
      "ken"
    ],
    [
      "h",
      "ouse"
    ],
    [
      "spe",
      "cial"
    ],
    [
      "the",
      "tic"
    ],
    [
      "h",
      "ea"
    ],
    [
      "com",
      "o"
    ],
    [
      "m",
      "ess"
    ],
    [
      "comp",
      "any"
    ],
    [
      "a",
      "qui"
    ],
    [
      "s",
      "es"
    ],
    [
      "ok",
      "ay"
    ],
    [
      "stu",
      "ff"
    ],
    [
      "h",
      "om"
    ],
    [
      "3",
      "6"
    ],
    [
      "ac",
      "ross"
    ],
    [
      "laugh",
      "ing"
    ],
    [
      "aw",
      "ful"
    ],
    [
      "be",
      "hind"
    ],
    [
      "gu",
      "lar"
    ],
    [
      "r",
      "al"
    ],
    [
      "would",
      "ve"
    ],
    [
      "see",
      "med"
    ],
    [
      "fin",
      "als"
    ],
    [
      "seahaw",
      "ks"
    ],
    [
      "hat",
      "ers"
    ],
    [
      "3",
      "peat"
    ],
    [
      "fer",
      "ence"
    ],
    [
      "jo",
      "sh"
    ],
    [
      "9",
      "0"
    ],
    [
      "oo",
      "o"
    ],
    [
      "rea",
      "ch"
    ],
    [
      "dro",
      "pped"
    ],
    [
      "is",
      "ts"
    ],
    [
      "i",
      "or"
    ],
    [
      "n",
      "gl"
    ],
    [
      "tr",
      "ump"
    ],
    [
      "pro",
      "ble"
    ],
    [
      "li",
      "ked"
    ],
    [
      "bo",
      "t"
    ],
    [
      "f",
      "ive"
    ],
    [
      "il",
      "ity"
    ],
    [
      "re",
      "gular"
    ],
    [
      "bl",
      "ess"
    ],
    [
      "ra",
      "id"
    ],
    [
      "r",
      "ess"
    ],
    [
      "v",
      "in"
    ],
    [
      "care",
      "er"
    ],
    [
      "ro",
      "g"
    ],
    [
      "fix",
      "ing"
    ],
    [
      "en",
      "s"
    ],
    [
      "3",
      "7"
    ],
    [
      "car",
      "s"
    ],
    [
      "im",
      "port"
    ],
    [
      "n",
      "at"
    ],
    [
      "b",
      "re"
    ],
    [
      "d",
      "ream"
    ],
    [
      "br",
      "as"
    ],
    [
      "g",
      "one"
    ],
    [
      "men",
      "tion"
    ],
    [
      "k",
      "end"
    ],
    [
      "de",
      "li"
    ],
    [
      "ish",
      "ed"
    ],
    [
      "wor",
      "d"
    ],
    [
      "st",
      "er"
    ],
    [
      "fo",
      "cus"
    ],
    [
      "fla",
      "gs"
    ],
    [
      "pat",
      "s"
    ],
    [
      "flir",
      "ting"
    ],
    [
      "ment",
      "s"
    ],
    [
      "hell",
      "o"
    ],
    [
      "tr",
      "ans"
    ],
    [
      "f",
      "ine"
    ],
    [
      "na",
      "h"
    ],
    [
      "girl",
      "s"
    ],
    [
      "4",
      "7"
    ],
    [
      "list",
      "en"
    ],
    [
      "in",
      "clu"
    ],
    [
      "de",
      "m"
    ],
    [
      "p",
      "lo"
    ],
    [
      "sm",
      "all"
    ],
    [
      "medi",
      "a"
    ],
    [
      "an",
      "im"
    ],
    [
      "lad",
      "y"
    ],
    [
      "d",
      "run"
    ],
    [
      "p",
      "to"
    ],
    [
      "kend",
      "rick"
    ],
    [
      "fran",
      "ch"
    ],
    [
      "pa",
      "thetic"
    ],
    [
      "b",
      "ase"
    ],
    [
      "pass",
      "ed"
    ],
    [
      "be",
      "tra"
    ],
    [
      "betra",
      "al"
    ],
    [
      "cr",
      "s"
    ],
    [
      "se",
      "y"
    ],
    [
      "so",
      "li"
    ],
    [
      "him",
      "self"
    ],
    [
      "e",
      "lo"
    ],
    [
      "pie",
      "ces"
    ],
    [
      "devon",
      "ta"
    ],
    [
      "embarrass",
      "ed"
    ],
    [
      "f",
      "um"
    ],
    [
      "pres",
      "ent"
    ],
    [
      "cu",
      "z"
    ],
    [
      "frank",
      "lin"
    ],
    [
      "pl",
      "us"
    ],
    [
      "th",
      "ur"
    ],
    [
      "ou",
      "nt"
    ],
    [
      "s",
      "ides"
    ],
    [
      "know",
      "s"
    ],
    [
      "wee",
      "ks"
    ],
    [
      "count",
      "ry"
    ],
    [
      "l",
      "as"
    ],
    [
      "de",
      "mo"
    ],
    [
      "vi",
      "r"
    ],
    [
      "su",
      "m"
    ],
    [
      "g",
      "if"
    ],
    [
      "bus",
      "iness"
    ],
    [
      "miss",
      "ed"
    ],
    [
      "a",
      "part"
    ],
    [
      "sh",
      "it"
    ],
    [
      "u",
      "k"
    ],
    [
      "bl",
      "ue"
    ],
    [
      "medi",
      "o"
    ],
    [
      "put",
      "ting"
    ],
    [
      "4",
      "6"
    ],
    [
      "s",
      "le"
    ],
    [
      "rat",
      "ion"
    ],
    [
      "bri",
      "lli"
    ],
    [
      "wer",
      "en"
    ],
    [
      "pos",
      "ition"
    ],
    [
      "entertain",
      "ing"
    ],
    [
      "buff",
      "alo"
    ],
    [
      "fl",
      "or"
    ],
    [
      "w",
      "ea"
    ],
    [
      "tre",
      "vor"
    ],
    [
      "ar",
      "thur"
    ],
    [
      "ha",
      "ir"
    ],
    [
      "import",
      "ant"
    ],
    [
      "ca",
      "de"
    ],
    [
      "w",
      "w"
    ],
    [
      "cer",
      "tain"
    ],
    [
      "star",
      "ting"
    ],
    [
      "gu",
      "s"
    ],
    [
      "gi",
      "ves"
    ],
    [
      "gi",
      "o"
    ],
    [
      "r",
      "om"
    ],
    [
      "in",
      "ed"
    ],
    [
      "experi",
      "ence"
    ],
    [
      "ct",
      "ing"
    ],
    [
      "3",
      "2"
    ],
    [
      "e",
      "le"
    ],
    [
      "r",
      "ul"
    ],
    [
      "tr",
      "ust"
    ],
    [
      "franch",
      "ise"
    ],
    [
      "me",
      "ans"
    ],
    [
      "jes",
      "us"
    ],
    [
      "qu",
      "ite"
    ],
    [
      "et",
      "c"
    ],
    [
      "brilli",
      "ant"
    ],
    [
      "ad",
      "s"
    ],
    [
      "lam",
      "ar"
    ],
    [
      "an",
      "no"
    ],
    [
      "l",
      "s"
    ],
    [
      "bl",
      "ing"
    ],
    [
      "su",
      "cked"
    ],
    [
      "qb",
      "s"
    ],
    [
      "ra",
      "ms"
    ],
    [
      "penal",
      "ty"
    ],
    [
      "tam",
      "pa"
    ],
    [
      "roo",
      "ting"
    ],
    [
      "opponent",
      "s"
    ],
    [
      "i",
      "an"
    ],
    [
      "ca",
      "pt"
    ],
    [
      "gam",
      "ers"
    ],
    [
      "qu",
      "ality"
    ],
    [
      "st",
      "rip"
    ],
    [
      "sa",
      "fe"
    ],
    [
      "fe",
      "male"
    ],
    [
      "id",
      "y"
    ],
    [
      "gta",
      "5"
    ],
    [
      "i",
      "v"
    ],
    [
      "fu",
      "rious"
    ],
    [
      "g",
      "ing"
    ],
    [
      "co",
      "st"
    ],
    [
      "wel",
      "come"
    ],
    [
      "c",
      "la"
    ],
    [
      "par",
      "ty"
    ],
    [
      "r",
      "ay"
    ],
    [
      "ex",
      "tra"
    ],
    [
      "2",
      "9"
    ],
    [
      "9",
      "5"
    ],
    [
      "d",
      "umb"
    ],
    [
      "dou",
      "bt"
    ],
    [
      "d",
      "ang"
    ],
    [
      "pro",
      "tagon"
    ],
    [
      "al",
      "ong"
    ],
    [
      "li",
      "ce"
    ],
    [
      "remin",
      "ds"
    ],
    [
      "d",
      "eal"
    ],
    [
      "s",
      "na"
    ],
    [
      "sh",
      "ort"
    ],
    [
      "st",
      "eal"
    ],
    [
      "jo",
      "ke"
    ],
    [
      "happen",
      "ing"
    ],
    [
      "war",
      "ds"
    ],
    [
      "al",
      "y"
    ],
    [
      "d",
      "le"
    ],
    [
      "al",
      "one"
    ],
    [
      "r",
      "n"
    ],
    [
      "ans",
      "wer"
    ],
    [
      "ste",
      "el"
    ],
    [
      "e",
      "lli"
    ],
    [
      "id",
      "ence"
    ],
    [
      "superbowl",
      "s"
    ],
    [
      "stand",
      "ing"
    ],
    [
      "celeb",
      "rating"
    ],
    [
      "strate",
      "gy"
    ],
    [
      "cast",
      "le"
    ],
    [
      "mo",
      "tion"
    ],
    [
      "no",
      "tic"
    ],
    [
      "po",
      "se"
    ],
    [
      "are",
      "d"
    ],
    [
      "build",
      "ing"
    ],
    [
      "mich",
      "eal"
    ],
    [
      "b",
      "at"
    ],
    [
      "mi",
      "ami"
    ],
    [
      "p",
      "ea"
    ],
    [
      "en",
      "e"
    ],
    [
      "ti",
      "v"
    ],
    [
      "k",
      "iss"
    ],
    [
      "s",
      "wear"
    ],
    [
      "wit",
      "ch"
    ],
    [
      "sha",
      "me"
    ],
    [
      "drun",
      "k"
    ],
    [
      "tell",
      "ing"
    ],
    [
      "hu",
      "h"
    ],
    [
      "se",
      "l"
    ],
    [
      "l",
      "on"
    ],
    [
      "m",
      "ulti"
    ],
    [
      "th",
      "y"
    ],
    [
      "sim",
      "ply"
    ],
    [
      "m",
      "r"
    ],
    [
      "pro",
      "du"
    ],
    [
      "app",
      "ear"
    ],
    [
      "any",
      "body"
    ],
    [
      "throw",
      "ing"
    ],
    [
      "15",
      "00"
    ],
    [
      "gg",
      "er"
    ],
    [
      "comment",
      "ator"
    ],
    [
      "elli",
      "ot"
    ],
    [
      "embarrass",
      "ing"
    ],
    [
      "hy",
      "ped"
    ],
    [
      "nation",
      "al"
    ],
    [
      "ur",
      "y"
    ],
    [
      "bu",
      "d"
    ],
    [
      "op",
      "in"
    ],
    [
      "n",
      "in"
    ],
    [
      "c",
      "in"
    ],
    [
      "at",
      "ten"
    ],
    [
      "lo",
      "gy"
    ],
    [
      "e",
      "qu"
    ],
    [
      "z",
      "i"
    ],
    [
      "ra",
      "m"
    ],
    [
      "m",
      "us"
    ],
    [
      "in",
      "al"
    ],
    [
      "chan",
      "ged"
    ],
    [
      "re",
      "ti"
    ],
    [
      "so",
      "ld"
    ],
    [
      "du",
      "e"
    ],
    [
      "drink",
      "ing"
    ],
    [
      "e",
      "yes"
    ],
    [
      "con",
      "st"
    ],
    [
      "fami",
      "ly"
    ],
    [
      "yr",
      "s"
    ],
    [
      "b",
      "ly"
    ],
    [
      "soli",
      "d"
    ],
    [
      "us",
      "es"
    ],
    [
      "medio",
      "cre"
    ],
    [
      "y",
      "ard"
    ],
    [
      "domin",
      "ating"
    ],
    [
      "20",
      "30"
    ],
    [
      "do",
      "g"
    ],
    [
      "flor",
      "ida"
    ],
    [
      "notic",
      "ed"
    ],
    [
      "po",
      "l"
    ],
    [
      "7",
      "0"
    ],
    [
      "spo",
      "t"
    ],
    [
      "c",
      "ass"
    ],
    [
      "cass",
      "idy"
    ],
    [
      "what",
      "ever"
    ],
    [
      "m",
      "un"
    ],
    [
      "releas",
      "ing"
    ],
    [
      "comm",
      "unity"
    ],
    [
      "b",
      "ing"
    ],
    [
      "sc",
      "or"
    ],
    [
      "te",
      "ch"
    ],
    [
      "ion",
      "al"
    ],
    [
      "as",
      "king"
    ],
    [
      "subscri",
      "be"
    ],
    [
      "pr",
      "of"
    ],
    [
      "finish",
      "ed"
    ],
    [
      "i",
      "ma"
    ],
    [
      "vi",
      "i"
    ],
    [
      "fo",
      "ol"
    ],
    [
      "ne",
      "y"
    ],
    [
      "proble",
      "m"
    ],
    [
      "ra",
      "ther"
    ],
    [
      "ve",
      "gas"
    ],
    [
      "contin",
      "u"
    ],
    [
      "or",
      "s"
    ],
    [
      "ill",
      "e"
    ],
    [
      "obvi",
      "ously"
    ],
    [
      "br",
      "ought"
    ],
    [
      "ty",
      "pe"
    ],
    [
      "op",
      "ening"
    ],
    [
      "v",
      "ous"
    ],
    [
      "sim",
      "ple"
    ],
    [
      "cam",
      "era"
    ],
    [
      "b",
      "ay"
    ],
    [
      "crush",
      "ed"
    ],
    [
      "pack",
      "ers"
    ],
    [
      "defe",
      "at"
    ],
    [
      "conf",
      "idence"
    ],
    [
      "w",
      "right"
    ],
    [
      "en",
      "to"
    ],
    [
      "mag",
      "ic"
    ],
    [
      "am",
      "ount"
    ],
    [
      "c",
      "ross"
    ],
    [
      "m",
      "c"
    ],
    [
      "guess",
      "ing"
    ],
    [
      "ch",
      "at"
    ],
    [
      "or",
      "y"
    ],
    [
      "child",
      "ren"
    ],
    [
      "mi",
      "c"
    ],
    [
      "sto",
      "re"
    ],
    [
      "g",
      "ent"
    ],
    [
      "an",
      "ni"
    ],
    [
      "ep",
      "ic"
    ],
    [
      "ab",
      "o"
    ],
    [
      "cli",
      "ck"
    ],
    [
      "hop",
      "ing"
    ],
    [
      "es",
      "h"
    ],
    [
      "bt",
      "w"
    ],
    [
      "bu",
      "g"
    ],
    [
      "remind",
      "ed"
    ],
    [
      "swe",
      "at"
    ],
    [
      "cry",
      "pto"
    ],
    [
      "exce",
      "pt"
    ],
    [
      "rul",
      "es"
    ],
    [
      "pro",
      "ved"
    ],
    [
      "rook",
      "ie"
    ],
    [
      "inter",
      "ference"
    ],
    [
      "beat",
      "en"
    ],
    [
      "mis",
      "takes"
    ],
    [
      "po",
      "cket"
    ],
    [
      "ah",
      "h"
    ],
    [
      "u",
      "red"
    ],
    [
      "l",
      "ay"
    ],
    [
      "ear",
      "th"
    ],
    [
      "dec",
      "ided"
    ],
    [
      "u",
      "ma"
    ],
    [
      "gl",
      "y"
    ],
    [
      "graphi",
      "c"
    ],
    [
      "ce",
      "t"
    ],
    [
      "a",
      "o"
    ],
    [
      "en",
      "do"
    ],
    [
      "fo",
      "l"
    ],
    [
      "il",
      "ar"
    ],
    [
      "d",
      "as"
    ],
    [
      "0",
      "1"
    ],
    [
      "5",
      "2"
    ],
    [
      "sp",
      "a"
    ],
    [
      "or",
      "gan"
    ],
    [
      "y",
      "le"
    ],
    [
      "scre",
      "en"
    ],
    [
      "fe",
      "ll"
    ],
    [
      "qu",
      "ick"
    ],
    [
      "5",
      "8"
    ],
    [
      "pr",
      "ay"
    ],
    [
      "c",
      "ts"
    ],
    [
      "in",
      "ing"
    ],
    [
      "b",
      "are"
    ],
    [
      "c",
      "oun"
    ],
    [
      "pare",
      "ce"
    ],
    [
      "po",
      "lice"
    ],
    [
      "r",
      "r"
    ],
    [
      "thre",
      "at"
    ],
    [
      "doll",
      "ars"
    ],
    [
      "h",
      "mm"
    ],
    [
      "2",
      "100"
    ],
    [
      "wi",
      "fe"
    ],
    [
      "rid",
      "ic"
    ],
    [
      "i",
      "ed"
    ],
    [
      "g",
      "ers"
    ],
    [
      "su",
      "n"
    ],
    [
      "ken",
      "ny"
    ],
    [
      "frau",
      "d"
    ],
    [
      "just",
      "ice"
    ],
    [
      "bea",
      "ut"
    ],
    [
      "el",
      "ite"
    ],
    [
      "c",
      "ers"
    ],
    [
      "ca",
      "ught"
    ],
    [
      "con",
      "vers"
    ],
    [
      "fan",
      "gio"
    ],
    [
      "tom",
      "s"
    ],
    [
      "was",
      "h"
    ],
    [
      "bi",
      "le"
    ],
    [
      "belie",
      "v"
    ],
    [
      "ch",
      "oo"
    ],
    [
      "ch",
      "es"
    ],
    [
      "bu",
      "ying"
    ],
    [
      "s",
      "li"
    ],
    [
      "de",
      "cade"
    ],
    [
      "u",
      "ally"
    ],
    [
      "f",
      "lop"
    ],
    [
      "t",
      "ear"
    ],
    [
      "pea",
      "ce"
    ],
    [
      "tro",
      "phy"
    ],
    [
      "di",
      "ed"
    ],
    [
      "atten",
      "tion"
    ],
    [
      "super",
      "ior"
    ],
    [
      "bo",
      "ss"
    ],
    [
[...]
