{
  "vocab": {
    " ": 0,
    "/": 1,
    "/05": 2,
    "/05/2025": 3,
    "/10": 4,
    "/11": 5,
    "/2025": 6,
    "/2026": 7,
    "/26": 8,
    "/5": 9,
    "/50": 10,
    "/chiefs": 11,
    "0": 12,
    "00": 13,
    "000": 14,
    "0000": 15,
    "00000000": 16,
    "01": 17,
    "02": 18,
    "03": 19,
    "04": 20,
    "05": 21,
    "06": 22,
    "07": 23,
    "08": 24,
    "09": 25,
    "1": 26,
    "1/": 27,
    "1/2": 28,
    "10": 29,
    "10/10": 30,
    "100": 31,
    "1000": 32,
    "100000": 33,
    "1000000": 34,
    "100k": 35,
    "100m": 36,
    "100mil": 37,
    "100million": 38,
    "101": 39,
    "102": 40,
    "10m": 41,
    "10th": 42,
    "11": 43,
    "12": 44,
    "120": 45,
    "1200": 46,
    "12th": 47,
    "13": 48,
    "1300": 49,
    "14": 50,
    "1400": 51,
    "15": 52,
    "150": 53,
    "1500": 54,
    "15k": 55,
    "16": 56,
    "1600": 57,
    "1650": 58,
    "17": 59,
    "1700": 60,
    "1750": 61,
    "18": 62,
    "180": 63,
    "1800": 64,
    "1850": 65,
    "19": 66,
    "1900": 67,
    "1950": 68,
    "198": 69,
    "1980": 70,
    "1k": 71,
    "1m": 72,
    "1st": 73,
    "2": 74,
    "20": 75,
    "200": 76,
    "2000": 77,
    "2002": 78,
    "2004": 79,
    "2005": 80,
    "2008": 81,
    "2011": 82,
    "2012": 83,
    "2013": 84,
    "2014": 85,
    "2016": 86,
    "2017": 87,
    "2018": 88,
    "2019": 89,
    "202": 90,
    "2020": 91,
    "2021": 92,
    "2022": 93,
    "2023": 94,
    "2024": 95,
    "2025": 96,
    "2026": 97,
    "2027": 98,
    "2028": 99,
    "2029": 100,
    "2030": 101,
    "2035": 102,
    "2040": 103,
    "2050": 104,
    "2077": 105,
    "20s": 106,
    "21": 107,
    "2100": 108,
    "216": 109,
    "22": 110,
    "2200": 111,
    "22nd": 112,
    "23": 113,
    "2300": 114,
    "24": 115,
    "2400": 116,
    "25": 117,
    "26": 118,
    "26/05": 119,
    "26th": 120,
    "27": 121,
    "28": 122,
    "28th": 123,
    "29": 124,
    "2d": 125,
    "2k": 126,
    "2nd": 127,
    "3": 128,
    "30": 129,
    "300": 130,
    "3000": 131,
    "30fps": 132,
    "31": 133,
    "32": 134,
    "33": 135,
    "34": 136,
    "35": 137,
    "36": 138,
    "37": 139,
    "379": 140,
    "38": 141,
    "380": 142,
    "381": 143,
    "382": 144,
    "39": 145,
    "3d": 146,
    "3peat": 147,
    "3rd": 148,
    "4": 149,
    "40": 150,
    "400": 151,
    "41": 152,
    "42": 153,
    "43": 154,
    "44": 155,
    "45": 156,
    "46": 157,
    "47": 158,
    "48": 159,
    "49": 160,
    "49er": 161,
    "49ers": 162,
    "4k": 163,
    "4th": 164,
    "5": 165,
    "50": 166,
    "500": 167,
    "5090": 168,
    "51": 169,
    "52": 170,
    "53": 171,
    "54": 172,
    "55": 173,
    "56": 174,
    "57": 175,
    "58": 176,
    "59": 177,
    "5th": 178,
    "6": 179,
    "60": 180,
    "600": 181,
    "60fps": 182,
    "62": 183,
    "65": 184,
    "66": 185,
    "666": 186,
    "67": 187,
    "68": 188,
    "69": 189,
    "7": 190,
    "70": 191,
    "700": 192,
    "73": 193,
    "74": 194,
    "75": 195,
    "76": 196,
    "77": 197,
    "79": 198,
    "8": 199,
    "80": 200,
    "800": 201,
    "80s": 202,
    "84": 203,
    "85": 204,
    "87": 205,
    "9": 206,
    "90": 207,
    "900": 208,
    "90s": 209,
    "91": 210,
    "92": 211,
    "93": 212,
    "94": 213,
    "95": 214,
    "95m": 215,
    "96": 216,
    "97": 217,
    "97m": 218,
    "98": 219,
    "99": 220,
    "9999": 221,
    "9ers": 222,
    "<": 223,
    "<3": 224,
    "<URL>": 225,
    "<unk>": 226,
    ">": 227,
    ">>": 228,
    ">>>>": 229,
    ">>>>>>>>": 230,
    "_": 231,
    "__": 232,
    "a": 233,
    "aa": 234,
    "aaa": 235,
    "aaaa": 236,
    "aaaaa": 237,
    "aaaaaaaa": 238,
    "aaaaaaaaaaaa": 239,
    "aaaaaaaaaaaaaaaa": 240,
    "aaat": 241,
    "aapki": 242,
    "aapko": 243,
    "aaron": 244,
    "ab": 245,
    "aba": 246,
    "aband": 247,
    "abandoned": 248,
    "abilities": 249,
    "ability": 250,
    "able": 251,
    "ably": 252,
    "abo": 253,
    "abor": 254,
    "about": 255,
    "above": 256,
    "absent": 257,
    "absol": 258,
    "absolut": 259,
    "absolute": 260,
    "absolutely": 261,
    "absur": 262,
    "abt": 263,
    "abuse": 264,
    "aby": 265,
    "abysmal": 266,
    "ac": 267,
    "acc": 268,
    "acce": 269,
    "accent": 270,
    "accept": 271,
    "acceptable": 272,
    "access": 273,
    "accomplish": 274,
    "accomplished": 275,
    "accor": 276,
    "according": 277,
    "account": 278,
    "accur": 279,
    "accuracy": 280,
    "accurate": 281,
    "ach": 282,
    "achei": 283,
    "achie": 284,
    "achieve": 285,
    "achieved": 286,
    "achievement": 287,
    "acho": 288,
    "aciones": 289,
    "ack": 290,
    "acked": 291,
    "acknow": 292,
    "across": 293,
    "act": 294,
    "acting": 295,
    "action": 296,
    "activ": 297,
    "active": 298,
    "activities": 299,
    "actor": 300,
    "actors": 301,
    "actual": 302,
    "actually": 303,
    "ad": 304,
    "ada": 305,
    "adam": 306,
    "add": 307,
    "added": 308,
    "addi": 309,
    "adding": 310,
    "address": 311,
    "ade": 312,
    "ades": 313,
    "adi": 314,
    "adjust": 315,
    "admire": 316,
    "admit": 317,
    "ado": 318,
    "ador": 319,
    "adorable": 320,
    "adores": 321,
    "ados": 322,
    "ads": 323,
    "adult": 324,
    "adults": 325,
    "advan": 326,
    "advance": 327,
    "advanced": 328,
    "advantage": 329,
    "advent": 330,
    "adver": 331,
    "adversity": 332,
    "advert": 333,
    "advertise": 334,
    "advertisement": 335,
    "advice": 336,
    "aes": 337,
    "af": 338,
    "afc": 339,
    "aff": 340,
    "affect": 341,
    "affected": 342,
    "afford": 343,
    "afraid": 344,
    "afri": 345,
    "africa": 346,
    "after": 347,
    "afterwards": 348,
    "ag": 349,
    "aga": 350,
    "again": 351,
    "against": 352,
    "agar": 353,
    "age": 354,
    "aged": 355,
    "agency": 356,
    "agent": 357,
    "ages": 358,
    "agg": 359,
    "aggressive": 360,
    "aging": 361,
    "ago": 362,
    "agora": 363,
    "agree": 364,
    "agu": 365,
    "agus": 366,
    "ah": 367,
    "ahead": 368,
    "ahh": 369,
    "ahhh": 370,
    "ahhhh": 371,
    "ahora": 372,
    "ai": 373,
    "ain": 374,
    "aint": 375,
    "air": 376,
    "aire": 377,
    "ais": 378,
    "aj": 379,
    "ak": 380,
    "aka": 381,
    "al": 382,
    "ala": 383,
    "alab": 384,
    "alabama": 385,
    "alco": 386,
    "alcohol": 387,
    "ald": 388,
    "ale": 389,
    "alex": 390,
    "alg": 391,
    "algor": 392,
    "algorith": 393,
    "algorithm": 394,
    "algu": 395,
    "algum": 396,
    "ali": 397,
    "aliens": 398,
    "ality": 399,
    "alive": 400,
    "all": 401,
    "alle": 402,
    "allen": 403,
    "alley": 404,
    "allllll": 405,
    "allow": 406,
    "allowed": 407,
    "allowing": 408,
    "ally": 409,
    "almost": 410,
    "alo": 411,
    "alone": 412,
    "along": 413,
    "alongside": 414,
    "alot": 415,
    "alpha": 416,
    "already": 417,
    "alright": 418,
    "als": 419,
    "also": 420,
    "although": 421,
    "always": 422,
    "aly": 423,
    "am": 424,
    "ama": 425,
    "amateur": 426,
    "amazed": 427,
    "amazing": 428,
    "amd": 429,
    "ame": 430,
    "amen": 431,
    "ament": 432,
    "amente": 433,
    "amento": 434,
    "ameri": 435,
    "america": 436,
    "american": 437,
    "americans": 438,
    "americas": 439,
    "ames": 440,
    "ami": 441,
    "ammun": 442,
    "ammunation": 443,
    "ammunition": 444,
    "amn": 445,
    "amo": 446,
    "among": 447,
    "amount": 448,
    "amp": 449,
    "an": 450,
    "ana": 451,
    "anai": 452,
    "analy": 453,
    "analysis": 454,
    "analyst": 455,
    "ance": 456,
    "ances": 457,
    "and": 458,
    "anda": 459,
    "ando": 460,
    "andre": 461,
    "andreas": 462,
    "android": 463,
    "andy": 464,
    "ane": 465,
    "ang": 466,
    "ange": 467,
    "anger": 468,
    "angle": 469,
    "angry": 470,
    "ani": 471,
    "anim": 472,
    "animal": 473,
    "animals": 474,
    "animated": 475,
    "animation": 476,
    "animations": 477,
    "aning": 478,
    "ank": 479,
    "ann": 480,
    "anna": 481,
    "anni": 482,
    "annihilated": 483,
    "annihilation": 484,
    "anno": 485,
    "announ": 486,
    "announce": 487,
    "announcement": 488,
    "announcer": 489,
    "announcers": 490,
    "announcing": 491,
    "annoying": 492,
    "ano": 493,
    "anos": 494,
    "another": 495,
    "ans": 496,
    "ansi": 497,
    "ansioso": 498,
    "answer": 499,
    "answered": 500,
    "answers": 501,
    "ant": 502,
    "anta": 503,
    "antagon": 504,
    "antagonists": 505,
    "ante": 506,
    "antee": 507,
    "antes": 508,
    "anthem": 509,
    "anti": 510,
    "anticip": 511,
    "anticipat": 512,
    "anticipated": 513,
    "anticipation": 514,
    "ants": 515,
    "anx": 516,
    "anxiety": 517,
    "anxious": 518,
    "any": 519,
    "anybody": 520,
    "anymore": 521,
    "anyone": 522,
    "anything": 523,
    "anytime": 524,
    "anyway": 525,
    "anyways": 526,
    "anywhere": 527,
    "ao": 528,
    "aos": 529,
    "ap": 530,
    "aparece": 531,
    "apart": 532,
    "apen": 533,
    "apenas": 534,
    "apo": 535,
    "apology": 536,
    "app": 537,
    "apparent": 538,
    "apparently": 539,
    "appeal": 540,
    "appear": 541,
    "appearance": 542,
    "appearances": 543,
    "appeared": 544,
    "appears": 545,
    "appla": 546,
    "appreciate": 547,
    "appreciated": 548,
    "appro": 549,
    "approach": 550,
    "appropriate": 551,
    "apri": 552,
    "april": 553,
    "aps": 554,
    "aqu": 555,
    "aqui": 556,
    "ar": 557,
    "ara": 558,
    "arab": 559,
    "arc": 560,
    "ard": 561,
    "ards": 562,
    "are": 563,
    "area": 564,
    "ared": 565,
    "aren": 566,
    "arent": 567,
    "argu": 568,
    "arguably": 569,
    "argument": 570,
    "ari": 571,
    "aria": 572,
    "aries": 573,
    "arily": 574,
    "ario": 575,
    "arios": 576,
    "arm": 577,
    "armor": 578,
    "arms": 579,
    "army": 580,
    "aron": 581,
    "around": 582,
    "arr": 583,
    "arri": 584,
    "arrogance": 585,
    "arrogant": 586,
    "arrow": 587,
    "ars": 588,
    "arse": 589,
    "art": 590,
    "arte": 591,
    "arthur": 592,
    "arti": 593,
    "artic": 594,
    "artifi": 595,
    "artists": 596,
    "artk": 597,
    "ary": 598,
    "as": 599,
    "asap": 600,
    "ase": 601,
    "asf": 602,
    "ash": 603,
    "ashamed": 604,
    "ashed": 605,
    "asi": 606,
    "aside": 607,
    "ask": 608,
    "asked": 609,
    "asking": 610,
    "asks": 611,
    "ason": 612,
    "aspect": 613,
    "ass": 614,
    "assassin": 615,
    "assed": 616,
    "asses": 617,
    "assin": 618,
    "assist": 619,
    "assistir": 620,
    "assu": 621,
    "assume": 622,
    "assuming": 623,
    "ast": 624,
    "aste": 625,
    "aster": 626,
    "asts": 627,
    "asty": 628,
    "at": 629,
    "ata": 630,
    "ate": 631,
    "ated": 632,
    "ately": 633,
    "ater": 634,
    "ates": 635,
    "ateur": 636,
    "ath": 637,
    "athletes": 638,
    "ati": 639,
    "ating": 640,
    "ation": 641,
    "ational": 642,
    "ations": 643,
    "ativ": 644,
    "ative": 645,
    "atleast": 646,
    "atmosphere": 647,
    "ato": 648,
    "ator": 649,
    "ators": 650,
    "atp": 651,
    "atrocious": 652,
    "ats": 653,
    "att": 654,
    "atta": 655,
    "attack": 656,
    "attacks": 657,
    "attem": 658,
    "attempt": 659,
    "attempts": 660,
    "atten": 661,
    "attend": 662,
    "attendance": 663,
    "attention": 664,
    "attitude": 665,
    "attra": 666,
    "attracted": 667,
    "attractive": 668,
    "ature": 669,
    "au": 670,
    "audi": 671,
    "audio": 672,
    "auf": 673,
    "aun": 674,
    "aura": 675,
    "aus": 676,
    "aussie": 677,
    "austral": 678,
    "australia": 679,
    "aut": 680,
    "autistic": 681,
    "auto": 682,
    "automat": 683,
    "automatically": 684,
    "aux": 685,
    "av": 686,
    "ava": 687,
    "avail": 688,
    "available": 689,
    "ave": 690,
    "avec": 691,
    "avenged": 692,
    "avengers": 693,
    "average": 694,
    "avi": 695,
    "avoid": 696,
    "aw": 697,
    "award": 698,
    "away": 699,
    "awesome": 700,
    "awful": 701,
    "awk": 702,
    "awkward": 703,
    "ax": 704,
    "ay": 705,
    "aya": 706,
    "aye": 707,
    "az": 708,
    "b": 709,
    "b4": 710,
    "b6": 711,
    "ba": 712,
    "bab": 713,
    "babe": 714,
    "babies": 715,
    "baby": 716,
    "babyyy": 717,
    "babyyyy": 718,
    "babyyyyy": 719,
    "bach": 720,
    "back": 721,
    "background": 722,
    "backlash": 723,
    "backs": 724,
    "backup": 725,
    "backups": 726,
    "bad": 727,
    "badass": 728,
    "badly": 729,
    "bag": 730,
    "bags": 731,
    "bah": 732,
    "bahut": 733,
    "bai": 734,
    "bail": 735,
    "bailing": 736,
    "bait": 737,
    "baker": 738,
    "bal": 739,
    "balan": 740,
    "balance": 741,
    "balanced": 742,
    "ball": 743,
    "balled": 744,
    "balls": 745,
    "baltimore": 746,
    "bam": 747,
    "bama": 748,
    "ban": 749,
    "bananero": 750,
    "band": 751,
    "bands": 752,
    "bandwagon": 753,
    "bang": 754,
    "banger": 755,
    "banget": 756,
    "bank": 757,
    "banter": 758,
    "bar": 759,
    "bare": 760,
    "barely": 761,
    "barkley": 762,
    "bars": 763,
    "bas": 764,
    "base": 765,
    "baseball": 766,
    "based": 767,
    "bases": 768,
    "basic": 769,
    "basically": 770,
    "basket": 771,
    "basketball": 772,
    "bass": 773,
    "bast": 774,
    "basura": 775,
    "bat": 776,
    "bath": 777,
    "batt": 778,
    "battle": 779,
    "baun": 780,
    "bay": 781,
    "bb": 782,
    "bby": 783,
    "bc": 784,
    "bd": 785,
    "bday": 786,
    "be": 787,
    "bea": 788,
    "beach": 789,
    "bear": 790,
    "beard": 791,
    "bears": 792,
    "beast": 793,
    "beat": 794,
    "beatable": 795,
    "beatdown": 796,
    "beaten": 797,
    "beating": 798,
    "beats": 799,
    "beaut": 800,
    "beauti": 801,
    "beautiful": 802,
    "beauty": 803,
    "became": 804,
    "because": 805,
    "become": 806,
    "becomes": 807,
    "becoming": 808,
    "bed": 809,
    "been": 810,
    "beer": 811,
    "beers": 812,
    "before": 813,
    "beg": 814,
    "began": 815,
    "begging": 816,
    "begin": 817,
    "beginner": 818,
    "beginning": 819,
    "beginnings": 820,
    "begins": 821,
    "beha": 822,
    "behalf": 823,
    "behavior": 824,
    "behind": 825,
    "being": 826,
    "bek": 827,
    "bekliyor": 828,
    "bel": 829,
    "belichick": 830,
    "belie": 831,
    "believ": 832,
    "believe": 833,
    "believed": 834,
    "believes": 835,
    "believing": 836,
    "bell": 837,
    "bells": 838,
    "belong": 839,
    "beloved": 840,
    "below": 841,
    "belt": 842,
    "bem": 843,
    "ben": 844,
    "bench": 845,
    "benched": 846,
    "bengals": 847,
    "ber": 848,
    "bers": 849,
    "bert": 850,
    "bes": 851,
    "beside": 852,
    "besides": 853,
    "best": 854,
    "bet": 855,
    "beta": 856,
    "betraal": 857,
    "betray": 858,
    "betrayal": 859,
    "betrayed": 860,
    "bets": 861,
    "better": 862,
    "betting": 863,
    "between": 864,
    "beyond": 865,
    "bf": 866,
    "bg": 867,
    "bh": 868,
    "bha": 869,
    "bhai": 870,
    "bi": 871,
    "bia": 872,
    "bias": 873,
    "biased": 874,
    "bid": 875,
    "bie": 876,
    "bien": 877,
    "bies": 878,
    "big": 879,
    "bigg": 880,
    "bigger": 881,
    "biggest": 882,
    "bigot": 883,
    "bike": 884,
    "bil": 885,
    "bile": 886,
    "bili": 887,
    "bility": 888,
    "bill": 889,
    "billion": 890,
    "billions": 891,
    "bills": 892,
    "bin": 893,
    "bing": 894,
    "bir": 895,
    "bird": 896,
    "birds": 897,
    "birth": 898,
    "birthday": 899,
    "bis": 900,
    "bish": 901,
    "bishop": 902,
    "bit": 903,
    "bitcoin": 904,
    "bite": 905,
    "bitter": 906,
    "bl": 907,
    "bla": 908,
    "black": 909,
    "blah": 910,
    "blame": 911,
    "blast": 912,
    "blasting": 913,
    "blatant": 914,
    "blatantly": 915,
    "ble": 916,
    "bled": 917,
    "bles": 918,
    "bless": 919,
    "blessed": 920,
    "blew": 921,
    "bli": 922,
    "blind": 923,
    "bling": 924,
    "blit": 925,
    "blitz": 926,
    "blitzes": 927,
    "block": 928,
    "blockbuster": 929,
    "blocking": 930,
    "blocks": 931,
    "blon": 932,
    "blonde": 933,
    "blood": 934,
    "bloody": 935,
    "blow": 936,
    "blowing": 937,
    "blown": 938,
    "blowout": 939,
    "blowouts": 940,
    "blows": 941,
    "blu": 942,
    "blue": 943,
    "blueprint": 944,
    "blunder": 945,
    "bly": 946,
    "bo": 947,
    "boa": 948,
    "board": 949,
    "boat": 950,
    "bobby": 951,
    "body": 952,
    "bogus": 953,
    "boi": 954,
    "bol": 955,
    "bom": 956,
    "bomb": 957,
    "bon": 958,
    "bonito": 959,
    "bonnie": 960,
    "bonus": 961,
    "boo": 962,
    "boobs": 963,
    "booed": 964,
    "book": 965,
    "bookies": 966,
    "books": 967,
    "boom": 968,
    "boost": 969,
    "boot": 970,
    "booth": 971,
    "booty": 972,
    "bor": 973,
    "bore": 974,
    "bored": 975,
    "boring": 976,
    "born": 977,
    "boss": 978,
    "bot": 979,
    "bote": 980,
    "both": 981,
    "bother": 982,
    "bots": 983,
    "bottle": 984,
    "bottles": 985,
    "bottom": 986,
    "bought": 987,
    "boun": 988,
    "bounce": 989,
    "bound": 990,
    "bout": 991,
    "bow": 992,
    "bowl": 993,
    "bowls": 994,
    "box": 995,
    "boy": 996,
    "boycott": 997,
    "boyfriend": 998,
    "boys": 999,
    "boyz": 1000,
    "br": 1001,
    "bra": 1002,
    "brad": 1003,
    "brady": 1004,
    "bradys": 1005,
    "bragging": 1006,
    "brain": 1007,
    "brains": 1008,
    "brakes": 1009,
    "brand": 1010,
    "brands": 1011,
    "brap": 1012,
    "bras": 1013,
    "brasil": 1014,
    "brasile": 1015,
    "bravo": 1016,
    "braz": 1017,
    "brazil": 1018,
    "brazilian": 1019,
    "bre": 1020,
    "brea": 1021,
    "bread": 1022,
    "break": 1023,
    "breaking": 1024,
    "breaks": 1025,
    "breakup": 1026,
    "breath": 1027,
    "brees": 1028,
    "bri": 1029,
    "brian": 1030,
    "brick": 1031,
    "bright": 1032,
    "brilli": 1033,
    "brilliant": 1034,
    "bring": 1035,
    "bringing": 1036,
    "brings": 1037,
    "brit": 1038,
    "british": 1039,
    "bro": 1040,
    "broad": 1041,
    "broadcast": 1042,
    "brock": 1043,
    "broke": 1044,
    "broken": 1045,
    "bron": 1046,
    "broncos": 1047,
    "broo": 1048,
    "brooo": 1049,
    "bros": 1050,
    "brother": 1051,
    "brotherly": 1052,
    "brothers": 1053,
    "brought": 1054,
    "brown": 1055,
    "browns": 1056,
    "bru": 1057,
    "bruh": 1058,
    "brut": 1059,
    "brutal": 1060,
    "bs": 1061,
    "bt": 1062,
    "bta": 1063,
    "btw": 1064,
    "bu": 1065,
    "bub": 1066,
    "bubbles": 1067,
    "buc": 1068,
    "buccaneers": 1069,
    "buccs": 1070,
    "buck": 1071,
    "bucks": 1072,
    "bucs": 1073,
    "bud": 1074,
    "buddies": 1075,
    "buddy": 1076,
    "budget": 1077,
    "budunosti": 1078,
    "buen": 1079,
    "bueno": 1080,
    "buf": 1081,
    "buff": 1082,
    "buffalo": 1083,
    "bug": 1084,
    "bugs": 1085,
    "buil": 1086,
    "build": 1087,
    "building": 1088,
    "buildings": 1089,
    "built": 1090,
    "bul": 1091,
    "bull": 1092,
    "bullied": 1093,
    "bully": 1094,
    "bum": 1095,
    "bummer": 1096,
    "bums": 1097,
    "bun": 1098,
    "bunch": 1099,
    "bund": 1100,
    "bundle": 1101,
    "bundleroo": 1102,
    "bundlerooski": 1103,
    "bur": 1104,
    "burger": 1105,
    "burn": 1106,
    "burned": 1107,
    "burrow": 1108,
    "bus": 1109,
    "business": 1110,
    "bust": 1111,
    "buster": 1112,
    "busy": 1113,
    "but": 1114,
    "bute": 1115,
    "butt": 1116,
    "butter": 1117,
    "button": 1118,
    "buy": 1119,
    "buying": 1120,
    "buzz": 1121,
    "bx": 1122,
    "by": 1123,
    "bye": 1124,
    "c": 1125,
    "c2": 1126,
    "c4": 1127,
    "c5": 1128,
    "ca": 1129,
    "cab": 1130,
    "cad": 1131,
    "cada": 1132,
    "cade": 1133,
    "cadveres": 1134,
    "cake": 1135,
    "cakes": 1136,
    "cal": 1137,
    "calcul": 1138,
    "cale": 1139,
    "caleb": 1140,
    "cali": 1141,
    "california": 1142,
    "call": 1143,
    "called": 1144,
    "calling": 1145,
    "calls": 1146,
    "calm": 1147,
    "calor": 1148,
    "cam": 1149,
    "came": 1150,
    "cameo": 1151,
    "camera": 1152,
    "cameras": 1153,
    "caminos": 1154,
    "campa": 1155,
    "campaign": 1156,
    "can": 1157,
    "canada": 1158,
    "canadian": 1159,
    "cance": 1160,
    "cancel": 1161,
    "cand": 1162,
    "cando": 1163,
    "cane": 1164,
    "cannot": 1165,
    "cans": 1166,
    "cant": 1167,
    "cap": 1168,
    "capable": 1169,
    "capital": 1170,
    "capt": 1171,
    "captiv": 1172,
    "capture": 1173,
    "captured": 1174,
    "car": 1175,
    "cara": 1176,
    "card": 1177,
    "care": 1178,
    "career": 1179,
    "cares": 1180,
    "carried": 1181,
    "carry": 1182,
    "carrying": 1183,
    "cars": 1184,
    "carson": 1185,
    "carter": 1186,
    "cartoon": 1187,
    "cartoonish": 1188,
    "cas": 1189,
    "case": 1190,
    "cash": 1191,
    "casi": 1192,
    "cassidy": 1193,
    "cast": 1194,
    "caster": 1195,
    "castle": 1196,
    "castles": 1197,
    "castling": 1198,
    "casual": 1199,
    "casually": 1200,
    "cat": 1201,
    "catalina": 1202,
    "catch": 1203,
    "catches": 1204,
    "catching": 1205,
    "caught": 1206,
    "cause": 1207,
    "caused": 1208,
    "cb": 1209,
    "cc": 1210,
    "ccp": 1211,
    "ce": 1212,
    "ced": 1213,
    "ceed": 1214,
    "cei": 1215,
    "cel": 1216,
    "celeb": 1217,
    "celebr": 1218,
    "celebrate": 1219,
    "celebrating": 1220,
    "celebration": 1221,
    "celebrities": 1222,
    "celebrity": 1223,
    "cement": 1224,
    "cen": 1225,
    "cending": 1226,
    "cent": 1227,
    "center": 1228,
    "century": 1229,
    "cer": 1230,
    "cere": 1231,
    "cers": 1232,
    "certain": 1233,
    "certainly": 1234,
    "certe": 1235,
    "certeza": 1236,
    "certified": 1237,
    "ces": 1238,
    "cess": 1239,
    "cest": 1240,
    "cet": 1241,
    "ch": 1242,
    "cha": 1243,
    "chad": 1244,
    "chair": 1245,
    "chal": 1246,
    "challen": 1247,
    "challenge": 1248,
    "cham": 1249,
    "champ": 1250,
    "champion": 1251,
    "champions": 1252,
    "championship": 1253,
    "championships": 1254,
    "champs": 1255,
    "chan": 1256,
    "chance": 1257,
    "chances": 1258,
    "change": 1259,
    "changed": 1260,
    "changes": 1261,
    "changing": 1262,
    "channel": 1263,
    "chaos": 1264,
    "chap": 1265,
    "chapter": 1266,
    "char": 1267,
    "character": 1268,
    "characters": 1269,
    "chargers": 1270,
    "charming": 1271,
    "chas": 1272,
    "chase": 1273,
    "chasing": 1274,
    "chass": 1275,
    "chat": 1276,
    "chatting": 1277,
    "chau": 1278,
    "che": 1279,
    "chea": 1280,
    "cheap": 1281,
    "cheat": 1282,
    "cheated": 1283,
    "cheaters": 1284,
    "cheating": 1285,
    "cheats": 1286,
    "check": 1287,
    "checked": 1288,
    "checkmate": 1289,
    "checkpoint": 1290,
    "checks": 1291,
    "ched": 1292,
    "chee": 1293,
    "cheeks": 1294,
    "cheer": 1295,
    "cheered": 1296,
    "cheering": 1297,
    "cheers": 1298,
    "chees": 1299,
    "cheese": 1300,
    "cheesest": 1301,
    "cheesesteak": 1302,
    "chefs": 1303,
    "chei": 1304,
    "cheifs": 1305,
    "chemistry": 1306,
    "cheng": 1307,
    "cher": 1308,
    "cherry": 1309,
    "ches": 1310,
    "chess": 1311,
    "chessboard": 1312,
    "chest": 1313,
    "chi": 1314,
    "chica": 1315,
    "chicago": 1316,
    "chick": 1317,
    "chie": 1318,
    "chief": 1319,
    "chiefs": 1320,
    "child": 1321,
    "childhood": 1322,
    "children": 1323,
    "chill": 1324,
    "chills": 1325,
    "chin": 1326,
    "china": 1327,
    "chinese": 1328,
    "chip": 1329,
    "chips": 1330,
    "chis": 1331,
    "cho": 1332,
    "choice": 1333,
    "choices": 1334,
    "choke": 1335,
    "choked": 1336,
    "chokes": 1337,
    "choking": 1338,
    "chol": 1339,
    "choo": 1340,
    "choose": 1341,
    "choosing": 1342,
    "chose": 1343,
    "chr": 1344,
    "chris": 1345,
    "christ": 1346,
    "christmas": 1347,
    "cht": 1348,
    "chtir": 1349,
    "chu": 1350,
    "chuck": 1351,
    "chumps": 1352,
    "chun": 1353,
    "chung": 1354,
    "chur": 1355,
    "ci": 1356,
    "cia": 1357,
    "cial": 1358,
    "cially": 1359,
    "cians": 1360,
    "cias": 1361,
    "cide": 1362,
    "cies": 1363,
    "cija": 1364,
    "cije": 1365,
    "cil": 1366,
    "cin": 1367,
    "cine": 1368,
    "cinema": 1369,
    "cinemat": 1370,
    "cinematic": 1371,
    "cinematics": 1372,
    "cing": 1373,
    "cio": 1374,
    "cion": 1375,
    "cional": 1376,
    "cious": 1377,
    "cir": 1378,
    "circus": 1379,
    "cis": 1380,
    "cise": 1381,
    "ciss": 1382,
    "cit": 1383,
    "cities": 1384,
    "citiz": 1385,
    "citizens": 1386,
    "city": 1387,
    "cj": 1388,
    "ck": 1389,
    "cked": 1390,
    "cket": 1391,
    "ckets": 1392,
    "cking": 1393,
    "cks": 1394,
    "cky": 1395,
    "cl": 1396,
    "cla": 1397,
    "claim": 1398,
    "claiming": 1399,
    "clar": 1400,
    "clas": 1401,
    "class": 1402,
    "classed": 1403,
    "classic": 1404,
    "classy": 1405,
    "cle": 1406,
    "clea": 1407,
    "clean": 1408,
    "clear": 1409,
    "clearly": 1410,
    "cleavage": 1411,
    "cles": 1412,
    "cleveland": 1413,
    "clever": 1414,
    "cli": 1415,
    "click": 1416,
    "clickbait": 1417,
    "clicks": 1418,
    "clin": 1419,
    "clinic": 1420,
    "clip": 1421,
    "clo": 1422,
    "clock": 1423,
    "close": 1424,
    "closed": 1425,
    "closely": 1426,
    "closer": 1427,
    "closest": 1428,
    "clothes": 1429,
    "clothing": 1430,
    "clown": 1431,
    "clowns": 1432,
    "clu": 1433,
    "club": 1434,
    "clubs": 1435,
    "clue": 1436,
    "clusion": 1437,
    "clutch": 1438,
    "cly": 1439,
    "clyde": 1440,
    "cmo": 1441,
    "cmon": 1442,
    "co": 1443,
    "coach": 1444,
    "coached": 1445,
    "coaches": 1446,
    "coaching": 1447,
    "coast": 1448,
    "cocky": 1449,
    "cod": 1450,
    "code": 1451,
    "codes": 1452,
    "cof": 1453,
    "coffee": 1454,
    "coin": 1455,
    "col": 1456,
    "cold": 1457,
    "coll": 1458,
    "collaps": 1459,
    "collapse": 1460,
    "collapsed": 1461,
    "colle": 1462,
    "collect": 1463,
    "collecting": 1464,
    "collection": 1465,
    "college": 1466,
    "collins": 1467,
    "colo": 1468,
    "color": 1469,
    "colors": 1470,
    "com": 1471,
    "comb": 1472,
    "combin": 1473,
    "combination": 1474,
    "combined": 1475,
    "combo": 1476,
    "come": 1477,
    "comeback": 1478,
    "coment": 1479,
    "comentar": 1480,
    "comentario": 1481,
    "comentrio": 1482,
    "comer": 1483,
    "comes": 1484,
    "coming": 1485,
    "comm": 1486,
    "command": 1487,
    "commanders": 1488,
    "commen": 1489,
    "comment": 1490,
    "commentary": 1491,
    "commentating": 1492,
    "commentator": 1493,
    "commentators": 1494,
    "commented": 1495,
    "commenting": 1496,
    "comments": 1497,
    "commercial": 1498,
    "commercials": 1499,
    "comming": 1500,
    "commit": 1501,
    "common": 1502,
    "community": 1503,
    "como": 1504,
    "comp": 1505,
    "compan": 1506,
    "companies": 1507,
    "company": 1508,
    "compar": 1509,
    "compare": 1510,
    "compared": 1511,
    "comparing": 1512,
    "comparison": 1513,
    "comparisons": 1514,
    "compe": 1515,
    "compet": 1516,
    "compete": 1517,
    "competit": 1518,
    "competition": 1519,
    "competitive": 1520,
    "compl": 1521,
    "complain": 1522,
    "complaining": 1523,
    "comple": 1524,
    "complete": 1525,
    "completed": 1526,
    "completely": 1527,
    "completion": 1528,
    "complex": 1529,
    "compli": 1530,
    "compr": 1531,
    "comprar": 1532,
    "comput": 1533,
    "computer": 1534,
    "con": 1535,
    "conce": 1536,
    "concent": 1537,
    "concentrate": 1538,
    "concer": 1539,
    "concert": 1540,
    "condescending": 1541,
    "condition": 1542,
    "conf": 1543,
    "conference": 1544,
    "confidence": 1545,
    "confident": 1546,
    "confir": 1547,
    "confirm": 1548,
    "confirmed": 1549,
    "confuse": 1550,
    "confused": 1551,
    "congr": 1552,
    "congrat": 1553,
    "congrats": 1554,
    "congratul": 1555,
    "congratulate": 1556,
    "congratulation": 1557,
    "congratulations": 1558,
    "conne": 1559,
    "connection": 1560,
    "cons": 1561,
    "consecu": 1562,
    "consecutive": 1563,
    "consegu": 1564,
    "conseguir": 1565,
    "consider": 1566,
    "considered": 1567,
    "considering": 1568,
    "consistency": 1569,
    "consistent": 1570,
    "consistently": 1571,
    "conso": 1572,
    "consol": 1573,
    "console": 1574,
    "consoles": 1575,
    "consp": 1576,
    "conspira": 1577,
    "conspiracy": 1578,
    "const": 1579,
    "constant": 1580,
    "constantly": 1581,
    "consu": 1582,
    "cont": 1583,
    "conta": 1584,
    "contact": 1585,
    "contain": 1586,
    "contains": 1587,
    "contend": 1588,
    "content": 1589,
    "contest": 1590,
    "contin": 1591,
    "continu": 1592,
    "continuation": 1593,
    "continue": 1594,
    "continued": 1595,
    "continues": 1596,
    "contra": 1597,
    "contract": 1598,
    "contri": 1599,
    "contro": 1600,
    "control": 1601,
    "controller": 1602,
    "controversial": 1603,
    "controversy": 1604,
    "conven": 1605,
    "conver": 1606,
    "convers": 1607,
    "conversation": 1608,
    "convin": 1609,
    "convinced": 1610,
    "convo": 1611,
    "coo": 1612,
    "cook": 1613,
    "cooked": 1614,
    "cooking": 1615,
    "cool": 1616,
    "coon": 1617,
    "coop": 1618,
    "cooper": 1619,
    "coordin": 1620,
    "coordinator": 1621,
    "cop": 1622,
    "cope": 1623,
    "copies": 1624,
    "cops": 1625,
    "copy": 1626,
    "cor": 1627,
    "core": 1628,
    "corinthians": 1629,
    "corner": 1630,
    "cornerback": 1631,
    "correct": 1632,
    "correctly": 1633,
    "corrup": 1634,
    "corrupt": 1635,
    "cos": 1636,
    "cost": 1637,
    "costs": 1638,
    "cot": 1639,
    "cott": 1640,
    "cou": 1641,
    "could": 1642,
    "couldn": 1643,
    "couldnt": 1644,
    "couldve": 1645,
    "coun": 1646,
    "count": 1647,
    "countdown": 1648,
    "counted": 1649,
    "counter": 1650,
    "counting": 1651,
    "country": 1652,
    "counts": 1653,
    "couple": 1654,
    "cour": 1655,
    "course": 1656,
    "cous": 1657,
    "cousin": 1658,
    "cover": 1659,
    "coverage": 1660,
    "covered": 1661,
    "covid": 1662,
    "cow": 1663,
    "cowboy": 1664,
    "cowboys": 1665,
    "coz": 1666,
    "cr": 1667,
    "cra": 1668,
    "crack": 1669,
    "cracking": 1670,
    "craft": 1671,
    "cram": 1672,
    "cramling": 1673,
    "crap": 1674,
    "crash": 1675,
    "crashing": 1676,
    "crat": 1677,
    "craz": 1678,
    "craziest": 1679,
    "crazy": 1680,
    "cre": 1681,
    "create": 1682,
    "created": 1683,
    "creating": 1684,
    "creator": 1685,
    "creators": 1686,
    "cred": 1687,
    "credit": 1688,
    "credits": 1689,
    "creep": 1690,
    "creo": 1691,
    "crew": 1692,
    "cri": 1693,
    "cried": 1694,
    "crime": 1695,
    "crimes": 1696,
    "crimin": 1697,
    "criminal": 1698,
    "criminals": 1699,
    "cring": 1700,
    "cringe": 1701,
    "crit": 1702,
    "critical": 1703,
    "cro": 1704,
    "crook": 1705,
    "cross": 1706,
    "crossed": 1707,
    "crow": 1708,
    "crowd": 1709,
    "crown": 1710,
    "crs": 1711,
    "cru": 1712,
    "crucial": 1713,
    "crum": 1714,
    "crush": 1715,
    "crushed": 1716,
    "crushing": 1717,
    "cry": 1718,
    "crying": 1719,
    "crypto": 1720,
    "cs": 1721,
    "ct": 1722,
    "cta": 1723,
    "ctable": 1724,
    "cted": 1725,
    "cti": 1726,
    "ctic": 1727,
    "cting": 1728,
    "ction": 1729,
    "ctions": 1730,
    "ctiv": 1731,
    "ctive": 1732,
    "ctor": 1733,
    "cts": 1734,
    "cture": 1735,
    "cu": 1736,
    "cuando": 1737,
    "cuck": 1738,
    "cuer": 1739,
    "cul": 1740,
    "cula": 1741,
    "cular": 1742,
    "culo": 1743,
    "cult": 1744,
    "cultural": 1745,
    "culture": 1746,
    "cum": 1747,
    "cun": 1748,
    "cup": 1749,
    "cur": 1750,
    "cura": 1751,
    "curb": 1752,
    "curious": 1753,
    "current": 1754,
    "currently": 1755,
    "curse": 1756,
    "cus": 1757,
    "custom": 1758,
    "customi": 1759,
    "cut": 1760,
    "cute": 1761,
    "cutscene": 1762,
    "cutscenes": 1763,
    "cuz": 1764,
    "cy": 1765,
    "cyber": 1766,
    "cyberpunk": 1767,
    "cycle": 1768,
    "cylinders": 1769,
    "cz": 1770,
    "d": 1771,
    "da": 1772,
    "dad": 1773,
    "daddy": 1774,
    "dagger": 1775,
    "daily": 1776,
    "dak": 1777,
    "dal": 1778,
    "dall": 1779,
    "dallas": 1780,
    "dam": 1781,
    "dama": 1782,
    "damage": 1783,
    "damm": 1784,
    "dammit": 1785,
    "damn": 1786,
    "damnnnn": 1787,
    "dan": 1788,
    "dance": 1789,
    "dancing": 1790,
    "dang": 1791,
    "danger": 1792,
    "dangerous": 1793,
    "dans": 1794,
    "daqui": 1795,
    "dar": 1796,
    "dare": 1797,
    "dark": 1798,
    "darling": 1799,
    "darn": 1800,
    "darnold": 1801,
    "das": 1802,
    "dash": 1803,
    "dat": 1804,
    "date": 1805,
    "dated": 1806,
    "dating": 1807,
    "daugh": 1808,
    "daughter": 1809,
    "dav": 1810,
    "daw": 1811,
    "dawg": 1812,
    "dawgs": 1813,
    "day": 1814,
    "days": 1815,
    "dayum": 1816,
    "db": 1817,
    "dc": 1818,
    "dd": 1819,
    "dddd": 1820,
    "de": 1821,
    "dead": 1822,
    "deal": 1823,
    "dealing": 1824,
    "deandre": 1825,
    "dear": 1826,
    "death": 1827,
    "deb": 1828,
    "debate": 1829,
    "deber": 1830,
    "dec": 1831,
    "decade": 1832,
    "decades": 1833,
    "dece": 1834,
    "december": 1835,
    "decent": 1836,
    "decepcion": 1837,
    "decide": 1838,
    "decided": 1839,
    "decim": 1840,
    "decis": 1841,
    "decision": 1842,
    "decisions": 1843,
    "decked": 1844,
    "decl": 1845,
    "ded": 1846,
    "dedic": 1847,
    "dee": 1848,
    "deep": 1849,
    "deeper": 1850,
    "deeply": 1851,
    "def": 1852,
    "defe": 1853,
    "defeat": 1854,
    "defeated": 1855,
    "defeats": 1856,
    "defen": 1857,
    "defence": 1858,
    "defending": 1859,
    "defense": 1860,
    "defenses": 1861,
    "defensive": 1862,
    "deficit": 1863,
    "defin": 1864,
    "definitely": 1865,
    "definition": 1866,
    "dei": 1867,
    "deix": 1868,
    "deixar": 1869,
    "dejar": 1870,
    "deje": 1871,
    "dejean": 1872,
    "del": 1873,
    "delay": 1874,
    "delayed": 1875,
    "delaying": 1876,
    "delays": 1877,
    "dele": 1878,
    "delete": 1879,
    "deli": 1880,
    "deliber": 1881,
    "delight": 1882,
    "deliver": 1883,
    "delivered": 1884,
    "delivering": 1885,
    "dell": 1886,
    "delphia": 1887,
    "delusional": 1888,
    "dem": 1889,
    "demais": 1890,
    "demo": 1891,
    "democracy": 1892,
    "demol": 1893,
    "demolished": 1894,
    "demon": 1895,
    "demonst": 1896,
    "den": 1897,
    "denied": 1898,
    "dent": 1899,
    "denver": 1900,
    "deny": 1901,
    "dep": 1902,
    "depois": 1903,
    "depressed": 1904,
    "depression": 1905,
    "der": 1906,
    "ders": 1907,
    "des": 1908,
    "descri": 1909,
    "describe": 1910,
    "description": 1911,
    "desde": 1912,
    "deser": 1913,
    "deserve": 1914,
    "deserved": 1915,
    "deserves": 1916,
    "deserving": 1917,
    "design": 1918,
    "designed": 1919,
    "desp": 1920,
    "desper": 1921,
    "despite": 1922,
    "desse": 1923,
    "dest": 1924,
    "destro": 1925,
    "destroy": 1926,
    "destroyed": 1927,
    "destroying": 1928,
    "destruction": 1929,
    "det": 1930,
    "detail": 1931,
    "detailed": 1932,
    "details": 1933,
    "dete": 1934,
    "determin": 1935,
    "determine": 1936,
    "determined": 1937,
    "detroit": 1938,
    "deus": 1939,
    "deut": 1940,
    "dev": 1941,
    "devast": 1942,
    "develo": 1943,
    "develop": 1944,
    "developed": 1945,
    "developers": 1946,
    "development": 1947,
    "devi": 1948,
    "device": 1949,
    "devil": 1950,
    "devon": 1951,
    "devonta": 1952,
    "devonte": 1953,
    "devs": 1954,
    "dha": 1955,
    "di": 1956,
    "dia": 1957,
    "diabolical": 1958,
    "dial": 1959,
    "dialo": 1960,
    "dias": 1961,
    "dick": 1962,
    "did": 1963,
    "diddy": 1964,
    "didn": 1965,
    "didnt": 1966,
    "die": 1967,
    "died": 1968,
    "diehard": 1969,
    "dies": 1970,
    "dif": 1971,
    "differ": 1972,
    "difference": 1973,
    "different": 1974,
    "differently": 1975,
    "diffi": 1976,
    "difficult": 1977,
    "dig": 1978,
    "digital": 1979,
    "dim": 1980,
    "din": 1981,
    "ding": 1982,
    "dinheiro": 1983,
    "dinner": 1984,
    "dio": 1985,
    "dios": 1986,
    "dire": 1987,
    "direct": 1988,
    "directly": 1989,
    "director": 1990,
    "dirt": 1991,
    "dirty": 1992,
    "dis": 1993,
    "disagree": 1994,
    "disapp": 1995,
    "disappear": 1996,
    "disappo": 1997,
    "disappoint": 1998,
    "disappointed": 1999,
    "disappointing": 2000,
    "disappointment": 2001,
    "disaster": 2002,
    "discus": 2003,
    "discussion": 2004,
    "disfr": 2005,
    "disfrut": 2006,
    "disgrace": 2007,
    "disgust": 2008,
    "disgusting": 2009,
    "dish": 2010,
    "dislike": 2011,
    "dislikes": 2012,
    "disman": 2013,
    "dismantled": 2014,
    "disney": 2015,
    "display": 2016,
    "disputed": 2017,
    "disrespect": 2018,
    "disrespectful": 2019,
    "dissa": 2020,
    "dist": 2021,
    "distra": 2022,
    "distract": 2023,
    "distracted": 2024,
    "distracting": 2025,
    "distraction": 2026,
    "distracts": 2027,
    "dit": 2028,
    "dition": 2029,
    "dive": 2030,
    "diversity": 2031,
    "divis": 2032,
    "division": 2033,
    "divor": 2034,
    "dix": 2035,
    "dj": 2036,
    "dl": 2037,
    "dle": 2038,
    "dline": 2039,
    "do": 2040,
    "doctor": 2041,
    "dod": 2042,
    "does": 2043,
    "doesn": 2044,
    "doesnt": 2045,
    "dog": 2046,
    "dogs": 2047,
    "doing": 2048,
    "doll": 2049,
    "dollar": 2050,
    "dollars": 2051,
    "dolph": 2052,
    "dolphins": 2053,
    "dom": 2054,
    "dome": 2055,
    "domin": 2056,
    "dominance": 2057,
    "dominant": 2058,
    "dominate": 2059,
    "dominated": 2060,
    "dominating": 2061,
    "domination": 2062,
    "don": 2063,
    "donde": 2064,
    "done": 2065,
    "dono": 2066,
    "dont": 2067,
    "doo": 2068,
    "doomed": 2069,
    "door": 2070,
    "doors": 2071,
    "dope": 2072,
    "dor": 2073,
    "dos": 2074,
    "dose": 2075,
    "dot": 2076,
    "dotson": 2077,
    "dou": 2078,
    "doub": 2079,
    "double": 2080,
    "doubt": 2081,
    "doubted": 2082,
    "doubters": 2083,
    "douche": 2084,
    "down": 2085,
    "downfall": 2086,
    "download": 2087,
    "downs": 2088,
    "dr": 2089,
    "dra": 2090,
    "draf": 2091,
    "draft": 2092,
    "drafted": 2093,
    "drake": 2094,
    "drama": 2095,
    "drank": 2096,
    "dre": 2097,
    "dream": 2098,
    "dreaming": 2099,
    "dreams": 2100,
    "dress": 2101,
    "drew": 2102,
    "dri": 2103,
    "drink": 2104,
    "drinking": 2105,
    "drinks": 2106,
    "drive": 2107,
    "driver": 2108,
    "drives": 2109,
    "driving": 2110,
    "dro": 2111,
    "drop": 2112,
    "dropped": 2113,
    "dropping": 2114,
    "drops": 2115,
    "drug": 2116,
    "drun": 2117,
    "drunk": 2118,
    "ds": 2119,
    "dt": 2120,
    "du": 2121,
    "dual": 2122,
    "dub": 2123,
    "dubbing": 2124,
    "dubl": 2125,
    "dubla": 2126,
    "dublado": 2127,
    "dublagem": 2128,
    "duck": 2129,
    "dude": 2130,
    "dudes": 2131,
    "due": 2132,
    "dum": 2133,
    "dumb": 2134,
    "dumbest": 2135,
    "dump": 2136,
    "dun": 2137,
    "duni": 2138,
    "duniya": 2139,
    "dunno": 2140,
    "duo": 2141,
    "dur": 2142,
    "during": 2143,
    "dust": 2144,
    "dutch": 2145,
    "duval": 2146,
    "dy": 2147,
    "dying": 2148,
    "dyn": 2149,
    "dynam": 2150,
    "dynamic": 2151,
    "dynasty": 2152,
    "e": 2153,
    "e1": 2154,
    "e4": 2155,
    "e6": 2156,
    "ea": 2157,
    "eable": 2158,
    "each": 2159,
    "ead": 2160,
    "eage": 2161,
    "eager": 2162,
    "eagle": 2163,
    "eagles": 2164,
    "eak": 2165,
    "eal": 2166,
    "ear": 2167,
    "earch": 2168,
    "eared": 2169,
    "earlier": 2170,
    "early": 2171,
    "earn": 2172,
    "earned": 2173,
    "ears": 2174,
    "earth": 2175,
    "eas": 2176,
    "easier": 2177,
    "easily": 2178,
    "east": 2179,
    "easter": 2180,
    "easy": 2181,
    "eat": 2182,
    "eating": 2183,
    "ec": 2184,
    "ech": 2185,
    "ecstatic": 2186,
    "ect": 2187,
    "ed": 2188,
    "eder": 2189,
    "edge": 2190,
    "edi": 2191,
    "edit": 2192,
    "editing": 2193,
    "edition": 2194,
    "editor": 2195,
    "edu": 2196,
    "ee": 2197,
    "eee": 2198,
    "eeee": 2199,
    "eeeee": 2200,
    "eeeeee": 2201,
    "eeeeeee": 2202,
    "eeeeeeee": 2203,
    "eeeeeeeeeeeeeeee": 2204,
    "eeeeeeeeeeeeeeeeeeeeeeeeeeeeeeeeeeeeeeeeeeeeeeeeeeeeeeeeeeeeeeee": 2205,
    "eeeeeeeeeeeeeeeeeeeeeeeeeeeeeeeeeeeeeeeeeeeeeeeeeeeeeeeeeeeeeeeeeeeeeeeeeeeeeeeeeeeeeeeeeeeeeeeeeeeeeeeeeeeeeeeeeeeeeeeeeeeeeeee": 2206,
    "eefs": 2207,
    "eel": 2208,
    "ef": 2209,
    "effective": 2210,
    "effects": 2211,
    "effici": 2212,
    "efficiency": 2213,
    "effort": 2214,
    "efforts": 2215,
    "eful": 2216,
    "ega": 2217,
    "egg": 2218,
    "eggs": 2219,
    "ego": 2220,
    "eh": 2221,
    "ei": 2222,
    "eight": 2223,
    "ein": 2224,
    "eine": 2225,
    "either": 2226,
    "ek": 2227,
    "el": 2228,
    "eld": 2229,
    "elder": 2230,
    "ele": 2231,
    "election": 2232,
    "element": 2233,
    "eli": 2234,
    "elimin": 2235,
    "eliminated": 2236,
    "elite": 2237,
    "elli": 2238,
    "elliot": 2239,
    "elliott": 2240,
    "elo": 2241,
    "elon": 2242,
    "else": 2243,
    "em": 2244,
    "embar": 2245,
    "embarrass": 2246,
    "embarrassed": 2247,
    "embarrassing": 2248,
    "embarrassment": 2249,
    "emer": 2250,
    "emo": 2251,
    "emotion": 2252,
    "emotional": 2253,
    "emotions": 2254,
    "emp": 2255,
    "emphas": 2256,
    "emplo": 2257,
    "employees": 2258,
    "empty": 2259,
    "en": 2260,
    "ena": 2261,
    "ence": 2262,
    "enced": 2263,
    "ences": 2264,
    "encia": 2265,
    "encou": 2266,
    "encoura": 2267,
    "ency": 2268,
    "end": 2269,
    "enda": 2270,
    "ended": 2271,
    "ender": 2272,
    "endgame": 2273,
    "ending": 2274,
    "endo": 2275,
    "ends": 2276,
    "ene": 2277,
    "enemy": 2278,
    "enen": 2279,
    "ener": 2280,
    "energy": 2281,
    "eng": 2282,
    "enga": 2283,
    "engage": 2284,
    "engaged": 2285,
    "engine": 2286,
    "england": 2287,
    "english": 2288,
    "eni": 2289,
    "ening": 2290,
    "enjoy": 2291,
    "enjoyable": 2292,
    "enjoyed": 2293,
    "enjoying": 2294,
    "enler": 2295,
    "enlightening": 2296,
    "enough": 2297,
    "ens": 2298,
    "ense": 2299,
    "ent": 2300,
    "ente": 2301,
    "enter": 2302,
    "entered": 2303,
    "entertain": 2304,
    "entertaining": 2305,
    "entertainment": 2306,
    "entes": 2307,
    "enthusi": 2308,
    "enti": 2309,
    "ential": 2310,
    "entire": 2311,
    "ento": 2312,
    "entre": 2313,
    "environ": 2314,
    "environment": 2315,
    "ep": 2316,
    "epic": 2317,
    "episode": 2318,
    "eps": 2319,
    "equ": 2320,
    "equal": 2321,
    "equally": 2322,
    "equals": 2323,
    "equi": 2324,
    "er": 2325,
    "era": 2326,
    "eral": 2327,
    "eras": 2328,
    "ere": 2329,
    "ered": 2330,
    "eres": 2331,
    "eri": 2332,
    "eric": 2333,
    "eries": 2334,
    "ering": 2335,
    "ero": 2336,
    "eron": 2337,
    "err": 2338,
    "errors": 2339,
    "ers": 2340,
    "ert": 2341,
    "ery": 2342,
    "es": 2343,
    "esa": 2344,
    "esca": 2345,
    "ese": 2346,
    "esh": 2347,
    "eso": 2348,
    "esome": 2349,
    "espa": 2350,
    "espaol": 2351,
    "espe": 2352,
    "especially": 2353,
    "esper": 2354,
    "espera": 2355,
    "esperando": 2356,
    "esperar": 2357,
    "espero": 2358,
    "espn": 2359,
    "esque": 2360,
    "ess": 2361,
    "essa": 2362,
    "esse": 2363,
    "essing": 2364,
    "ession": 2365,
    "essions": 2366,
    "est": 2367,
    "esta": 2368,
    "estamos": 2369,
    "estar": 2370,
    "este": 2371,
    "esti": 2372,
    "esting": 2373,
    "estion": 2374,
    "estive": 2375,
    "estn": 2376,
    "esto": 2377,
    "estos": 2378,
    "estou": 2379,
    "estoy": 2380,
    "ests": 2381,
    "estu": 2382,
    "estuve": 2383,
    "et": 2384,
    "etc": 2385,
    "etern": 2386,
    "eternal": 2387,
    "eu": 2388,
    "euro": 2389,
    "europe": 2390,
    "european": 2391,
    "ev": 2392,
    "even": 2393,
    "event": 2394,
    "eventually": 2395,
    "ever": 2396,
    "every": 2397,
    "everybody": 2398,
    "everyday": 2399,
    "everyone": 2400,
    "everyones": 2401,
    "everything": 2402,
    "everytime": 2403,
    "everywhere": 2404,
    "evil": 2405,
    "evolution": 2406,
    "ex": 2407,
    "exact": 2408,
    "exactly": 2409,
    "exam": 2410,
    "example": 2411,
    "exc": 2412,
    "exce": 2413,
    "excell": 2414,
    "excellent": 2415,
    "except": 2416,
    "exception": 2417,
    "excited": 2418,
    "excitement": 2419,
    "exciting": 2420,
    "exclu": 2421,
    "exclusi": 2422,
    "exclusiveness": 2423,
    "excuse": 2424,
    "excuses": 2425,
    "execu": 2426,
    "executed": 2427,
    "exer": 2428,
    "exercise": 2429,
    "exhi": 2430,
    "exhibit": 2431,
    "exist": 2432,
    "existence": 2433,
    "exit": 2434,
    "exited": 2435,
    "exp": 2436,
    "expect": 2437,
    "expectations": 2438,
    "expected": 2439,
    "expecting": 2440,
    "exper": 2441,
    "experi": 2442,
    "experience": 2443,
    "experienced": 2444,
    "expert": 2445,
    "explain": 2446,
    "explained": 2447,
    "explaining": 2448,
    "explanation": 2449,
    "explanations": 2450,
    "explo": 2451,
    "explode": 2452,
    "explore": 2453,
    "expo": 2454,
    "expos": 2455,
    "exposed": 2456,
    "exposicin": 2457,
    "exposiciones": 2458,
    "exposing": 2459,
    "express": 2460,
    "ext": 2461,
    "extend": 2462,
    "extended": 2463,
    "extra": 2464,
    "extre": 2465,
    "extreme": 2466,
    "extremely": 2467,
    "eye": 2468,
    "eyes": 2469,
    "ez": 2470,
    "f": 2471,
    "f2": 2472,
    "f3": 2473,
    "f6": 2474,
    "fa": 2475,
    "fab": 2476,
    "face": 2477,
    "faced": 2478,
    "facemask": 2479,
    "faces": 2480,
    "facial": 2481,
    "facing": 2482,
    "fact": 2483,
    "factor": 2484,
    "facts": 2485,
    "fail": 2486,
    "failed": 2487,
    "fair": 2488,
    "fairly": 2489,
    "fait": 2490,
    "faites": 2491,
    "faith": 2492,
    "fake": 2493,
    "fal": 2494,
    "falcons": 2495,
    "fall": 2496,
    "fallen": 2497,
    "falling": 2498,
    "falls": 2499,
    "false": 2500,
    "falta": 2501,
    "falun": 2502,
    "fam": 2503,
    "famili": 2504,
    "familiar": 2505,
    "family": 2506,
    "famous": 2507,
    "fan": 2508,
    "fanbase": 2509,
    "fancy": 2510,
    "fangio": 2511,
    "fans": 2512,
    "fantas": 2513,
    "fantastic": 2514,
    "fantasy": 2515,
    "far": 2516,
    "farcry": 2517,
    "fare": 2518,
    "farm": 2519,
    "fas": 2520,
    "fascin": 2521,
    "fashion": 2522,
    "fast": 2523,
    "faster": 2524,
    "fat": 2525,
    "fate": 2526,
    "father": 2527,
    "fault": 2528,
    "fav": 2529,
    "favo": 2530,
    "favor": 2531,
    "favorable": 2532,
    "favored": 2533,
    "favoring": 2534,
    "favorite": 2535,
    "favorites": 2536,
    "favoritism": 2537,
    "favour": 2538,
    "favourite": 2539,
    "faz": 2540,
    "fazer": 2541,
    "fc": 2542,
    "fck": 2543,
    "fe": 2544,
    "fear": 2545,
    "feat": 2546,
    "feature": 2547,
    "fecha": 2548,
    "fect": 2549,
    "fed": 2550,
    "fee": 2551,
    "feed": 2552,
    "feel": 2553,
    "feeling": 2554,
    "feelings": 2555,
    "feels": 2556,
    "feet": 2557,
    "felic": 2558,
    "fell": 2559,
    "fellas": 2560,
    "fellow": 2561,
    "felt": 2562,
    "female": 2563,
    "femin": 2564,
    "fen": 2565,
    "fer": 2566,
    "ference": 2567,
    "fest": 2568,
    "few": 2569,
    "ff": 2570,
    "ffe": 2571,
    "ffs": 2572,
    "fg": 2573,
    "fh": 2574,
    "fi": 2575,
    "fic": 2576,
    "fica": 2577,
    "fici": 2578,
    "fiction": 2579,
    "fide": 2580,
    "fied": 2581,
    "field": 2582,
    "fif": 2583,
    "fifa": 2584,
    "fifth": 2585,
    "figh": 2586,
    "fight": 2587,
    "fighting": 2588,
    "figure": 2589,
    "figured": 2590,
    "fil": 2591,
    "filho": 2592,
    "fill": 2593,
    "filled": 2594,
    "film": 2595,
    "filme": 2596,
    "filmed": 2597,
    "fin": 2598,
    "final": 2599,
    "finally": 2600,
    "finals": 2601,
    "find": 2602,
    "finding": 2603,
    "fine": 2604,
    "fing": 2605,
    "finger": 2606,
    "fingers": 2607,
    "finish": 2608,
    "finished": 2609,
    "finna": 2610,
    "fir": 2611,
    "fire": 2612,
    "fired": 2613,
    "firing": 2614,
    "first": 2615,
    "fish": 2616,
    "fishing": 2617,
    "fit": 2618,
    "fits": 2619,
    "fitting": 2620,
    "five": 2621,
    "fix": 2622,
    "fixed": 2623,
    "fixing": 2624,
    "fking": 2625,
    "fl": 2626,
    "fla": 2627,
    "flag": 2628,
    "flagged": 2629,
    "flags": 2630,
    "flas": 2631,
    "flash": 2632,
    "flashbacks": 2633,
    "flat": 2634,
    "flaw": 2635,
    "flawless": 2636,
    "fle": 2637,
    "fli": 2638,
    "flies": 2639,
    "flip": 2640,
    "flipped": 2641,
    "flir": 2642,
    "flirt": 2643,
    "flirting": 2644,
    "flo": 2645,
    "floor": 2646,
    "flop": 2647,
    "flor": 2648,
    "florida": 2649,
    "flow": 2650,
    "flowers": 2651,
    "flu": 2652,
    "fly": 2653,
    "flyeaglesfly": 2654,
    "flying": 2655,
    "fm": 2656,
    "fo": 2657,
    "foc": 2658,
    "focus": 2659,
    "focused": 2660,
    "fol": 2661,
    "fold": 2662,
    "folded": 2663,
    "folds": 2664,
    "folks": 2665,
    "follow": 2666,
    "followed": 2667,
    "followers": 2668,
    "following": 2669,
    "font": 2670,
    "foo": 2671,
    "food": 2672,
    "fool": 2673,
    "fooled": 2674,
    "foolish": 2675,
    "fools": 2676,
    "foot": 2677,
    "footage": 2678,
    "football": 2679,
    "for": 2680,
    "force": 2681,
    "forced": 2682,
    "forcing": 2683,
    "ford": 2684,
    "fore": 2685,
    "foreign": 2686,
    "forever": 2687,
    "forget": 2688,
    "forgettable": 2689,
    "forgive": 2690,
    "forgiven": 2691,
    "forgot": 2692,
    "form": 2693,
    "format": 2694,
    "formation": 2695,
    "former": 2696,
    "formid": 2697,
    "formidable": 2698,
    "forms": 2699,
    "formula": 2700,
    "fort": 2701,
    "forth": 2702,
    "fortnite": 2703,
    "fortun": 2704,
    "fortunately": 2705,
    "forward": 2706,
    "fou": 2707,
    "foul": 2708,
    "found": 2709,
    "four": 2710,
    "fourth": 2711,
    "fox": 2712,
    "fps": 2713,
    "fr": 2714,
    "fra": 2715,
    "frame": 2716,
    "fran": 2717,
    "franais": 2718,
    "france": 2719,
    "franch": 2720,
    "franchise": 2721,
    "francis": 2722,
    "francisco": 2723,
    "frank": 2724,
    "franklin": 2725,
    "frau": 2726,
    "fraud": 2727,
    "frauds": 2728,
    "fraudulent": 2729,
    "fre": 2730,
    "frea": 2731,
    "freak": 2732,
    "freaking": 2733,
    "free": 2734,
    "freedom": 2735,
    "french": 2736,
    "frequ": 2737,
    "frequent": 2738,
    "fresh": 2739,
    "fri": 2740,
    "friday": 2741,
    "fridge": 2742,
    "friend": 2743,
    "friendly": 2744,
    "friends": 2745,
    "frog": 2746,
    "from": 2747,
    "front": 2748,
    "frust": 2749,
    "frustrating": 2750,
    "fs": 2751,
    "ft": 2752,
    "fty": 2753,
    "fu": 2754,
    "fuches": 2755,
    "fuck": 2756,
    "fue": 2757,
    "fuel": 2758,
    "fuer": 2759,
    "ful": 2760,
    "full": 2761,
    "fully": 2762,
    "fum": 2763,
    "fumble": 2764,
    "fumbled": 2765,
    "fun": 2766,
    "funeral": 2767,
    "funny": 2768,
    "fur": 2769,
    "furious": 2770,
    "further": 2771,
    "fut": 2772,
    "futher": 2773,
    "future": 2774,
    "futuro": 2775,
    "fy": 2776,
    "fying": 2777,
    "g": 2778,
    "ga": 2779,
    "gad": 2780,
    "gadge": 2781,
    "gado": 2782,
    "gain": 2783,
    "gains": 2784,
    "gal": 2785,
    "galax": 2786,
    "gals": 2787,
    "gam": 2788,
    "gambit": 2789,
    "gambling": 2790,
    "game": 2791,
    "gameplan": 2792,
    "gameplay": 2793,
    "gamer": 2794,
    "gamers": 2795,
    "games": 2796,
    "gaming": 2797,
    "gan": 2798,
    "gando": 2799,
    "gang": 2800,
    "gangs": 2801,
    "gans": 2802,
    "gao": 2803,
    "gar": 2804,
    "garb": 2805,
    "garbage": 2806,
    "garrett": 2807,
    "gas": 2808,
    "gat": 2809,
    "gave": 2810,
    "gay": 2811,
    "gb": 2812,
    "ge": 2813,
    "ged": 2814,
    "gee": 2815,
    "geez": 2816,
    "gel": 2817,
    "gem": 2818,
    "gen": 2819,
    "gency": 2820,
    "gender": 2821,
    "gener": 2822,
    "general": 2823,
    "generally": 2824,
    "generate": 2825,
    "generated": 2826,
    "generation": 2827,
    "generational": 2828,
    "generations": 2829,
    "generic": 2830,
    "geni": 2831,
    "genius": 2832,
    "gent": 2833,
    "gente": 2834,
    "gentle": 2835,
    "gentleman": 2836,
    "gentlemen": 2837,
    "genu": 2838,
    "genuine": 2839,
    "genuinely": 2840,
    "geous": 2841,
    "ger": 2842,
    "gera": 2843,
    "german": 2844,
    "germany": 2845,
    "gers": 2846,
    "ges": 2847,
    "gest": 2848,
    "get": 2849,
    "gether": 2850,
    "gets": 2851,
    "getting": 2852,
    "gf": 2853,
    "gg": 2854,
    "gged": 2855,
    "gger": 2856,
    "ggers": 2857,
    "ggg": 2858,
    "gggg": 2859,
    "gggggggg": 2860,
    "gging": 2861,
    "ggle": 2862,
    "ggs": 2863,
    "ggy": 2864,
    "gh": 2865,
    "ghost": 2866,
    "ght": 2867,
    "ghts": 2868,
    "gi": 2869,
    "gia": 2870,
    "gian": 2871,
    "giant": 2872,
    "giants": 2873,
    "gibi": 2874,
    "gic": 2875,
    "gical": 2876,
    "gif": 2877,
    "gift": 2878,
    "gig": 2879,
    "giggling": 2880,
    "gim": 2881,
    "gin": 2882,
    "ging": 2883,
    "gio": 2884,
    "girl": 2885,
    "girlfri": 2886,
    "girlfriend": 2887,
    "girls": 2888,
    "give": 2889,
    "given": 2890,
    "gives": 2891,
    "giving": 2892,
    "gl": 2893,
    "gla": 2894,
    "glad": 2895,
    "glass": 2896,
    "glasses": 2897,
    "glaze": 2898,
    "glazing": 2899,
    "gle": 2900,
    "gles": 2901,
    "gling": 2902,
    "glit": 2903,
    "glitch": 2904,
    "glo": 2905,
    "global": 2906,
    "glor": 2907,
    "glorious": 2908,
    "glory": 2909,
    "gly": 2910,
    "gm": 2911,
    "gn": 2912,
    "gne": 2913,
    "go": 2914,
    "goal": 2915,
    "goals": 2916,
    "goat": 2917,
    "goated": 2918,
    "goats": 2919,
    "god": 2920,
    "godell": 2921,
    "gods": 2922,
    "goes": 2923,
    "going": 2924,
    "gold": 2925,
    "golden": 2926,
    "gon": 2927,
    "gona": 2928,
    "gone": 2929,
    "gong": 2930,
    "gonna": 2931,
    "goo": 2932,
    "good": 2933,
    "goodbye": 2934,
    "goodell": 2935,
    "goodness": 2936,
    "google": 2937,
    "googling": 2938,
    "goon": 2939,
    "gooner": 2940,
    "gooners": 2941,
    "gooning": 2942,
    "gooo": 2943,
    "goooo": 2944,
    "gooooo": 2945,
    "goooooo": 2946,
    "goooooooooo": 2947,
    "goose": 2948,
    "goosebumps": 2949,
    "gor": 2950,
    "gorgeous": 2951,
    "gorilla": 2952,
    "gos": 2953,
    "gosh": 2954,
    "got": 2955,
    "gotta": 2956,
    "gotten": 2957,
    "goty": 2958,
    "gover": 2959,
    "govern": 2960,
    "government": 2961,
    "gr": 2962,
    "gra": 2963,
    "grab": 2964,
    "grace": 2965,
    "grade": 2966,
    "gradu": 2967,
    "graduated": 2968,
    "grafi": 2969,
    "graham": 2970,
    "gram": 2971,
    "gran": 2972,
    "grand": 2973,
    "grandchildren": 2974,
    "grande": 2975,
    "grandfather": 2976,
    "grandma": 2977,
    "grandmaster": 2978,
    "grandpa": 2979,
    "grandson": 2980,
    "grant": 2981,
    "graphi": 2982,
    "graphic": 2983,
    "graphics": 2984,
    "graphy": 2985,
    "grass": 2986,
    "grat": 2987,
    "grateful": 2988,
    "gre": 2989,
    "great": 2990,
    "greatest": 2991,
    "greatness": 2992,
    "gree": 2993,
    "greed": 2994,
    "greedy": 2995,
    "green": 2996,
    "greetings": 2997,
    "gret": 2998,
    "grew": 2999,
    "grey": 3000,
    "grfi": 3001,
    "grficos": 3002,
    "gri": 3003,
    "gro": 3004,
    "gronk": 3005,
    "grou": 3006,
    "ground": 3007,
    "group": 3008,
    "grow": 3009,
    "growing": 3010,
    "grown": 3011,
    "gs": 3012,
    "gt": 3013,
    "gt6": 3014,
    "gta": 3015,
    "gta5": 3016,
    "gta6": 3017,
    "gta7": 3018,
    "gtaiv": 3019,
    "gtas": 3020,
    "gtav": 3021,
    "gtavi": 3022,
    "gth": 3023,
    "gtx": 3024,
    "gu": 3025,
    "gua": 3026,
    "guar": 3027,
    "guaranteed": 3028,
    "guard": 3029,
    "gue": 3030,
    "guer": 3031,
    "gues": 3032,
    "guess": 3033,
    "guessing": 3034,
    "gular": 3035,
    "gulf": 3036,
    "gun": 3037,
    "gundo": 3038,
    "gunna": 3039,
    "guns": 3040,
    "gur": 3041,
    "gurt": 3042,
    "gus": 3043,
    "gust": 3044,
    "gut": 3045,
    "guy": 3046,
    "guys": 3047,
    "gy": 3048,
    "gyat": 3049,
    "gyatt": 3050,
    "gym": 3051,
    "h": 3052,
    "ha": 3053,
    "hable": 3054,
    "hacer": 3055,
    "had": 3056,
    "hadn": 3057,
    "haha": 3058,
    "hahah": 3059,
    "hahaha": 3060,
    "hahahah": 3061,
    "hahahaha": 3062,
    "hahahahah": 3063,
    "hahahahaha": 3064,
    "hahahahahaha": 3065,
    "hahahahahahaha": 3066,
    "hahahahahahahahaha": 3067,
    "hai": 3068,
    "hail": 3069,
    "hair": 3070,
    "haiti": 3071,
    "haitian": 3072,
    "haitians": 3073,
    "hal": 3074,
    "half": 3075,
    "halftime": 3076,
    "halfway": 3077,
    "halif": 3078,
    "hall": 3079,
    "ham": 3080,
    "hamed": 3081,
    "hammer": 3082,
    "hammered": 3083,
    "han": 3084,
    "hand": 3085,
    "handed": 3086,
    "handegg": 3087,
    "handing": 3088,
    "handle": 3089,
    "handled": 3090,
    "hands": 3091,
    "handsome": 3092,
    "hang": 3093,
    "hanging": 3094,
    "happ": 3095,
    "happen": 3096,
    "happened": 3097,
    "happening": 3098,
    "happens": 3099,
    "happier": 3100,
    "happiest": 3101,
    "happily": 3102,
    "happiness": 3103,
    "happy": 3104,
    "har": 3105,
    "hard": 3106,
    "harder": 3107,
    "hardly": 3108,
    "harsh": 3109,
    "harv": 3110,
    "has": 3111,
    "hasn": 3112,
    "hasnt": 3113,
    "hasta": 3114,
    "hat": 3115,
    "hate": 3116,
    "hated": 3117,
    "hater": 3118,
    "haters": 3119,
    "hates": 3120,
    "hati": 3121,
    "hating": 3122,
    "hats": 3123,
    "have": 3124,
    "haven": 3125,
    "havent": 3126,
    "having": 3127,
    "haw": 3128,
    "hay": 3129,
    "hd": 3130,
    "he": 3131,
    "hea": 3132,
    "head": 3133,
    "headline": 3134,
    "heads": 3135,
    "heal": 3136,
    "healing": 3137,
    "health": 3138,
    "healthy": 3139,
    "hear": 3140,
    "heard": 3141,
    "hearing": 3142,
    "heart": 3143,
    "hearts": 3144,
    "heaven": 3145,
    "heavily": 3146,
    "heavy": 3147,
    "heck": 3148,
    "hehe": 3149,
    "heist": 3150,
    "hel": 3151,
    "held": 3152,
    "helicop": 3153,
    "helicopter": 3154,
    "hell": 3155,
    "hella": 3156,
    "hello": 3157,
    "helmet": 3158,
    "help": 3159,
    "helped": 3160,
    "helpful": 3161,
    "helping": 3162,
    "helps": 3163,
    "hem": 3164,
    "hen": 3165,
    "her": 3166,
    "herbert": 3167,
    "here": 3168,
    "heres": 3169,
    "hero": 3170,
    "heroes": 3171,
    "herself": 3172,
    "hertz": 3173,
    "hes": 3174,
    "het": 3175,
    "hey": 3176,
    "hh": 3177,
    "hhh": 3178,
    "hhhh": 3179,
    "hhhhh": 3180,
    "hhhhhhh": 3181,
    "hhhhhhhh": 3182,
    "hi": 3183,
    "hide": 3184,
    "hiding": 3185,
    "hier": 3186,
    "high": 3187,
    "higher": 3188,
    "highest": 3189,
    "highlight": 3190,
    "highlights": 3191,
    "highly": 3192,
    "hii": 3193,
    "hil": 3194,
    "hilar": 3195,
    "hilarious": 3196,
    "hill": 3197,
    "him": 3198,
    "himself": 3199,
    "hind": 3200,
    "hip": 3201,
    "hips": 3202,
    "his": 3203,
    "histori": 3204,
    "historia": 3205,
    "historic": 3206,
    "historical": 3207,
    "history": 3208,
    "histri": 3209,
    "histria": 3210,
    "histrico": 3211,
    "hit": 3212,
    "hits": 3213,
    "hitting": 3214,
    "hmm": 3215,
    "hmmm": 3216,
    "hmmmm": 3217,
    "ho": 3218,
    "hockey": 3219,
    "hof": 3220,
    "hogy": 3221,
    "hol": 3222,
    "hola": 3223,
    "hold": 3224,
    "holding": 3225,
    "holds": 3226,
    "hole": 3227,
    "holes": 3228,
    "holi": 3229,
    "holiday": 3230,
    "holly": 3231,
    "hollywood": 3232,
    "holy": 3233,
    "hom": 3234,
    "home": 3235,
    "homes": 3236,
    "homework": 3237,
    "homie": 3238,
    "hon": 3239,
    "honest": 3240,
    "honestly": 3241,
    "honey": 3242,
    "honor": 3243,
    "hoo": 3244,
    "hood": 3245,
    "hook": 3246,
    "hooked": 3247,
    "hop": 3248,
    "hope": 3249,
    "hopefully": 3250,
    "hoping": 3251,
    "hopkins": 3252,
    "hor": 3253,
    "hora": 3254,
    "horre": 3255,
    "horri": 3256,
    "horrible": 3257,
    "horse": 3258,
    "host": 3259,
    "hot": 3260,
    "hotel": 3261,
    "hour": 3262,
    "hours": 3263,
    "hous": 3264,
    "house": 3265,
    "houses": 3266,
    "how": 3267,
    "however": 3268,
    "howie": 3269,
    "ht": 3270,
    "hu": 3271,
    "hub": 3272,
    "hue": 3273,
    "huge": 3274,
    "huh": 3275,
    "hum": 3276,
    "human": 3277,
    "humanity": 3278,
    "humanos": 3279,
    "humans": 3280,
    "humble": 3281,
    "humbled": 3282,
    "humbling": 3283,
    "humiliate": 3284,
    "humiliated": 3285,
    "humiliating": 3286,
    "humiliation": 3287,
    "humor": 3288,
    "hun": 3289,
    "hund": 3290,
    "hundred": 3291,
    "hung": 3292,
    "hungry": 3293,
    "hunt": 3294,
    "hunting": 3295,
    "hur": 3296,
    "hurry": 3297,
    "hurst": 3298,
    "hurt": 3299,
    "hurts": 3300,
    "hurtz": 3301,
    "hust": 3302,
    "hustler": 3303,
    "hy": 3304,
    "hyp": 3305,
    "hype": 3306,
    "hyped": 3307,
    "hyper": 3308,
    "i": 3309,
    "ia": 3310,
    "iad": 3311,
    "iam": 3312,
    "ian": 3313,
    "ible": 3314,
    "ic": 3315,
    "ical": 3316,
    "ically": 3317,
    "icas": 3318,
    "ice": 3319,
    "icing": 3320,
    "ick": 3321,
    "icon": 3322,
    "iconic": 3323,
    "ics": 3324,
    "id": 3325,
    "ida": 3326,
    "idad": 3327,
    "idade": 3328,
    "idc": 3329,
    "ide": 3330,
    "idea": 3331,
    "ideas": 3332,
    "ided": 3333,
    "iden": 3334,
    "idence": 3335,
    "ident": 3336,
    "ideo": 3337,
    "ideology": 3338,
    "ider": 3339,
    "ides": 3340,
    "idi": 3341,
    "iding": 3342,
    "idio": 3343,
    "idiotic": 3344,
    "idiots": 3345,
    "idk": 3346,
    "ido": 3347,
    "ids": 3348,
    "idy": 3349,
    "ie": 3350,
    "ied": 3351,
    "iel": 3352,
    "ield": 3353,
    "ien": 3354,
    "ier": 3355,
    "ies": 3356,
    "iest": 3357,
    "iet": 3358,
    "iety": 3359,
    "if": 3360,
    "iff": 3361,
    "ifi": 3362,
    "ific": 3363,
    "ified": 3364,
    "iful": 3365,
    "ify": 3366,
    "ifying": 3367,
    "ig": 3368,
    "igh": 3369,
    "ight": 3370,
    "ign": 3371,
    "igned": 3372,
    "igning": 3373,
    "igno": 3374,
    "ignor": 3375,
    "ignore": 3376,
    "igra": 3377,
    "igu": 3378,
    "igual": 3379,
    "ii": 3380,
    "iii": 3381,
    "iiii": 3382,
    "iiiii": 3383,
    "ik": 3384,
    "il": 3385,
    "ilar": 3386,
    "ild": 3387,
    "ile": 3388,
    "iled": 3389,
    "iles": 3390,
    "ili": 3391,
    "iling": 3392,
    "ility": 3393,
    "ill": 3394,
    "ille": 3395,
    "illegal": 3396,
    "illion": 3397,
    "ills": 3398,
    "illy": 3399,
    "ils": 3400,
    "ily": 3401,
    "im": 3402,
    "ima": 3403,
    "imag": 3404,
    "imagin": 3405,
    "imagine": 3406,
    "imi": 3407,
    "imma": 3408,
    "immediately": 3409,
    "immense": 3410,
    "immer": 3411,
    "immersive": 3412,
    "imo": 3413,
    "imp": 3414,
    "impact": 3415,
    "imple": 3416,
    "import": 3417,
    "important": 3418,
    "impossible": 3419,
    "impress": 3420,
    "impressed": 3421,
    "impression": 3422,
    "impressive": 3423,
    "improve": 3424,
    "improved": 3425,
    "in": 3426,
    "ina": 3427,
    "inal": 3428,
    "inals": 3429,
    "inappropriate": 3430,
    "inc": 3431,
    "inclu": 3432,
    "include": 3433,
    "including": 3434,
    "incoming": 3435,
    "incre": 3436,
    "increas": 3437,
    "incredi": 3438,
    "incredible": 3439,
    "incredibly": 3440,
    "incrvel": 3441,
    "ind": 3442,
    "inde": 3443,
    "indeed": 3444,
    "indi": 3445,
    "india": 3446,
    "indian": 3447,
    "indic": 3448,
    "inding": 3449,
    "indo": 3450,
    "indones": 3451,
    "indust": 3452,
    "industry": 3453,
    "ine": 3454,
    "ined": 3455,
    "ines": 3456,
    "iness": 3457,
    "inevit": 3458,
    "inevitable": 3459,
    "inf": 3460,
    "infin": 3461,
    "influ": 3462,
    "influence": 3463,
    "info": 3464,
    "information": 3465,
    "informative": 3466,
    "infront": 3467,
    "ing": 3468,
    "ingame": 3469,
    "ings": 3470,
    "ini": 3471,
    "ining": 3472,
    "initi": 3473,
    "initially": 3474,
    "injured": 3475,
    "injuries": 3476,
    "injury": 3477,
    "ink": 3478,
    "inn": 3479,
    "inner": 3480,
    "inno": 3481,
    "ino": 3482,
    "inos": 3483,
    "ins": 3484,
    "insan": 3485,
    "insane": 3486,
    "insanely": 3487,
    "insano": 3488,
    "insecure": 3489,
    "insi": 3490,
    "inside": 3491,
    "insight": 3492,
    "insights": 3493,
    "insp": 3494,
    "inspir": 3495,
    "inspiration": 3496,
    "inspired": 3497,
    "inspiring": 3498,
    "inspiringkeep": 3499,
    "inst": 3500,
    "insta": 3501,
    "instagram": 3502,
    "install": 3503,
    "instant": 3504,
    "instead": 3505,
    "insu": 3506,
    "insufferable": 3507,
    "insult": 3508,
    "insurance": 3509,
    "int": 3510,
    "inta": 3511,
    "inte": 3512,
    "integrity": 3513,
    "intel": 3514,
    "intell": 3515,
    "intellig": 3516,
    "intelligent": 3517,
    "inten": 3518,
    "intended": 3519,
    "intense": 3520,
    "intention": 3521,
    "inter": 3522,
    "interaction": 3523,
    "interactions": 3524,
    "interce": 3525,
    "intercepted": 3526,
    "interception": 3527,
    "interceptions": 3528,
    "interest": 3529,
    "interested": 3530,
    "interesting": 3531,
    "interference": 3532,
    "internet": 3533,
    "inti": 3534,
    "intimid": 3535,
    "intimidate": 3536,
    "intimidated": 3537,
    "intimidating": 3538,
    "inting": 3539,
    "into": 3540,
    "intro": 3541,
    "introdu": 3542,
    "ints": 3543,
    "inv": 3544,
    "inves": 3545,
    "invest": 3546,
    "invested": 3547,
    "investi": 3548,
    "investig": 3549,
    "investing": 3550,
    "investment": 3551,
    "invol": 3552,
    "involved": 3553,
    "io": 3554,
    "ion": 3555,
    "ional": 3556,
    "iones": 3557,
    "ions": 3558,
    "ior": 3559,
    "ios": 3560,
    "ious": 3561,
    "iq": 3562,
    "ir": 3563,
    "ira": 3564,
    "iran": 3565,
    "ire": 3566,
    "ired": 3567,
    "ires": 3568,
    "irl": 3569,
    "iro": 3570,
    "iron": 3571,
    "ironic": 3572,
    "irr": 3573,
    "irrit": 3574,
    "is": 3575,
    "isa": 3576,
    "ise": 3577,
    "ised": 3578,
    "iser": 3579,
    "ish": 3580,
    "ished": 3581,
    "ishing": 3582,
    "ishow": 3583,
    "ishowspeed": 3584,
    "ising": 3585,
    "island": 3586,
    "ism": 3587,
    "isn": 3588,
    "isnt": 3589,
    "ison": 3590,
    "iss": 3591,
    "isso": 3592,
    "issue": 3593,
    "issues": 3594,
    "ist": 3595,
    "ista": 3596,
    "istas": 3597,
    "iste": 3598,
    "ister": 3599,
    "istic": 3600,
    "isto": 3601,
    "ists": 3602,
    "isy": 3603,
    "it": 3604,
    "ita": 3605,
    "ital": 3606,
    "italia": 3607,
    "itar": 3608,
    "ite": 3609,
    "ited": 3610,
    "itely": 3611,
    "ites": 3612,
    "ith": 3613,
    "ithe": 3614,
    "iti": 3615,
    "ities": 3616,
    "iting": 3617,
    "ition": 3618,
    "itions": 3619,
    "itive": 3620,
    "itll": 3621,
    "ito": 3622,
    "its": 3623,
    "itself": 3624,
    "ity": 3625,
    "iv": 3626,
    "ive": 3627,
    "iz": 3628,
    "ize": 3629,
    "ized": 3630,
    "izing": 3631,
    "j": 3632,
    "ja": 3633,
    "jac": 3634,
    "jack": 3635,
    "jackson": 3636,
    "jag": 3637,
    "jaguars": 3638,
    "jah": 3639,
    "jai": 3640,
    "jail": 3641,
    "jaja": 3642,
    "jake": 3643,
    "jal": 3644,
    "jalen": 3645,
    "jam": 3646,
    "james": 3647,
    "jan": 3648,
    "jar": 3649,
    "jas": 3650,
    "jason": 3651,
    "jasons": 3652,
    "jay": 3653,
    "jaylen": 3654,
    "je": 3655,
    "jeal": 3656,
    "jee": 3657,
    "jeez": 3658,
    "jeff": 3659,
    "jem": 3660,
    "jen": 3661,
    "jer": 3662,
    "jerk": 3663,
    "jerry": 3664,
    "jersey": 3665,
    "jerseys": 3666,
    "jes": 3667,
    "jesus": 3668,
    "jet": 3669,
    "jets": 3670,
    "jeu": 3671,
    "jhe": 3672,
    "ji": 3673,
    "jig": 3674,
    "jiggle": 3675,
    "jiggles": 3676,
    "jim": 3677,
    "jimmy": 3678,
    "jin": 3679,
    "jinx": 3680,
    "jis": 3681,
    "jj": 3682,
    "jo": 3683,
    "job": 3684,
    "jobs": 3685,
    "joe": 3686,
    "jogar": 3687,
    "jogo": 3688,
    "joh": 3689,
    "john": 3690,
    "johnny": 3691,
    "join": 3692,
    "joke": 3693,
    "joker": 3694,
    "jokes": 3695,
    "jom": 3696,
    "jon": 3697,
    "jones": 3698,
    "jor": 3699,
    "jordan": 3700,
    "josh": 3701,
    "jou": 3702,
    "jour": 3703,
    "journey": 3704,
    "jours": 3705,
    "joy": 3706,
    "js": 3707,
    "ju": 3708,
    "jud": 3709,
    "judge": 3710,
    "juego": 3711,
    "juegos": 3712,
    "jugar": 3713,
    "jugarlo": 3714,
    "juice": 3715,
    "jump": 3716,
    "jumped": 3717,
    "jumping": 3718,
    "jun": 3719,
    "june": 3720,
    "junk": 3721,
    "jus": 3722,
    "just": 3723,
    "justice": 3724,
    "justin": 3725,
    "k": 3726,
    "ka": 3727,
    "kad": 3728,
    "kal": 3729,
    "kan": 3730,
    "kans": 3731,
    "kansas": 3732,
    "kar": 3733,
    "kare": 3734,
    "kareem": 3735,
    "karma": 3736,
    "kas": 3737,
    "kaw": 3738,
    "kay": 3739,
    "kc": 3740,
    "kcs": 3741,
    "ke": 3742,
    "ked": 3743,
    "kee": 3744,
    "keen": 3745,
    "keep": 3746,
    "keeping": 3747,
    "keeps": 3748,
    "kel": 3749,
    "kelce": 3750,
    "kell": 3751,
    "kellen": 3752,
    "kelsey": 3753,
    "ken": 3754,
    "kend": 3755,
    "kendrick": 3756,
    "kenny": 3757,
    "kept": 3758,
    "ker": 3759,
    "kermit": 3760,
    "kers": 3761,
    "kes": 3762,
    "ket": 3763,
    "kets": 3764,
    "kevin": 3765,
    "key": 3766,
    "kg": 3767,
    "kh": 3768,
    "kha": 3769,
    "khat": 3770,
    "khatam": 3771,
    "ki": 3772,
    "kick": 3773,
    "kicked": 3774,
    "kicker": 3775,
    "kicking": 3776,
    "kickoff": 3777,
    "kicks": 3778,
    "kid": 3779,
    "kidding": 3780,
    "kids": 3781,
    "kill": 3782,
    "killed": 3783,
    "killer": 3784,
    "killers": 3785,
    "killing": 3786,
    "kim": 3787,
    "kin": 3788,
    "kind": 3789,
    "kinda": 3790,
    "king": 3791,
    "kingdom": 3792,
    "kings": 3793,
    "kins": 3794,
    "kish": 3795,
    "kiss": 3796,
    "kit": 3797,
    "kk": 3798,
    "kkkk": 3799,
    "kkkkk": 3800,
    "kkkkkk": 3801,
    "kkkkkkkk": 3802,
    "kl": 3803,
    "kley": 3804,
    "kn": 3805,
    "kne": 3806,
    "knee": 3807,
    "knew": 3808,
    "knight": 3809,
    "kno": 3810,
    "knock": 3811,
    "know": 3812,
    "knowing": 3813,
    "knowledge": 3814,
    "known": 3815,
    "knows": 3816,
    "ko": 3817,
    "kobe": 3818,
    "kom": 3819,
    "kompa": 3820,
    "kon": 3821,
    "koncept": 3822,
    "kor": 3823,
    "kr": 3824,
    "ks": 3825,
    "kt": 3826,
    "ku": 3827,
    "kudos": 3828,
    "ky": 3829,
    "kya": 3830,
    "l": 3831,
    "la": 3832,
    "lack": 3833,
    "lad": 3834,
    "ladies": 3835,
    "lads": 3836,
    "lady": 3837,
    "laid": 3838,
    "lam": 3839,
    "lamar": 3840,
    "lame": 3841,
    "lan": 3842,
    "lana": 3843,
    "lanamento": 3844,
    "land": 3845,
    "landed": 3846,
    "langu": 3847,
    "language": 3848,
    "lap": 3849,
    "laptop": 3850,
    "lar": 3851,
    "las": 3852,
    "lash": 3853,
    "last": 3854,
    "lat": 3855,
    "late": 3856,
    "lately": 3857,
    "later": 3858,
    "lateral": 3859,
    "latina": 3860,
    "latino": 3861,
    "laugh": 3862,
    "laughed": 3863,
    "laughing": 3864,
    "laughs": 3865,
    "laughter": 3866,
    "launch": 3867,
    "launched": 3868,
    "law": 3869,
    "lax": 3870,
    "lay": 3871,
    "laz": 3872,
    "lazy": 3873,
    "ld": 3874,
    "le": 3875,
    "lea": 3876,
    "lead": 3877,
    "leader": 3878,
    "leaders": 3879,
    "leading": 3880,
    "league": 3881,
    "leak": 3882,
    "leaked": 3883,
    "leaks": 3884,
    "lear": 3885,
    "learn": 3886,
    "learned": 3887,
    "learning": 3888,
    "least": 3889,
    "leata": 3890,
    "leave": 3891,
    "leaving": 3892,
    "lebron": 3893,
    "led": 3894,
    "ledge": 3895,
    "left": 3896,
    "leg": 3897,
    "lega": 3898,
    "legacy": 3899,
    "legal": 3900,
    "legen": 3901,
    "legend": 3902,
    "legendary": 3903,
    "legends": 3904,
    "legit": 3905,
    "legs": 3906,
    "leite": 3907,
    "lem": 3908,
    "len": 3909,
    "length": 3910,
    "leon": 3911,
    "leonida": 3912,
    "ler": 3913,
    "les": 3914,
    "less": 3915,
    "lesson": 3916,
    "lest": 3917,
    "lester": 3918,
    "let": 3919,
    "lete": 3920,
    "lets": 3921,
    "letting": 3922,
    "level": 3923,
    "levels": 3924,
    "levi": 3925,
    "levy": 3926,
    "ley": 3927,
    "lf": 3928,
    "lfg": 3929,
    "lg": 3930,
    "li": 3931,
    "liber": 3932,
    "liberty": 3933,
    "lic": 3934,
    "lice": 3935,
    "lick": 3936,
    "lie": 3937,
    "lied": 3938,
    "lier": 3939,
    "lies": 3940,
    "lif": 3941,
    "life": 3942,
    "lifelong": 3943,
    "lifes": 3944,
    "lifetime": 3945,
    "lifting": 3946,
    "light": 3947,
    "lighting": 3948,
    "lights": 3949,
    "lii": 3950,
    "lik": 3951,
    "like": 3952,
    "liked": 3953,
    "likely": 3954,
    "likes": 3955,
    "liking": 3956,
    "lil": 3957,
    "lim": 3958,
    "limit": 3959,
    "limited": 3960,
    "lin": 3961,
    "lindo": 3962,
    "line": 3963,
    "lineback": 3964,
    "lineman": 3965,
    "linemen": 3966,
    "lines": 3967,
    "ling": 3968,
    "link": 3969,
    "lio": 3970,
    "lion": 3971,
    "lions": 3972,
    "liqu": 3973,
    "lis": 3974,
    "list": 3975,
    "listen": 3976,
    "listened": 3977,
    "listening": 3978,
    "lit": 3979,
    "liter": 3980,
    "literal": 3981,
    "literally": 3982,
    "little": 3983,
    "live": 3984,
    "lived": 3985,
    "lives": 3986,
    "living": 3987,
    "lix": 3988,
    "liyor": 3989,
    "liz": 3990,
    "lju": 3991,
    "ljudi": 3992,
    "ll": 3993,
    "lla": 3994,
    "llar": 3995,
    "lle": 3996,
    "lled": 3997,
    "ller": 3998,
    "lli": 3999,
    "lling": 4000,
    "lll": 4001,
    "llll": 4002,
    "llo": 4003,
    "llow": 4004,
    "lly": 4005,
    "lm": 4006,
    "lma": 4007,
    "lmao": 4008,
    "lmfa": 4009,
    "lmfao": 4010,
    "lo": 4011,
    "load": 4012,
    "loaded": 4013,
    "loc": 4014,
    "local": 4015,
    "lock": 4016,
    "locked": 4017,
    "loco": 4018,
    "locura": 4019,
    "log": 4020,
    "logic": 4021,
    "logical": 4022,
    "logo": 4023,
    "logy": 4024,
    "lol": 4025,
    "lolo": 4026,
    "lom": 4027,
    "lombardi": 4028,
    "lon": 4029,
    "london": 4030,
    "long": 4031,
    "longer": 4032,
    "longest": 4033,
    "loo": 4034,
    "look": 4035,
    "looked": 4036,
    "lookin": 4037,
    "looking": 4038,
    "looks": 4039,
    "loooo": 4040,
    "loose": 4041,
    "loosing": 4042,
    "lop": 4043,
    "lopsided": 4044,
    "lor": 4045,
    "lord": 4046,
    "los": 4047,
    "lose": 4048,
    "loser": 4049,
    "losers": 4050,
    "loses": 4051,
    "losing": 4052,
    "loss": 4053,
    "losses": 4054,
    "lost": 4055,
    "lot": 4056,
    "lots": 4057,
    "lou": 4058,
    "loud": 4059,
    "lousy": 4060,
    "love": 4061,
    "loved": 4062,
    "lovely": 4063,
    "loves": 4064,
    "loving": 4065,
    "low": 4066,
    "lower": 4067,
    "lowkey": 4068,
    "lox": 4069,
    "loyal": 4070,
    "ls": 4071,
    "lt": 4072,
    "lu": 4073,
    "lucia": 4074,
    "lucias": 4075,
    "luck": 4076,
    "lucky": 4077,
    "lunch": 4078,
    "lution": 4079,
    "luv": 4080,
    "lux": 4081,
    "lv": 4082,
    "ly": 4083,
    "lying": 4084,
    "m": 4085,
    "ma": 4086,
    "mac": 4087,
    "mach": 4088,
    "machine": 4089,
    "mad": 4090,
    "madad": 4091,
    "madden": 4092,
    "made": 4093,
    "madness": 4094,
    "mag": 4095,
    "mage": 4096,
    "magic": 4097,
    "magn": 4098,
    "magnificent": 4099,
    "mah": 4100,
    "maholmes": 4101,
    "mahom": 4102,
    "mahome": 4103,
    "mahomes": 4104,
    "mahomie": 4105,
    "mahommes": 4106,
    "mahomo": 4107,
    "mahone": 4108,
    "mahones": 4109,
    "mai": 4110,
    "mail": 4111,
    "mailata": 4112,
    "main": 4113,
    "mainly": 4114,
    "mainstream": 4115,
    "maintain": 4116,
    "maio": 4117,
    "mais": 4118,
    "maj": 4119,
    "major": 4120,
    "majority": 4121,
    "make": 4122,
    "maker": 4123,
    "makers": 4124,
    "makes": 4125,
    "making": 4126,
    "mal": 4127,
    "male": 4128,
    "mali": 4129,
    "mam": 4130,
    "man": 4131,
    "mana": 4132,
    "manage": 4133,
    "managed": 4134,
    "manhandled": 4135,
    "mani": 4136,
    "manipul": 4137,
    "manipula": 4138,
    "mankind": 4139,
    "manning": 4140,
    "mano": 4141,
    "mans": 4142,
    "mansplain": 4143,
    "mansplaining": 4144,
    "many": 4145,
    "map": 4146,
    "mar": 4147,
    "mara": 4148,
    "maravil": 4149,
    "marcando": 4150,
    "march": 4151,
    "mare": 4152,
    "margin": 4153,
    "marino": 4154,
    "mark": 4155,
    "marke": 4156,
    "market": 4157,
    "marketing": 4158,
    "married": 4159,
    "marry": 4160,
    "mart": 4161,
    "marvel": 4162,
    "mary": 4163,
    "mas": 4164,
    "mask": 4165,
    "massa": 4166,
    "massacre": 4167,
    "massive": 4168,
    "master": 4169,
    "masterclass": 4170,
    "masterpiece": 4171,
    "mat": 4172,
    "match": 4173,
    "matched": 4174,
    "matches": 4175,
    "matchup": 4176,
    "mate": 4177,
    "mated": 4178,
    "materi": 4179,
    "mates": 4180,
    "matic": 4181,
    "matt": 4182,
    "matter": 4183,
    "mattered": 4184,
    "matters": 4185,
    "matthew": 4186,
    "max": 4187,
    "may": 4188,
    "maybe": 4189,
    "mayo": 4190,
    "maz": 4191,
    "mber": 4192,
    "mc": 4193,
    "mcdu": 4194,
    "mcduff": 4195,
    "mcduffie": 4196,
    "mch": 4197,
    "mcholmes": 4198,
    "mchomes": 4199,
    "mcnab": 4200,
    "mcnabb": 4201,
    "me": 4202,
    "mean": 4203,
    "meaning": 4204,
    "means": 4205,
    "meant": 4206,
    "meanwhile": 4207,
    "meas": 4208,
    "mechan": 4209,
    "mechanics": 4210,
    "med": 4211,
    "medi": 4212,
    "media": 4213,
    "medicine": 4214,
    "medio": 4215,
    "mediocre": 4216,
    "mee": 4217,
    "meet": 4218,
    "meeting": 4219,
    "meh": 4220,
    "mein": 4221,
    "mejor": 4222,
    "mel": 4223,
    "melhor": 4224,
    "mell": 4225,
    "melo": 4226,
    "mem": 4227,
    "members": 4228,
    "meme": 4229,
    "memes": 4230,
    "memor": 4231,
    "memories": 4232,
    "memory": 4233,
    "men": 4234,
    "menos": 4235,
    "ment": 4236,
    "mental": 4237,
    "mentality": 4238,
    "mentally": 4239,
    "mente": 4240,
    "mented": 4241,
    "mention": 4242,
    "mentioned": 4243,
    "ments": 4244,
    "mer": 4245,
    "mera": 4246,
    "merch": 4247,
    "merci": 4248,
    "mercy": 4249,
    "merda": 4250,
    "mere": 4251,
    "meri": 4252,
    "merit": 4253,
    "mes": 4254,
    "mess": 4255,
    "message": 4256,
    "messed": 4257,
    "messi": 4258,
    "messing": 4259,
    "met": 4260,
    "mete": 4261,
    "meteor": 4262,
    "meu": 4263,
    "mexi": 4264,
    "mexican": 4265,
    "mf": 4266,
    "mh": 4267,
    "mi": 4268,
    "miami": 4269,
    "mic": 4270,
    "micd": 4271,
    "mich": 4272,
    "micha": 4273,
    "michael": 4274,
    "michaels": 4275,
    "miche": 4276,
    "micheal": 4277,
    "micheals": 4278,
    "micro": 4279,
    "mid": 4280,
    "middle": 4281,
    "midnight": 4282,
    "mie": 4283,
    "mies": 4284,
    "might": 4285,
    "mighty": 4286,
    "mike": 4287,
    "mil": 4288,
    "miles": 4289,
    "milhes": 4290,
    "mili": 4291,
    "milion": 4292,
    "milk": 4293,
    "mill": 4294,
    "million": 4295,
    "millionaire": 4296,
    "millions": 4297,
    "millones": 4298,
    "min": 4299,
    "mind": 4300,
    "minds": 4301,
    "mine": 4302,
    "minecraft": 4303,
    "ming": 4304,
    "minha": 4305,
    "mini": 4306,
    "minim": 4307,
    "minimum": 4308,
    "minist": 4309,
    "ministro": 4310,
    "minor": 4311,
    "mins": 4312,
    "minu": 4313,
    "minute": 4314,
    "minutes": 4315,
    "minuto": 4316,
    "mio": 4317,
    "mir": 4318,
    "mira": 4319,
    "miracle": 4320,
    "mire": 4321,
    "mirr": 4322,
    "mis": 4323,
    "miser": 4324,
    "miserable": 4325,
    "misleading": 4326,
    "mismo": 4327,
    "misogy": 4328,
    "miss": 4329,
    "missed": 4330,
    "missing": 4331,
    "mission": 4332,
    "missions": 4333,
    "mist": 4334,
    "mistake": 4335,
    "mistakes": 4336,
    "mit": 4337,
    "mix": 4338,
    "mk": 4339,
    "ml": 4340,
    "mm": 4341,
    "mmm": 4342,
    "mmmm": 4343,
    "mmmmmmmm": 4344,
    "mn": 4345,
    "mo": 4346,
    "mobile": 4347,
    "mode": 4348,
    "model": 4349,
    "modelo": 4350,
    "moder": 4351,
    "modern": 4352,
    "modo": 4353,
    "molly": 4354,
    "mom": 4355,
    "moment": 4356,
    "momento": 4357,
    "moments": 4358,
    "momentum": 4359,
    "mon": 4360,
    "money": 4361,
    "monster": 4362,
    "montan": 4363,
    "montana": 4364,
    "month": 4365,
    "months": 4366,
    "moo": 4367,
    "moon": 4368,
    "moore": 4369,
    "mor": 4370,
    "moral": 4371,
    "more": 4372,
    "morgan": 4373,
    "morning": 4374,
    "morrer": 4375,
    "mos": 4376,
    "moso": 4377,
    "moss": 4378,
    "most": 4379,
    "mostly": 4380,
    "mother": 4381,
    "motion": 4382,
    "motiv": 4383,
    "mou": 4384,
    "moun": 4385,
    "mount": 4386,
    "mouth": 4387,
    "move": 4388,
    "moved": 4389,
    "movement": 4390,
    "moves": 4391,
    "movie": 4392,
    "movies": 4393,
    "moving": 4394,
    "mr": 4395,
    "mrs": 4396,
    "ms": 4397,
    "msi": 4398,
    "mt": 4399,
    "mu": 4400,
    "much": 4401,
    "mucho": 4402,
    "muito": 4403,
    "multi": 4404,
    "multiplayer": 4405,
    "multiple": 4406,
    "mum": 4407,
    "mun": 4408,
    "mundo": 4409,
    "mur": 4410,
    "murder": 4411,
    "mus": 4412,
    "muscle": 4413,
    "muscles": 4414,
    "musi": 4415,
    "music": 4416,
    "musk": 4417,
    "must": 4418,
    "mustve": 4419,
    "mute": 4420,
    "muy": 4421,
    "mv": 4422,
    "mvp": 4423,
    "mvps": 4424,
    "my": 4425,
    "myself": 4426,
    "n": 4427,
    "na": 4428,
    "nab": 4429,
    "nada": 4430,
    "nagy": 4431,
    "nah": 4432,
    "nahi": 4433,
    "nail": 4434,
    "nailed": 4435,
    "nam": 4436,
    "name": 4437,
    "named": 4438,
    "names": 4439,
    "nan": 4440,
    "nao": 4441,
    "nap": 4442,
    "nar": 4443,
    "narciss": 4444,
    "narrat": 4445,
    "narrati": 4446,
    "narration": 4447,
    "narrative": 4448,
    "nas": 4449,
    "nasty": 4450,
    "nat": 4451,
    "nation": 4452,
    "national": 4453,
    "nations": 4454,
    "native": 4455,
    "natur": 4456,
    "natural": 4457,
    "nature": 4458,
    "nay": 4459,
    "nba": 4460,
    "nc": 4461,
    "ncia": 4462,
    "nd": 4463,
    "ne": 4464,
    "near": 4465,
    "nearly": 4466,
    "neces": 4467,
    "necesito": 4468,
    "necessarily": 4469,
    "necessary": 4470,
    "neck": 4471,
    "ned": 4472,
    "need": 4473,
    "needed": 4474,
    "needs": 4475,
    "neg": 4476,
    "negative": 4477,
    "nei": 4478,
    "neigh": 4479,
    "neighbor": 4480,
    "neither": 4481,
    "nel": 4482,
    "nem": 4483,
    "ner": 4484,
    "nerds": 4485,
    "ners": 4486,
    "nervous": 4487,
    "nes": 4488,
    "ness": 4489,
    "nesse": 4490,
    "net": 4491,
    "netflix": 4492,
    "neut": 4493,
    "neutral": 4494,
    "neutralize": 4495,
    "never": 4496,
    "new": 4497,
    "news": 4498,
    "next": 4499,
    "ney": 4500,
    "nfc": 4501,
    "nfl": 4502,
    "ng": 4503,
    "ngl": 4504,
    "ni": 4505,
    "nia": 4506,
    "nic": 4507,
    "nice": 4508,
    "nicely": 4509,
    "nicht": 4510,
    "nick": 4511,
    "nico": 4512,
    "nie": 4513,
    "night": 4514,
    "nightmare": 4515,
    "nights": 4516,
    "niko": 4517,
    "nin": 4518,
    "nine": 4519,
    "niners": 4520,
    "ning": 4521,
    "nis": 4522,
    "nit": 4523,
    "nite": 4524,
    "nn": 4525,
    "nnn": 4526,
    "nnnn": 4527,
    "nnnnnnnn": 4528,
    "no": 4529,
    "nobody": 4530,
    "nod": 4531,
    "noise": 4532,
    "nold": 4533,
    "nolo": 4534,
    "non": 4535,
    "none": 4536,
    "nonetheless": 4537,
    "nonsense": 4538,
    "noo": 4539,
    "noob": 4540,
    "noooo": 4541,
    "nooooo": 4542,
    "noooooooo": 4543,
    "nope": 4544,
    "nor": 4545,
    "normal": 4546,
    "normally": 4547,
    "north": 4548,
    "nos": 4549,
    "nose": 4550,
    "nostal": 4551,
    "nostalgia": 4552,
    "not": 4553,
    "note": 4554,
    "notes": 4555,
    "nothing": 4556,
    "noti": 4557,
    "notic": 4558,
    "notice": 4559,
    "noticed": 4560,
    "nou": 4561,
    "nous": 4562,
    "now": 4563,
    "nowadays": 4564,
    "nowhere": 4565,
    "npc": 4566,
    "ns": 4567,
    "nt": 4568,
    "nu": 4569,
    "nuclear": 4570,
    "nue": 4571,
    "num": 4572,
    "numb": 4573,
    "number": 4574,
    "numbers": 4575,
    "nun": 4576,
    "nunca": 4577,
    "nut": 4578,
    "nuts": 4579,
    "nv": 4580,
    "nvidia": 4581,
    "nvm": 4582,
    "ny": 4583,
    "o": 4584,
    "ob": 4585,
    "obje": 4586,
    "objecti": 4587,
    "objective": 4588,
    "objetivo": 4589,
    "obli": 4590,
    "obliter": 4591,
    "obliterated": 4592,
    "oblivion": 4593,
    "obno": 4594,
    "obnoxious": 4595,
    "obra": 4596,
    "obser": 4597,
    "observ": 4598,
    "obvious": 4599,
    "obviously": 4600,
    "oc": 4601,
    "occas": 4602,
    "occur": 4603,
    "occurred": 4604,
    "oce": 4605,
    "och": 4606,
    "octo": 4607,
    "october": 4608,
    "od": 4609,
    "odd": 4610,
    "odds": 4611,
    "ode": 4612,
    "of": 4613,
    "off": 4614,
    "offen": 4615,
    "offence": 4616,
    "offense": 4617,
    "offensive": 4618,
    "offer": 4619,
    "offi": 4620,
    "office": 4621,
    "officer": 4622,
    "offici": 4623,
    "official": 4624,
    "officially": 4625,
    "officials": 4626,
    "officiating": 4627,
    "offs": 4628,
    "offseason": 4629,
    "offsides": 4630,
    "oft": 4631,
    "often": 4632,
    "og": 4633,
    "oh": 4634,
    "ohh": 4635,
    "ohhh": 4636,
    "ohio": 4637,
    "oil": 4638,
    "ojal": 4639,
    "ok": 4640,
    "okay": 4641,
    "oko": 4642,
    "ol": 4643,
    "ola": 4644,
    "old": 4645,
    "older": 4646,
    "ole": 4647,
    "oline": 4648,
    "oll": 4649,
    "olo": 4650,
    "olym": 4651,
    "om": 4652,
    "ome": 4653,
    "omen": 4654,
    "omes": 4655,
    "omg": 4656,
    "oms": 4657,
    "omy": 4658,
    "on": 4659,
    "ona": 4660,
    "once": 4661,
    "one": 4662,
    "oned": 4663,
    "onent": 4664,
    "ones": 4665,
    "oney": 4666,
    "ong": 4667,
    "onk": 4668,
    "online": 4669,
    "only": 4670,
    "ons": 4671,
    "ont": 4672,
    "onto": 4673,
    "oo": 4674,
    "ood": 4675,
    "oof": 4676,
    "ook": 4677,
    "ool": 4678,
    "oon": 4679,
    "ooo": 4680,
    "oooo": 4681,
    "ooooo": 4682,
    "oooooo": 4683,
    "ooooooo": 4684,
    "oooooooo": 4685,
    "oooooooooooooooo": 4686,
    "oops": 4687,
    "op": 4688,
    "open": 4689,
    "opened": 4690,
    "opening": 4691,
    "openings": 4692,
    "opens": 4693,
    "oper": 4694,
    "opi": 4695,
    "opin": 4696,
    "opinion": 4697,
    "opp": 4698,
    "opponent": 4699,
    "opponents": 4700,
    "opport": 4701,
    "opportunity": 4702,
    "oppos": 4703,
    "opposing": 4704,
    "opposite": 4705,
    "oppress": 4706,
    "oppressor": 4707,
    "option": 4708,
    "options": 4709,
    "or": 4710,
    "ora": 4711,
    "orange": 4712,
    "order": 4713,
    "ordin": 4714,
    "ordinary": 4715,
    "ore": 4716,
    "organ": 4717,
    "organiz": 4718,
    "organization": 4719,
    "origin": 4720,
    "original": 4721,
    "orle": 4722,
    "orleans": 4723,
    "ors": 4724,
    "ort": 4725,
    "orts": 4726,
    "ory": 4727,
    "os": 4728,
    "osed": 4729,
    "oso": 4730,
    "ost": 4731,
    "ot": 4732,
    "ota": 4733,
    "ote": 4734,
    "other": 4735,
    "others": 4736,
    "otherwise": 4737,
    "otic": 4738,
    "otro": 4739,
    "ots": 4740,
    "ott": 4741,
    "ou": 4742,
    "ouch": 4743,
    "oud": 4744,
    "ough": 4745,
    "ought": 4746,
    "ould": 4747,
    "oun": 4748,
    "ounce": 4749,
    "ound": 4750,
    "ounds": 4751,
    "ount": 4752,
    "our": 4753,
    "ours": 4754,
    "ourselves": 4755,
    "ous": 4756,
    "ouse": 4757,
    "ously": 4758,
    "ousy": 4759,
    "out": 4760,
    "outcome": 4761,
    "outcomes": 4762,
    "outfit": 4763,
    "outplayed": 4764,
    "outro": 4765,
    "outs": 4766,
    "outside": 4767,
    "outstanding": 4768,
    "outta": 4769,
    "over": 4770,
    "overall": 4771,
    "overconfidence": 4772,
    "overconfident": 4773,
    "overhyped": 4774,
    "overly": 4775,
    "overrated": 4776,
    "ovo": 4777,
    "ow": 4778,
    "owe": 4779,
    "owed": 4780,
    "own": 4781,
    "owned": 4782,
    "owner": 4783,
    "owners": 4784,
    "ox": 4785,
    "oy": 4786,
    "oynay": 4787,
    "oyun": 4788,
    "oyunu": 4789,
    "p": 4790,
    "pa": 4791,
    "pac": 4792,
    "pacheco": 4793,
    "pack": 4794,
    "package": 4795,
    "packers": 4796,
    "pad": 4797,
    "padding": 4798,
    "page": 4799,
    "pai": 4800,
    "paid": 4801,
    "pain": 4802,
    "paint": 4803,
    "pair": 4804,
    "pak": 4805,
    "pakist": 4806,
    "pakistan": 4807,
    "pal": 4808,
    "palest": 4809,
    "palestine": 4810,
    "pan": 4811,
    "panam": 4812,
    "panama": 4813,
    "pand": 4814,
    "pande": 4815,
    "panic": 4816,
    "panthers": 4817,
    "pants": 4818,
    "papa": 4819,
    "paper": 4820,
    "par": 4821,
    "para": 4822,
    "parade": 4823,
    "pare": 4824,
    "parec": 4825,
    "parece": 4826,
    "parents": 4827,
    "park": 4828,
    "part": 4829,
    "parte": 4830,
    "parti": 4831,
    "partic": 4832,
    "partici": 4833,
    "particular": 4834,
    "particularly": 4835,
    "partido": 4836,
    "partner": 4837,
    "partners": 4838,
    "parts": 4839,
    "party": 4840,
    "pas": 4841,
    "pass": 4842,
    "passe": 4843,
    "passed": 4844,
    "passer": 4845,
    "passes": 4846,
    "passing": 4847,
    "passion": 4848,
    "passionate": 4849,
    "past": 4850,
    "pat": 4851,
    "patch": 4852,
    "path": 4853,
    "pathetic": 4854,
    "pathy": 4855,
    "pati": 4856,
    "patience": 4857,
    "patient": 4858,
    "patri": 4859,
    "patricia": 4860,
    "patrick": 4861,
    "patriots": 4862,
    "pats": 4863,
    "patty": 4864,
    "paul": 4865,
    "pause": 4866,
    "pawn": 4867,
    "pawns": 4868,
    "pay": 4869,
    "payback": 4870,
    "payed": 4871,
    "paying": 4872,
    "pc": 4873,
    "pcion": 4874,
    "pcs": 4875,
    "pe": 4876,
    "pea": 4877,
    "peace": 4878,
    "peak": 4879,
    "peat": 4880,
    "peating": 4881,
    "pect": 4882,
    "pected": 4883,
    "pects": 4884,
    "ped": 4885,
    "pel": 4886,
    "pela": 4887,
    "pelcula": 4888,
    "pelo": 4889,
    "pen": 4890,
    "penal": 4891,
    "penalties": 4892,
    "penalty": 4893,
    "penet": 4894,
    "pennsylvania": 4895,
    "pens": 4896,
    "peo": 4897,
    "people": 4898,
    "peoples": 4899,
    "per": 4900,
    "perce": 4901,
    "percent": 4902,
    "perfe": 4903,
    "perfect": 4904,
    "perfection": 4905,
    "perfectly": 4906,
    "perfor": 4907,
    "perform": 4908,
    "performance": 4909,
    "performances": 4910,
    "performed": 4911,
    "perhaps": 4912,
    "perio": 4913,
    "period": 4914,
    "perish": 4915,
    "pero": 4916,
    "perro": 4917,
    "pers": 4918,
    "persi": 4919,
    "persian": 4920,
    "person": 4921,
    "personal": 4922,
    "personality": 4923,
    "personally": 4924,
    "perspective": 4925,
    "pes": 4926,
    "pesso": 4927,
    "pet": 4928,
    "peyton": 4929,
    "ph": 4930,
    "phantom": 4931,
    "phe": 4932,
    "phenomen": 4933,
    "phenomenal": 4934,
    "phi": 4935,
    "phia": 4936,
    "phil": 4937,
    "phila": 4938,
    "philadelphia": 4939,
    "phili": 4940,
    "philipp": 4941,
    "philippines": 4942,
    "phill": 4943,
    "phillies": 4944,
    "philly": 4945,
    "phillys": 4946,
    "phon": 4947,
    "phone": 4948,
    "phones": 4949,
    "phy": 4950,
    "physic": 4951,
    "physical": 4952,
    "physically": 4953,
    "physics": 4954,
    "pi": 4955,
    "pia": 4956,
    "pic": 4957,
    "pical": 4958,
    "pick": 4959,
    "picke": 4960,
    "picked": 4961,
    "picket": 4962,
    "pickett": 4963,
    "picking": 4964,
    "picks": 4965,
    "pickup": 4966,
    "picture": 4967,
    "pid": 4968,
    "pie": 4969,
    "piece": 4970,
    "pieces": 4971,
    "pig": 4972,
    "pil": 4973,
    "pin": 4974,
    "ping": 4975,
    "pink": 4976,
    "pint": 4977,
    "pir": 4978,
    "piss": 4979,
    "pissed": 4980,
    "pit": 4981,
    "pitch": 4982,
    "pittsburgh": 4983,
    "pity": 4984,
    "pixel": 4985,
    "pl": 4986,
    "pla": 4987,
    "plac": 4988,
    "place": 4989,
    "placed": 4990,
    "places": 4991,
    "plain": 4992,
    "plaining": 4993,
    "plan": 4994,
    "plane": 4995,
    "planet": 4996,
    "planned": 4997,
    "planning": 4998,
    "plans": 4999,
    "plant": 5000,
    "plat": 5001,
    "platform": 5002,
    "play": 5003,
    "playable": 5004,
    "played": 5005,
    "player": 5006,
    "players": 5007,
    "playin": 5008,
    "playing": 5009,
    "playlist": 5010,
    "playoff": 5011,
    "playoffs": 5012,
    "plays": 5013,
    "playstation": 5014,
    "ple": 5015,
    "pleas": 5016,
    "pleasant": 5017,
    "please": 5018,
    "pleased": 5019,
    "pleasure": 5020,
    "plenty": 5021,
    "ples": 5022,
    "pless": 5023,
    "plo": 5024,
    "plosion": 5025,
    "plot": 5026,
    "pls": 5027,
    "plus": 5028,
    "ply": 5029,
    "plz": 5030,
    "pm": 5031,
    "pn": 5032,
    "po": 5033,
    "pocket": 5034,
    "pod": 5035,
    "pode": 5036,
    "poder": 5037,
    "podr": 5038,
    "poe": 5039,
    "poha": 5040,
    "point": 5041,
    "pointer": 5042,
    "pointing": 5043,
    "points": 5044,
    "pois": 5045,
    "poker": 5046,
    "pol": 5047,
    "police": 5048,
    "polished": 5049,
    "polit": 5050,
    "polite": 5051,
    "pon": 5052,
    "pons": 5053,
    "poo": 5054,
    "pool": 5055,
    "poor": 5056,
    "poorly": 5057,
    "pop": 5058,
    "pope": 5059,
    "popped": 5060,
    "popul": 5061,
    "popular": 5062,
    "por": 5063,
    "porn": 5064,
    "porno": 5065,
    "porque": 5066,
    "port": 5067,
    "portfolio": 5068,
    "portu": 5069,
    "portugus": 5070,
    "pos": 5071,
    "pose": 5072,
    "position": 5073,
    "positional": 5074,
    "positive": 5075,
    "poss": 5076,
    "possession": 5077,
    "possi": 5078,
    "possibil": 5079,
    "possibilities": 5080,
    "possible": 5081,
    "possibly": 5082,
    "post": 5083,
    "posted": 5084,
    "posting": 5085,
    "postpon": 5086,
    "postpone": 5087,
    "postponed": 5088,
    "posts": 5089,
    "postseason": 5090,
    "pot": 5091,
    "potential": 5092,
    "pour": 5093,
    "pov": 5094,
    "pow": 5095,
    "power": 5096,
    "powerful": 5097,
    "pp": 5098,
    "ppable": 5099,
    "pped": 5100,
    "pper": 5101,
    "ppin": 5102,
    "pping": 5103,
    "ppl": 5104,
    "ppy": 5105,
    "pq": 5106,
    "pr": 5107,
    "pra": 5108,
    "practic": 5109,
    "practice": 5110,
    "praise": 5111,
    "pray": 5112,
    "pre": 5113,
    "precis": 5114,
    "preciso": 5115,
    "predi": 5116,
    "predict": 5117,
    "predictable": 5118,
    "predicted": 5119,
    "prediction": 5120,
    "prefer": 5121,
    "pregn": 5122,
    "pregnant": 5123,
    "pregun": 5124,
    "premi": 5125,
    "premier": 5126,
    "preorder": 5127,
    "prep": 5128,
    "prepar": 5129,
    "prepare": 5130,
    "prepared": 5131,
    "preparing": 5132,
    "pres": 5133,
    "presale": 5134,
    "prese": 5135,
    "presen": 5136,
    "presena": 5137,
    "presence": 5138,
    "present": 5139,
    "president": 5140,
    "press": 5141,
    "pressur": 5142,
    "pressure": 5143,
    "pressured": 5144,
    "pret": 5145,
    "preten": 5146,
    "pretend": 5147,
    "pretty": 5148,
    "prevent": 5149,
    "previous": 5150,
    "pri": 5151,
    "price": 5152,
    "priceless": 5153,
    "prick": 5154,
    "pride": 5155,
    "prime": 5156,
    "primer": 5157,
    "prin": 5158,
    "princi": 5159,
    "print": 5160,
    "prior": 5161,
    "pris": 5162,
    "prise": 5163,
    "prison": 5164,
    "privi": 5165,
    "prize": 5166,
    "pro": 5167,
    "prob": 5168,
    "probably": 5169,
    "proble": 5170,
    "problem": 5171,
    "problems": 5172,
    "process": 5173,
    "produ": 5174,
    "product": 5175,
    "production": 5176,
    "prof": 5177,
    "professional": 5178,
    "profile": 5179,
    "profit": 5180,
    "progr": 5181,
    "progress": 5182,
    "proje": 5183,
    "project": 5184,
    "prom": 5185,
    "promise": 5186,
    "promot": 5187,
    "pron": 5188,
    "proof": 5189,
    "proper": 5190,
    "properly": 5191,
    "property": 5192,
    "propos": 5193,
    "proposal": 5194,
    "propose": 5195,
    "props": 5196,
    "prostit": 5197,
    "prota": 5198,
    "protagon": 5199,
    "protagonist": 5200,
    "protagonists": 5201,
    "prote": 5202,
    "protect": 5203,
    "protected": 5204,
    "protecting": 5205,
    "protection": 5206,
    "protein": 5207,
    "proud": 5208,
    "prove": 5209,
    "proved": 5210,
    "proven": 5211,
    "proves": 5212,
    "provi": 5213,
    "prxi": 5214,
    "ps": 5215,
    "ps2": 5216,
    "ps4": 5217,
    "ps5": 5218,
    "ps6": 5219,
    "psy": 5220,
    "psycho": 5221,
    "psychological": 5222,
    "psychology": 5223,
    "pt": 5224,
    "pted": 5225,
    "pting": 5226,
    "ption": 5227,
    "pto": 5228,
    "pts": 5229,
    "pu": 5230,
    "pub": 5231,
    "publ": 5232,
    "publi": 5233,
    "public": 5234,
    "pued": 5235,
    "puede": 5236,
    "puedo": 5237,
    "pul": 5238,
    "pull": 5239,
    "pulled": 5240,
    "pulling": 5241,
    "pumped": 5242,
    "pun": 5243,
    "punch": 5244,
    "punched": 5245,
    "punching": 5246,
    "punk": 5247,
    "punt": 5248,
    "puppy": 5249,
    "pur": 5250,
    "purchase": 5251,
    "purdy": 5252,
    "pure": 5253,
    "purple": 5254,
    "purpose": 5255,
    "pus": 5256,
    "push": 5257,
    "pushed": 5258,
    "pushing": 5259,
    "put": 5260,
    "putin": 5261,
    "puts": 5262,
    "putting": 5263,
    "q": 5264,
    "qb": 5265,
    "qbs": 5266,
    "qtr": 5267,
    "qu": 5268,
    "quality": 5269,
    "quando": 5270,
    "quant": 5271,
    "quar": 5272,
    "quarter": 5273,
    "quarterback": 5274,
    "quarterbacks": 5275,
    "quarters": 5276,
    "quase": 5277,
    "que": 5278,
    "queefs": 5279,
    "queen": 5280,
    "queens": 5281,
    "quem": 5282,
    "quer": 5283,
    "quest": 5284,
    "question": 5285,
    "questionable": 5286,
    "questions": 5287,
    "qui": 5288,
    "quick": 5289,
    "quicker": 5290,
    "quickly": 5291,
    "quiero": 5292,
    "quiet": 5293,
    "quit": 5294,
    "quite": 5295,
    "quote": 5296,
    "qx": 5297,
    "r": 5298,
    "ra": 5299,
    "rac": 5300,
    "race": 5301,
    "racism": 5302,
    "racist": 5303,
    "rad": 5304,
    "rada": 5305,
    "radbrad": 5306,
    "radio": 5307,
    "rag": 5308,
    "rage": 5309,
    "raid": 5310,
    "raider": 5311,
    "raiders": 5312,
    "rain": 5313,
    "raise": 5314,
    "raised": 5315,
    "ral": 5316,
    "rally": 5317,
    "ram": 5318,
    "rams": 5319,
    "ran": 5320,
    "rand": 5321,
    "random": 5322,
    "randomly": 5323,
    "rank": 5324,
    "rap": 5325,
    "rar": 5326,
    "rare": 5327,
    "rarely": 5328,
    "rass": 5329,
    "rat": 5330,
    "rate": 5331,
    "rated": 5332,
    "rates": 5333,
    "rather": 5334,
    "rating": 5335,
    "ratings": 5336,
    "ration": 5337,
    "rations": 5338,
    "rattled": 5339,
    "ravens": 5340,
    "ray": 5341,
    "raz": 5342,
    "rb": 5343,
    "rbs": 5344,
    "rckstar": 5345,
    "rckstargames": 5346,
    "rd": 5347,
    "re": 5348,
    "rea": 5349,
    "reach": 5350,
    "reached": 5351,
    "react": 5352,
    "reaction": 5353,
    "reactions": 5354,
    "read": 5355,
    "reading": 5356,
    "reads": 5357,
    "ready": 5358,
    "reais": 5359,
    "reak": 5360,
    "real": 5361,
    "reale": 5362,
    "realease": 5363,
    "realese": 5364,
    "realis": 5365,
    "realise": 5366,
    "realised": 5367,
    "realism": 5368,
    "realista": 5369,
    "realistic": 5370,
    "reality": 5371,
    "realiz": 5372,
    "realize": 5373,
    "realized": 5374,
    "really": 5375,
    "realy": 5376,
    "reason": 5377,
    "reasons": 5378,
    "rec": 5379,
    "recall": 5380,
    "recei": 5381,
    "received": 5382,
    "receiver": 5383,
    "receivers": 5384,
    "recent": 5385,
    "recently": 5386,
    "reci": 5387,
    "recie": 5388,
    "recievers": 5389,
    "reckless": 5390,
    "reckon": 5391,
    "reco": 5392,
    "recogn": 5393,
    "recogni": 5394,
    "recognition": 5395,
    "recognized": 5396,
    "recom": 5397,
    "recomm": 5398,
    "recommend": 5399,
    "recommended": 5400,
    "recor": 5401,
    "record": 5402,
    "recorded": 5403,
    "records": 5404,
    "recover": 5405,
    "recru": 5406,
    "rect": 5407,
    "red": 5408,
    "redemption": 5409,
    "redi": 5410,
    "reds": 5411,
    "redskins": 5412,
    "redu": 5413,
    "ree": 5414,
    "reed": 5415,
    "reel": 5416,
    "ref": 5417,
    "refer": 5418,
    "refere": 5419,
    "referee": 5420,
    "referees": 5421,
    "reference": 5422,
    "references": 5423,
    "reffs": 5424,
    "refle": 5425,
    "reflecting": 5426,
    "refresh": 5427,
    "refreshing": 5428,
    "refs": 5429,
    "refused": 5430,
    "reg": 5431,
    "regar": 5432,
    "regard": 5433,
    "regardless": 5434,
    "regret": 5435,
    "regular": 5436,
    "reid": 5437,
    "reign": 5438,
    "rein": 5439,
    "rel": 5440,
    "relat": 5441,
    "relate": 5442,
    "related": 5443,
    "relations": 5444,
    "relationship": 5445,
    "relationships": 5446,
    "relative": 5447,
    "relatively": 5448,
    "relax": 5449,
    "relaxed": 5450,
    "rele": 5451,
    "release": 5452,
    "released": 5453,
    "releases": 5454,
    "releasing": 5455,
    "relent": 5456,
    "relentless": 5457,
    "relevant": 5458,
    "reli": 5459,
    "relie": 5460,
    "remain": 5461,
    "remaining": 5462,
    "remains": 5463,
    "remake": 5464,
    "remaster": 5465,
    "rematch": 5466,
    "remem": 5467,
    "remember": 5468,
    "remembered": 5469,
    "remin": 5470,
    "remind": 5471,
    "reminded": 5472,
    "reminder": 5473,
    "reminds": 5474,
    "reminis": 5475,
    "remove": 5476,
    "removed": 5477,
    "ren": 5478,
    "rench": 5479,
    "render": 5480,
    "renounce": 5481,
    "rent": 5482,
    "rep": 5483,
    "repeat": 5484,
    "repeating": 5485,
    "replace": 5486,
    "replay": 5487,
    "replayed": 5488,
    "reply": 5489,
    "report": 5490,
    "represent": 5491,
    "requ": 5492,
    "request": 5493,
    "requi": 5494,
    "require": 5495,
    "requirements": 5496,
    "rer": 5497,
    "res": 5498,
    "resem": 5499,
    "reser": 5500,
    "reset": 5501,
    "respe": 5502,
    "respect": 5503,
    "respected": 5504,
    "respon": 5505,
    "responsi": 5506,
    "ress": 5507,
    "rest": 5508,
    "rested": 5509,
    "resto": 5510,
    "restored": 5511,
    "restri": 5512,
    "result": 5513,
    "results": 5514,
    "resur": 5515,
    "reti": 5516,
    "retire": 5517,
    "retired": 5518,
    "retirement": 5519,
    "retires": 5520,
    "rett": 5521,
    "return": 5522,
    "returns": 5523,
    "reveal": 5524,
    "revealed": 5525,
    "revenge": 5526,
    "revenue": 5527,
    "review": 5528,
    "revolution": 5529,
    "reward": 5530,
    "rewatch": 5531,
    "rewatched": 5532,
    "rewatching": 5533,
    "rework": 5534,
    "rhy": 5535,
    "rhythm": 5536,
    "ri": 5537,
    "ric": 5538,
    "rica": 5539,
    "rice": 5540,
    "rich": 5541,
    "rick": 5542,
    "rid": 5543,
    "ride": 5544,
    "ridic": 5545,
    "ridicul": 5546,
    "ridiculous": 5547,
    "riding": 5548,
    "ried": 5549,
    "ries": 5550,
    "rig": 5551,
    "rigg": 5552,
    "rigged": 5553,
    "rigging": 5554,
    "right": 5555,
    "rights": 5556,
    "rin": 5557,
    "ring": 5558,
    "rings": 5559,
    "rio": 5560,
    "rios": 5561,
    "rious": 5562,
    "rip": 5563,
    "ripped": 5564,
    "ris": 5565,
    "rise": 5566,
    "rival": 5567,
    "rivalry": 5568,
    "rn": 5569,
    "ro": 5570,
    "road": 5571,
    "rob": 5572,
    "robbed": 5573,
    "roblox": 5574,
    "rock": 5575,
    "rocket": 5576,
    "rocksore": 5577,
    "rockstar": 5578,
    "rockstargames": 5579,
    "rockstargamescrs": 5580,
    "rockstars": 5581,
    "rockstoned": 5582,
    "rocky": 5583,
    "rod": 5584,
    "rodgers": 5585,
    "rog": 5586,
    "roger": 5587,
    "roid": 5588,
    "rok": 5589,
    "role": 5590,
    "roles": 5591,
    "roll": 5592,
    "rolled": 5593,
    "roller": 5594,
    "rolling": 5595,
    "rom": 5596,
    "roman": 5597,
    "romance": 5598,
    "romans": 5599,
    "romantic": 5600,
    "rome": 5601,
    "romo": 5602,
    "ron": 5603,
    "roo": 5604,
    "roof": 5605,
    "rook": 5606,
    "rookie": 5607,
    "room": 5608,
    "rooski": 5609,
    "root": 5610,
    "rooted": 5611,
    "rooting": 5612,
    "ror": 5613,
    "ros": 5614,
    "rose": 5615,
    "roseman": 5616,
    "ross": 5617,
    "roster": 5618,
    "rot": 5619,
    "rough": 5620,
    "roughing": 5621,
    "roughness": 5622,
    "round": 5623,
    "rout": 5624,
    "route": 5625,
    "row": 5626,
    "roy": 5627,
    "rp": 5628,
    "rr": 5629,
    "rrr": 5630,
    "rrrr": 5631,
    "rrrrr": 5632,
    "rs": 5633,
    "rt": 5634,
    "rtx": 5635,
    "ru": 5636,
    "rub": 5637,
    "rubbing": 5638,
    "ruction": 5639,
    "rude": 5640,
    "rug": 5641,
    "rugby": 5642,
    "ruin": 5643,
    "ruined": 5644,
    "ruining": 5645,
    "rul": 5646,
    "rule": 5647,
    "rules": 5648,
    "rum": 5649,
    "rumor": 5650,
    "run": 5651,
    "runner": 5652,
    "running": 5653,
    "runs": 5654,
    "rup": 5655,
    "rus": 5656,
    "rush": 5657,
    "rushed": 5658,
    "rushers": 5659,
    "rushing": 5660,
    "russi": 5661,
    "russia": 5662,
    "rx": 5663,
    "ry": 5664,
    "ryan": 5665,
    "s": 5666,
    "s/": 5667,
    "sa": 5668,
    "sab": 5669,
    "sabe": 5670,
    "sac": 5671,
    "sack": 5672,
    "sacked": 5673,
    "sacking": 5674,
    "sacks": 5675,
    "sacred": 5676,
    "sacrifi": 5677,
    "sacrifice": 5678,
    "sad": 5679,
    "safe": 5680,
    "safety": 5681,
    "said": 5682,
    "saints": 5683,
    "sak": 5684,
    "sake": 5685,
    "sakta": 5686,
    "sal": 5687,
    "sales": 5688,
    "salga": 5689,
    "salute": 5690,
    "sam": 5691,
    "same": 5692,
    "san": 5693,
    "sand": 5694,
    "santa": 5695,
    "santos": 5696,
    "saq": 5697,
    "saqu": 5698,
    "saquan": 5699,
    "saquon": 5700,
    "sat": 5701,
    "satan": 5702,
    "satis": 5703,
    "satisfa": 5704,
    "satisfaction": 5705,
    "satisfied": 5706,
    "satisfying": 5707,
    "sau": 5708,
    "save": 5709,
    "saved": 5710,
    "saving": 5711,
    "savings": 5712,
    "savior": 5713,
    "saw": 5714,
    "say": 5715,
    "sayin": 5716,
    "saying": 5717,
    "says": 5718,
    "sb": 5719,
    "sbs": 5720,
    "sc": 5721,
    "scale": 5722,
    "scam": 5723,
    "scamers": 5724,
    "scan": 5725,
    "scar": 5726,
    "scared": 5727,
    "scary": 5728,
    "scen": 5729,
    "scene": 5730,
    "scenes": 5731,
    "sch": 5732,
    "sche": 5733,
    "schedule": 5734,
    "schoo": 5735,
    "school": 5736,
    "sci": 5737,
    "sco": 5738,
    "scor": 5739,
    "score": 5740,
    "scoreboard": 5741,
    "scorebug": 5742,
    "scored": 5743,
    "scoreline": 5744,
    "scores": 5745,
    "scoring": 5746,
    "scot": 5747,
    "scott": 5748,
    "scr": 5749,
    "scram": 5750,
    "scrambling": 5751,
    "scratch": 5752,
    "scre": 5753,
    "scream": 5754,
    "screen": 5755,
    "screw": 5756,
    "screwed": 5757,
    "scri": 5758,
    "scrimmage": 5759,
    "script": 5760,
    "scripted": 5761,
    "scroll": 5762,
    "scrolls": 5763,
    "se": 5764,
    "sea": 5765,
    "seahaw": 5766,
    "seahawks": 5767,
    "seal": 5768,
    "sealed": 5769,
    "sean": 5770,
    "season": 5771,
    "seasons": 5772,
    "seat": 5773,
    "seats": 5774,
    "seattle": 5775,
    "sec": 5776,
    "secon": 5777,
    "second": 5778,
    "secondary": 5779,
    "seconds": 5780,
    "secre": 5781,
    "secret": 5782,
    "section": 5783,
    "secu": 5784,
    "secure": 5785,
    "security": 5786,
    "sed": 5787,
    "see": 5788,
    "seeing": 5789,
    "seem": 5790,
    "seemed": 5791,
    "seems": 5792,
    "seen": 5793,
    "sees": 5794,
    "segu": 5795,
    "seja": 5796,
    "sel": 5797,
    "sele": 5798,
    "self": 5799,
    "sell": 5800,
    "selling": 5801,
    "selves": 5802,
    "sem": 5803,
    "semi": 5804,
    "semifinal": 5805,
    "semifinals": 5806,
    "semis": 5807,
    "sempre": 5808,
    "sen": 5809,
    "send": 5810,
    "sending": 5811,
    "sens": 5812,
    "sense": 5813,
    "sent": 5814,
    "separ": 5815,
    "september": 5816,
    "sequ": 5817,
    "sequence": 5818,
    "ser": 5819,
    "sera": 5820,
    "seri": 5821,
    "series": 5822,
    "serious": 5823,
    "seriously": 5824,
    "served": 5825,
    "service": 5826,
    "ses": 5827,
    "session": 5828,
    "set": 5829,
    "sets": 5830,
    "setting": 5831,
    "setup": 5832,
    "seven": 5833,
    "sever": 5834,
    "several": 5835,
    "sex": 5836,
    "sexism": 5837,
    "sexist": 5838,
    "sexual": 5839,
    "sexy": 5840,
    "sey": 5841,
    "sh": 5842,
    "sha": 5843,
    "shad": 5844,
    "shadow": 5845,
    "shake": 5846,
    "shaked": 5847,
    "shakes": 5848,
    "shaking": 5849,
    "shall": 5850,
    "shame": 5851,
    "shape": 5852,
    "shar": 5853,
    "share": 5854,
    "shared": 5855,
    "sharing": 5856,
    "shark": 5857,
    "sharp": 5858,
    "shat": 5859,
    "she": 5860,
    "shed": 5861,
    "sheep": 5862,
    "sheesh": 5863,
    "shell": 5864,
    "shes": 5865,
    "shi": 5866,
    "shii": 5867,
    "shine": 5868,
    "ship": 5869,
    "ships": 5870,
    "shirt": 5871,
    "shirts": 5872,
    "shit": 5873,
    "shits": 5874,
    "shitty": 5875,
    "sho": 5876,
    "shock": 5877,
    "shocked": 5878,
    "shocking": 5879,
    "shoe": 5880,
    "shoo": 5881,
    "shook": 5882,
    "shoot": 5883,
    "shooting": 5884,
    "shop": 5885,
    "short": 5886,
    "shorts": 5887,
    "shot": 5888,
    "shots": 5889,
    "should": 5890,
    "shouldn": 5891,
    "shouldnt": 5892,
    "shouldve": 5893,
    "shout": 5894,
    "shoutout": 5895,
    "shovel": 5896,
    "show": 5897,
    "showed": 5898,
    "showing": 5899,
    "shown": 5900,
    "shows": 5901,
    "sht": 5902,
    "shuffle": 5903,
    "shut": 5904,
    "shutting": 5905,
    "shy": 5906,
    "si": 5907,
    "siad": 5908,
    "sic": 5909,
    "sick": 5910,
    "sics": 5911,
    "side": 5912,
    "sided": 5913,
    "sideline": 5914,
    "sidelines": 5915,
    "sides": 5916,
    "sie": 5917,
    "sig": 5918,
    "sigh": 5919,
    "sight": 5920,
    "sign": 5921,
    "signal": 5922,
    "signed": 5923,
    "signifi": 5924,
    "significant": 5925,
    "signs": 5926,
    "sil": 5927,
    "silence": 5928,
    "silent": 5929,
    "silly": 5930,
    "sim": 5931,
    "similar": 5932,
    "simo": 5933,
    "simp": 5934,
    "simple": 5935,
    "simplesmente": 5936,
    "simply": 5937,
    "simps": 5938,
    "sims": 5939,
    "simul": 5940,
    "simulation": 5941,
    "simulator": 5942,
    "sin": 5943,
    "since": 5944,
    "sincere": 5945,
    "sincerely": 5946,
    "sing": 5947,
    "singing": 5948,
    "single": 5949,
    "sink": 5950,
    "sins": 5951,
    "sion": 5952,
    "sip": 5953,
    "sir": 5954,
    "siri": 5955,
    "siriani": 5956,
    "sirianni": 5957,
    "sis": 5958,
    "sister": 5959,
    "sisters": 5960,
    "sit": 5961,
    "sitting": 5962,
    "situ": 5963,
    "situation": 5964,
    "sive": 5965,
    "six": 5966,
    "size": 5967,
    "sk": 5968,
    "ski": 5969,
    "skie": 5970,
    "skill": 5971,
    "skills": 5972,
    "skin": 5973,
    "skip": 5974,
    "sky": 5975,
    "sl": 5976,
    "sla": 5977,
    "slap": 5978,
    "slapped": 5979,
    "slaugh": 5980,
    "slaughtered": 5981,
    "slay": 5982,
    "sle": 5983,
    "sleep": 5984,
    "sleeping": 5985,
    "slept": 5986,
    "sli": 5987,
    "slide": 5988,
    "slight": 5989,
    "slightly": 5990,
    "slim": 5991,
    "slk": 5992,
    "slo": 5993,
    "sloppy": 5994,
    "slow": 5995,
    "sm": 5996,
    "sma": 5997,
    "smack": 5998,
    "smacked": 5999,
    "small": 6000,
    "smart": 6001,
    "smash": 6002,
    "smashed": 6003,
    "smell": 6004,
    "smh": 6005,
    "smi": 6006,
    "smile": 6007,
    "smiles": 6008,
    "smiley": 6009,
    "smiling": 6010,
    "smith": 6011,
    "smitten": 6012,
    "smitty": 6013,
    "smo": 6014,
    "smoked": 6015,
    "smoking": 6016,
    "smoo": 6017,
    "smooth": 6018,
    "smug": 6019,
    "sn": 6020,
    "sna": 6021,
    "snake": 6022,
    "snap": 6023,
    "snapper": 6024,
    "sneak": 6025,
    "snoo": 6026,
    "snow": 6027,
    "so": 6028,
    "soar": 6029,
    "sober": 6030,
    "sobre": 6031,
    "sobrevi": 6032,
    "sobreviver": 6033,
    "sobrevivir": 6034,
    "soc": 6035,
    "soccer": 6036,
    "social": 6037,
    "society": 6038,
    "soft": 6039,
    "sol": 6040,
    "sold": 6041,
    "soli": 6042,
    "solid": 6043,
    "solo": 6044,
    "som": 6045,
    "some": 6046,
    "somebody": 6047,
    "somehow": 6048,
    "someone": 6049,
    "something": 6050,
    "sometime": 6051,
    "sometimes": 6052,
    "somewhat": 6053,
    "somewhere": 6054,
    "son": 6055,
    "song": 6056,
    "songs": 6057,
    "sono": 6058,
    "sons": 6059,
    "sony": 6060,
    "soo": 6061,
    "soon": 6062,
    "sooner": 6063,
    "sooo": 6064,
    "soooo": 6065,
    "sooooo": 6066,
    "sooooooo": 6067,
    "soooooooo": 6068,
    "sor": 6069,
    "sore": 6070,
    "sorpre": 6071,
    "sorry": 6072,
    "sort": 6073,
    "sos": 6074,
    "sou": 6075,
    "soul": 6076,
    "sound": 6077,
    "sounded": 6078,
    "sounds": 6079,
    "soundtrack": 6080,
    "sour": 6081,
    "source": 6082,
    "south": 6083,
    "soy": 6084,
    "sp": 6085,
    "spa": 6086,
    "spaa": 6087,
    "spaavan": 6088,
    "space": 6089,
    "spaceballs": 6090,
    "spags": 6091,
    "span": 6092,
    "spanish": 6093,
    "spanked": 6094,
    "spanking": 6095,
    "spar": 6096,
    "spe": 6097,
    "spea": 6098,
    "speak": 6099,
    "speakers": 6100,
    "speaking": 6101,
    "spec": 6102,
    "special": 6103,
    "specif": 6104,
    "specific": 6105,
    "specifically": 6106,
    "spect": 6107,
    "specta": 6108,
    "spectacular": 6109,
    "speech": 6110,
    "speed": 6111,
    "spend": 6112,
    "spending": 6113,
    "spent": 6114,
    "sper": 6115,
    "spi": 6116,
    "spic": 6117,
    "spicy": 6118,
    "spill": 6119,
    "spilled": 6120,
    "spilling": 6121,
    "spin": 6122,
    "spir": 6123,
    "spirit": 6124,
    "spl": 6125,
    "split": 6126,
    "spo": 6127,
    "spoil": 6128,
    "spoiled": 6129,
    "spoiler": 6130,
    "sport": 6131,
    "sports": 6132,
    "sportsman": 6133,
    "sportsmanship": 6134,
    "spot": 6135,
    "spotify": 6136,
    "spotlight": 6137,
    "spotted": 6138,
    "spr": 6139,
    "spread": 6140,
    "spring": 6141,
    "sq": 6142,
    "squ": 6143,
    "squad": 6144,
    "square": 6145,
    "sqwoz": 6146,
    "ss": 6147,
    "sss": 6148,
    "ssss": 6149,
    "sssss": 6150,
    "ssssssss": 6151,
    "st": 6152,
    "sta": 6153,
    "stacked": 6154,
    "stadium": 6155,
    "staff": 6156,
    "stage": 6157,
    "staged": 6158,
    "stain": 6159,
    "stair": 6160,
    "stal": 6161,
    "stand": 6162,
    "standard": 6163,
    "standing": 6164,
    "star": 6165,
    "stars": 6166,
    "start": 6167,
    "started": 6168,
    "starters": 6169,
    "starting": 6170,
    "starts": 6171,
    "stat": 6172,
    "state": 6173,
    "stated": 6174,
    "statement": 6175,
    "states": 6176,
    "station": 6177,
    "stations": 6178,
    "statistic": 6179,
    "stats": 6180,
    "status": 6181,
    "stay": 6182,
    "stayed": 6183,
    "staying": 6184,
    "stays": 6185,
    "ste": 6186,
    "stea": 6187,
    "steak": 6188,
    "steal": 6189,
    "stealth": 6190,
    "steam": 6191,
    "steel": 6192,
    "steelers": 6193,
    "stellar": 6194,
    "sten": 6195,
    "step": 6196,
    "stephen": 6197,
    "stepped": 6198,
    "steps": 6199,
    "ster": 6200,
    "steri": 6201,
    "sters": 6202,
    "steve": 6203,
    "stick": 6204,
    "still": 6205,
    "stink": 6206,
    "sto": 6207,
    "stock": 6208,
    "stole": 6209,
    "stolen": 6210,
    "stom": 6211,
    "stomp": 6212,
    "stomped": 6213,
    "ston": 6214,
    "stood": 6215,
    "stop": 6216,
    "stopped": 6217,
    "stopping": 6218,
    "stops": 6219,
    "store": 6220,
    "stores": 6221,
    "stories": 6222,
    "story": 6223,
    "storyline": 6224,
    "str": 6225,
    "stra": 6226,
    "straight": 6227,
    "strange": 6228,
    "strate": 6229,
    "strategi": 6230,
    "strategic": 6231,
    "strategies": 6232,
    "strategy": 6233,
    "stre": 6234,
    "streak": 6235,
    "stream": 6236,
    "street": 6237,
    "streets": 6238,
    "strength": 6239,
    "stress": 6240,
    "stretch": 6241,
    "stri": 6242,
    "strickland": 6243,
    "strikes": 6244,
    "string": 6245,
    "strip": 6246,
    "stron": 6247,
    "strong": 6248,
    "stronger": 6249,
    "strongest": 6250,
    "stru": 6251,
    "strug": 6252,
    "struggle": 6253,
    "stu": 6254,
    "stuck": 6255,
    "stud": 6256,
    "studio": 6257,
    "study": 6258,
    "stuff": 6259,
    "stun": 6260,
    "stunning": 6261,
    "stup": 6262,
    "stupid": 6263,
    "sty": 6264,
    "style": 6265,
    "su": 6266,
    "sub": 6267,
    "subscri": 6268,
    "subscribe": 6269,
    "subscribed": 6270,
    "subscriber": 6271,
    "subscribers": 6272,
    "subtitle": 6273,
    "subtitles": 6274,
    "suc": 6275,
    "success": 6276,
    "successful": 6277,
    "such": 6278,
    "suck": 6279,
    "sucked": 6280,
    "sudden": 6281,
    "suddenly": 6282,
    "sue": 6283,
    "suf": 6284,
    "suffer": 6285,
    "sufferable": 6286,
    "suffering": 6287,
    "sugg": 6288,
    "suggest": 6289,
    "suggesting": 6290,
    "suggestion": 6291,
    "sum": 6292,
    "summer": 6293,
    "sun": 6294,
    "sunday": 6295,
    "super": 6296,
    "superar": 6297,
    "superb": 6298,
    "superbowl": 6299,
    "superbowls": 6300,
    "superior": 6301,
    "superiority": 6302,
    "supp": 6303,
    "suppor": 6304,
    "support": 6305,
    "supporting": 6306,
    "suppose": 6307,
    "supposed": 6308,
    "supre": 6309,
    "supreme": 6310,
    "sur": 6311,
    "sure": 6312,
    "sured": 6313,
    "surely": 6314,
    "surpass": 6315,
    "surpris": 6316,
    "surprise": 6317,
    "surprised": 6318,
    "surprises": 6319,
    "surreal": 6320,
    "surround": 6321,
    "survi": 6322,
    "survival": 6323,
    "survive": 6324,
    "survived": 6325,
    "surviving": 6326,
    "sus": 6327,
    "susp": 6328,
    "suvive": 6329,
    "sv": 6330,
    "sw": 6331,
    "swa": 6332,
    "swang": 6333,
    "swe": 6334,
    "swear": 6335,
    "sweat": 6336,
    "swee": 6337,
    "sweet": 6338,
    "sweeter": 6339,
    "swi": 6340,
    "swif": 6341,
    "swift": 6342,
    "swifties": 6343,
    "swifts": 6344,
    "swifty": 6345,
    "switch": 6346,
    "switched": 6347,
    "sy": 6348,
    "sym": 6349,
    "sympathy": 6350,
    "syn": 6351,
    "sync": 6352,
    "syst": 6353,
    "system": 6354,
    "t": 6355,
    "ta": 6356,
    "table": 6357,
    "tack": 6358,
    "tackle": 6359,
    "tackled": 6360,
    "tackles": 6361,
    "tackling": 6362,
    "tactic": 6363,
    "tactical": 6364,
    "tactics": 6365,
    "tage": 6366,
    "tah": 6367,
    "tai": 6368,
    "tail": 6369,
    "tain": 6370,
    "tais": 6371,
    "taiwan": 6372,
    "tak": 6373,
    "take": 6374,
    "taken": 6375,
    "takes": 6376,
    "taking": 6377,
    "tal": 6378,
    "talent": 6379,
    "talented": 6380,
    "talents": 6381,
    "talk": 6382,
    "talked": 6383,
    "talking": 6384,
    "talks": 6385,
    "tam": 6386,
    "tammy": 6387,
    "tampa": 6388,
    "tan": 6389,
    "tank": 6390,
    "tanto": 6391,
    "tap": 6392,
    "tape": 6393,
    "tar": 6394,
    "target": 6395,
    "tari": 6396,
    "tas": 6397,
    "tast": 6398,
    "taste": 6399,
    "tat": 6400,
    "taught": 6401,
    "tava": 6402,
    "tay": 6403,
    "taylor": 6404,
    "tb": 6405,
    "tb12": 6406,
    "tbh": 6407,
    "tch": 6408,
    "td": 6409,
    "tds": 6410,
    "te": 6411,
    "tea": 6412,
    "teach": 6413,
    "team": 6414,
    "teammate": 6415,
    "teammates": 6416,
    "teams": 6417,
    "tear": 6418,
    "tears": 6419,
    "teas": 6420,
    "tease": 6421,
    "teaser": 6422,
    "tech": 6423,
    "techni": 6424,
    "technically": 6425,
    "techno": 6426,
    "technology": 6427,
    "ted": 6428,
    "teen": 6429,
    "teh": 6430,
    "tehnologi": 6431,
    "tehnologiju": 6432,
    "tele": 6433,
    "television": 6434,
    "tell": 6435,
    "telling": 6436,
    "tells": 6437,
    "tem": 6438,
    "tempor": 6439,
    "temps": 6440,
    "ten": 6441,
    "tend": 6442,
    "tener": 6443,
    "tenga": 6444,
    "tengo": 6445,
    "tenho": 6446,
    "tension": 6447,
    "ter": 6448,
    "tered": 6449,
    "term": 6450,
    "termin": 6451,
    "terms": 6452,
    "tern": 6453,
    "terri": 6454,
    "terrible": 6455,
    "territory": 6456,
    "terror": 6457,
    "ters": 6458,
    "tery": 6459,
    "tes": 6460,
    "test": 6461,
    "tested": 6462,
    "tex": 6463,
    "texans": 6464,
    "texas": 6465,
    "texture": 6466,
    "tf": 6467,
    "th": 6468,
    "tha": 6469,
    "than": 6470,
    "thank": 6471,
    "thankful": 6472,
    "thankfully": 6473,
    "thanks": 6474,
    "thanos": 6475,
    "that": 6476,
    "thats": 6477,
    "the": 6478,
    "theft": 6479,
    "their": 6480,
    "theless": 6481,
    "them": 6482,
    "theme": 6483,
    "themselves": 6484,
    "then": 6485,
    "theory": 6486,
    "ther": 6487,
    "theradbrad": 6488,
    "therap": 6489,
    "there": 6490,
    "thered": 6491,
    "therefore": 6492,
    "theres": 6493,
    "thers": 6494,
    "thes": 6495,
    "these": 6496,
    "thetic": 6497,
    "thew": 6498,
    "they": 6499,
    "theyll": 6500,
    "theyre": 6501,
    "theyve": 6502,
    "thi": 6503,
    "thick": 6504,
    "thie": 6505,
    "thier": 6506,
    "thin": 6507,
    "thing": 6508,
    "things": 6509,
    "think": 6510,
    "thinking": 6511,
    "thinks": 6512,
    "third": 6513,
    "this": 6514,
    "thless": 6515,
    "tho": 6516,
    "thom": 6517,
    "thomas": 6518,
    "thor": 6519,
    "thorough": 6520,
    "thoroughly": 6521,
    "those": 6522,
    "though": 6523,
    "thought": 6524,
    "thoughts": 6525,
    "thousand": 6526,
    "thousands": 6527,
    "thr": 6528,
    "thre": 6529,
    "threat": 6530,
    "threaten": 6531,
    "threatened": 6532,
    "threatening": 6533,
    "three": 6534,
    "threepeat": 6535,
    "threw": 6536,
    "thri": 6537,
    "thrilled": 6538,
    "thrilling": 6539,
    "thro": 6540,
    "throat": 6541,
    "through": 6542,
    "throughout": 6543,
    "throw": 6544,
    "throwing": 6545,
    "thrown": 6546,
    "throws": 6547,
    "thru": 6548,
    "thu": 6549,
    "thumb": 6550,
    "thumbnail": 6551,
    "thur": 6552,
    "thy": 6553,
    "ti": 6554,
    "tic": 6555,
    "tical": 6556,
    "tically": 6557,
    "ticas": 6558,
    "ticket": 6559,
    "tide": 6560,
    "tie": 6561,
    "tied": 6562,
    "tiem": 6563,
    "tiene": 6564,
    "tier": 6565,
    "ties": 6566,
    "tiger": 6567,
    "tight": 6568,
    "tik": 6569,
    "til": 6570,
    "till": 6571,
    "tim": 6572,
    "time": 6573,
    "timer": 6574,
    "times": 6575,
    "timi": 6576,
    "tin": 6577,
    "ting": 6578,
    "tings": 6579,
    "tingu": 6580,
    "tiny": 6581,
    "tion": 6582,
    "tions": 6583,
    "tip": 6584,
    "tipo": 6585,
    "tips": 6586,
    "tir": 6587,
    "tired": 6588,
    "tit": 6589,
    "title": 6590,
    "titles": 6591,
    "titude": 6592,
    "tiv": 6593,
    "tive": 6594,
    "tivo": 6595,
    "tk": 6596,
    "tle": 6597,
    "tled": 6598,
    "tles": 6599,
    "tling": 6600,
    "tly": 6601,
    "to": 6602,
    "toda": 6603,
    "today": 6604,
    "todo": 6605,
    "todos": 6606,
    "together": 6607,
    "token": 6608,
    "told": 6609,
    "tom": 6610,
    "tommy": 6611,
    "tomorrow": 6612,
    "toms": 6613,
    "ton": 6614,
    "tone": 6615,
    "tonight": 6616,
    "tons": 6617,
    "tony": 6618,
    "too": 6619,
    "took": 6620,
    "tool": 6621,
    "tooo": 6622,
    "top": 6623,
    "tor": 6624,
    "tore": 6625,
    "tori": 6626,
    "tors": 6627,
    "tory": 6628,
    "tos": 6629,
    "toss": 6630,
    "tossed": 6631,
    "tot": 6632,
    "total": 6633,
    "totally": 6634,
    "touch": 6635,
    "touchdown": 6636,
    "touchdowns": 6637,
    "touched": 6638,
    "touches": 6639,
    "touching": 6640,
    "tough": 6641,
    "tour": 6642,
    "tourn": 6643,
    "tournament": 6644,
    "tournaments": 6645,
    "tout": 6646,
    "towards": 6647,
    "town": 6648,
    "tox": 6649,
    "toxic": 6650,
    "tr": 6651,
    "tra": 6652,
    "track": 6653,
    "trade": 6654,
    "traded": 6655,
    "trading": 6656,
    "trail": 6657,
    "trailer": 6658,
    "trailers": 6659,
    "train": 6660,
    "training": 6661,
    "trans": 6662,
    "transition": 6663,
    "tras": 6664,
    "trash": 6665,
    "travel": 6666,
    "travis": 6667,
    "tre": 6668,
    "treat": 6669,
    "treated": 6670,
    "treatment": 6671,
    "trem": 6672,
    "tremend": 6673,
    "tren": 6674,
    "trenches": 6675,
    "trend": 6676,
    "trending": 6677,
    "trevor": 6678,
    "tri": 6679,
    "trick": 6680,
    "tricky": 6681,
    "tried": 6682,
    "triler": 6683,
    "trip": 6684,
    "triple": 6685,
    "tripping": 6686,
    "trke": 6687,
    "tro": 6688,
    "troll": 6689,
    "trolling": 6690,
    "trophy": 6691,
    "trou": 6692,
    "trouble": 6693,
    "troy": 6694,
    "tru": 6695,
    "truck": 6696,
    "true": 6697,
    "truly": 6698,
    "trump": 6699,
    "trumps": 6700,
    "trust": 6701,
    "truth": 6702,
    "try": 6703,
    "trying": 6704,
    "tryna": 6705,
    "ts": 6706,
    "tt": 6707,
    "ttt": 6708,
    "tttt": 6709,
    "tttttttt": 6710,
    "tu": 6711,
    "tua": 6712,
    "tubi": 6713,
    "tudo": 6714,
    "tues": 6715,
    "tuesday": 6716,
    "tuff": 6717,
    "tun": 6718,
    "tune": 6719,
    "tung": 6720,
    "tur": 6721,
    "ture": 6722,
    "turf": 6723,
    "turkish": 6724,
    "turn": 6725,
    "turned": 6726,
    "turning": 6727,
    "turnover": 6728,
    "turnovers": 6729,
    "turns": 6730,
    "tv": 6731,
    "tw": 6732,
    "twenty": 6733,
    "twice": 6734,
    "twist": 6735,
    "two": 6736,
    "ty": 6737,
    "type": 6738,
    "typical": 6739,
    "tyreek": 6740,
    "u": 6741,
    "ual": 6742,
    "ually": 6743,
    "uals": 6744,
    "ubis": 6745,
    "ubisoft": 6746,
    "ud": 6747,
    "ude": 6748,
    "ue": 6749,
    "ued": 6750,
    "ues": 6751,
    "uff": 6752,
    "ug": 6753,
    "ugh": 6754,
    "ught": 6755,
    "ugly": 6756,
    "uh": 6757,
    "ui": 6758,
    "uk": 6759,
    "ukrainian": 6760,
    "ul": 6761,
    "ular": 6762,
    "ulent": 6763,
    "ult": 6764,
    "ulti": 6765,
    "ultimate": 6766,
    "ults": 6767,
    "um": 6768,
    "uma": 6769,
    "umb": 6770,
    "ump": 6771,
    "umped": 6772,
    "umps": 6773,
    "un": 6774,
    "una": 6775,
    "unbeliev": 6776,
    "unbelievable": 6777,
    "uncle": 6778,
    "und": 6779,
    "undefeated": 6780,
    "under": 6781,
    "undercover": 6782,
    "underdogs": 6783,
    "underesti": 6784,
    "underestimate": 6785,
    "underestimated": 6786,
    "underrated": 6787,
    "unders": 6788,
    "understand": 6789,
    "understanding": 6790,
    "underwhelming": 6791,
    "une": 6792,
    "unfair": 6793,
    "unfortunately": 6794,
    "ung": 6795,
    "uni": 6796,
    "union": 6797,
    "unit": 6798,
    "united": 6799,
    "unity": 6800,
    "universe": 6801,
    "unless": 6802,
    "unlik": 6803,
    "unlike": 6804,
    "unlocked": 6805,
    "unnecessary": 6806,
    "uno": 6807,
    "unreal": 6808,
    "unstoppable": 6809,
    "unt": 6810,
    "until": 6811,
    "untill": 6812,
    "up": 6813,
    "upcoming": 6814,
    "upd": 6815,
    "update": 6816,
    "updated": 6817,
    "upgra": 6818,
    "upgrade": 6819,
    "upgraded": 6820,
    "uplo": 6821,
    "upload": 6822,
    "uploaded": 6823,
    "upon": 6824,
    "ups": 6825,
    "upset": 6826,
    "ur": 6827,
    "ura": 6828,
    "ure": 6829,
    "ured": 6830,
    "ures": 6831,
    "uring": 6832,
    "urs": 6833,
    "ury": 6834,
    "us": 6835,
    "usa": 6836,
    "use": 6837,
    "used": 6838,
    "useful": 6839,
    "useless": 6840,
    "users": 6841,
    "uses": 6842,
    "using": 6843,
    "usion": 6844,
    "ust": 6845,
    "usu": 6846,
    "usual": 6847,
    "usually": 6848,
    "ut": 6849,
    "utch": 6850,
    "ute": 6851,
    "utes": 6852,
    "uti": 6853,
    "utin": 6854,
    "utter": 6855,
    "utterly": 6856,
    "uu": 6857,
    "uuu": 6858,
    "uuuu": 6859,
    "uuuuuuuu": 6860,
    "ux": 6861,
    "uz": 6862,
    "v": 6863,
    "va": 6864,
    "vac": 6865,
    "vacation": 6866,
    "vade": 6867,
    "vage": 6868,
    "vai": 6869,
    "val": 6870,
    "vals": 6871,
    "valu": 6872,
    "vamos": 6873,
    "van": 6874,
    "vance": 6875,
    "vant": 6876,
    "var": 6877,
    "vara": 6878,
    "vas": 6879,
    "vc": 6880,
    "vdeo": 6881,
    "ve": 6882,
    "vea": 6883,
    "veal": 6884,
    "ved": 6885,
    "vegas": 6886,
    "vehicle": 6887,
    "vehicles": 6888,
    "vei": 6889,
    "veins": 6890,
    "vel": 6891,
    "vem": 6892,
    "ven": 6893,
    "veness": 6894,
    "venge": 6895,
    "vengeance": 6896,
    "vens": 6897,
    "vent": 6898,
    "venue": 6899,
    "ver": 6900,
    "verage": 6901,
    "vercet": 6902,
    "vercetti": 6903,
    "verified": 6904,
    "vers": 6905,
    "verse": 6906,
    "versi": 6907,
    "version": 6908,
    "versity": 6909,
    "verso": 6910,
    "very": 6911,
    "ves": 6912,
    "vey": 6913,
    "vez": 6914,
    "vezes": 6915,
    "vi": 6916,
    "via": 6917,
    "vib": 6918,
    "vibe": 6919,
    "vibes": 6920,
    "vibrating": 6921,
    "vic": 6922,
    "vice": 6923,
    "victories": 6924,
    "victory": 6925,
    "vid": 6926,
    "vida": 6927,
    "video": 6928,
    "videogame": 6929,
    "videos": 6930,
    "vie": 6931,
    "viene": 6932,
    "view": 6933,
    "viewed": 6934,
    "viewer": 6935,
    "viewers": 6936,
    "viewing": 6937,
    "views": 6938,
    "vii": 6939,
    "viii": 6940,
    "vikings": 6941,
    "vin": 6942,
    "vince": 6943,
    "ving": 6944,
    "viol": 6945,
    "violence": 6946,
    "violent": 6947,
    "vious": 6948,
    "vir": 6949,
    "virtu": 6950,
    "virtual": 6951,
    "vis": 6952,
    "vision": 6953,
    "visit": 6954,
    "visitas": 6955,
    "vistas": 6956,
    "visual": 6957,
    "visualiz": 6958,
    "visualizaes": 6959,
    "visuals": 6960,
    "vit": 6961,
    "vive": 6962,
    "vivo": 6963,
    "vl": 6964,
    "vo": 6965,
    "voc": 6966,
    "vocs": 6967,
    "voic": 6968,
    "voice": 6969,
    "voiced": 6970,
    "voiceover": 6971,
    "void": 6972,
    "vol": 6973,
    "volution": 6974,
    "von": 6975,
    "voodoo": 6976,
    "vor": 6977,
    "vot": 6978,
    "vote": 6979,
    "vou": 6980,
    "vous": 6981,
    "voy": 6982,
    "vr": 6983,
    "vs": 6984,
    "vu": 6985,
    "vul": 6986,
    "vy": 6987,
    "w": 6988,
    "w/": 6989,
    "wa": 6990,
    "wack": 6991,
    "wagon": 6992,
    "wait": 6993,
    "waited": 6994,
    "waiting": 6995,
    "wake": 6996,
    "wal": 6997,
    "walk": 6998,
    "walked": 6999,
    "walking": 7000,
    "wall": 7001,
    "wan": 7002,
    "wang": 7003,
    "wanna": 7004,
    "want": 7005,
    "wanted": 7006,
    "wanting": 7007,
    "wants": 7008,
    "war": 7009,
    "ward": 7010,
    "wards": 7011,
    "ware": 7012,
    "warm": 7013,
    "warning": 7014,
    "warri": 7015,
    "wars": 7016,
    "was": 7017,
    "wash": 7018,
    "washed": 7019,
    "washington": 7020,
    "wasn": 7021,
    "wasnt": 7022,
    "waste": 7023,
    "wasted": 7024,
    "wasting": 7025,
    "wat": 7026,
    "watch": 7027,
    "watched": 7028,
    "watches": 7029,
    "watching": 7030,
    "water": 7031,
    "watson": 7032,
    "way": 7033,
    "ways": 7034,
    "we": 7035,
    "wea": 7036,
    "weak": 7037,
    "weakness": 7038,
    "weapon": 7039,
    "weapons": 7040,
    "wear": 7041,
    "wearing": 7042,
    "weather": 7043,
    "web": 7044,
    "wed": 7045,
    "wedding": 7046,
    "wee": 7047,
    "week": 7048,
    "weekend": 7049,
    "weeks": 7050,
    "ween": 7051,
    "weep": 7052,
    "weight": 7053,
    "weird": 7054,
    "wel": 7055,
    "welcome": 7056,
    "well": 7057,
    "welp": 7058,
    "wen": 7059,
    "went": 7060,
    "wentz": 7061,
    "wer": 7062,
    "were": 7063,
    "weren": 7064,
    "werent": 7065,
    "wers": 7066,
    "wes": 7067,
    "west": 7068,
    "western": 7069,
    "wet": 7070,
    "weve": 7071,
    "wh": 7072,
    "what": 7073,
    "whatever": 7074,
    "whats": 7075,
    "whe": 7076,
    "wheel": 7077,
    "whel": 7078,
    "whelming": 7079,
    "when": 7080,
    "whenever": 7081,
    "whens": 7082,
    "where": 7083,
    "wheres": 7084,
    "whether": 7085,
    "whi": 7086,
    "which": 7087,
    "while": 7088,
    "whilst": 7089,
    "whining": 7090,
    "whit": 7091,
    "white": 7092,
    "who": 7093,
    "whoa": 7094,
    "whoever": 7095,
    "whole": 7096,
    "wholesome": 7097,
    "whoo": 7098,
    "whooped": 7099,
    "whooping": 7100,
    "whopped": 7101,
    "whos": 7102,
    "whose": 7103,
    "why": 7104,
    "wi": 7105,
    "wide": 7106,
    "wie": 7107,
    "wieder": 7108,
    "wife": 7109,
    "wil": 7110,
    "wild": 7111,
    "will": 7112,
    "william": 7113,
    "williams": 7114,
    "willing": 7115,
    "willnever": 7116,
    "wilson": 7117,
    "win": 7118,
    "wind": 7119,
    "window": 7120,
    "windows": 7121,
    "wine": 7122,
    "wing": 7123,
    "wink": 7124,
    "winner": 7125,
    "winners": 7126,
    "winning": 7127,
    "wins": 7128,
    "wipe": 7129,
    "wiped": 7130,
    "wise": 7131,
    "wish": 7132,
    "wished": 7133,
    "wit": 7134,
    "witch": 7135,
    "with": 7136,
    "within": 7137,
    "without": 7138,
    "witness": 7139,
    "witnessed": 7140,
    "witnessing": 7141,
    "wives": 7142,
    "wk": 7143,
    "wl": 7144,
    "wn": 7145,
    "wo": 7146,
    "woah": 7147,
    "woke": 7148,
    "wom": 7149,
    "woman": 7150,
    "women": 7151,
    "won": 7152,
    "wonder": 7153,
    "wondered": 7154,
    "wonderful": 7155,
    "wondering": 7156,
    "wont": 7157,
    "woo": 7158,
    "wood": 7159,
    "woooo": 7160,
    "woooooooo": 7161,
    "wor": 7162,
    "word": 7163,
    "words": 7164,
    "work": 7165,
    "worked": 7166,
    "working": 7167,
    "workout": 7168,
    "works": 7169,
    "world": 7170,
    "worldwide": 7171,
    "worried": 7172,
    "worry": 7173,
    "worrying": 7174,
    "worse": 7175,
    "worst": 7176,
    "worth": 7177,
    "worthless": 7178,
    "worthy": 7179,
    "would": 7180,
    "woulda": 7181,
    "wouldn": 7182,
    "wouldnt": 7183,
    "wouldve": 7184,
    "wow": 7185,
    "wr": 7186,
    "wra": 7187,
    "wrap": 7188,
    "wre": 7189,
    "wrecked": 7190,
    "wrest": 7191,
    "wright": 7192,
    "writ": 7193,
    "write": 7194,
    "writers": 7195,
    "writing": 7196,
    "written": 7197,
    "wrong": 7198,
    "wrote": 7199,
    "ws": 7200,
    "wtf": 7201,
    "wth": 7202,
    "wu": 7203,
    "ww": 7204,
    "ww3": 7205,
    "wwe": 7206,
    "wwi": 7207,
    "www": 7208,
    "wwww": 7209,
    "wwwww": 7210,
    "wy": 7211,
    "wynette": 7212,
    "x": 7213,
    "xai": 7214,
    "xai315k": 7215,
    "xavier": 7216,
    "xbox": 7217,
    "xd": 7218,
    "xi": 7219,
    "xrp": 7220,
    "xt": 7221,
    "xx": 7222,
    "xxx": 7223,
    "y": 7224,
    "ya": 7225,
    "yah": 7226,
    "yal": 7227,
    "yall": 7228,
    "yan": 7229,
    "yard": 7230,
    "yards": 7231,
    "yay": 7232,
    "yds": 7233,
    "ye": 7234,
    "yea": 7235,
    "yeah": 7236,
    "year": 7237,
    "years": 7238,
    "yed": 7239,
    "yee": 7240,
    "yelling": 7241,
    "yep": 7242,
    "yes": 7243,
    "yess": 7244,
    "yesss": 7245,
    "yessssss": 7246,
    "yesterday": 7247,
    "yet": 7248,
    "yi": 7249,
    "ying": 7250,
    "yle": 7251,
    "yo": 7252,
    "yok": 7253,
    "yon": 7254,
    "yooo": 7255,
    "yoooo": 7256,
    "yor": 7257,
    "york": 7258,
    "you": 7259,
    "youll": 7260,
    "young": 7261,
    "younger": 7262,
    "your": 7263,
    "youre": 7264,
    "yours": 7265,
    "yourself": 7266,
    "yourselves": 7267,
    "youtube": 7268,
    "youtuber": 7269,
    "youtubers": 7270,
    "youve": 7271,
    "yr": 7272,
    "yrs": 7273,
    "yt": 7274,
    "yu": 7275,
    "yun": 7276,
    "yy": 7277,
    "yyy": 7278,
    "yyyy": 7279,
    "yyyyy": 7280,
    "yyyyyyyy": 7281,
    "yyyyyyyyyyyyyyyy": 7282,
    "yyyyyyyyyyyyyyyyyyyyyyyyyyyyyyyy": 7283,
    "z": 7284,
    "za": 7285,
    "zach": 7286,
    "zar": 7287,
    "ze": 7288,
    "zebra": 7289,
    "zebras": 7290,
    "zed": 7291,
    "zem": 7292,
    "zen": 7293,
    "zenglen": 7294,
    "zer": 7295,
    "zero": 7296,
    "zes": 7297,
    "zh": 7298,
    "zi": 7299,
    "zing": 7300,
    "zo": 7301,
    "zone": 7302,
    "zoom": 7303,
    "zu": 7304,
    "zz": 7305,
    "zzle": 7306,
    "zzz": 7307,
    "zzzz": 7308,
    "zzzzzzzz": 7309
  },
  "merges": [
    [
      "t",
      "h"
    ],
    [
      "i",
      "n"
    ],
    [
      "th",
      "e"
    ],
    [
      "a",
      "n"
    ],
    [
      "e",
      "r"
    ],
    [
      "o",
      "n"
    ],
    [
      "a",
      "t"
    ],
    [
      "i",
      "s"
    ],
    [
      "e",
      "s"
    ],
    [
      "r",
      "e"
    ],
    [
      "o",
      "u"
    ],
    [
      "in",
      "g"
    ],
    [
      "t",
      "o"
    ],
    [
      "e",
      "n"
    ],
    [
      "a",
      "s"
    ],
    [
      "l",
      "l"
    ],
    [
      "m",
      "e"
    ],
    [
      "o",
      "r"
    ],
    [
      "i",
      "t"
    ],
    [
      "c",
      "h"
    ],
    [
      "e",
      "a"
    ],
    [
      "e",
      "d"
    ],
    [
      "s",
      "t"
    ],
    [
      "a",
      "y"
    ],
    [
      "an",
      "d"
    ],
    [
      "o",
      "w"
    ],
    [
      "b",
      "e"
    ],
    [
      "th",
      "is"
    ],
    [
      "s",
      "e"
    ],
    [
      "g",
      "a"
    ],
    [
      "l",
      "e"
    ],
    [
      "v",
      "e"
    ],
    [
      "a",
      "r"
    ],
    [
      "y",
      "ou"
    ],
    [
      "w",
      "h"
    ],
    [
      "a",
      "l"
    ],
    [
      "o",
      "m"
    ],
    [
      "a",
      "ll"
    ],
    [
      "d",
      "e"
    ],
    [
      "o",
      "o"
    ],
    [
      "o",
      "f"
    ],
    [
      "f",
      "or"
    ],
    [
      "t",
      "i"
    ],
    [
      "h",
      "a"
    ],
    [
      "i",
      "e"
    ],
    [
      "g",
      "l"
    ],
    [
      "k",
      "e"
    ],
    [
      "m",
      "a"
    ],
    [
      "o",
      "t"
    ],
    [
      "c",
      "k"
    ],
    [
      "s",
      "o"
    ],
    [
      "w",
      "as"
    ],
    [
      "v",
      "er"
    ],
    [
      "l",
      "i"
    ],
    [
      "ga",
      "me"
    ],
    [
      "r",
      "a"
    ],
    [
      "f",
      "s"
    ],
    [
      "th",
      "at"
    ],
    [
      "gl",
      "es"
    ],
    [
      "ea",
      "gles"
    ],
    [
      "w",
      "i"
    ],
    [
      "l",
      "y"
    ],
    [
      "p",
      "l"
    ],
    [
      "u",
      "t"
    ],
    [
      "c",
      "e"
    ],
    [
      "s",
      "u"
    ],
    [
      "i",
      "d"
    ],
    [
      "l",
      "o"
    ],
    [
      "h",
      "e"
    ],
    [
      "l",
      "d"
    ],
    [
      "r",
      "o"
    ],
    [
      "t",
      "a"
    ],
    [
      "ch",
      "ie"
    ],
    [
      "h",
      "i"
    ],
    [
      "g",
      "h"
    ],
    [
      "w",
      "e"
    ],
    [
      "v",
      "i"
    ],
    [
      "n",
      "e"
    ],
    [
      "chie",
      "fs"
    ],
    [
      "ea",
      "r"
    ],
    [
      "r",
      "i"
    ],
    [
      "p",
      "er"
    ],
    [
      "t",
      "er"
    ],
    [
      "m",
      "o"
    ],
    [
      "pl",
      "ay"
    ],
    [
      "g",
      "o"
    ],
    [
      "ou",
      "t"
    ],
    [
      "u",
      "n"
    ],
    [
      "on",
      "e"
    ],
    [
      "g",
      "e"
    ],
    [
      "i",
      "r"
    ],
    [
      "i",
      "on"
    ],
    [
      "en",
      "t"
    ],
    [
      "the",
      "y"
    ],
    [
      "p",
      "e"
    ],
    [
      "er",
      "e"
    ],
    [
      "li",
      "ke"
    ],
    [
      "a",
      "b"
    ],
    [
      "a",
      "d"
    ],
    [
      "c",
      "on"
    ],
    [
      "a",
      "m"
    ],
    [
      "u",
      "st"
    ],
    [
      "s",
      "h"
    ],
    [
      "c",
      "an"
    ],
    [
      "a",
      "re"
    ],
    [
      "ou",
      "ld"
    ],
    [
      "b",
      "ut"
    ],
    [
      "es",
      "s"
    ],
    [
      "n",
      "ot"
    ],
    [
      "t",
      "s"
    ],
    [
      "n",
      "o"
    ],
    [
      "i",
      "l"
    ],
    [
      "2",
      "0"
    ],
    [
      "th",
      "an"
    ],
    [
      "p",
      "p"
    ],
    [
      "es",
      "t"
    ],
    [
      "all",
      "y"
    ],
    [
      "j",
      "ust"
    ],
    [
      "ha",
      "ve"
    ],
    [
      "c",
      "o"
    ],
    [
      "su",
      "per"
    ],
    [
      "m",
      "y"
    ],
    [
      "wi",
      "th"
    ],
    [
      "c",
      "om"
    ],
    [
      "0",
      "0"
    ],
    [
      "gh",
      "t"
    ],
    [
      "wh",
      "at"
    ],
    [
      "d",
      "o"
    ],
    [
      "i",
      "ll"
    ],
    [
      "n",
      "ow"
    ],
    [
      "d",
      "id"
    ],
    [
      "at",
      "ch"
    ],
    [
      "b",
      "ow"
    ],
    [
      "bow",
      "l"
    ],
    [
      "e",
      "e"
    ],
    [
      "ma",
      "h"
    ],
    [
      "ver",
      "y"
    ],
    [
      "s",
      "a"
    ],
    [
      "s",
      "i"
    ],
    [
      "y",
      "ear"
    ],
    [
      "u",
      "r"
    ],
    [
      "q",
      "u"
    ],
    [
      "mah",
      "om"
    ],
    [
      "oo",
      "k"
    ],
    [
      "g",
      "ta"
    ],
    [
      "u",
      "p"
    ],
    [
      "n",
      "a"
    ],
    [
      "p",
      "hi"
    ],
    [
      "f",
      "an"
    ],
    [
      "se",
      "e"
    ],
    [
      "t",
      "ra"
    ],
    [
      "mahom",
      "es"
    ],
    [
      "r",
      "at"
    ],
    [
      "r",
      "y"
    ],
    [
      "p",
      "le"
    ],
    [
      "ge",
      "t"
    ],
    [
      "ti",
      "me"
    ],
    [
      "h",
      "is"
    ],
    [
      "g",
      "re"
    ],
    [
      "w",
      "atch"
    ],
    [
      "than",
      "k"
    ],
    [
      "i",
      "f"
    ],
    [
      "wi",
      "ll"
    ],
    [
      "c",
      "a"
    ],
    [
      "w",
      "in"
    ],
    [
      "20",
      "2"
    ],
    [
      "f",
      "r"
    ],
    [
      "g",
      "u"
    ],
    [
      "e",
      "x"
    ],
    [
      "p",
      "o"
    ],
    [
      "b",
      "o"
    ],
    [
      "st",
      "ar"
    ],
    [
      "g",
      "ot"
    ],
    [
      "c",
      "t"
    ],
    [
      "w",
      "or"
    ],
    [
      "g",
      "oo"
    ],
    [
      "l",
      "ook"
    ],
    [
      "u",
      "l"
    ],
    [
      "m",
      "an"
    ],
    [
      "wh",
      "en"
    ],
    [
      "a",
      "ck"
    ],
    [
      "d",
      "ay"
    ],
    [
      "mo",
      "re"
    ],
    [
      "w",
      "ay"
    ],
    [
      "i",
      "m"
    ],
    [
      "de",
      "o"
    ],
    [
      "you",
      "r"
    ],
    [
      "f",
      "en"
    ],
    [
      "vi",
      "deo"
    ],
    [
      "wh",
      "o"
    ],
    [
      "h",
      "ow"
    ],
    [
      "gre",
      "at"
    ],
    [
      "the",
      "r"
    ],
    [
      "d",
      "on"
    ],
    [
      "at",
      "e"
    ],
    [
      "in",
      "e"
    ],
    [
      "t",
      "ea"
    ],
    [
      "c",
      "i"
    ],
    [
      "v",
      "en"
    ],
    [
      "er",
      "s"
    ],
    [
      "tea",
      "m"
    ],
    [
      "p",
      "s"
    ],
    [
      "w",
      "a"
    ],
    [
      "goo",
      "d"
    ],
    [
      "f",
      "e"
    ],
    [
      "th",
      "ing"
    ],
    [
      "u",
      "s"
    ],
    [
      "as",
      "t"
    ],
    [
      "so",
      "me"
    ],
    [
      "fr",
      "om"
    ],
    [
      "l",
      "a"
    ],
    [
      "b",
      "y"
    ],
    [
      "tra",
      "il"
    ],
    [
      "d",
      "s"
    ],
    [
      "f",
      "in"
    ],
    [
      "ow",
      "n"
    ],
    [
      "at",
      "ion"
    ],
    [
      "h",
      "o"
    ],
    [
      "ro",
      "ck"
    ],
    [
      "p",
      "r"
    ],
    [
      "d",
      "y"
    ],
    [
      "w",
      "ere"
    ],
    [
      "j",
      "o"
    ],
    [
      "an",
      "t"
    ],
    [
      "m",
      "es"
    ],
    [
      "w",
      "ould"
    ],
    [
      "trail",
      "er"
    ],
    [
      "n",
      "t"
    ],
    [
      "wa",
      "it"
    ],
    [
      "f",
      "o"
    ],
    [
      "f",
      "a"
    ],
    [
      "it",
      "y"
    ],
    [
      "e",
      "very"
    ],
    [
      "re",
      "fs"
    ],
    [
      "de",
      "fen"
    ],
    [
      "b",
      "l"
    ],
    [
      "rock",
      "star"
    ],
    [
      "i",
      "ve"
    ],
    [
      "m",
      "u"
    ],
    [
      "m",
      "i"
    ],
    [
      "as",
      "on"
    ],
    [
      "b",
      "ack"
    ],
    [
      "an",
      "y"
    ],
    [
      "as",
      "e"
    ],
    [
      "be",
      "t"
    ],
    [
      "w",
      "on"
    ],
    [
      "in",
      "k"
    ],
    [
      "to",
      "m"
    ],
    [
      "it",
      "s"
    ],
    [
      "202",
      "6"
    ],
    [
      "n",
      "i"
    ],
    [
      "en",
      "d"
    ],
    [
      "a",
      "ga"
    ],
    [
      "v",
      "ie"
    ],
    [
      "ab",
      "out"
    ],
    [
      "the",
      "m"
    ],
    [
      "aga",
      "in"
    ],
    [
      "1",
      "00"
    ],
    [
      "h",
      "ere"
    ],
    [
      "f",
      "l"
    ],
    [
      "t",
      "ing"
    ],
    [
      "d",
      "i"
    ],
    [
      "ha",
      "d"
    ],
    [
      "k",
      "now"
    ],
    [
      "s",
      "to"
    ],
    [
      "be",
      "en"
    ],
    [
      "on",
      "g"
    ],
    [
      "t",
      "e"
    ],
    [
      "lo",
      "ve"
    ],
    [
      "f",
      "ly"
    ],
    [
      "b",
      "ra"
    ],
    [
      "ha",
      "pp"
    ],
    [
      "u",
      "m"
    ],
    [
      "re",
      "ally"
    ],
    [
      "the",
      "re"
    ],
    [
      "o",
      "ver"
    ],
    [
      "go",
      "ing"
    ],
    [
      "s",
      "c"
    ],
    [
      "u",
      "se"
    ],
    [
      "a",
      "f"
    ],
    [
      "re",
      "al"
    ],
    [
      "e",
      "ven"
    ],
    [
      "th",
      "ink"
    ],
    [
      "e",
      "l"
    ],
    [
      "d",
      "er"
    ],
    [
      "ch",
      "e"
    ],
    [
      "i",
      "g"
    ],
    [
      "ou",
      "n"
    ],
    [
      "ll",
      "y"
    ],
    [
      "m",
      "ent"
    ],
    [
      "s",
      "p"
    ],
    [
      "b",
      "est"
    ],
    [
      "mu",
      "ch"
    ],
    [
      "m",
      "ay"
    ],
    [
      "ch",
      "ess"
    ],
    [
      "we",
      "ll"
    ],
    [
      "l",
      "ine"
    ],
    [
      "to",
      "o"
    ],
    [
      "d",
      "own"
    ],
    [
      "ti",
      "on"
    ],
    [
      "r",
      "u"
    ],
    [
      "fo",
      "re"
    ],
    [
      "g",
      "rat"
    ],
    [
      "the",
      "ir"
    ],
    [
      "gu",
      "y"
    ],
    [
      "as",
      "s"
    ],
    [
      "x",
      "t"
    ],
    [
      "b",
      "u"
    ],
    [
      "defen",
      "se"
    ],
    [
      "o",
      "ther"
    ],
    [
      "ou",
      "r"
    ],
    [
      "ne",
      "xt"
    ],
    [
      "e",
      "ver"
    ],
    [
      "con",
      "grat"
    ],
    [
      "f",
      "i"
    ],
    [
      "ne",
      "w"
    ],
    [
      "v",
      "ed"
    ],
    [
      "ar",
      "d"
    ],
    [
      "n",
      "fl"
    ],
    [
      "l",
      "u"
    ],
    [
      "ga",
      "mes"
    ],
    [
      "s",
      "ay"
    ],
    [
      "wh",
      "y"
    ],
    [
      "c",
      "ould"
    ],
    [
      "k",
      "c"
    ],
    [
      "ou",
      "s"
    ],
    [
      "d",
      "es"
    ],
    [
      "ne",
      "ver"
    ],
    [
      "k",
      "ing"
    ],
    [
      "hi",
      "m"
    ],
    [
      "m",
      "in"
    ],
    [
      "bet",
      "ter"
    ],
    [
      "vie",
      "w"
    ],
    [
      "h",
      "as"
    ],
    [
      "st",
      "ill"
    ],
    [
      "e",
      "p"
    ],
    [
      "sh",
      "ow"
    ],
    [
      "on",
      "ly"
    ],
    [
      "p",
      "ro"
    ],
    [
      "s",
      "s"
    ],
    [
      "g",
      "on"
    ],
    [
      "year",
      "s"
    ],
    [
      "f",
      "t"
    ],
    [
      "ne",
      "ed"
    ],
    [
      "h",
      "ur"
    ],
    [
      "ma",
      "ke"
    ],
    [
      "be",
      "fore"
    ],
    [
      "c",
      "ity"
    ],
    [
      "f",
      "ir"
    ],
    [
      "b",
      "all"
    ],
    [
      "watch",
      "ing"
    ],
    [
      "c",
      "all"
    ],
    [
      "er",
      "i"
    ],
    [
      "an",
      "s"
    ],
    [
      "ca",
      "use"
    ],
    [
      "w",
      "ant"
    ],
    [
      "mo",
      "st"
    ],
    [
      "bra",
      "dy"
    ],
    [
      "b",
      "le"
    ],
    [
      "ou",
      "gh"
    ],
    [
      "be",
      "at"
    ],
    [
      "de",
      "l"
    ],
    [
      "af",
      "ter"
    ],
    [
      "super",
      "bowl"
    ],
    [
      "a",
      "a"
    ],
    [
      "a",
      "c"
    ],
    [
      "sh",
      "ould"
    ],
    [
      "fir",
      "st"
    ],
    [
      "i",
      "c"
    ],
    [
      "he",
      "l"
    ],
    [
      "pe",
      "o"
    ],
    [
      "p",
      "ar"
    ],
    [
      "ti",
      "c"
    ],
    [
      "look",
      "s"
    ],
    [
      "n",
      "ing"
    ],
    [
      "ut",
      "e"
    ],
    [
      "peo",
      "ple"
    ],
    [
      "it",
      "e"
    ],
    [
      "p",
      "at"
    ],
    [
      "hur",
      "ts"
    ],
    [
      "view",
      "s"
    ],
    [
      "re",
      "le"
    ],
    [
      "is",
      "t"
    ],
    [
      "b",
      "r"
    ],
    [
      "re",
      "d"
    ],
    [
      "an",
      "na"
    ],
    [
      "phi",
      "lly"
    ],
    [
      "v",
      "es"
    ],
    [
      "lo",
      "l"
    ],
    [
      "don",
      "t"
    ],
    [
      "gon",
      "na"
    ],
    [
      "g",
      "g"
    ],
    [
      "hel",
      "p"
    ],
    [
      "qu",
      "e"
    ],
    [
      "play",
      "ed"
    ],
    [
      "f",
      "ul"
    ],
    [
      "l",
      "ear"
    ],
    [
      "ee",
      "ee"
    ],
    [
      "be",
      "cause"
    ],
    [
      "b",
      "er"
    ],
    [
      "co",
      "me"
    ],
    [
      "ch",
      "am"
    ],
    [
      "b",
      "ro"
    ],
    [
      "c",
      "ra"
    ],
    [
      "oun",
      "d"
    ],
    [
      "did",
      "n"
    ],
    [
      "ha",
      "ha"
    ],
    [
      "a",
      "ct"
    ],
    [
      "y",
      "y"
    ],
    [
      "fan",
      "s"
    ],
    [
      "t",
      "y"
    ],
    [
      "in",
      "t"
    ],
    [
      "ple",
      "ase"
    ],
    [
      "t",
      "al"
    ],
    [
      "le",
      "t"
    ],
    [
      "a",
      "ma"
    ],
    [
      "des",
      "er"
    ],
    [
      "v",
      "ing"
    ],
    [
      "ill",
      "ion"
    ],
    [
      "p",
      "a"
    ],
    [
      "b",
      "ir"
    ],
    [
      "p",
      "re"
    ],
    [
      "1",
      "0"
    ],
    [
      "b",
      "ad"
    ],
    [
      "a",
      "pp"
    ],
    [
      "ee",
      "l"
    ],
    [
      "thank",
      "s"
    ],
    [
      "s",
      "wi"
    ],
    [
      "oo",
      "oo"
    ],
    [
      "ho",
      "pe"
    ],
    [
      "so",
      "l"
    ],
    [
      "l",
      "or"
    ],
    [
      "f",
      "oo"
    ],
    [
      "n",
      "ed"
    ],
    [
      "c",
      "s"
    ],
    [
      "fin",
      "ally"
    ],
    [
      "g",
      "ra"
    ],
    [
      "is",
      "h"
    ],
    [
      "ke",
      "ep"
    ],
    [
      "i",
      "ck"
    ],
    [
      "ation",
      "s"
    ],
    [
      "2",
      "6"
    ],
    [
      "z",
      "ing"
    ],
    [
      "b",
      "ig"
    ],
    [
      "pe",
      "at"
    ],
    [
      "su",
      "r"
    ],
    [
      "of",
      "f"
    ],
    [
      "g",
      "i"
    ],
    [
      "s",
      "m"
    ],
    [
      "se",
      "ason"
    ],
    [
      "ou",
      "ght"
    ],
    [
      "wh",
      "ere"
    ],
    [
      "day",
      "s"
    ],
    [
      "can",
      "t"
    ],
    [
      "at",
      "ed"
    ],
    [
      "ab",
      "le"
    ],
    [
      "l",
      "ong"
    ],
    [
      "r",
      "un"
    ],
    [
      "d",
      "u"
    ],
    [
      "way",
      "s"
    ],
    [
      "d",
      "a"
    ],
    [
      "m",
      "is"
    ],
    [
      "do",
      "es"
    ],
    [
      "li",
      "fe"
    ],
    [
      "d",
      "is"
    ],
    [
      "re",
      "ad"
    ],
    [
      "ea",
      "d"
    ],
    [
      "play",
      "ing"
    ],
    [
      "to",
      "ry"
    ],
    [
      "un",
      "der"
    ],
    [
      "ma",
      "de"
    ],
    [
      "or",
      "t"
    ],
    [
      "b",
      "ab"
    ],
    [
      "w",
      "o"
    ],
    [
      "th",
      "o"
    ],
    [
      "ab",
      "sol"
    ],
    [
      "f",
      "eel"
    ],
    [
      "l",
      "ast"
    ],
    [
      "j",
      "ason"
    ],
    [
      "th",
      "r"
    ],
    [
      "m",
      "illion"
    ],
    [
      "h",
      "er"
    ],
    [
      "ion",
      "s"
    ],
    [
      "happ",
      "y"
    ],
    [
      "cham",
      "p"
    ],
    [
      "con",
      "t"
    ],
    [
      "h",
      "al"
    ],
    [
      "ama",
      "zing"
    ],
    [
      "g",
      "r"
    ],
    [
      "absol",
      "ute"
    ],
    [
      "com",
      "ment"
    ],
    [
      "lo",
      "st"
    ],
    [
      "the",
      "n"
    ],
    [
      "in",
      "ter"
    ],
    [
      "e",
      "t"
    ],
    [
      "t",
      "ay"
    ],
    [
      "ch",
      "an"
    ],
    [
      "f",
      "un"
    ],
    [
      "d",
      "om"
    ],
    [
      "congrat",
      "s"
    ],
    [
      "wh",
      "i"
    ],
    [
      "al",
      "ways"
    ],
    [
      "s",
      "he"
    ],
    [
      "s",
      "co"
    ],
    [
      "j",
      "al"
    ],
    [
      "com",
      "ing"
    ],
    [
      "rat",
      "ing"
    ],
    [
      "h",
      "h"
    ],
    [
      "tay",
      "lor"
    ],
    [
      "v",
      "o"
    ],
    [
      "happ",
      "en"
    ],
    [
      "jo",
      "y"
    ],
    [
      "b",
      "ar"
    ],
    [
      "foo",
      "t"
    ],
    [
      "swi",
      "ft"
    ],
    [
      "p",
      "u"
    ],
    [
      "gl",
      "ad"
    ],
    [
      "guy",
      "s"
    ],
    [
      "cra",
      "z"
    ],
    [
      "hal",
      "f"
    ],
    [
      "p",
      "ass"
    ],
    [
      "d",
      "one"
    ],
    [
      "1",
      "5"
    ],
    [
      "j",
      "e"
    ],
    [
      "in",
      "s"
    ],
    [
      "jal",
      "en"
    ],
    [
      "l",
      "ot"
    ],
    [
      "p",
      "ut"
    ],
    [
      "lo",
      "se"
    ],
    [
      "f",
      "u"
    ],
    [
      "ta",
      "ke"
    ],
    [
      "ni",
      "ce"
    ],
    [
      "sc",
      "ri"
    ],
    [
      "th",
      "ought"
    ],
    [
      "k",
      "es"
    ],
    [
      "c",
      "ar"
    ],
    [
      "get",
      "ting"
    ],
    [
      "c",
      "re"
    ],
    [
      "craz",
      "y"
    ],
    [
      "foot",
      "ball"
    ],
    [
      "si",
      "ve"
    ],
    [
      "su",
      "re"
    ],
    [
      "p",
      "c"
    ],
    [
      "ri",
      "ck"
    ],
    [
      "l",
      "it"
    ],
    [
      "sto",
      "p"
    ],
    [
      "en",
      "ce"
    ],
    [
      "wor",
      "ld"
    ],
    [
      "hi",
      "gh"
    ],
    [
      "h",
      "y"
    ],
    [
      "rele",
      "ase"
    ],
    [
      "p",
      "t"
    ],
    [
      "man",
      "y"
    ],
    [
      "e",
      "m"
    ],
    [
      "an",
      "other"
    ],
    [
      "pl",
      "a"
    ],
    [
      "dom",
      "in"
    ],
    [
      "m",
      "s"
    ],
    [
      "did",
      "nt"
    ],
    [
      "y",
      "es"
    ],
    [
      "pe",
      "ct"
    ],
    [
      "jo",
      "b"
    ],
    [
      "vi",
      "ce"
    ],
    [
      "i",
      "ght"
    ],
    [
      "1",
      "3"
    ],
    [
      "in",
      "to"
    ],
    [
      "k",
      "ans"
    ],
    [
      "be",
      "ing"
    ],
    [
      "202",
      "5"
    ],
    [
      "ci",
      "a"
    ],
    [
      "en",
      "joy"
    ],
    [
      "a",
      "w"
    ],
    [
      "re",
      "f"
    ],
    [
      "s",
      "b"
    ],
    [
      "kans",
      "as"
    ],
    [
      "the",
      "se"
    ],
    [
      "sco",
      "re"
    ],
    [
      "read",
      "y"
    ],
    [
      "champ",
      "ions"
    ],
    [
      "r",
      "es"
    ],
    [
      "s",
      "on"
    ],
    [
      "re",
      "e"
    ],
    [
      "congrat",
      "ul"
    ],
    [
      "again",
      "st"
    ],
    [
      "wait",
      "ing"
    ],
    [
      "his",
      "tory"
    ],
    [
      "tho",
      "se"
    ],
    [
      "l",
      "ea"
    ],
    [
      "ri",
      "ght"
    ],
    [
      "ti",
      "l"
    ],
    [
      "ke",
      "l"
    ],
    [
      "o",
      "s"
    ],
    [
      "k",
      "s"
    ],
    [
      "act",
      "u"
    ],
    [
      "ill",
      "s"
    ],
    [
      "phi",
      "la"
    ],
    [
      "t",
      "u"
    ],
    [
      "phi",
      "a"
    ],
    [
      "w",
      "ow"
    ],
    [
      "ca",
      "me"
    ],
    [
      "sa",
      "id"
    ],
    [
      "se",
      "en"
    ],
    [
      "del",
      "phia"
    ],
    [
      "se",
      "con"
    ],
    [
      "1",
      "8"
    ],
    [
      "bl",
      "ow"
    ],
    [
      "sa",
      "ck"
    ],
    [
      "bo",
      "y"
    ],
    [
      "am",
      "eri"
    ],
    [
      "phila",
      "delphia"
    ],
    [
      "every",
      "one"
    ],
    [
      "congratul",
      "ations"
    ],
    [
      "po",
      "s"
    ],
    [
      "bir",
      "ds"
    ],
    [
      "who",
      "le"
    ],
    [
      "sa",
      "me"
    ],
    [
      "t",
      "ur"
    ],
    [
      "s",
      "in"
    ],
    [
      "sur",
      "vi"
    ],
    [
      "h",
      "ear"
    ],
    [
      "l",
      "ie"
    ],
    [
      "g",
      "ive"
    ],
    [
      "m",
      "as"
    ],
    [
      "go",
      "d"
    ],
    [
      "t",
      "on"
    ],
    [
      "t",
      "r"
    ],
    [
      "at",
      "ing"
    ],
    [
      "t",
      "wo"
    ],
    [
      "t",
      "ry"
    ],
    [
      "lo",
      "s"
    ],
    [
      "ti",
      "mes"
    ],
    [
      "wor",
      "k"
    ],
    [
      "un",
      "til"
    ],
    [
      "of",
      "fen"
    ],
    [
      "some",
      "thing"
    ],
    [
      "m",
      "om"
    ],
    [
      "star",
      "t"
    ],
    [
      "al",
      "so"
    ],
    [
      "a",
      "ge"
    ],
    [
      "gu",
      "ess"
    ],
    [
      "ti",
      "ll"
    ],
    [
      "h",
      "and"
    ],
    [
      "h",
      "u"
    ],
    [
      "lu",
      "cia"
    ],
    [
      "re",
      "a"
    ],
    [
      "m",
      "er"
    ],
    [
      "kel",
      "ce"
    ],
    [
      "1",
      "2"
    ],
    [
      "v",
      "or"
    ],
    [
      "absolute",
      "ly"
    ],
    [
      "t",
      "le"
    ],
    [
      "c",
      "oo"
    ],
    [
      "ni",
      "ght"
    ],
    [
      "f",
      "er"
    ],
    [
      "gh",
      "ts"
    ],
    [
      "mis",
      "s"
    ],
    [
      "q",
      "b"
    ],
    [
      "pp",
      "ed"
    ],
    [
      "bo",
      "th"
    ],
    [
      "qu",
      "ar"
    ],
    [
      "gra",
      "phi"
    ],
    [
      "l",
      "f"
    ],
    [
      "l",
      "ess"
    ],
    [
      "a",
      "i"
    ],
    [
      "re",
      "ci"
    ],
    [
      "quar",
      "ter"
    ],
    [
      "o",
      "b"
    ],
    [
      "m",
      "ar"
    ],
    [
      "5",
      "0"
    ],
    [
      "v",
      "is"
    ],
    [
      "o",
      "me"
    ],
    [
      "watch",
      "ed"
    ],
    [
      "st",
      "and"
    ],
    [
      "to",
      "p"
    ],
    [
      "al",
      "s"
    ],
    [
      "app",
      "reci"
    ],
    [
      "lo",
      "ved"
    ],
    [
      "s",
      "eri"
    ],
    [
      "any",
      "one"
    ],
    [
      "g",
      "le"
    ],
    [
      "k",
      "in"
    ],
    [
      "y",
      "ing"
    ],
    [
      "survi",
      "ve"
    ],
    [
      "bo",
      "dy"
    ],
    [
      "appreci",
      "ate"
    ],
    [
      "el",
      "se"
    ],
    [
      "1",
      "4"
    ],
    [
      "be",
      "lie"
    ],
    [
      "p",
      "ick"
    ],
    [
      "4",
      "0"
    ],
    [
      "actu",
      "ally"
    ],
    [
      "go",
      "at"
    ],
    [
      "<",
      "U"
    ],
    [
      "<U",
      "R"
    ],
    [
      "<UR",
      "L"
    ],
    [
      "<URL",
      ">"
    ],
    [
      "c",
      "y"
    ],
    [
      "pat",
      "rick"
    ],
    [
      "pr",
      "es"
    ],
    [
      "m",
      "at"
    ],
    [
      "o",
      "ld"
    ],
    [
      "with",
      "out"
    ],
    [
      "eeee",
      "eeee"
    ],
    [
      "per",
      "for"
    ],
    [
      "look",
      "ing"
    ],
    [
      "p",
      "en"
    ],
    [
      "mom",
      "ent"
    ],
    [
      "pla",
      "in"
    ],
    [
      "g",
      "ir"
    ],
    [
      "3",
      "0"
    ],
    [
      "ch",
      "a"
    ],
    [
      "te",
      "ll"
    ],
    [
      "lear",
      "ned"
    ],
    [
      "d",
      "ro"
    ],
    [
      "sin",
      "ce"
    ],
    [
      "le",
      "ts"
    ],
    [
      "1",
      "6"
    ],
    [
      "par",
      "t"
    ],
    [
      "c",
      "ou"
    ],
    [
      "c",
      "ry"
    ],
    [
      "1",
      "7"
    ],
    [
      "ea",
      "l"
    ],
    [
      "cont",
      "ent"
    ],
    [
      "wor",
      "st"
    ],
    [
      "m",
      "on"
    ],
    [
      "ps",
      "5"
    ],
    [
      "graphi",
      "cs"
    ],
    [
      "st",
      "ay"
    ],
    [
      "al",
      "ready"
    ],
    [
      "t",
      "en"
    ],
    [
      "m",
      "v"
    ],
    [
      "sto",
      "ry"
    ],
    [
      "es",
      "ome"
    ],
    [
      "c",
      "or"
    ],
    [
      "y",
      "ea"
    ],
    [
      "pr",
      "ess"
    ],
    [
      "k",
      "ed"
    ],
    [
      "that",
      "s"
    ],
    [
      "ar",
      "ound"
    ],
    [
      "thr",
      "ow"
    ],
    [
      "b",
      "or"
    ],
    [
      "c",
      "u"
    ],
    [
      "m",
      "en"
    ],
    [
      "ex",
      "c"
    ],
    [
      "mo",
      "vie"
    ],
    [
      "b",
      "i"
    ],
    [
      "100",
      "m"
    ],
    [
      "ch",
      "ar"
    ],
    [
      "may",
      "be"
    ],
    [
      "b",
      "ills"
    ],
    [
      "win",
      "ning"
    ],
    [
      "an",
      "e"
    ],
    [
      "fa",
      "vor"
    ],
    [
      "j",
      "u"
    ],
    [
      "n",
      "y"
    ],
    [
      "c",
      "l"
    ],
    [
      "1",
      "9"
    ],
    [
      "ver",
      "s"
    ],
    [
      "win",
      "s"
    ],
    [
      "il",
      "ing"
    ],
    [
      "ga",
      "ve"
    ],
    [
      "b",
      "ea"
    ],
    [
      "b",
      "a"
    ],
    [
      "aw",
      "esome"
    ],
    [
      "li",
      "ght"
    ],
    [
      "whi",
      "le"
    ],
    [
      "t",
      "ru"
    ],
    [
      "play",
      "er"
    ],
    [
      "mv",
      "p"
    ],
    [
      "c",
      "lear"
    ],
    [
      "in",
      "ts"
    ],
    [
      "su",
      "b"
    ],
    [
      "perfor",
      "man"
    ],
    [
      "secon",
      "d"
    ],
    [
      "ma",
      "g"
    ],
    [
      "en",
      "ti"
    ],
    [
      "con",
      "f"
    ],
    [
      "is",
      "e"
    ],
    [
      "com",
      "es"
    ],
    [
      "h",
      "ard"
    ],
    [
      "del",
      "ay"
    ],
    [
      "it",
      "ion"
    ],
    [
      "d",
      "am"
    ],
    [
      "le",
      "y"
    ],
    [
      "team",
      "s"
    ],
    [
      "c",
      "tion"
    ],
    [
      "no",
      "thing"
    ],
    [
      "he",
      "ll"
    ],
    [
      "o",
      "h"
    ],
    [
      "2",
      "2"
    ],
    [
      "wor",
      "th"
    ],
    [
      "an",
      "ce"
    ],
    [
      "rele",
      "as"
    ],
    [
      "su",
      "ch"
    ],
    [
      "game",
      "play"
    ],
    [
      "n",
      "ess"
    ],
    [
      "one",
      "y"
    ],
    [
      "ou",
      "ch"
    ],
    [
      "se",
      "lf"
    ],
    [
      "gir",
      "l"
    ],
    [
      "g",
      "y"
    ],
    [
      "y",
      "all"
    ],
    [
      "play",
      "ers"
    ],
    [
      "si",
      "de"
    ],
    [
      "c",
      "r"
    ],
    [
      "t",
      "as"
    ],
    [
      "th",
      "ree"
    ],
    [
      "s",
      "at"
    ],
    [
      "i",
      "z"
    ],
    [
      "ex",
      "pect"
    ],
    [
      "rat",
      "ed"
    ],
    [
      "ous",
      "ly"
    ],
    [
      "b",
      "it"
    ],
    [
      "s",
      "mi"
    ],
    [
      "li",
      "ve"
    ],
    [
      "at",
      "or"
    ],
    [
      "le",
      "ast"
    ],
    [
      "lit",
      "tle"
    ],
    [
      "sm",
      "iling"
    ],
    [
      "en",
      "ough"
    ],
    [
      "com",
      "ple"
    ],
    [
      "t",
      "ouch"
    ],
    [
      "aa",
      "aa"
    ],
    [
      "g",
      "n"
    ],
    [
      "ri",
      "gg"
    ],
    [
      "f",
      "f"
    ],
    [
      "d",
      "if"
    ],
    [
      "m",
      "oney"
    ],
    [
      "lo",
      "ck"
    ],
    [
      "d",
      "ate"
    ],
    [
      "s",
      "pe"
    ],
    [
      "deser",
      "ves"
    ],
    [
      "me",
      "m"
    ],
    [
      "ex",
      "plain"
    ],
    [
      "th",
      "ough"
    ],
    [
      "see",
      "ing"
    ],
    [
      "bab",
      "y"
    ],
    [
      "im",
      "press"
    ],
    [
      "bo",
      "at"
    ],
    [
      "w",
      "om"
    ],
    [
      "performan",
      "ce"
    ],
    [
      "c",
      "es"
    ],
    [
      "al",
      "most"
    ],
    [
      "ri",
      "ed"
    ],
    [
      "li",
      "ghts"
    ],
    [
      "j",
      "a"
    ],
    [
      "as",
      "h"
    ],
    [
      "ve",
      "l"
    ],
    [
      "v",
      "a"
    ],
    [
      "con",
      "s"
    ],
    [
      "h",
      "on"
    ],
    [
      "mo",
      "ve"
    ],
    [
      "bo",
      "ard"
    ],
    [
      "o",
      "pp"
    ],
    [
      "po",
      "int"
    ],
    [
      "mi",
      "ght"
    ],
    [
      "try",
      "ing"
    ],
    [
      "s",
      "ong"
    ],
    [
      "deser",
      "ved"
    ],
    [
      "ar",
      "y"
    ],
    [
      "some",
      "one"
    ],
    [
      "u",
      "re"
    ],
    [
      "want",
      "ed"
    ],
    [
      "champions",
      "hi"
    ],
    [
      "h",
      "ate"
    ],
    [
      "k",
      "ley"
    ],
    [
      "c",
      "lu"
    ],
    [
      "g",
      "en"
    ],
    [
      "belie",
      "ve"
    ],
    [
      "ins",
      "ane"
    ],
    [
      "p",
      "hy"
    ],
    [
      "b",
      "es"
    ],
    [
      "y",
      "a"
    ],
    [
      "3",
      "4"
    ],
    [
      "l",
      "es"
    ],
    [
      "o",
      "k"
    ],
    [
      "k",
      "new"
    ],
    [
      "u",
      "ti"
    ],
    [
      "p",
      "ie"
    ],
    [
      "id",
      "ent"
    ],
    [
      "si",
      "m"
    ],
    [
      "yy",
      "yy"
    ],
    [
      "sat",
      "is"
    ],
    [
      "ma",
      "king"
    ],
    [
      "i",
      "ce"
    ],
    [
      "ton",
      "ight"
    ],
    [
      "an",
      "ts"
    ],
    [
      "video",
      "s"
    ],
    [
      "sh",
      "ar"
    ],
    [
      "in",
      "st"
    ],
    [
      "me",
      "d"
    ],
    [
      "fan",
      "tas"
    ],
    [
      "r",
      "ing"
    ],
    [
      "m",
      "atch"
    ],
    [
      "bar",
      "kley"
    ],
    [
      "su",
      "pp"
    ],
    [
      "yea",
      "h"
    ],
    [
      "ter",
      "s"
    ],
    [
      "p",
      "or"
    ],
    [
      "v",
      "s"
    ],
    [
      "w",
      "ard"
    ],
    [
      "ri",
      "ble"
    ],
    [
      "defen",
      "sive"
    ],
    [
      "pro",
      "bab"
    ],
    [
      "probab",
      "ly"
    ],
    [
      "d",
      "est"
    ],
    [
      "pl",
      "an"
    ],
    [
      "call",
      "ed"
    ],
    [
      "ti",
      "ve"
    ],
    [
      "f",
      "ar"
    ],
    [
      "happen",
      "s"
    ],
    [
      "rigg",
      "ed"
    ],
    [
      "p",
      "are"
    ],
    [
      "a",
      "u"
    ],
    [
      "bea",
      "uti"
    ],
    [
      "won",
      "der"
    ],
    [
      "de",
      "fin"
    ],
    [
      "um",
      "b"
    ],
    [
      "be",
      "er"
    ],
    [
      "you",
      "tu"
    ],
    [
      "fantas",
      "tic"
    ],
    [
      "w",
      "r"
    ],
    [
      "sc",
      "en"
    ],
    [
      "che",
      "ck"
    ],
    [
      "ad",
      "d"
    ],
    [
      "t",
      "it"
    ],
    [
      "sp",
      "ort"
    ],
    [
      "look",
      "ed"
    ],
    [
      "char",
      "ac"
    ],
    [
      "to",
      "day"
    ],
    [
      "we",
      "e"
    ],
    [
      "si",
      "c"
    ],
    [
      "s",
      "hi"
    ],
    [
      "m",
      "m"
    ],
    [
      "ameri",
      "ca"
    ],
    [
      "sa",
      "qu"
    ],
    [
      "bor",
      "ing"
    ],
    [
      "mi",
      "cha"
    ],
    [
      "s",
      "k"
    ],
    [
      "per",
      "son"
    ],
    [
      "i",
      "ld"
    ],
    [
      "gr",
      "and"
    ],
    [
      "1",
      "1"
    ],
    [
      "n",
      "n"
    ],
    [
      "min",
      "d"
    ],
    [
      "beauti",
      "ful"
    ],
    [
      "whi",
      "ch"
    ],
    [
      "boy",
      "s"
    ],
    [
      "micha",
      "el"
    ],
    [
      "c",
      "er"
    ],
    [
      "an",
      "g"
    ],
    [
      "see",
      "ms"
    ],
    [
      "enti",
      "re"
    ],
    [
      "po",
      "ints"
    ],
    [
      "it",
      "ing"
    ],
    [
      "fa",
      "ce"
    ],
    [
      "p",
      "ay"
    ],
    [
      "p",
      "tion"
    ],
    [
      "at",
      "s"
    ],
    [
      "ga",
      "m"
    ],
    [
      "s",
      "or"
    ],
    [
      "enjoy",
      "ed"
    ],
    [
      "sub",
      "scri"
    ],
    [
      "t",
      "re"
    ],
    [
      "k",
      "id"
    ],
    [
      "f",
      "ri"
    ],
    [
      "i",
      "mag"
    ],
    [
      "k",
      "k"
    ],
    [
      "bl",
      "ack"
    ],
    [
      "p",
      "ed"
    ],
    [
      "fin",
      "al"
    ],
    [
      "s",
      "ha"
    ],
    [
      "g",
      "in"
    ],
    [
      "o",
      "l"
    ],
    [
      "ru",
      "sh"
    ],
    [
      "comple",
      "te"
    ],
    [
      "s",
      "er"
    ],
    [
      "l",
      "ist"
    ],
    [
      "d",
      "r"
    ],
    [
      "too",
      "k"
    ],
    [
      "w",
      "ar"
    ],
    [
      "bu",
      "y"
    ],
    [
      "c",
      "lose"
    ],
    [
      "half",
      "time"
    ],
    [
      "pre",
      "t"
    ],
    [
      "p",
      "ri"
    ],
    [
      "n",
      "er"
    ],
    [
      "dif",
      "fer"
    ],
    [
      "w",
      "it"
    ],
    [
      "ho",
      "p"
    ],
    [
      "f",
      "ying"
    ],
    [
      "re",
      "mem"
    ],
    [
      "on",
      "ce"
    ],
    [
      "st",
      "ra"
    ],
    [
      "us",
      "ed"
    ],
    [
      "say",
      "ing"
    ],
    [
      "ut",
      "es"
    ],
    [
      "t",
      "f"
    ],
    [
      "m",
      "id"
    ],
    [
      "i",
      "es"
    ],
    [
      "shar",
      "ing"
    ],
    [
      "me",
      "an"
    ],
    [
      "dam",
      "n"
    ],
    [
      "w",
      "ent"
    ],
    [
      "ite",
      "ly"
    ],
    [
      "for",
      "ward"
    ],
    [
      "ro",
      "y"
    ],
    [
      "high",
      "lights"
    ],
    [
      "lo",
      "ss"
    ],
    [
      "real",
      "is"
    ],
    [
      "a",
      "go"
    ],
    [
      "l",
      "at"
    ],
    [
      "sa",
      "w"
    ],
    [
      "it",
      "ed"
    ],
    [
      "g",
      "s"
    ],
    [
      "c",
      "are"
    ],
    [
      "satis",
      "fying"
    ],
    [
      "got",
      "ta"
    ],
    [
      "min",
      "utes"
    ],
    [
      "ga",
      "r"
    ],
    [
      "fa",
      "ir"
    ],
    [
      "h",
      "ead"
    ],
    [
      "on",
      "es"
    ],
    [
      "remem",
      "ber"
    ],
    [
      "fu",
      "lly"
    ],
    [
      "do",
      "ing"
    ],
    [
      "d",
      "ie"
    ],
    [
      "h",
      "it"
    ],
    [
      "ta",
      "in"
    ],
    [
      "impress",
      "ive"
    ],
    [
      "gre",
      "e"
    ],
    [
      "mas",
      "ter"
    ],
    [
      "h",
      "es"
    ],
    [
      "bir",
      "th"
    ],
    [
      "thr",
      "ough"
    ],
    [
      "big",
      "g"
    ],
    [
      "rat",
      "e"
    ],
    [
      "call",
      "s"
    ],
    [
      "every",
      "thing"
    ],
    [
      "t",
      "t"
    ],
    [
      "defin",
      "itely"
    ],
    [
      "r",
      "est"
    ],
    [
      "l",
      "ed"
    ],
    [
      "u",
      "u"
    ],
    [
      "e",
      "as"
    ],
    [
      "under",
      "stand"
    ],
    [
      "vi",
      "c"
    ],
    [
      "b",
      "s"
    ],
    [
      "h",
      "ot"
    ],
    [
      "ha",
      "ving"
    ],
    [
      "fe",
      "ct"
    ],
    [
      "h",
      "or"
    ],
    [
      "blow",
      "out"
    ],
    [
      "a",
      "ch"
    ],
    [
      "b",
      "rea"
    ],
    [
      "me",
      "di"
    ],
    [
      "imag",
      "ine"
    ],
    [
      "ho",
      "ld"
    ],
    [
      "lu",
      "ck"
    ],
    [
      "hon",
      "est"
    ],
    [
      "tal",
      "k"
    ],
    [
      "saqu",
      "on"
    ],
    [
      "fi",
      "x"
    ],
    [
      "h",
      "at"
    ],
    [
      "n",
      "g"
    ],
    [
      "b",
      "as"
    ],
    [
      "ge",
      "ts"
    ],
    [
      "ot",
      "s"
    ],
    [
      "gu",
      "e"
    ],
    [
      "of",
      "fi"
    ],
    [
      "wor",
      "ds"
    ],
    [
      "ci",
      "al"
    ],
    [
      "ma",
      "kes"
    ],
    [
      "l",
      "ow"
    ],
    [
      "g",
      "or"
    ],
    [
      "s",
      "ing"
    ],
    [
      "tal",
      "ent"
    ],
    [
      "thing",
      "s"
    ],
    [
      "birth",
      "day"
    ],
    [
      "ameri",
      "can"
    ],
    [
      "conf",
      "ident"
    ],
    [
      "u",
      "gh"
    ],
    [
      "se",
      "t"
    ],
    [
      "show",
      "ed"
    ],
    [
      "d",
      "en"
    ],
    [
      "stra",
      "ight"
    ],
    [
      "help",
      "ful"
    ],
    [
      "ea",
      "gle"
    ],
    [
      "seri",
      "ously"
    ],
    [
      "ps",
      "6"
    ],
    [
      "on",
      "s"
    ],
    [
      "k",
      "en"
    ],
    [
      "need",
      "ed"
    ],
    [
      "dest",
      "roy"
    ],
    [
      "che",
      "i"
    ],
    [
      "na",
      "me"
    ],
    [
      "explain",
      "ed"
    ],
    [
      "ot",
      "e"
    ],
    [
      "vi",
      "bes"
    ],
    [
      "st",
      "r"
    ],
    [
      "tra",
      "vis"
    ],
    [
      "offen",
      "se"
    ],
    [
      "for",
      "t"
    ],
    [
      "i",
      "i"
    ],
    [
      "3",
      "5"
    ],
    [
      "ea",
      "k"
    ],
    [
      "and",
      "o"
    ],
    [
      "pret",
      "ty"
    ],
    [
      "could",
      "n"
    ],
    [
      "touch",
      "down"
    ],
    [
      "s",
      "ch"
    ],
    [
      "e",
      "i"
    ],
    [
      "ex",
      "act"
    ],
    [
      "s",
      "we"
    ],
    [
      "re",
      "ason"
    ],
    [
      "l",
      "t"
    ],
    [
      "offen",
      "sive"
    ],
    [
      "de",
      "c"
    ],
    [
      "sh",
      "o"
    ],
    [
      "coo",
      "l"
    ],
    [
      "par",
      "a"
    ],
    [
      "w",
      "er"
    ],
    [
      "d",
      "ri"
    ],
    [
      "m",
      "ust"
    ],
    [
      "r",
      "t"
    ],
    [
      "ch",
      "o"
    ],
    [
      "co",
      "s"
    ],
    [
      "inter",
      "est"
    ],
    [
      "n",
      "d"
    ],
    [
      "ti",
      "es"
    ],
    [
      "on",
      "ent"
    ],
    [
      "fr",
      "an"
    ],
    [
      "com",
      "m"
    ],
    [
      "any",
      "thing"
    ],
    [
      "kin",
      "d"
    ],
    [
      "be",
      "gin"
    ],
    [
      "y",
      "et"
    ],
    [
      "sh",
      "ut"
    ],
    [
      "chei",
      "fs"
    ],
    [
      "202",
      "7"
    ],
    [
      "qu",
      "i"
    ],
    [
      "8",
      "0"
    ],
    [
      "c",
      "tive"
    ],
    [
      "r",
      "d"
    ],
    [
      "res",
      "pect"
    ],
    [
      "ck",
      "ed"
    ],
    [
      "re",
      "peat"
    ],
    [
      "ie",
      "ld"
    ],
    [
      "e",
      "f"
    ],
    [
      "pu",
      "re"
    ],
    [
      "haha",
      "haha"
    ],
    [
      "chie",
      "f"
    ],
    [
      "opp",
      "onent"
    ],
    [
      "sor",
      "ry"
    ],
    [
      "run",
      "ning"
    ],
    [
      "p",
      "ur"
    ],
    [
      "c",
      "ri"
    ],
    [
      "r",
      "ow"
    ],
    [
      "coo",
      "per"
    ],
    [
      "t",
      "ed"
    ],
    [
      "a",
      "gree"
    ],
    [
      "le",
      "ft"
    ],
    [
      "c",
      "ut"
    ],
    [
      "l",
      "in"
    ],
    [
      "comment",
      "s"
    ],
    [
      "du",
      "de"
    ],
    [
      "ou",
      "d"
    ],
    [
      "cou",
      "nt"
    ],
    [
      "in",
      "sp"
    ],
    [
      "b",
      "oo"
    ],
    [
      "i",
      "a"
    ],
    [
      "en",
      "ter"
    ],
    [
      "h",
      "our"
    ],
    [
      "w",
      "ish"
    ],
    [
      "lit",
      "er"
    ],
    [
      "or",
      "ts"
    ],
    [
      "cham",
      "ps"
    ],
    [
      "c",
      "al"
    ],
    [
      "ri",
      "p"
    ],
    [
      "c",
      "ed"
    ],
    [
      "am",
      "i"
    ],
    [
      "per",
      "fect"
    ],
    [
      "le",
      "vel"
    ],
    [
      "play",
      "s"
    ],
    [
      "f",
      "ield"
    ],
    [
      "er",
      "a"
    ],
    [
      "so",
      "on"
    ],
    [
      "tur",
      "n"
    ],
    [
      "bigg",
      "est"
    ],
    [
      "20",
      "0"
    ],
    [
      "ir",
      "d"
    ],
    [
      "does",
      "n"
    ],
    [
      "un",
      "ch"
    ],
    [
      "oo",
      "o"
    ],
    [
      "v",
      "ent"
    ],
    [
      "l",
      "an"
    ],
    [
      "s",
      "an"
    ],
    [
      "a",
      "way"
    ],
    [
      "g",
      "an"
    ],
    [
      "al",
      "ive"
    ],
    [
      "happen",
      "ed"
    ],
    [
      "la",
      "ugh"
    ],
    [
      "de",
      "je"
    ],
    [
      "br",
      "on"
    ],
    [
      "18",
      "00"
    ],
    [
      "i",
      "th"
    ],
    [
      "re",
      "co"
    ],
    [
      "inst",
      "ead"
    ],
    [
      "great",
      "est"
    ],
    [
      "na",
      "il"
    ],
    [
      "que",
      "en"
    ],
    [
      "r",
      "r"
    ],
    [
      "smi",
      "th"
    ],
    [
      "realis",
      "tic"
    ],
    [
      "d",
      "ra"
    ],
    [
      "d",
      "ing"
    ],
    [
      "ar",
      "t"
    ],
    [
      "exact",
      "ly"
    ],
    [
      "releas",
      "ed"
    ],
    [
      "br",
      "ing"
    ],
    [
      "si",
      "cs"
    ],
    [
      "eeeeeeee",
      "eeeeeeee"
    ],
    [
      "was",
      "n"
    ],
    [
      "fe",
      "w"
    ],
    [
      "could",
      "nt"
    ],
    [
      "on",
      "t"
    ],
    [
      "ll",
      "i"
    ],
    [
      "phi",
      "l"
    ],
    [
      "mu",
      "sic"
    ],
    [
      "pie",
      "ce"
    ],
    [
      "ce",
      "le"
    ],
    [
      "pat",
      "ri"
    ],
    [
      "sp",
      "orts"
    ],
    [
      "deje",
      "an"
    ],
    [
      "ear",
      "ned"
    ],
    [
      "w",
      "tf"
    ],
    [
      "ei",
      "ther"
    ],
    [
      "liter",
      "ally"
    ],
    [
      "p",
      "h"
    ],
    [
      "e",
      "go"
    ],
    [
      "ear",
      "ly"
    ],
    [
      "lea",
      "gue"
    ],
    [
      "ex",
      "ce"
    ],
    [
      "dy",
      "n"
    ],
    [
      "e",
      "u"
    ],
    [
      "en",
      "ing"
    ],
    [
      "s",
      "ad"
    ],
    [
      "scri",
      "pt"
    ],
    [
      "po",
      "st"
    ],
    [
      "fa",
      "ct"
    ],
    [
      "c",
      "atch"
    ],
    [
      "em",
      "bar"
    ],
    [
      "domin",
      "ated"
    ],
    [
      "c",
      "ul"
    ],
    [
      "r",
      "oo"
    ],
    [
      "ge",
      "ther"
    ],
    [
      "r",
      "and"
    ],
    [
      "co",
      "p"
    ],
    [
      "z",
      "e"
    ],
    [
      "c",
      "ur"
    ],
    [
      "p",
      "ast"
    ],
    [
      "need",
      "s"
    ],
    [
      "phy",
      "sics"
    ],
    [
      "ter",
      "rible"
    ],
    [
      "ast",
      "y"
    ],
    [
      "c",
      "ine"
    ],
    [
      "to",
      "gether"
    ],
    [
      "pp",
      "ing"
    ],
    [
      "ci",
      "ally"
    ],
    [
      "th",
      "umb"
    ],
    [
      "p",
      "i"
    ],
    [
      "ma",
      "in"
    ],
    [
      "ke",
      "t"
    ],
    [
      "co",
      "ach"
    ],
    [
      "sack",
      "ed"
    ],
    [
      "sack",
      "s"
    ],
    [
      "you",
      "ng"
    ],
    [
      "m",
      "or"
    ],
    [
      "ll",
      "ow"
    ],
    [
      "um",
      "p"
    ],
    [
      "ob",
      "vi"
    ],
    [
      "b",
      "ur"
    ],
    [
      "m",
      "ate"
    ],
    [
      "inter",
      "ce"
    ],
    [
      "ex",
      "pos"
    ],
    [
      "fun",
      "ny"
    ],
    [
      "ur",
      "ing"
    ],
    [
      "say",
      "s"
    ],
    [
      "pr",
      "oud"
    ],
    [
      "any",
      "more"
    ],
    [
      "dro",
      "p"
    ],
    [
      "00",
      "0"
    ],
    [
      "chan",
      "ce"
    ],
    [
      "mo",
      "ves"
    ],
    [
      "ma",
      "ge"
    ],
    [
      "to",
      "r"
    ],
    [
      "cons",
      "ist"
    ],
    [
      "all",
      "ow"
    ],
    [
      "am",
      "ent"
    ],
    [
      "stay",
      "ed"
    ],
    [
      "9",
      "9"
    ],
    [
      "k",
      "ick"
    ],
    [
      "f",
      "ast"
    ],
    [
      "wit",
      "ness"
    ],
    [
      "ro",
      "ll"
    ],
    [
      "we",
      "en"
    ],
    [
      "u",
      "e"
    ],
    [
      "2",
      "4"
    ],
    [
      "wee",
      "k"
    ],
    [
      "insp",
      "ir"
    ],
    [
      "v",
      "al"
    ],
    [
      "j",
      "ig"
    ],
    [
      "in",
      "cre"
    ],
    [
      "for",
      "get"
    ],
    [
      "was",
      "nt"
    ],
    [
      "h",
      "um"
    ],
    [
      "r",
      "ass"
    ],
    [
      "x",
      "ai"
    ],
    [
      "hour",
      "s"
    ],
    [
      "f",
      "ree"
    ],
    [
      "d",
      "ou"
    ],
    [
      "exc",
      "ited"
    ],
    [
      "in",
      "d"
    ],
    [
      "rand",
      "om"
    ],
    [
      "bet",
      "ween"
    ],
    [
      "oooo",
      "oooo"
    ],
    [
      "k",
      "o"
    ],
    [
      "st",
      "u"
    ],
    [
      "f",
      "li"
    ],
    [
      "st",
      "up"
    ],
    [
      "c",
      "ow"
    ],
    [
      "t",
      "d"
    ],
    [
      "gi",
      "ants"
    ],
    [
      "ref",
      "ere"
    ],
    [
      "an",
      "n"
    ],
    [
      "hy",
      "pe"
    ],
    [
      "wh",
      "ite"
    ],
    [
      "f",
      "ut"
    ],
    [
      "en",
      "cy"
    ],
    [
      "o",
      "pen"
    ],
    [
      "th",
      "re"
    ],
    [
      "c",
      "ent"
    ],
    [
      "embar",
      "rass"
    ],
    [
      "15",
      "k"
    ],
    [
      "wom",
      "an"
    ],
    [
      "ob",
      "je"
    ],
    [
      "he",
      "y"
    ],
    [
      "miss",
      "ion"
    ],
    [
      "l",
      "ar"
    ],
    [
      "s",
      "al"
    ],
    [
      "youtu",
      "be"
    ],
    [
      "ss",
      "ss"
    ],
    [
      "c",
      "ess"
    ],
    [
      "f",
      "ra"
    ],
    [
      "le",
      "g"
    ],
    [
      "3",
      "rd"
    ],
    [
      "tal",
      "king"
    ],
    [
      "start",
      "ed"
    ],
    [
      "z",
      "z"
    ],
    [
      "stup",
      "id"
    ],
    [
      "destroy",
      "ed"
    ],
    [
      "xai",
      "3"
    ],
    [
      "xai3",
      "15k"
    ],
    [
      "b",
      "on"
    ],
    [
      "p",
      "ra"
    ],
    [
      "chan",
      "ge"
    ],
    [
      "vo",
      "ice"
    ],
    [
      "thumb",
      "nail"
    ],
    [
      "it",
      "es"
    ],
    [
      "fe",
      "lt"
    ],
    [
      "g",
      "ed"
    ],
    [
      "dr",
      "ink"
    ],
    [
      "ho",
      "me"
    ],
    [
      "m",
      "il"
    ],
    [
      "t",
      "our"
    ],
    [
      "deser",
      "ve"
    ],
    [
      "w",
      "ear"
    ],
    [
      "pos",
      "si"
    ],
    [
      "ea",
      "ch"
    ],
    [
      "w",
      "n"
    ],
    [
      "c",
      "am"
    ],
    [
      "scri",
      "m"
    ],
    [
      "scrim",
      "mage"
    ],
    [
      "patri",
      "ots"
    ],
    [
      "differ",
      "ent"
    ],
    [
      "al",
      "gor"
    ],
    [
      "charac",
      "ter"
    ],
    [
      "oo",
      "l"
    ],
    [
      "d",
      "an"
    ],
    [
      "feel",
      "s"
    ],
    [
      "is",
      "s"
    ],
    [
      "r",
      "ound"
    ],
    [
      "bowl",
      "s"
    ],
    [
      "hh",
      "hh"
    ],
    [
      "c",
      "us"
    ],
    [
      "l",
      "ate"
    ],
    [
      "algor",
      "ith"
    ],
    [
      "w",
      "w"
    ],
    [
      "secon",
      "ds"
    ],
    [
      "pla",
      "ce"
    ],
    [
      "hope",
      "fully"
    ],
    [
      "fri",
      "end"
    ],
    [
      "los",
      "ing"
    ],
    [
      "cele",
      "b"
    ],
    [
      "3",
      "8"
    ],
    [
      "c",
      "our"
    ],
    [
      "t",
      "ried"
    ],
    [
      "c",
      "ast"
    ],
    [
      "dyn",
      "asty"
    ],
    [
      "expos",
      "ed"
    ],
    [
      "championshi",
      "p"
    ],
    [
      "ed",
      "iting"
    ],
    [
      "ti",
      "er"
    ],
    [
      "ti",
      "red"
    ],
    [
      "ch",
      "ild"
    ],
    [
      "b",
      "t"
    ],
    [
      "2",
      "8"
    ],
    [
      "ne",
      "l"
    ],
    [
      "it",
      "i"
    ],
    [
      "i",
      "o"
    ],
    [
      "l",
      "ma"
    ],
    [
      "fin",
      "d"
    ],
    [
      "j",
      "ack"
    ],
    [
      "algorith",
      "m"
    ],
    [
      "d",
      "uring"
    ],
    [
      "k",
      "er"
    ],
    [
      "ro",
      "ss"
    ],
    [
      "re",
      "n"
    ],
    [
      "f",
      "la"
    ],
    [
      "en",
      "ds"
    ],
    [
      "think",
      "ing"
    ],
    [
      "n",
      "or"
    ],
    [
      "jig",
      "gle"
    ],
    [
      "2",
      "7"
    ],
    [
      "tru",
      "e"
    ],
    [
      "ta",
      "king"
    ],
    [
      "c",
      "le"
    ],
    [
      "begin",
      "ning"
    ],
    [
      "fr",
      "ont"
    ],
    [
      "p",
      "ort"
    ],
    [
      "ac",
      "tion"
    ],
    [
      "gi",
      "ving"
    ],
    [
      "4",
      "9"
    ],
    [
      "ar",
      "ds"
    ],
    [
      "ven",
      "ge"
    ],
    [
      "cou",
      "ple"
    ],
    [
      "t",
      "v"
    ],
    [
      "a",
      "int"
    ],
    [
      "fin",
      "ish"
    ],
    [
      "ru",
      "g"
    ],
    [
      "w",
      "anna"
    ],
    [
      "lat",
      "er"
    ],
    [
      "eas",
      "y"
    ],
    [
      "championshi",
      "ps"
    ],
    [
      "st",
      "ation"
    ],
    [
      "con",
      "so"
    ],
    [
      "es",
      "tion"
    ],
    [
      "fut",
      "ure"
    ],
    [
      "end",
      "ing"
    ],
    [
      "inspir",
      "ing"
    ],
    [
      "ma",
      "d"
    ],
    [
      "com",
      "p"
    ],
    [
      "5",
      "9"
    ],
    [
      "b",
      "ed"
    ],
    [
      "j",
      "or"
    ],
    [
      "fo",
      "llow"
    ],
    [
      "oun",
      "ds"
    ],
    [
      "bo",
      "x"
    ],
    [
      "po",
      "pped"
    ],
    [
      "clu",
      "b"
    ],
    [
      "pr",
      "is"
    ],
    [
      "blow",
      "s"
    ],
    [
      "seri",
      "es"
    ],
    [
      "ear",
      "s"
    ],
    [
      "interest",
      "ing"
    ],
    [
      "ct",
      "ed"
    ],
    [
      "ci",
      "als"
    ],
    [
      "vic",
      "tory"
    ],
    [
      "br",
      "own"
    ],
    [
      "over",
      "confident"
    ],
    [
      "subscri",
      "ber"
    ],
    [
      "26",
      "th"
    ],
    [
      "cre",
      "ator"
    ],
    [
      "chan",
      "nel"
    ],
    [
      "y",
      "e"
    ],
    [
      "te",
      "m"
    ],
    [
      "si",
      "ck"
    ],
    [
      "che",
      "at"
    ],
    [
      "wom",
      "en"
    ],
    [
      "cour",
      "se"
    ],
    [
      "bron",
      "cos"
    ],
    [
      "pen",
      "al"
    ],
    [
      "mon",
      "th"
    ],
    [
      "gl",
      "ing"
    ],
    [
      "re",
      "cor"
    ],
    [
      "clear",
      "ly"
    ],
    [
      "au",
      "to"
    ],
    [
      "sch",
      "ool"
    ],
    [
      "kid",
      "s"
    ],
    [
      "id",
      "es"
    ],
    [
      "pr",
      "ote"
    ],
    [
      "is",
      "n"
    ],
    [
      "incre",
      "di"
    ],
    [
      "jo",
      "go"
    ],
    [
      "ef",
      "fort"
    ],
    [
      "k",
      "a"
    ],
    [
      "wor",
      "se"
    ],
    [
      "ga",
      "l"
    ],
    [
      "reco",
      "gn"
    ],
    [
      "d",
      "ead"
    ],
    [
      "random",
      "ly"
    ],
    [
      "tru",
      "ly"
    ],
    [
      "consist",
      "ency"
    ],
    [
      "inspiring",
      "keep"
    ],
    [
      "li",
      "kes"
    ],
    [
      "b",
      "is"
    ],
    [
      "es",
      "pe"
    ],
    [
      "s",
      "y"
    ],
    [
      "g",
      "er"
    ],
    [
      "dis",
      "app"
    ],
    [
      "complete",
      "ly"
    ],
    [
      "brea",
      "k"
    ],
    [
      "conso",
      "le"
    ],
    [
      "oo",
      "d"
    ],
    [
      "scen",
      "e"
    ],
    [
      "end",
      "ed"
    ],
    [
      "c",
      "as"
    ],
    [
      "go",
      "es"
    ],
    [
      "fu",
      "ll"
    ],
    [
      "swe",
      "et"
    ],
    [
      "ta",
      "kes"
    ],
    [
      "all",
      "en"
    ],
    [
      ">",
      ">"
    ],
    [
      "v",
      "id"
    ],
    [
      "ic",
      "ally"
    ],
    [
      "di",
      "o"
    ],
    [
      "pu",
      "sh"
    ],
    [
      "b",
      "ri"
    ],
    [
      "y",
      "o"
    ],
    [
      "t",
      "ri"
    ],
    [
      "lma",
      "o"
    ],
    [
      "tit",
      "le"
    ],
    [
      "de",
      "v"
    ],
    [
      "f",
      "c"
    ],
    [
      "won",
      "t"
    ],
    [
      "h",
      "un"
    ],
    [
      "m",
      "al"
    ],
    [
      "tom",
      "my"
    ],
    [
      "recogn",
      "ition"
    ],
    [
      "n",
      "ation"
    ],
    [
      "co",
      "ll"
    ],
    [
      "n",
      "um"
    ],
    [
      "under",
      "rated"
    ],
    [
      "on",
      "line"
    ],
    [
      "2",
      "5"
    ],
    [
      "kin",
      "da"
    ],
    [
      "w",
      "al"
    ],
    [
      "espe",
      "cially"
    ],
    [
      "r",
      "id"
    ],
    [
      "r",
      "an"
    ],
    [
      "bl",
      "own"
    ],
    [
      "de",
      "fe"
    ],
    [
      "un",
      "a"
    ],
    [
      "supp",
      "ort"
    ],
    [
      "sing",
      "le"
    ],
    [
      "t",
      "b"
    ],
    [
      "sa",
      "ve"
    ],
    [
      "is",
      "nt"
    ],
    [
      "ke",
      "y"
    ],
    [
      "feel",
      "ing"
    ],
    [
      "call",
      "ing"
    ],
    [
      "bro",
      "ther"
    ],
    [
      "str",
      "ong"
    ],
    [
      "rockstar",
      "games"
    ],
    [
      "b",
      "en"
    ],
    [
      "show",
      "s"
    ],
    [
      "honest",
      "ly"
    ],
    [
      "dis",
      "tra"
    ],
    [
      "wr",
      "ong"
    ],
    [
      "om",
      "g"
    ],
    [
      "l",
      "ing"
    ],
    [
      "tour",
      "n"
    ],
    [
      "quarter",
      "back"
    ],
    [
      "4",
      "5"
    ],
    [
      "c",
      "li"
    ],
    [
      "gen",
      "er"
    ],
    [
      "l",
      "ad"
    ],
    [
      "er",
      "o"
    ],
    [
      "t",
      "wi"
    ],
    [
      "twi",
      "ce"
    ],
    [
      "wo",
      "ke"
    ],
    [
      "di",
      "a"
    ],
    [
      "ta",
      "ck"
    ],
    [
      "m",
      "it"
    ],
    [
      "s",
      "ea"
    ],
    [
      "shi",
      "rt"
    ],
    [
      "in",
      "v"
    ],
    [
      "you",
      "re"
    ],
    [
      "2",
      "nd"
    ],
    [
      "hu",
      "ge"
    ],
    [
      "en",
      "gl"
    ],
    [
      "of",
      "fs"
    ],
    [
      "interce",
      "ption"
    ],
    [
      "s",
      "il"
    ],
    [
      "id",
      "ed"
    ],
    [
      "s",
      "ounds"
    ],
    [
      "ma",
      "le"
    ],
    [
      "c",
      "ing"
    ],
    [
      "b",
      "an"
    ],
    [
      "2",
      "3"
    ],
    [
      "b",
      "la"
    ],
    [
      "l",
      "er"
    ],
    [
      "favor",
      "ite"
    ],
    [
      "mat",
      "ter"
    ],
    [
      "min",
      "ute"
    ],
    [
      "disapp",
      "o"
    ],
    [
      "c",
      "ute"
    ],
    [
      "tourn",
      "ament"
    ],
    [
      "ni",
      "ck"
    ],
    [
      "defen",
      "ce"
    ],
    [
      "re",
      "am"
    ],
    [
      "en",
      "light"
    ],
    [
      "enlight",
      "ening"
    ],
    [
      "fi",
      "re"
    ],
    [
      "f",
      "al"
    ],
    [
      "es",
      "per"
    ],
    [
      "obje",
      "ctive"
    ],
    [
      "play",
      "list"
    ],
    [
      "hold",
      "ing"
    ],
    [
      "com",
      "pe"
    ],
    [
      "num",
      "ber"
    ],
    [
      "re",
      "venge"
    ],
    [
      "enter",
      "tain"
    ],
    [
      "ex",
      "plan"
    ],
    [
      "4",
      "th"
    ],
    [
      "r",
      "ook"
    ],
    [
      "cl",
      "ass"
    ],
    [
      "af",
      "c"
    ],
    [
      "ti",
      "ce"
    ],
    [
      "scen",
      "es"
    ],
    [
      "ch",
      "ills"
    ],
    [
      "id",
      "ea"
    ],
    [
      "the",
      "ft"
    ],
    [
      "qu",
      "estion"
    ],
    [
      "does",
      "nt"
    ],
    [
      "wi",
      "ld"
    ],
    [
      "a",
      "h"
    ],
    [
      "en",
      "se"
    ],
    [
      "favor",
      "ites"
    ],
    [
      "6",
      "0"
    ],
    [
      "ex",
      "per"
    ],
    [
      "st",
      "at"
    ],
    [
      "hand",
      "s"
    ],
    [
      "b",
      "ru"
    ],
    [
      "ver",
      "age"
    ],
    [
      "p",
      "ack"
    ],
    [
      "pres",
      "sure"
    ],
    [
      "domin",
      "ant"
    ],
    [
      "bu",
      "cs"
    ],
    [
      "com",
      "pare"
    ],
    [
      "fa",
      "ke"
    ],
    [
      "ann",
      "oun"
    ],
    [
      "g",
      "un"
    ],
    [
      "pl",
      "o"
    ],
    [
      "s",
      "ound"
    ],
    [
      "c",
      "lock"
    ],
    [
      "l",
      "ead"
    ],
    [
      "fore",
      "ver"
    ],
    [
      "c",
      "red"
    ],
    [
      "y",
      "ards"
    ],
    [
      "swi",
      "f"
    ],
    [
      "se",
      "x"
    ],
    [
      "delay",
      "ed"
    ],
    [
      "v",
      "ai"
    ],
    [
      "fi",
      "ght"
    ],
    [
      "vers",
      "ion"
    ],
    [
      "st",
      "ate"
[...]
