{
  "vocab": {
    "&": 0,
    "?": 1,
    "7": 2,
    "ri": 3,
    "ti": 4,
    ":": 5,
    "dé": 6,
    "ant": 7,
    "S": 8,
    ".L": 9,
    "par": 10,
    "ans": 11,
    "tr": 12,
    "»": 13,
    "A": 14,
    "q": 15,
    "c": 16,
    "ont": 17,
    "con": 18,
    "el": 19,
    "h": 20,
    "ł": 21,
    "la": 22,
    "Ç": 23,
    "se": 24,
    "re": 25,
    "Z": 26,
    "b": 27,
    "W": 28,
    "our": 29,
    "ou": 30,
    "«": 31,
    "ê": 32,
    "d": 33,
    "qu": 34,
    "J": 35,
    ")": 36,
    "n": 37,
    ",": 38,
    "m": 39,
    "0": 40,
    "ré": 41,
    "in": 42,
    "(": 43,
    "ait": 44,
    "pa": 45,
    "di": 46,
    "ô": 47,
    "î": 48,
    "és": 49,
    "E": 50,
    "[": 51,
    "j": 52,
    "p": 53,
    "-": 54,
    "ó": 55,
    "2": 56,
    "5": 57,
    "L": 58,
    "/": 59,
    "é": 60,
    "om": 61,
    "pour": 62,
    "@": 63,
    "C": 64,
    "#": 65,
    "O": 66,
    "à": 67,
    "en": 68,
    "K": 69,
    "qu'": 70,
    "li": 71,
    "û": 72,
    ";": 73,
    "r": 74,
    "ci": 75,
    "F": 76,
    "er": 77,
    "de": 78,
    "ét": 79,
    "or": 80,
    "z": 81,
    "–": 82,
    "ch": 83,
    "f": 84,
    "un": 85,
    "ë": 86,
    "ent": 87,
    "+": 88,
    "l": 89,
    "du": 90,
    "me": 91,
    ".": 92,
    "g": 93,
    "es": 94,
    "8": 95,
    "pr": 96,
    "est": 97,
    "G": 98,
    "á": 99,
    "ais": 100,
    "ation": 101,
    "s": 102,
    "N": 103,
    "6": 104,
    "al": 105,
    "œ": 106,
    "ment": 107,
    "is": 108,
    "oi": 109,
    "9": 110,
    "x": 111,
    "si": 112,
    "I": 113,
    "une": 114,
    "ç": 115,
    "3": 116,
    "tion": 117,
    "]": 118,
    "us": 119,
    "U": 120,
    "!": 121,
    "ne": 122,
    "qui": 123,
    "'": 124,
    "o": 125,
    "u": 126,
    "am": 127,
    "il": 128,
    "l'": 129,
    "\"": 130,
    "ù": 131,
    "É": 132,
    "ar": 133,
    "â": 134,
    "Q": 135,
    "le": 136,
    "at": 137,
    "on": 138,
    "it": 139,
    "ur": 140,
    "w": 141,
    "d'": 142,
    "a": 143,
    "t": 144,
    "’": 145,
    "R": 146,
    "ï": 147,
    "te": 148,
    "les": 149,
    "av": 150,
    "com": 151,
    "X": 152,
    "è": 153,
    "ce": 154,
    "M": 155,
    "des": 156,
    "T": 157,
    "%": 158,
    "P": 159,
    "an": 160,
    "que": 161,
    "1": 162,
    "À": 163,
    "<unk>": 164,
    "V": 165,
    "au": 166,
    "y": 167,
    "v": 168,
    "</w>": 169,
    "…": 170,
    "et": 171,
    "ai": 172,
    "í": 173,
    "e": 174,
    "Y": 175,
    "i": 176,
    "B": 177,
    "k": 178,
    "D": 179,
    "H": 180,
    "4": 181
  },
  "merges": [
    [
      "e",
      "s"
    ],
    [
      "e",
      "n"
    ],
    [
      "o",
      "n"
    ],
    [
      "d",
      "e"
    ],
    [
      "a",
      "i"
    ],
    [
      "a",
      "n"
    ],
    [
      "r",
      "e"
    ],
    [
      "l",
      "e"
    ],
    [
      "q",
      "u"
    ],
    [
      "o",
      "u"
    ],
    [
      "en",
      "t"
    ],
    [
      "e",
      "r"
    ],
    [
      "l",
      "a"
    ],
    [
      "t",
      "i"
    ],
    [
      "n",
      "e"
    ],
    [
      "i",
      "s"
    ],
    [
      "i",
      "l"
    ],
    [
      "e",
      "t"
    ],
    [
      "p",
      "a"
    ],
    [
      "a",
      "u"
    ],
    [
      "p",
      "r"
    ],
    [
      "l",
      "es"
    ],
    [
      "u",
      "r"
    ],
    [
      "i",
      "n"
    ],
    [
      "qu",
      "e"
    ],
    [
      "i",
      "t"
    ],
    [
      "o",
      "r"
    ],
    [
      "t",
      "e"
    ],
    [
      "d",
      "es"
    ],
    [
      "c",
      "e"
    ],
    [
      "u",
      "n"
    ],
    [
      "ou",
      "r"
    ],
    [
      "s",
      "e"
    ],
    [
      "l",
      "i"
    ],
    [
      "ti",
      "on"
    ],
    [
      "on",
      "t"
    ],
    [
      "o",
      "m"
    ],
    [
      "l",
      "'"
    ],
    [
      "a",
      "v"
    ],
    [
      "s",
      "i"
    ],
    [
      "ai",
      "t"
    ],
    [
      "m",
      "ent"
    ],
    [
      "m",
      "e"
    ],
    [
      "u",
      "s"
    ],
    [
      "é",
      "t"
    ],
    [
      "a",
      "r"
    ],
    [
      "an",
      "t"
    ],
    [
      "c",
      "h"
    ],
    [
      "d",
      "'"
    ],
    [
      "es",
      "t"
    ],
    [
      "d",
      "u"
    ],
    [
      "a",
      "m"
    ],
    [
      "ai",
      "s"
    ],
    [
      "pa",
      "r"
    ],
    [
      "an",
      "s"
    ],
    [
      "r",
      "i"
    ],
    [
      "a",
      "t"
    ],
    [
      "a",
      "l"
    ],
    [
      "u",
      "ne"
    ],
    [
      "d",
      "é"
    ],
    [
      "e",
      "l"
    ],
    [
      "r",
      "é"
    ],
    [
      "t",
      "r"
    ],
    [
      "p",
      "our"
    ],
    [
      "o",
      "i"
    ],
    [
      "c",
      "om"
    ],
    [
      "d",
      "i"
    ],
    [
      "a",
      "tion"
    ],
    [
      "c",
      "i"
    ],
    [
      "qu",
      "i"
    ],
    [
      "é",
      "s"
    ],
    [
      "c",
      "on"
    ],
    [
      "qu",
      "'"
    ],
    [
      ".",
      "L"
    ],
    [
      ".",
      "L"
    ],
    [
      ".",
      "L"
    ],
    [
      ".",
      "L"
    ],
    [
      ".",
      "L"
    ],
    [
      ".",
      "L"
    ],
    [
      ".",
      "L"
    ],
    [
      ".",
      "L"
    ],
    [
      ".",
      "L"
    ],
    [
      ".",
      "L"
    ],
    [
      ".",
      "L"
    ],
    [
      ".",
      "L"
    ],
    [
      ".",
      "L"
    ],
    [
      ".",
      "L"
    ],
    [
      ".",
      "L"
    ],
    [
      ".",
      "L"
    ],
    [
      ".",
      "L"
    ],
    [
      ".",
      "L"
    ],
    [
      ".",
      "L"
    ],
    [
      ".",
      "L"
    ],
    [
      ".",
      "L"
    ],
    [
      ".",
      "L"
    ],
    [
      ".",
      "L"
    ],
    [
      ".",
      "L"
    ],
    [
      ".",
      "L"
    ],
    [
      ".",
      "L"
    ],
    [
      ".",
      "L"
    ],
    [
      ".",
      "L"
    ],
    [
      ".",
      "L"
    ],
    [
      ".",
      "L"
    ],
    [
      ".",
      "L"
    ],
    [
      ".",
      "L"
    ],
    [
      ".",
      "L"
    ],
    [
      ".",
      "L"
    ],
    [
      ".",
      "L"
    ],
    [
      ".",
      "L"
    ],
    [
      ".",
      "L"
    ],
    [
      ".",
      "L"
    ],
    [
      ".",
      "L"
    ],
    [
      ".",
      "L"
    ],
    [
      ".",
      "L"
    ],
    [
      ".",
      "L"
    ],
    [
      ".",
      "L"
    ],
    [
      ".",
      "L"
    ],
    [
      ".",
      "L"
    ],
    [
      ".",
      "L"
    ],
    [
      ".",
      "L"
    ],
    [
      ".",
      "L"
    ],
    [
      ".",
      "L"
    ],
    [
      ".",
      "L"
    ],
    [
      ".",
      "L"
    ],
    [
      ".",
      "L"
    ],
    [
      ".",
      "L"
    ],
    [
      ".",
      "L"
    ],
    [
      ".",
      "L"
    ],
    [
      ".",
      "L"
    ],
    [
      ".",
      "L"
    ],
    [
      ".",
      "L"
    ],
    [
      ".",
      "L"
    ],
    [
      ".",
      "L"
    ],
    [
      ".",
      "L"
    ],
    [
      ".",
      "L"
    ],
    [
      ".",
      "L"
    ],
    [
      ".",
      "L"
    ],
    [
      ".",
      "L"
    ],
    [
      ".",
      "L"
    ],
    [
      ".",
      "L"
    ],
    [
      ".",
      "L"
    ],
    [
      ".",
      "L"
    ],
    [
      ".",
      "L"
    ],
    [
      ".",
      "L"
    ],
    [
      ".",
      "L"
    ],
    [
      ".",
      "L"
    ],
    [
      ".",
      "L"
    ],
    [
      ".",
      "L"
    ],
    [
      ".",
      "L"
    ],
    [
      ".",
      "L"
    ],
    [
      ".",
      "L"
    ],
    [
      ".",
      "L"
    ],
    [
      ".",
      "L"
    ],
    [
      ".",
      "L"
    ],
    [
      ".",
      "L"
    ],
    [
      ".",
      "L"
    ],
    [
      ".",
      "L"
    ],
    [
      ".",
      "L"
    ],
    [
      ".",
      "L"
    ],
    [
      ".",
      "L"
    ],
    [
      ".",
      "L"
    ],
    [
      ".",
      "L"
    ],
    [
      ".",
      "L"
    ],
    [
      ".",
      "L"
    ],
    [
      ".",
      "L"
    ],
    [
      ".",
      "L"
    ],
    [
      ".",
      "L"
    ],
    [
      ".",
      "L"
    ],
    [
      ".",
      "L"
    ],
    [
      ".",
      "L"
    ],
    [
      ".",
      "L"
    ],
    [
      ".",
      "L"
    ],
    [
      ".",
      "L"
    ],
    [
      ".",
      "L"
    ],
    [
      ".",
      "L"
    ],
    [
      ".",
      "L"
    ],
    [
      ".",
      "L"
    ],
    [
      ".",
      "L"
    ],
    [
      ".",
      "L"
    ],
    [
      ".",
      "L"
    ],
    [
      ".",
      "L"
    ],
    [
      ".",
      "L"
    ],
    [
      ".",
      "L"
    ],
    [
      ".",
      "L"
    ],
    [
      ".",
      "L"
    ],
    [
      ".",
      "L"
    ],
    [
      ".",
      "L"
    ],
    [
      ".",
      "L"
    ],
    [
      ".",
      "L"
    ],
    [
      ".",
      "L"
    ],
    [
      ".",
      "L"
    ],
    [
      ".",
      "L"
    ],
    [
      ".",
      "L"
    ],
    [
      ".",
      "L"
    ],
    [
      ".",
      "L"
    ],
    [
      ".",
      "L"
    ],
    [
      ".",
      "L"
    ],
    [
      ".",
      "L"
    ],
    [
      ".",
      "L"
    ],
    [
      ".",
      "L"
    ],
    [
      ".",
      "L"
    ],
    [
      ".",
      "L"
    ],
    [
      ".",
      "L"
    ],
    [
      ".",
      "L"
    ],
    [
      ".",
      "L"
    ],
    [
      ".",
      "L"
    ],
    [
      ".",
      "L"
    ],
    [
      ".",
      "L"
    ],
    [
      ".",
      "L"
    ],
    [
      ".",
      "L"
    ],
    [
      ".",
      "L"
    ],
    [
      ".",
      "L"
    ],
    [
      ".",
      "L"
    ],
    [
      ".",
      "L"
    ],
    [
      ".",
      "L"
    ],
    [
      ".",
      "L"
    ],
    [
      ".",
      "L"
    ],
    [
      ".",
      "L"
    ],
    [
      ".",
      "L"
    ],
    [
      ".",
      "L"
    ],
    [
      ".",
      "L"
    ],
    [
      ".",
      "L"
    ],
    [
      ".",
      "L"
    ],
    [
      ".",
      "L"
    ],
    [
      ".",
      "L"
    ],
    [
      ".",
      "L"
    ],
    [
      ".",
      "L"
    ],
    [
      ".",
      "L"
    ],
    [
      ".",
      "L"
    ],
    [
      ".",
      "L"
    ],
    [
      ".",
      "L"
    ],
    [
      ".",
      "L"
    ],
    [
      ".",
      "L"
    ],
    [
      ".",
      "L"
    ],
    [
      ".",
      "L"
    ],
    [
      ".",
      "L"
    ],
    [
      ".",
      "L"
    ],
    [
      ".",
      "L"
    ],
    [
      ".",
      "L"
    ],
    [
      ".",
      "L"
    ],
    [
      ".",
      "L"
    ],
    [
      ".",
      "L"
    ],
    [
      ".",
      "L"
    ],
    [
      ".",
      "L"
    ],
    [
      ".",
      "L"
    ],
    [
      ".",
      "L"
    ],
    [
      ".",
      "L"
    ],
    [
      ".",
      "L"
    ],
    [
      ".",
      "L"
    ],
    [
      ".",
      "L"
    ],
    [
      ".",
      "L"
    ],
    [
      ".",
      "L"
    ],
    [
      ".",
      "L"
    ],
    [
      ".",
      "L"
    ],
    [
      ".",
      "L"
    ],
    [
      ".",
      "L"
    ],
    [
      ".",
      "L"
    ],
    [
      ".",
      "L"
    ],
    [
      ".",
      "L"
    ],
    [
      ".",
      "L"
    ],
    [
      ".",
      "L"
    ],
    [
      ".",
      "L"
    ],
    [
      ".",
      "L"
    ],
    [
      ".",
      "L"
    ],
    [
      ".",
      "L"
    ],
    [
      ".",
      "L"
    ],
    [
      ".",
      "L"
    ],
    [
      ".",
      "L"
    ],
    [
      ".",
      "L"
    ],
    [
      ".",
      "L"
    ],
    [
      ".",
      "L"
    ],
    [
      ".",
      "L"
    ],
    [
      ".",
      "L"
    ],
    [
      ".",
      "L"
    ],
    [
      ".",
      "L"
    ],
    [
      ".",
      "L"
    ],
    [
      ".",
      "L"
    ],
    [
      ".",
      "L"
    ],
    [
      ".",
      "L"
    ],
    [
      ".",
      "L"
    ],
    [
      ".",
      "L"
    ],
    [
      ".",
      "L"
    ],
    [
      ".",
      "L"
    ],
    [
      ".",
      "L"
    ],
    [
      ".",
      "L"
    ],
    [
      ".",
      "L"
    ],
    [
      ".",
      "L"
    ],
    [
      ".",
      "L"
    ],
    [
      ".",
      "L"
    ],
    [
      ".",
      "L"
    ],
    [
      ".",
      "L"
    ],
    [
      ".",
      "L"
    ],
    [
      ".",
      "L"
    ],
    [
      ".",
      "L"
    ],
    [
      ".",
      "L"
    ],
    [
      ".",
      "L"
    ],
    [
      ".",
      "L"
    ],
    [
      ".",
      "L"
    ],
    [
      ".",
      "L"
    ],
    [
      ".",
      "L"
    ],
    [
      ".",
      "L"
    ],
    [
      ".",
      "L"
    ],
    [
      ".",
      "L"
    ],
    [
      ".",
      "L"
    ],
    [
      ".",
      "L"
    ],
    [
      ".",
      "L"
    ],
    [
      ".",
      "L"
    ],
    [
      ".",
      "L"
    ],
    [
      ".",
      "L"
    ],
    [
      ".",
      "L"
    ],
    [
      ".",
      "L"
    ],
    [
      ".",
      "L"
    ],
    [
      ".",
      "L"
    ],
    [
      ".",
      "L"
    ],
    [
      ".",
      "L"
    ],
    [
      ".",
      "L"
    ],
    [
      ".",
      "L"
    ],
    [
      ".",
      "L"
    ],
    [
      ".",
      "L"
    ],
    [
      ".",
      "L"
    ],
    [
      ".",
      "L"
    ],
    [
      ".",
      "L"
    ],
    [
      ".",
      "L"
    ],
    [
      ".",
      "L"
    ],
    [
      ".",
      "L"
    ],
    [
      ".",
      "L"
    ],
    [
      ".",
      "L"
    ],
    [
      ".",
      "L"
    ],
    [
      ".",
      "L"
    ],
    [
      ".",
      "L"
    ],
    [
      ".",
      "L"
    ],
    [
      ".",
      "L"
    ],
    [
      ".",
      "L"
    ],
    [
      ".",
      "L"
    ],
    [
      ".",
      "L"
    ],
    [
      ".",
      "L"
    ],
    [
      ".",
      "L"
    ],
    [
      ".",
      "L"
    ],
    [
      ".",
      "L"
    ],
    [
      ".",
      "L"
    ],
    [
      ".",
      "L"
    ],
    [
      ".",
      "L"
    ],
    [
      ".",
      "L"
    ],
    [
      ".",
      "L"
    ],
    [
      ".",
      "L"
    ],
    [
      ".",
      "L"
    ],
    [
      ".",
      "L"
    ],
    [
      ".",
      "L"
    ],
    [
      ".",
      "L"
    ],
    [
      ".",
      "L"
    ],
    [
      ".",
      "L"
    ],
    [
      ".",
      "L"
    ],
    [
      ".",
      "L"
    ],
    [
      ".",
      "L"
    ],
    [
      ".",
      "L"
    ],
    [
      ".",
      "L"
    ],
    [
      ".",
      "L"
    ],
    [
      ".",
      "L"
    ],
    [
      ".",
      "L"
    ],
    [
      ".",
      "L"
    ],
    [
      ".",
      "L"
    ],
    [
      ".",
      "L"
    ],
    [
      ".",
      "L"
    ],
    [
      ".",
      "L"
    ],
    [
      ".",
      "L"
    ],
    [
      ".",
      "L"
    ],
    [
      ".",
      "L"
    ],
    [
      ".",
      "L"
    ],
    [
      ".",
      "L"
    ],
    [
      ".",
      "L"
    ],
    [
      ".",
      "L"
    ],
    [
      ".",
      "L"
    ],
    [
      ".",
      "L"
    ],
    [
      ".",
      "L"
    ],
    [
      ".",
      "L"
    ],
    [
      ".",
      "L"
    ],
    [
      ".",
      "L"
    ],
    [
      ".",
      "L"
    ],
    [
      ".",
      "L"
    ],
    [
      ".",
      "L"
    ],
    [
      ".",
      "L"
    ],
    [
      ".",
      "L"
    ],
    [
      ".",
      "L"
    ],
    [
      ".",
      "L"
    ],
    [
      ".",
      "L"
    ],
    [
      ".",
      "L"
    ],
    [
      ".",
      "L"
    ],
    [
      ".",
      "L"
    ],
    [
      ".",
      "L"
    ],
    [
      ".",
      "L"
    ],
    [
      ".",
      "L"
    ],
    [
      ".",
      "L"
    ],
    [
      ".",
      "L"
    ],
    [
      ".",
      "L"
    ],
    [
      ".",
      "L"
    ],
    [
      ".",
      "L"
    ],
    [
      ".",
      "L"
    ],
    [
      ".",
      "L"
    ],
    [
      ".",
      "L"
    ],
    [
      ".",
      "L"
    ],
    [
      ".",
      "L"
    ],
    [
      ".",
      "L"
    ],
    [
      ".",
      "L"
    ],
    [
      ".",
      "L"
    ],
    [
      ".",
      "L"
    ],
    [
      ".",
      "L"
    ],
    [
      ".",
      "L"
    ],
    [
      ".",
      "L"
    ],
    [
      ".",
      "L"
    ],
    [
      ".",
      "L"
    ],
    [
      ".",
      "L"
    ],
    [
      ".",
      "L"
    ],
    [
      ".",
      "L"
    ],
    [
      ".",
      "L"
    ],
    [
      ".",
      "L"
    ],
    [
      ".",
      "L"
    ],
    [
      ".",
      "L"
    ],
    [
      ".",
      "L"
    ],
    [
      ".",
      "L"
    ],
    [
      ".",
      "L"
    ],
    [
      ".",
      "L"
    ],
    [
      ".",
      "L"
    ],
    [
      ".",
      "L"
    ],
    [
      ".",
      "L"
    ],
    [
      ".",
      "L"
    ],
    [
      ".",
      "L"
    ],
    [
      ".",
      "L"
    ],
    [
      ".",
      "L"
    ],
    [
      ".",
      "L"
    ],
    [
      ".",
      "L"
    ],
    [
      ".",
      "L"
    ],
    [
      ".",
      "L"
    ],
    [
      ".",
      "L"
    ],
    [
      ".",
      "L"
    ],
    [
      ".",
      "L"
    ],
    [
      ".",
      "L"
    ],
    [
      ".",
      "L"
    ],
    [
      ".",
      "L"
    ],
    [
      ".",
      "L"
    ],
    [
      ".",
      "L"
    ],
    [
      ".",
      "L"
    ],
    [
      ".",
      "L"
    ],
    [
      ".",
      "L"
    ],
    [
      ".",
      "L"
    ],
    [
      ".",
      "L"
    ],
    [
      ".",
      "L"
    ],
    [
      ".",
      "L"
    ],
    [
      ".",
      "L"
    ],
    [
      ".",
      "L"
    ],
    [
      ".",
      "L"
    ],
    [
      ".",
      "L"
    ],
    [
      ".",
      "L"
    ],
    [
      ".",
      "L"
    ],
    [
      ".",
      "L"
    ],
    [
      ".",
      "L"
    ],
    [
      ".",
      "L"
    ],
    [
      ".",
      "L"
    ],
    [
      ".",
      "L"
    ],
    [
      ".",
      "L"
    ],
    [
      ".",
      "L"
    ],
    [
      ".",
      "L"
    ],
    [
      ".",
      "L"
    ],
    [
      ".",
      "L"
    ],
    [
      ".",
      "L"
    ],
    [
      ".",
      "L"
    ],
    [
      ".",
      "L"
    ],
    [
      ".",
      "L"
    ],
    [
      ".",
      "L"
    ],
    [
      ".",
      "L"
    ],
    [
      ".",
      "L"
    ],
    [
      ".",
      "L"
    ],
    [
      ".",
      "L"
    ],
    [
      ".",
      "L"
    ],
    [
      ".",
      "L"
    ],
    [
      ".",
      "L"
    ],
    [
      ".",
      "L"
    ],
    [
      ".",
      "L"
    ],
    [
      ".",
      "L"
    ],
    [
      ".",
      "L"
    ],
    [
      ".",
      "L"
    ],
    [
      ".",
      "L"
    ],
    [
      ".",
      "L"
    ],
    [
      ".",
      "L"
    ],
    [
      ".",
      "L"
    ],
    [
      ".",
      "L"
    ],
    [
      ".",
      "L"
    ],
    [
      ".",
      "L"
    ],
    [
      ".",
      "L"
    ],
    [
      ".",
      "L"
    ],
    [
      ".",
      "L"
    ],
    [
      ".",
      "L"
    ],
    [
      ".",
      "L"
    ],
    [
      ".",
      "L"
    ],
    [
      ".",
      "L"
    ],
    [
      ".",
      "L"
    ],
    [
      ".",
      "L"
    ],
    [
      ".",
      "L"
    ],
    [
      ".",
      "L"
    ],
    [
      ".",
      "L"
    ],
    [
      ".",
      "L"
    ],
    [
      ".",
      "L"
    ],
    [
      ".",
      "L"
    ],
    [
      ".",
      "L"
    ],
    [
      ".",
      "L"
    ],
    [
      ".",
      "L"
    ],
    [
      ".",
      "L"
    ],
    [
      ".",
      "L"
    ],
    [
      ".",
      "L"
    ],
    [
      ".",
      "L"
    ],
    [
      ".",
      "L"
    ],
    [
      ".",
      "L"
    ],
    [
      ".",
      "L"
    ],
    [
      ".",
      "L"
    ],
    [
      ".",
      "L"
    ],
    [
      ".",
      "L"
    ],
    [
      ".",
      "L"
    ],
    [
      ".",
      "L"
    ],
    [
      ".",
      "L"
    ],
    [
      ".",
      "L"
    ],
    [
      ".",
      "L"
    ],
    [
      ".",
      "L"
    ],
    [
      ".",
      "L"
    ],
    [
      ".",
      "L"
    ],
    [
      ".",
      "L"
    ],
    [
      ".",
      "L"
    ],
    [
      ".",
      "L"
    ],
    [
      ".",
      "L"
    ],
    [
      ".",
      "L"
    ],
    [
      ".",
      "L"
    ],
    [
      ".",
      "L"
    ],
    [
      ".",
      "L"
    ],
    [
      ".",
      "L"
    ],
    [
      ".",
      "L"
    ],
    [
      ".",
      "L"
    ],
    [
      ".",
      "L"
    ],
    [
      ".",
      "L"
    ],
    [
      ".",
      "L"
    ],
    [
      ".",
      "L"
    ],
    [
      ".",
      "L"
    ],
    [
      ".",
      "L"
    ],
    [
      ".",
      "L"
    ],
    [
      ".",
      "L"
    ],
    [
      ".",
      "L"
    ],
    [
      ".",
      "L"
    ],
    [
      ".",
      "L"
    ],
    [
      ".",
      "L"
    ],
    [
      ".",
      "L"
    ],
    [
      ".",
      "L"
    ],
    [
      ".",
      "L"
    ],
    [
      ".",
      "L"
    ],
    [
      ".",
      "L"
    ],
    [
      ".",
      "L"
    ],
    [
      ".",
      "L"
    ],
    [
      ".",
      "L"
    ],
    [
      ".",
      "L"
    ],
    [
      ".",
      "L"
    ],
    [
      ".",
      "L"
    ],
    [
      ".",
      "L"
    ],
    [
      ".",
      "L"
    ],
    [
      ".",
      "L"
    ],
    [
      ".",
      "L"
    ],
    [
      ".",
      "L"
    ],
    [
      ".",
      "L"
    ],
    [
      ".",
      "L"
    ],
    [
      ".",
      "L"
    ],
    [
      ".",
      "L"
    ],
    [
      ".",
      "L"
    ],
    [
      ".",
      "L"
    ],
    [
      ".",
      "L"
    ],
    [
      ".",
      "L"
    ],
    [
      ".",
      "L"
    ],
    [
      ".",
      "L"
    ],
    [
      ".",
      "L"
    ],
    [
      ".",
      "L"
    ],
    [
      ".",
      "L"
    ],
    [
      ".",
      "L"
    ],
    [
      ".",
      "L"
    ],
    [
      ".",
      "L"
    ],
    [
      ".",
      "L"
    ],
    [
      ".",
      "L"
    ],
    [
      ".",
      "L"
    ],
    [
      ".",
      "L"
    ],
    [
      ".",
      "L"
    ],
    [
      ".",
      "L"
    ],
    [
      ".",
      "L"
    ],
    [
      ".",
      "L"
    ],
    [
      ".",
      "L"
    ],
    [
      ".",
      "L"
    ],
    [
      ".",
      "L"
    ],
    [
      ".",
      "L"
    ],
    [
      ".",
      "L"
    ],
    [
      ".",
      "L"
    ],
    [
      ".",
      "L"
    ],
    [
      ".",
      "L"
    ],
    [
      ".",
      "L"
    ],
    [
      ".",
      "L"
    ],
    [
      ".",
      "L"
    ],
    [
      ".",
      "L"
    ],
    [
      ".",
      "L"
    ],
    [
      ".",
      "L"
    ],
    [
      ".",
      "L"
    ],
    [
      ".",
      "L"
    ],
    [
      ".",
      "L"
    ],
    [
      ".",
      "L"
    ],
    [
      ".",
      "L"
    ],
    [
      ".",
      "L"
    ],
    [
      ".",
      "L"
    ],
    [
      ".",
      "L"
    ],
    [
      ".",
      "L"
    ],
    [
      ".",
      "L"
    ],
    [
      ".",
      "L"
    ],
    [
      ".",
      "L"
    ],
    [
      ".",
      "L"
    ],
    [
      ".",
      "L"
    ],
    [
      ".",
      "L"
    ],
    [
      ".",
      "L"
    ],
    [
      ".",
      "L"
    ],
    [
      ".",
      "L"
    ],
    [
      ".",
      "L"
    ],
    [
      ".",
      "L"
    ],
    [
      ".",
      "L"
    ],
    [
      ".",
      "L"
    ],
    [
      ".",
      "L"
    ],
    [
      ".",
      "L"
    ],
    [
      ".",
      "L"
    ],
    [
      ".",
      "L"
    ],
    [
      ".",
      "L"
    ],
    [
      ".",
      "L"
    ],
    [
      ".",
      "L"
    ],
    [
      ".",
      "L"
    ],
    [
      ".",
      "L"
    ],
    [
      ".",
      "L"
    ],
    [
      ".",
      "L"
    ],
    [
      ".",
      "L"
    ],
    [
      ".",
      "L"
    ],
    [
      ".",
      "L"
    ],
    [
      ".",
      "L"
    ],
    [
      ".",
      "L"
    ],
    [
      ".",
      "L"
    ],
    [
      ".",
      "L"
    ],
    [
      ".",
      "L"
    ],
    [
      ".",
      "L"
    ],
    [
      ".",
      "L"
    ],
    [
      ".",
      "L"
    ],
    [
      ".",
      "L"
    ],
    [
      ".",
      "L"
    ],
    [
      ".",
      "L"
    ],
    [
      ".",
      "L"
    ],
    [
      ".",
      "L"
    ],
    [
      ".",
      "L"
    ],
    [
      ".",
      "L"
    ],
    [
      ".",
      "L"
    ],
    [
      ".",
      "L"
    ],
    [
      ".",
      "L"
    ],
    [
      ".",
      "L"
    ],
    [
      ".",
      "L"
    ],
    [
      ".",
      "L"
    ],
    [
      ".",
      "L"
    ],
    [
      ".",
      "L"
    ],
    [
      ".",
      "L"
    ],
    [
      ".",
      "L"
    ],
    [
      ".",
      "L"
    ],
    [
      ".",
      "L"
    ],
    [
      ".",
      "L"
    ],
    [
      ".",
      "L"
    ],
    [
      ".",
      "L"
    ],
    [
      ".",
      "L"
    ],
    [
      ".",
      "L"
    ],
    [
      ".",
      "L"
    ],
    [
      ".",
      "L"
    ],
    [
      ".",
      "L"
    ],
    [
      ".",
      "L"
    ],
    [
      ".",
      "L"
    ],
    [
      ".",
      "L"
    ],
    [
      ".",
      "L"
    ],
    [
      ".",
      "L"
    ],
    [
      ".",
      "L"
    ],
    [
      ".",
      "L"
    ],
    [
      ".",
      "L"
    ],
    [
      ".",
      "L"
    ],
    [
      ".",
      "L"
    ],
    [
      ".",
      "L"
    ],
    [
      ".",
      "L"
    ],
    [
      ".",
      "L"
    ],
    [
      ".",
      "L"
    ],
    [
      ".",
      "L"
    ],
    [
      ".",
      "L"
    ],
    [
      ".",
      "L"
    ],
    [
      ".",
      "L"
    ],
    [
      ".",
      "L"
    ],
    [
      ".",
      "L"
    ],
    [
      ".",
      "L"
    ],
    [
      ".",
      "L"
    ],
    [
      ".",
      "L"
    ],
    [
      ".",
      "L"
    ],
    [
      ".",
      "L"
    ],
    [
      ".",
      "L"
    ],
    [
      ".",
      "L"
    ],
    [
      ".",
      "L"
    ],
    [
      ".",
      "L"
    ],
    [
      ".",
      "L"
    ],
    [
      ".",
      "L"
    ],
    [
      ".",
      "L"
    ],
    [
      ".",
      "L"
    ],
    [
      ".",
      "L"
    ],
    [
      ".",
      "L"
    ],
    [
      ".",
      "L"
    ],
    [
      ".",
      "L"
    ],
    [
      ".",
      "L"
    ],
    [
      ".",
      "L"
    ],
    [
      ".",
      "L"
    ],
    [
      ".",
      "L"
    ],
    [
      ".",
      "L"
    ],
    [
      ".",
      "L"
    ],
    [
      ".",
      "L"
    ],
    [
      ".",
      "L"
    ],
    [
      ".",
      "L"
    ],
    [
      ".",
      "L"
    ],
    [
      ".",
      "L"
    ],
    [
      ".",
      "L"
    ],
    [
      ".",
      "L"
    ],
    [
      ".",
      "L"
    ],
    [
      ".",
      "L"
    ],
    [
      ".",
      "L"
    ],
    [
      ".",
      "L"
    ],
    [
      ".",
      "L"
    ],
    [
      ".",
      "L"
    ],
    [
      ".",
      "L"
    ],
    [
      ".",
      "L"
    ],
    [
      ".",
      "L"
    ],
    [
      ".",
      "L"
    ],
    [
      ".",
      "L"
    ],
    [
      ".",
      "L"
    ],
    [
      ".",
      "L"
    ],
    [
      ".",
      "L"
    ],
    [
      ".",
      "L"
    ],
    [
      ".",
      "L"
    ],
    [
      ".",
      "L"
    ],
    [
      ".",
      "L"
    ],
    [
      ".",
      "L"
    ],
    [
      ".",
      "L"
    ],
    [
      ".",
      "L"
    ],
    [
      ".",
      "L"
    ],
    [
      ".",
      "L"
    ],
    [
      ".",
      "L"
    ],
    [
      ".",
      "L"
    ],
    [
      ".",
      "L"
    ],
    [
      ".",
      "L"
    ],
    [
      ".",
      "L"
    ],
    [
      ".",
      "L"
    ],
    [
      ".",
      "L"
    ],
    [
      ".",
      "L"
    ],
    [
      ".",
      "L"
    ],
    [
      ".",
      "L"
    ],
    [
      ".",
      "L"
    ],
    [
      ".",
      "L"
    ],
    [
      ".",
      "L"
    ],
    [
      ".",
      "L"
    ],
    [
      ".",
      "L"
    ],
    [
      ".",
      "L"
    ],
    [
      ".",
      "L"
    ],
    [
      ".",
      "L"
    ],
    [
      ".",
      "L"
    ],
    [
      ".",
      "L"
    ],
    [
      ".",
      "L"
    ],
    [
      ".",
      "L"
    ],
    [
      ".",
      "L"
    ],
    [
      ".",
      "L"
    ],
    [
      ".",
      "L"
    ],
    [
      ".",
      "L"
    ],
    [
      ".",
      "L"
    ],
    [
      ".",
      "L"
    ],
    [
      ".",
      "L"
    ],
    [
      ".",
      "L"
    ],
    [
      ".",
      "L"
    ],
    [
      ".",
      "L"
    ],
    [
      ".",
      "L"
    ],
    [
      ".",
      "L"
    ],
    [
      ".",
      "L"
    ],
    [
      ".",
      "L"
    ],
    [
      ".",
      "L"
    ],
    [
      ".",
      "L"
    ],
    [
      ".",
      "L"
    ],
    [
      ".",
      "L"
    ],
    [
      ".",
      "L"
    ],
    [
      ".",
      "L"
    ],
    [
      ".",
      "L"
    ],
    [
      ".",
      "L"
    ],
    [
      ".",
      "L"
    ],
    [
      ".",
      "L"
    ],
    [
      ".",
      "L"
    ],
    [
      ".",
      "L"
    ],
    [
      ".",
      "L"
    ],
    [
      ".",
      "L"
    ],
    [
      ".",
      "L"
    ],
    [
      ".",
      "L"
    ],
    [
      ".",
      "L"
    ],
    [
      ".",
      "L"
    ],
    [
      ".",
      "L"
    ],
    [
      ".",
      "L"
    ],
    [
      ".",
      "L"
    ],
    [
      ".",
      "L"
    ],
    [
      ".",
      "L"
    ],
    [
      ".",
      "L"
    ],
    [
      ".",
      "L"
    ],
    [
      ".",
      "L"
    ],
    [
      ".",
      "L"
    ],
    [
      ".",
      "L"
    ],
    [
      ".",
      "L"
    ],
    [
      ".",
      "L"
    ],
    [
      ".",
      "L"
    ],
    [
      ".",
      "L"
    ],
    [
      ".",
      "L"
    ],
    [
      ".",
      "L"
    ],
    [
      ".",
      "L"
    ],
    [
      ".",
      "L"
    ],
    [
      ".",
      "L"
    ],
    [
      ".",
      "L"
    ],
    [
      ".",
      "L"
    ],
    [
      ".",
      "L"
    ],
    [
      ".",
      "L"
    ],
    [
      ".",
      "L"
    ],
    [
      ".",
      "L"
    ],
    [
      ".",
      "L"
    ],
    [
      ".",
      "L"
    ],
    [
      ".",
      "L"
    ],
    [
      ".",
      "L"
    ],
    [
      ".",
      "L"
    ],
    [
      ".",
      "L"
    ],
    [
      ".",
      "L"
    ],
    [
      ".",
      "L"
    ],
    [
      ".",
      "L"
    ],
    [
      ".",
      "L"
    ],
    [
      ".",
      "L"
    ],
    [
      ".",
      "L"
    ],
    [
      ".",
      "L"
    ],
    [
      ".",
      "L"
    ],
    [
      ".",
      "L"
    ],
    [
      ".",
      "L"
    ],
    [
      ".",
      "L"
    ],
    [
      ".",
      "L"
    ],
    [
      ".",
      "L"
    ],
    [
      ".",
      "L"
    ],
    [
      ".",
      "L"
    ],
    [
      ".",
      "L"
    ],
    [
      ".",
      "L"
    ],
    [
      ".",
      "L"
    ],
    [
      ".",
      "L"
    ],
    [
      ".",
      "L"
    ],
    [
      ".",
      "L"
    ],
    [
      ".",
      "L"
    ],
    [
      ".",
      "L"
    ],
    [
      ".",
      "L"
    ],
    [
      ".",
      "L"
    ],
    [
      ".",
      "L"
    ],
    [
      ".",
      "L"
    ],
    [
      ".",
      "L"
    ],
    [
      ".",
      "L"
    ],
    [
      ".",
      "L"
    ],
    [
      ".",
      "L"
    ],
    [
      ".",
      "L"
    ],
    [
      ".",
      "L"
    ],
    [
      ".",
      "L"
    ],
    [
      ".",
      "L"
    ],
    [
      ".",
      "L"
    ],
    [
      ".",
      "L"
    ],
    [
      ".",
      "L"
    ],
    [
      ".",
      "L"
    ],
    [
      ".",
      "L"
    ],
    [
      ".",
      "L"
    ],
    [
      ".",
      "L"
    ],
    [
      ".",
      "L"
    ],
    [
      ".",
      "L"
    ],
    [
      ".",
      "L"
    ],
    [
      ".",
      "L"
    ],
    [
      ".",
      "L"
    ],
    [
      ".",
      "L"
    ],
    [
      ".",
      "L"
    ],
    [
      ".",
      "L"
    ],
    [
      ".",
      "L"
    ],
    [
      ".",
      "L"
    ],
    [
      ".",
      "L"
    ],
    [
      ".",
      "L"
    ],
    [
      ".",
      "L"
    ],
    [
      ".",
      "L"
    ],
    [
      ".",
      "L"
    ],
    [
      ".",
      "L"
    ],
    [
      ".",
      "L"
    ],
    [
      ".",
      "L"
    ],
    [
      ".",
      "L"
    ],
    [
      ".",
      "L"
    ],
    [
      ".",
      "L"
    ],
    [
      ".",
      "L"
    ],
    [
      ".",
      "L"
    ],
    [
      ".",
      "L"
    ],
    [
      ".",
      "L"
    ],
    [
      ".",
      "L"
    ],
    [
      ".",
      "L"
    ],
    [
      ".",
      "L"
    ],
    [
      ".",
      "L"
    ],
    [
      ".",
      "L"
    ],
    [
      ".",
      "L"
    ],
    [
      ".",
      "L"
    ],
    [
      ".",
      "L"
    ],
    [
      ".",
      "L"
    ],
    [
      ".",
      "L"
    ],
    [
      ".",
      "L"
    ],
    [
      ".",
      "L"
    ],
    [
      ".",
      "L"
    ],
    [
      ".",
      "L"
    ],
    [
      ".",
      "L"
    ],
    [
      ".",
      "L"
    ],
    [
      ".",
      "L"
    ],
    [
      ".",
      "L"
    ],
    [
      ".",
      "L"
    ],
    [
      ".",
      "L"
    ],
    [
      ".",
      "L"
    ],
    [
      ".",
      "L"
    ],
    [
      ".",
      "L"
    ],
    [
      ".",
      "L"
    ],
    [
      ".",
      "L"
    ],
    [
      ".",
      "L"
    ],
    [
      ".",
      "L"
    ],
    [
      ".",
      "L"
    ],
    [
      ".",
      "L"
    ],
    [
      ".",
      "L"
    ],
    [
      ".",
      "L"
    ],
    [
      ".",
      "L"
    ],
    [
      ".",
      "L"
    ],
    [
      ".",
      "L"
    ],
    [
      ".",
      "L"
    ],
    [
      ".",
      "L"
    ],
    [
      ".",
      "L"
    ],
    [
      ".",
      "L"
    ],
    [
      ".",
      "L"
    ],
    [
      ".",
      "L"
    ],
    [
      ".",
      "L"
    ],
    [
      ".",
      "L"
    ],
    [
      ".",
      "L"
    ],
    [
      ".",
      "L"
    ],
    [
      ".",
      "L"
    ],
    [
      ".",
      "L"
    ],
    [
      ".",
      "L"
    ],
    [
      ".",
      "L"
    ],
    [
      ".",
      "L"
    ],
    [
      ".",
      "L"
    ],
    [
      ".",
      "L"
    ],
    [
      ".",
      "L"
    ],
    [
      ".",
      "L"
    ],
    [
      ".",
      "L"
    ],
    [
      ".",
      "L"
    ],
    [
      ".",
      "L"
    ],
    [
      ".",
      "L"
    ],
    [
      ".",
      "L"
    ],
    [
      ".",
      "L"
    ],
    [
      ".",
      "L"
    ],
    [
      ".",
      "L"
    ],
    [
      ".",
      "L"
    ],
    [
      ".",
      "L"
    ],
    [
      ".",
      "L"
    ],
    [
      ".",
      "L"
    ],
    [
      ".",
      "L"
    ],
    [
      ".",
      "L"
    ],
    [
      ".",
      "L"
    ],
    [
      ".",
      "L"
    ],
    [
      ".",
      "L"
    ],
    [
      ".",
      "L"
    ],
    [
      ".",
      "L"
    ],
    [
      ".",
      "L"
    ],
    [
      ".",
      "L"
    ],
    [
      ".",
      "L"
    ],
    [
      ".",
      "L"
    ],
    [
      ".",
      "L"
    ],
    [
      ".",
      "L"
    ],
    [
      ".",
      "L"
    ],
    [
      ".",
      "L"
    ],
    [
      ".",
      "L"
    ],
    [
      ".",
      "L"
    ],
    [
      ".",
      "L"
    ],
    [
      ".",
      "L"
    ],
    [
      ".",
      "L"
    ],
    [
      ".",
      "L"
    ],
    [
      ".",
      "L"
    ],
    [
      ".",
      "L"
    ],
    [
      ".",
      "L"
    ],
    [
      ".",
      "L"
    ],
    [
      ".",
      "L"
    ],
    [
      ".",
      "L"
    ],
    [
      ".",
      "L"
    ],
    [
      ".",
      "L"
    ],
    [
      ".",
      "L"
    ],
    [
      ".",
      "L"
    ],
    [
      ".",
      "L"
    ],
    [
      ".",
      "L"
    ],
    [
      ".",
      "L"
    ],
    [
      ".",
      "L"
    ],
    [
      ".",
      "L"
    ],
    [
      ".",
      "L"
    ],
    [
      ".",
      "L"
    ],
    [
      ".",
      "L"
    ],
    [
      ".",
      "L"
    ],
    [
      ".",
      "L"
    ],
    [
      ".",
      "L"
    ],
    [
      ".",
      "L"
    ],
    [
      ".",
      "L"
    ],
    [
      ".",
      "L"
    ],
    [
      ".",
      "L"
    ],
    [
      ".",
      "L"
    ],
    [
      ".",
      "L"
    ],
    [
      ".",
      "L"
    ],
    [
      ".",
      "L"
    ],
    [
      ".",
      "L"
    ],
    [
      ".",
      "L"
    ],
    [
      ".",
      "L"
    ],
    [
      ".",
      "L"
    ],
    [
      ".",
      "L"
    ],
    [
      ".",
      "L"
    ],
    [
      ".",
      "L"
    ],
    [
      ".",
      "L"
    ],
    [
      ".",
      "L"
    ],
    [
      ".",
      "L"
    ],
    [
      ".",
      "L"
    ],
    [
      ".",
      "L"
    ],
    [
      ".",
      "L"
    ],
    [
      ".",
      "L"
    ],
    [
      ".",
      "L"
    ],
    [
      ".",
      "L"
    ],
    [
      ".",
      "L"
    ],
    [
      ".",
      "L"
    ],
    [
      ".",
      "L"
    ],
    [
      ".",
      "L"
    ],
    [
      ".",
      "L"
    ],
    [
      ".",
      "L"
    ],
    [
      ".",
      "L"
    ],
    [
      ".",
      "L"
    ],
    [
      ".",
      "L"
    ],
    [
      ".",
      "L"
    ],
    [
      ".",
      "L"
    ],
    [
      ".",
      "L"
    ],
    [
      ".",
      "L"
    ],
    [
      ".",
      "L"
    ],
    [
      ".",
      "L"
    ],
    [
      ".",
      "L"
    ],
    [
      ".",
      "L"
    ],
    [
      ".",
      "L"
    ],
    [
      ".",
      "L"
    ],
    [
      ".",
      "L"
    ],
    [
      ".",
      "L"
    ],
    [
      ".",
      "L"
    ],
    [
      ".",
      "L"
    ],
    [
      ".",
      "L"
    ],
    [
      ".",
      "L"
    ],
    [
      ".",
      "L"
    ],
    [
      ".",
      "L"
    ],
    [
      ".",
      "L"
    ],
    [
      ".",
      "L"
    ],
    [
      ".",
      "L"
    ],
    [
      ".",
      "L"
    ],
    [
      ".",
      "L"
    ],
    [
      ".",
      "L"
    ],
    [
      ".",
      "L"
    ],
    [
      ".",
      "L"
    ],
    [
      ".",
      "L"
    ],
    [
      ".",
      "L"
    ],
    [
      ".",
      "L"
    ],
    [
      ".",
      "L"
    ],
    [
      ".",
      "L"
    ],
    [
      ".",
      "L"
    ],
    [
      ".",
      "L"
    ],
    [
      ".",
      "L"
    ],
    [
      ".",
      "L"
    ],
    [
      ".",
      "L"
    ],
    [
      ".",
      "L"
    ],
    [
      ".",
      "L"
    ],
    [
      ".",
      "L"
    ],
    [
      ".",
      "L"
    ],
    [
      ".",
      "L"
    ],
    [
      ".",
      "L"
    ],
    [
      ".",
      "L"
    ],
    [
      ".",
      "L"
    ],
    [
      ".",
      "L"
    ],
    [
      ".",
      "L"
    ],
    [
      ".",
      "L"
    ],
    [
      ".",
      "L"
    ],
    [
      ".",
      "L"
    ],
    [
      ".",
      "L"
    ],
    [
      ".",
      "L"
    ],
    [
      ".",
      "L"
    ],
    [
      ".",
      "L"
    ],
    [
      ".",
      "L"
    ],
    [
      ".",
      "L"
    ],
    [
      ".",
      "L"
    ],
    [
      ".",
      "L"
    ],
    [
      ".",
      "L"
    ],
    [
      ".",
      "L"
    ],
    [
      ".",
      "L"
    ],
    [
      ".",
      "L"
    ],
    [
      ".",
      "L"
    ],
    [
      ".",
      "L"
    ],
    [
      ".",
      "L"
    ],
    [
      ".",
      "L"
    ],
    [
      ".",
      "L"
    ],
    [
      ".",
      "L"
    ],
    [
      ".",
      "L"
    ],
    [
      ".",
      "L"
    ],
    [
      ".",
      "L"
    ],
    [
      ".",
      "L"
    ],
    [
      ".",
      "L"
    ],
    [
      ".",
      "L"
    ],
    [
      ".",
      "L"
    ],
    [
      ".",
      "L"
    ],
    [
      ".",
      "L"
    ],
    [
      ".",
      "L"
    ],
    [
      ".",
      "L"
    ],
    [
      ".",
      "L"
    ],
    [
      ".",
      "L"
    ],
    [
      ".",
      "L"
    ],
    [
      ".",
      "L"
    ],
    [
      ".",
      "L"
    ],
    [
      ".",
      "L"
    ],
    [
      ".",
      "L"
    ],
    [
      ".",
      "L"
    ],
    [
      ".",
      "L"
    ],
    [
      ".",
      "L"
    ],
    [
      ".",
      "L"
    ],
    [
      ".",
      "L"
    ],
    [
      ".",
      "L"
    ],
    [
      ".",
      "L"
    ],
    [
      ".",
      "L"
    ],
    [
      ".",
      "L"
    ],
    [
      ".",
      "L"
    ],
    [
      ".",
      "L"
    ],
    [
      ".",
      "L"
    ],
    [
      ".",
      "L"
    ],
    [
      ".",
      "L"
    ],
    [
      ".",
      "L"
    ],
    [
      ".",
      "L"
    ],
    [
      ".",
      "L"
    ],
    [
      ".",
      "L"
    ],
    [
      ".",
      "L"
    ],
    [
      ".",
      "L"
    ],
    [
      ".",
      "L"
    ],
    [
      ".",
      "L"
    ],
    [
      ".",
      "L"
    ],
    [
      ".",
      "L"
    ],
    [
      ".",
      "L"
    ],
    [
      ".",
      "L"
    ],
    [
      ".",
      "L"
    ],
    [
      ".",
      "L"
    ],
    [
      ".",
      "L"
    ],
    [
      ".",
      "L"
    ],
    [
      ".",
      "L"
    ],
    [
      ".",
      "L"
    ],
    [
      ".",
      "L"
    ],
    [
      ".",
      "L"
    ],
    [
      ".",
      "L"
    ],
    [
      ".",
      "L"
    ],
    [
      ".",
      "L"
    ],
    [
      ".",
      "L"
    ],
    [
      ".",
      "L"
    ],
    [
      ".",
      "L"
    ],
    [
      ".",
      "L"
    ],
    [
      ".",
      "L"
    ],
    [
      ".",
      "L"
    ],
    [
      ".",
      "L"
    ],
    [
      ".",
      "L"
    ],
    [
      ".",
      "L"
    ],
    [
      ".",
      "L"
    ],
    [
      ".",
      "L"
    ],
    [
      ".",
      "L"
    ],
    [
      ".",
      "L"
    ],
    [
      ".",
      "L"
    ],
    [
      ".",
      "L"
    ],
    [
      ".",
      "L"
    ],
    [
      ".",
      "L"
    ],
    [
      ".",
      "L"
    ],
    [
      ".",
      "L"
    ],
    [
      ".",
      "L"
    ],
    [
      ".",
      "L"
    ],
    [
      ".",
      "L"
    ],
    [
      ".",
      "L"
    ],
    [
      ".",
      "L"
    ],
    [
      ".",
      "L"
    ],
    [
      ".",
      "L"
    ],
    [
      ".",
      "L"
    ],
    [
      ".",
      "L"
    ],
    [
      ".",
      "L"
    ],
    [
      ".",
      "L"
    ],
    [
      ".",
      "L"
    ],
    [
      ".",
      "L"
    ],
    [
      ".",
      "L"
    ],
    [
      ".",
      "L"
    ],
    [
      ".",
      "L"
    ],
    [
      ".",
      "L"
    ],
    [
      ".",
      "L"
    ],
    [
      ".",
      "L"
    ],
    [
      ".",
      "L"
    ],
    [
      ".",
      "L"
    ],
    [
      ".",
      "L"
    ],
    [
      ".",
      "L"
    ],
    [
      ".",
      "L"
    ],
    [
      ".",
      "L"
    ],
    [
      ".",
      "L"
    ],
    [
      ".",
      "L"
    ],
    [
      ".",
      "L"
    ],
    [
      ".",
      "L"
    ],
    [
      ".",
      "L"
    ],
    [
      ".",
      "L"
    ],
    [
      ".",
      "L"
    ],
    [
      ".",
      "L"
    ],
    [
      ".",
      "L"
    ],
    [
      ".",
      "L"
    ],
    [
      ".",
      "L"
    ],
    [
      ".",
      "L"
    ],
    [
      ".",
      "L"
    ],
    [
      ".",
      "L"
    ],
    [
      ".",
      "L"
    ],
    [
      ".",
      "L"
    ],
    [
      ".",
      "L"
    ],
    [
      ".",
      "L"
    ],
    [
      ".",
      "L"
    ],
    [
      ".",
      "L"
    ],
    [
      ".",
      "L"
    ],
    [
      ".",
      "L"
    ],
    [
      ".",
      "L"
    ],
    [
      ".",
      "L"
    ],
    [
      ".",
      "L"
    ],
    [
      ".",
      "L"
    ],
    [
      ".",
      "L"
    ],
    [
      ".",
      "L"
    ],
    [
      ".",
      "L"
    ],
    [
      ".",
      "L"
    ],
    [
      ".",
      "L"
    ],
    [
      ".",
      "L"
    ],
    [
      ".",
      "L"
    ],
    [
      ".",
      "L"
    ],
    [
      ".",
      "L"
    ],
    [
      ".",
      "L"
    ],
    [
      ".",
      "L"
    ],
    [
      ".",
      "L"
    ],
    [
      ".",
      "L"
    ],
    [
      ".",
      "L"
    ],
    [
      ".",
      "L"
    ],
    [
      ".",
      "L"
    ],
    [
      ".",
      "L"
    ],
    [
      ".",
      "L"
    ],
    [
      ".",
      "L"
    ],
    [
      ".",
      "L"
    ],
    [
      ".",
      "L"
    ],
    [
      ".",
      "L"
    ],
    [
      ".",
      "L"
    ],
    [
      ".",
      "L"
    ],
    [
      ".",
      "L"
    ],
    [
      ".",
      "L"
    ],
    [
      ".",
      "L"
    ],
    [
      ".",
      "L"
    ],
    [
      ".",
      "L"
    ],
    [
      ".",
      "L"
    ],
    [
      ".",
      "L"
    ],
    [
      ".",
      "L"
    ],
    [
      ".",
      "L"
    ],
    [
      ".",
      "L"
    ],
    [
      ".",
      "L"
    ],
    [
      ".",
      "L"
    ],
    [
      ".",
      "L"
    ],
    [
      ".",
      "L"
    ],
    [
      ".",
      "L"
    ],
    [
      ".",
      "L"
    ],
    [
      ".",
      "L"
    ],
    [
      ".",
      "L"
    ],
    [
      ".",
      "L"
    ],
    [
      ".",
      "L"
    ],
    [
      ".",
      "L"
    ],
    [
      ".",
      "L"
    ],
    [
      ".",
      "L"
    ],
    [
      ".",
      "L"
    ],
    [
      ".",
      "L"
    ],
    [
      ".",
      "L"
    ],
    [
      ".",
      "L"
    ],
    [
      ".",
      "L"
    ],
    [
      ".",
      "L"
    ],
    [
      ".",
      "L"
    ],
    [
      ".",
      "L"
    ],
    [
      ".",
      "L"
    ],
    [
      ".",
      "L"
    ],
    [
      ".",
      "L"
    ],
    [
      ".",
      "L"
    ],
    [
      ".",
      "L"
    ],
    [
      ".",
      "L"
    ],
    [
      ".",
      "L"
    ],
    [
      ".",
      "L"
    ],
    [
      ".",
      "L"
    ],
    [
      ".",
      "L"
    ],
    [
      ".",
      "L"
    ],
    [
      ".",
      "L"
    ],
    [
      ".",
      "L"
    ],
    [
      ".",
      "L"
    ],
    [
      ".",
      "L"
    ],
    [
      ".",
      "L"
    ],
    [
      ".",
      "L"
    ],
    [
      ".",
      "L"
    ],
    [
      ".",
      "L"
    ],
    [
      ".",
      "L"
    ],
    [
      ".",
      "L"
    ],
    [
      ".",
      "L"
    ],
    [
      ".",
      "L"
    ],
    [
      ".",
      "L"
    ],
    [
      ".",
      "L"
    ],
    [
      ".",
      "L"
    ],
    [
      ".",
      "L"
    ],
    [
      ".",
      "L"
    ],
    [
      ".",
      "L"
    ],
    [
      ".",
      "L"
    ],
    [
      ".",
      "L"
    ],
    [
      ".",
      "L"
    ],
    [
      ".",
      "L"
    ],
    [
      ".",
      "L"
    ],
    [
      ".",
      "L"
    ],
    [
      ".",
      "L"
    ],
    [
      ".",
      "L"
    ],
    [
      ".",
      "L"
    ],
    [
      ".",
      "L"
    ],
    [
      ".",
      "L"
    ],
    [
      ".",
      "L"
    ],
    [
      ".",
      "L"
    ],
    [
      ".",
      "L"
    ],
    [
      ".",
      "L"
    ],
    [
      ".",
      "L"
    ],
    [
      ".",
      "L"
    ],
    [
      ".",
      "L"
    ],
    [
      ".",
      "L"
    ],
    [
      ".",
      "L"
    ],
    [
      ".",
      "L"
    ],
    [
      ".",
      "L"
    ],
    [
      ".",
      "L"
    ],
    [
      ".",
      "L"
    ],
    [
      ".",
      "L"
    ],
    [
      ".",
      "L"
    ],
    [
      ".",
      "L"
    ],
    [
      ".",
      "L"
    ],
    [
      ".",
      "L"
    ],
    [
      ".",
      "L"
    ],
    [
      ".",
      "L"
    ],
    [
      ".",
      "L"
    ],
    [
      ".",
      "L"
    ],
    [
      ".",
      "L"
    ],
    [
      ".",
      "L"
    ],
    [
      ".",
      "L"
    ],
    [
      ".",
      "L"
    ],
    [
      ".",
      "L"
    ],
    [
      ".",
      "L"
    ],
    [
      ".",
      "L"
    ],
    [
      ".",
      "L"
    ],
    [
      ".",
      "L"
    ],
    [
      ".",
      "L"
    ],
    [
      ".",
      "L"
    ],
    [
      ".",
      "L"
    ],
    [
      ".",
      "L"
    ],
    [
      ".",
      "L"
    ],
    [
      ".",
      "L"
    ],
    [
      ".",
      "L"
    ],
    [
      ".",
      "L"
    ],
    [
      ".",
      "L"
    ],
    [
      ".",
      "L"
    ],
    [
      ".",
      "L"
    ],
    [
      ".",
      "L"
    ],
    [
      ".",
      "L"
    ],
    [
      ".",
      "L"
    ],
    [
      ".",
      "L"
    ],
    [
      ".",
      "L"
    ],
    [
      ".",
      "L"
    ],
    [
      ".",
      "L"
    ],
    [
      ".",
      "L"
    ],
    [
      ".",
      "L"
    ],
    [
      ".",
      "L"
    ],
    [
      ".",
      "L"
    ],
    [
      ".",
      "L"
    ],
    [
      ".",
      "L"
    ],
    [
      ".",
      "L"
    ],
    [
      ".",
      "L"
    ],
    [
      ".",
      "L"
    ],
    [
      ".",
      "L"
    ],
    [
      ".",
      "L"
    ],
    [
      ".",
      "L"
    ],
    [
      ".",
      "L"
    ],
    [
      ".",
      "L"
    ],
    [
      ".",
      "L"
    ],
    [
      ".",
      "L"
    ],
    [
      ".",
      "L"
    ],
    [
      ".",
      "L"
    ],
    [
      ".",
      "L"
    ],
    [
      ".",
      "L"
    ],
    [
      ".",
      "L"
    ],
    [
      ".",
      "L"
    ],
    [
      ".",
      "L"
    ],
    [
      ".",
      "L"
    ],
    [
      ".",
      "L"
    ],
    [
      ".",
      "L"
    ],
    [
      ".",
      "L"
    ],
    [
      ".",
      "L"
    ],
    [
      ".",
      "L"
    ],
    [
      ".",
      "L"
    ],
    [
      ".",
      "L"
    ],
    [
      ".",
      "L"
    ],
    [
      ".",
      "L"
    ],
    [
      ".",
      "L"
    ],
    [
      ".",
      "L"
    ],
    [
      ".",
      "L"
    ],
    [
      ".",
      "L"
    ],
    [
      ".",
      "L"
    ],
    [
      ".",
      "L"
    ],
    [
      ".",
      "L"
    ],
    [
      ".",
      "L"
    ],
    [
      ".",
      "L"
    ],
    [
      ".",
      "L"
    ],
    [
      ".",
      "L"
    ],
    [
      ".",
      "L"
    ],
    [
      ".",
      "L"
    ],
    [
      ".",
      "L"
    ],
    [
      ".",
      "L"
    ],
    [
      ".",
      "L"
    ],
    [
      ".",
      "L"
    ],
    [
      ".",
      "L"
    ],
    [
      ".",
      "L"
    ],
    [
      ".",
      "L"
    ],
    [
      ".",
      "L"
    ],
    [
      ".",
      "L"
    ],
    [
      ".",
      "L"
    ],
    [
      ".",
      "L"
    ],
    [
      ".",
      "L"
    ],
    [
      ".",
      "L"
    ],
    [
      ".",
      "L"
    ],
    [
      ".",
      "L"
    ],
    [
      ".",
      "L"
    ],
    [
      ".",
      "L"
    ],
    [
      ".",
      "L"
    ],
    [
      ".",
      "L"
    ],
    [
      ".",
      "L"
    ],
    [
      ".",
      "L"
    ],
    [
      ".",
      "L"
    ],
    [
      ".",
      "L"
    ],
    [
      ".",
      "L"
    ],
    [
      ".",
      "L"
    ],
    [
      ".",
      "L"
    ],
    [
      ".",
      "L"
    ],
    [
      ".",
      "L"
    ],
    [
      ".",
      "L"
    ],
    [
      ".",
      "L"
    ],
    [
      ".",
      "L"
    ],
    [
      ".",
      "L"
    ],
    [
      ".",
      "L"
    ],
    [
      ".",
      "L"
    ],
    [
      ".",
      "L"
    ],
    [
      ".",
      "L"
    ],
    [
      ".",
      "L"
    ],
    [
      ".",
      "L"
    ],
    [
      ".",
      "L"
    ],
    [
      ".",
      "L"
    ],
    [
      ".",
      "L"
    ],
    [
      ".",
      "L"
    ],
    [
      ".",
      "L"
    ],
    [
      ".",
      "L"
    ],
    [
      ".",
      "L"
    ],
    [
      ".",
      "L"
    ],
    [
      ".",
      "L"
    ],
    [
      ".",
      "L"
    ],
    [
      ".",
      "L"
    ],
    [
      ".",
      "L"
    ],
    [
      ".",
      "L"
    ],
    [
      ".",
      "L"
    ],
    [
      ".",
      "L"
    ],
    [
      ".",
      "L"
    ],
    [
      ".",
      "L"
    ],
    [
      ".",
      "L"
    ],
    [
      ".",
      "L"
    ],
    [
      ".",
      "L"
    ],
    [
      ".",
      "L"
    ],
    [
      ".",
      "L"
    ],
    [
      ".",
      "L"
    ],
    [
      ".",
      "L"
    ],
    [
      ".",
      "L"
    ],
    [
      ".",
      "L"
    ],
    [
      ".",
      "L"
    ],
    [
      ".",
      "L"
    ],
    [
      ".",
      "L"
    ],
    [
      ".",
      "L"
    ],
    [
      ".",
      "L"
    ],
    [
      ".",
      "L"
    ],
    [
      ".",
      "L"
    ],
    [
      ".",
      "L"
    ],
    [
      ".",
      "L"
    ],
    [
      ".",
      "L"
    ],
    [
      ".",
      "L"
    ],
    [
      ".",
      "L"
    ],
    [
      ".",
      "L"
    ],
    [
      ".",
      "L"
    ],
    [
      ".",
      "L"
    ],
    [
      ".",
      "L"
    ],
    [
      ".",
      "L"
    ],
    [
      ".",
      "L"
    ],
    [
      ".",
      "L"
    ],
    [
      ".",
      "L"
    ],
    [
      ".",
      "L"
    ],
    [
      ".",
      "L"
    ],
    [
      ".",
      "L"
    ],
    [
      ".",
      "L"
    ],
    [
      ".",
      "L"
    ],
    [
      ".",
      "L"
    ],
    [
      ".",
      "L"
    ],
    [
      ".",
      "L"
    ],
    [
      ".",
      "L"
    ],
    [
      ".",
      "L"
    ],
    [
      ".",
      "L"
    ],
    [
      ".",
      "L"
    ],
    [
      ".",
      "L"
    ],
    [
      ".",
      "L"
    ],
    [
      ".",
      "L"
    ],
    [
      ".",
      "L"
    ],
    [
      ".",
      "L"
    ],
    [
      ".",
      "L"
    ],
    [
      ".",
      "L"
    ],
    [
      ".",
      "L"
    ],
    [
      ".",
      "L"
    ],
    [
      ".",
      "L"
    ],
    [
      ".",
      "L"
    ],
    [
      ".",
      "L"
    ],
    [
      ".",
      "L"
    ],
    [
      ".",
      "L"
    ],
    [
      ".",
      "L"
    ],
    [
      ".",
      "L"
    ],
    [
      ".",
      "L"
    ],
    [
      ".",
      "L"
    ],
    [
      ".",
      "L"
    ],
    [
      ".",
      "L"
    ],
    [
      ".",
      "L"
    ],
    [
      ".",
      "L"
    ],
    [
      ".",
      "L"
    ],
    [
      ".",
      "L"
    ],
    [
      ".",
      "L"
    ],
    [
      ".",
      "L"
    ],
    [
      ".",
      "L"
    ],
    [
      ".",
      "L"
    ],
    [
      ".",
      "L"
    ],
    [
      ".",
      "L"
    ],
    [
      ".",
      "L"
    ],
    [
      ".",
      "L"
    ],
    [
      ".",
      "L"
    ],
    [
      ".",
      "L"
    ],
    [
      ".",
      "L"
    ],
    [
      ".",
      "L"
    ],
    [
      ".",
      "L"
    ],
    [
      ".",
      "L"
    ],
    [
      ".",
      "L"
    ],
    [
      ".",
      "L"
    ],
    [
      ".",
      "L"
    ],
    [
      ".",
      "L"
    ],
    [
      ".",
      "L"
    ],
    [
      ".",
      "L"
    ],
    [
      ".",
      "L"
    ],
    [
      ".",
      "L"
    ],
    [
      ".",
      "L"
    ],
    [
      ".",
      "L"
    ],
    [
      ".",
      "L"
    ],
    [
      ".",
      "L"
    ],
    [
      ".",
      "L"
    ],
    [
      ".",
      "L"
    ],
    [
      ".",
      "L"
    ],
    [
      ".",
      "L"
    ],
    [
      ".",
      "L"
    ],
    [
      ".",
      "L"
    ],
    [
      ".",
      "L"
    ],
    [
      ".",
      "L"
    ],
    [
      ".",
      "L"
    ],
    [
      ".",
      "L"
    ],
    [
      ".",
      "L"
    ],
    [
      ".",
      "L"
    ],
    [
      ".",
      "L"
    ],
    [
      ".",
      "L"
    ],
    [
      ".",
      "L"
    ],
    [
      ".",
      "L"
    ],
    [
      ".",
      "L"
    ],
    [
      ".",
      "L"
    ],
    [
      ".",
      "L"
    ],
    [
      ".",
      "L"
    ],
    [
      ".",
      "L"
    ],
    [
      ".",
      "L"
    ],
    [
      ".",
      "L"
    ],
    [
      ".",
      "L"
    ],
    [
      ".",
      "L"
    ],
    [
      ".",
      "L"
    ],
    [
      ".",
      "L"
    ],
    [
      ".",
      "L"
    ],
    [
      ".",
      "L"
    ],
    [
      ".",
      "L"
    ],
    [
      ".",
      "L"
    ],
    [
      ".",
      "L"
    ],
    [
      ".",
      "L"
    ],
    [
      ".",
      "L"
    ],
    [
      ".",
      "L"
    ],
    [
      ".",
      "L"
    ],
    [
      ".",
      "L"
    ],
    [
      ".",
      "L"
    ],
    [
      ".",
      "L"
    ],
    [
      ".",
      "L"
    ],
    [
      ".",
      "L"
    ],
    [
      ".",
      "L"
    ],
    [
      ".",
      "L"
    ],
    [
      ".",
      "L"
    ],
    [
      ".",
      "L"
    ],
    [
      ".",
      "L"
    ],
    [
      ".",
      "L"
    ],
    [
      ".",
      "L"
    ],
    [
      ".",
      "L"
    ],
    [
      ".",
      "L"
    ],
    [
      ".",
      "L"
    ],
    [
      ".",
      "L"
    ],
    [
      ".",
      "L"
    ],
    [
      ".",
      "L"
    ],
    [
      ".",
      "L"
    ],
    [
      ".",
      "L"
    ],
    [
      ".",
      "L"
    ],
    [
      ".",
      "L"
    ],
    [
      ".",
      "L"
    ],
    [
      ".",
      "L"
    ],
    [
      ".",
      "L"
    ],
    [
      ".",
      "L"
    ],
    [
      ".",
      "L"
    ],
    [
      ".",
      "L"
    ],
    [
      ".",
      "L"
    ],
    [
      ".",
      "L"
    ],
    [
      ".",
      "L"
    ],
    [
      ".",
      "L"
    ],
    [
      ".",
      "L"
    ],
    [
      ".",
      "L"
    ],
    [
      ".",
      "L"
    ],
    [
      ".",
      "L"
    ],
    [
      ".",
      "L"
    ],
    [
      ".",
      "L"
    ],
    [
      ".",
      "L"
    ],
    [
      ".",
      "L"
    ],
    [
      ".",
      "L"
    ],
    [
      ".",
      "L"
    ],
    [
      ".",
      "L"
    ],
    [
      ".",
      "L"
    ],
    [
      ".",
      "L"
    ],
    [
      ".",
      "L"
    ],
    [
      ".",
      "L"
    ],
    [
      ".",
      "L"
    ],
    [
      ".",
      "L"
    ],
    [
      ".",
      "L"
    ],
    [
      ".",
      "L"
    ],
    [
      ".",
      "L"
    ],
    [
      ".",
      "L"
    ],
    [
      ".",
      "L"
    ],
    [
      ".",
      "L"
    ],
    [
      ".",
      "L"
    ],
    [
      ".",
      "L"
    ],
    [
      ".",
      "L"
    ],
    [
      ".",
      "L"
    ],
    [
      ".",
      "L"
    ],
    [
      ".",
      "L"
    ],
    [
      ".",
      "L"
    ],
    [
      ".",
      "L"
    ],
    [
      ".",
      "L"
    ],
    [
      ".",
      "L"
    ],
    [
      ".",
      "L"
    ],
    [
      ".",
      "L"
    ],
    [
      ".",
      "L"
    ],
    [
      ".",
      "L"
    ],
    [
      ".",
      "L"
    ],
    [
      ".",
      "L"
    ],
    [
      ".",
      "L"
    ],
    [
      ".",
      "L"
    ],
    [
      ".",
      "L"
    ],
    [
      ".",
      "L"
    ],
    [
      ".",
      "L"
    ],
    [
      ".",
      "L"
    ],
    [
      ".",
      "L"
    ],
    [
      ".",
      "L"
    ],
    [
      ".",
      "L"
    ],
    [
      ".",
      "L"
    ],
    [
      ".",
      "L"
    ],
    [
      ".",
      "L"
    ],
    [
      ".",
      "L"
    ],
    [
      ".",
      "L"
    ],
    [
      ".",
      "L"
    ],
    [
      ".",
      "L"
    ],
    [
      ".",
      "L"
    ],
    [
      ".",
      "L"
    ],
    [
      ".",
      "L"
    ],
    [
      ".",
      "L"
    ],
    [
      ".",
      "L"
    ],
    [
      ".",
      "L"
    ],
    [
      ".",
      "L"
    ],
    [
      ".",
      "L"
    ],
    [
      ".",
      "L"
    ],
    [
      ".",
      "L"
    ],
    [
      ".",
      "L"
    ],
    [
      ".",
      "L"
    ],
    [
      ".",
      "L"
    ],
    [
      ".",
      "L"
    ],
    [
      ".",
      "L"
    ],
    [
      ".",
      "L"
    ],
    [
      ".",
      "L"
    ],
    [
      ".",
      "L"
    ],
    [
      ".",
      "L"
    ],
    [
      ".",
      "L"
    ],
    [
      ".",
      "L"
    ],
    [
      ".",
      "L"
    ],
    [
      ".",
      "L"
    ],
    [
      ".",
      "L"
    ],
    [
      ".",
      "L"
    ],
    [
      ".",
      "L"
    ],
    [
      ".",
      "L"
    ],
    [
      ".",
      "L"
    ],
    [
      ".",
      "L"
    ],
    [
      ".",
      "L"
    ],
    [
      ".",
      "L"
    ],
    [
      ".",
      "L"
    ],
    [
      ".",
      "L"
    ],
    [
      ".",
      "L"
    ],
    [
      ".",
      "L"
    ],
    [
      ".",
      "L"
    ],
    [
      ".",
      "L"
    ],
    [
      ".",
      "L"
    ],
    [
      ".",
      "L"
    ],
    [
      ".",
      "L"
    ],
    [
      ".",
      "L"
    ],
    [
      ".",
      "L"
    ],
    [
      ".",
      "L"
    ],
    [
      ".",
      "L"
    ],
    [
      ".",
      "L"
    ],
    [
      ".",
      "L"
    ],
    [
      ".",
      "L"
    ],
    [
      ".",
      "L"
    ],
    [
      ".",
      "L"
    ],
    [
      ".",
      "L"
    ],
    [
      ".",
      "L"
    ],
    [
      ".",
      "L"
    ],
    [
      ".",
      "L"
    ],
    [
      ".",
      "L"
    ],
    [
      ".",
      "L"
    ],
    [
      ".",
      "L"
    ],
    [
      ".",
      "L"
    ],
    [
      ".",
      "L"
    ],
    [
      ".",
      "L"
    ],
    [
      ".",
      "L"
    ],
    [
      ".",
      "L"
    ],
    [
      ".",
      "L"
    ],
    [
      ".",
      "L"
    ],
    [
      ".",
      "L"
    ],
    [
      ".",
      "L"
    ],
    [
      ".",
      "L"
    ],
    [
      ".",
      "L"
    ],
    [
      ".",
      "L"
    ],
    [
      ".",
      "L"
    ],
    [
      ".",
      "L"
    ],
    [
      ".",
      "L"
    ],
    [
      ".",
      "L"
    ],
    [
      ".",
      "L"
    ],
    [
      ".",
      "L"
    ],
    [
      ".",
      "L"
    ],
    [
      ".",
      "L"
    ],
    [
      ".",
      "L"
    ],
    [
      ".",
      "L"
    ],
    [
      ".",
      "L"
    ],
    [
      ".",
      "L"
    ],
    [
      ".",
      "L"
    ],
    [
      ".",
      "L"
    ],
    [
      ".",
      "L"
    ],
    [
      ".",
      "L"
    ],
    [
      ".",
      "L"
    ],
    [
      ".",
      "L"
    ],
    [
      ".",
      "L"
    ],
    [
      ".",
      "L"
    ],
    [
      ".",
      "L"
    ],
    [
      ".",
      "L"
    ],
    [
      ".",
      "L"
    ],
    [
      ".",
      "L"
    ],
    [
      ".",
      "L"
    ],
    [
      ".",
      "L"
    ],
    [
      ".",
      "L"
    ],
    [
      ".",
      "L"
    ],
    [
      ".",
      "L"
    ],
    [
      ".",
      "L"
    ],
    [
      ".",
      "L"
    ],
    [
      ".",
      "L"
    ],
    [
      ".",
      "L"
    ],
    [
      ".",
      "L"
    ],
    [
      ".",
      "L"
    ],
    [
      ".",
      "L"
    ],
    [
      ".",
      "L"
    ],
    [
      ".",
      "L"
    ],
    [
      ".",
      "L"
    ],
    [
      ".",
      "L"
    ],
    [
      ".",
      "L"
    ],
    [
      ".",
      "L"
    ],
    [
      ".",
      "L"
    ],
    [
      ".",
      "L"
    ],
    [
      ".",
      "L"
    ],
    [
      ".",
      "L"
    ],
    [
      ".",
      "L"
    ],
    [
      ".",
      "L"
    ],
    [
      ".",
      "L"
    ],
    [
      ".",
      "L"
    ],
    [
      ".",
      "L"
    ],
    [
      ".",
      "L"
    ],
    [
      ".",
      "L"
    ],
    [
      ".",
      "L"
    ],
    [
      ".",
      "L"
    ],
    [
      ".",
      "L"
    ],
    [
      ".",
      "L"
    ],
    [
      ".",
      "L"
    ],
    [
      ".",
      "L"
    ],
    [
      ".",
      "L"
    ],
    [
      ".",
      "L"
    ],
    [
      ".",
      "L"
    ],
    [
      ".",
      "L"
    ],
    [
      ".",
      "L"
    ],
    [
      ".",
      "L"
    ],
    [
      ".",
      "L"
    ],
    [
      ".",
      "L"
    ],
    [
      ".",
      "L"
    ],
    [
      ".",
      "L"
    ],
    [
      ".",
      "L"
    ],
    [
      ".",
      "L"
    ],
    [
      ".",
      "L"
    ],
    [
      ".",
      "L"
    ],
    [
      ".",
      "L"
    ],
    [
      ".",
      "L"
    ],
    [
      ".",
      "L"
    ],
    [
      ".",
      "L"
    ],
    [
      ".",
      "L"
    ],
    [
      ".",
      "L"
    ],
    [
      ".",
      "L"
    ],
    [
      ".",
      "L"
    ],
    [
      ".",
      "L"
    ],
    [
      ".",
      "L"
    ],
    [
      ".",
      "L"
    ],
    [
      ".",
      "L"
    ],
    [
      ".",
      "L"
    ],
    [
      ".",
      "L"
    ],
    [
      ".",
      "L"
    ],
    [
      ".",
      "L"
    ],
    [
      ".",
      "L"
    ],
    [
      ".",
      "L"
    ],
    [
      ".",
      "L"
    ],
    [
      ".",
      "L"
    ],
    [
      ".",
      "L"
    ],
    [
      ".",
      "L"
    ],
    [
      ".",
      "L"
    ],
    [
      ".",
      "L"
    ],
    [
      ".",
      "L"
    ],
    [
      ".",
      "L"
    ],
    [
      ".",
      "L"
    ],
    [
      ".",
      "L"
    ],
    [
      ".",
      "L"
    ],
    [
      ".",
      "L"
    ],
    [
      ".",
      "L"
    ],
    [
      ".",
      "L"
    ],
    [
      ".",
      "L"
    ],
    [
      ".",
      "L"
    ],
    [
      ".",
      "L"
    ],
    [
      ".",
      "L"
    ],
    [
      ".",
      "L"
    ],
    [
      ".",
      "L"
    ],
    [
      ".",
      "L"
    ],
    [
      ".",
      "L"
    ],
    [
      ".",
      "L"
    ],
    [
      ".",
      "L"
    ],
    [
      ".",
      "L"
    ],
    [
      ".",
      "L"
    ],
    [
      ".",
      "L"
    ],
    [
      ".",
      "L"
    ],
    [
      ".",
      "L"
    ],
    [
      ".",
      "L"
    ],
    [
      ".",
      "L"
    ],
    [
      ".",
      "L"
    ],
    [
      ".",
      "L"
    ],
    [
      ".",
      "L"
    ],
    [
      ".",
      "L"
    ],
    [
      ".",
      "L"
    ],
    [
      ".",
      "L"
    ],
    [
      ".",
      "L"
    ],
    [
      ".",
      "L"
    ],
    [
      ".",
      "L"
    ],
    [
      ".",
      "L"
    ],
    [
      ".",
      "L"
    ],
    [
      ".",
      "L"
    ],
    [
      ".",
      "L"
    ],
    [
      ".",
      "L"
    ],
    [
      ".",
      "L"
    ],
    [
      ".",
      "L"
    ],
    [
      ".",
      "L"
    ],
    [
      ".",
      "L"
    ],
    [
      ".",
      "L"
    ],
    [
      ".",
      "L"
    ],
    [
      ".",
      "L"
    ],
    [
      ".",
      "L"
    ],
    [
      ".",
      "L"
    ],
    [
      ".",
      "L"
    ],
    [
      ".",
      "L"
    ],
    [
      ".",
      "L"
    ],
    [
      ".",
      "L"
    ],
    [
      ".",
      "L"
    ],
    [
      ".",
      "L"
    ],
    [
      ".",
      "L"
    ],
    [
      ".",
      "L"
    ],
    [
      ".",
      "L"
    ],
    [
      ".",
      "L"
    ],
    [
      ".",
      "L"
    ],
    [
      ".",
      "L"
    ],
    [
      ".",
      "L"
    ],
    [
      ".",
      "L"
    ],
    [
      ".",
      "L"
    ],
    [
      ".",
      "L"
    ],
    [
      ".",
      "L"
    ],
    [
      ".",
      "L"
    ],
    [
      ".",
      "L"
    ],
    [
      ".",
      "L"
    ],
    [
      ".",
      "L"
    ],
    [
      ".",
      "L"
    ],
    [
      ".",
      "L"
    ],
    [
      ".",
      "L"
    ],
    [
      ".",
      "L"
    ],
    [
      ".",
      "L"
    ],
    [
      ".",
      "L"
    ],
    [
      ".",
      "L"
    ],
    [
      ".",
      "L"
    ],
    [
      ".",
      "L"
    ],
    [
      ".",
      "L"
    ],
    [
      ".",
      "L"
    ],
    [
      ".",
      "L"
    ],
    [
      ".",
      "L"
    ],
    [
      ".",
      "L"
    ],
    [
      ".",
      "L"
    ],
    [
      ".",
      "L"
    ],
    [
      ".",
      "L"
    ],
    [
      ".",
      "L"
    ],
    [
      ".",
      "L"
    ],
    [
      ".",
      "L"
    ],
    [
      ".",
      "L"
    ],
    [
      ".",
      "L"
    ],
    [
      ".",
      "L"
    ],
    [
      ".",
      "L"
    ],
    [
      ".",
      "L"
    ],
    [
      ".",
      "L"
    ],
    [
      ".",
      "L"
    ],
    [
      ".",
      "L"
    ],
    [
      ".",
      "L"
    ],
    [
      ".",
      "L"
    ],
    [
      ".",
      "L"
    ],
    [
      ".",
      "L"
    ],
    [
      ".",
      "L"
    ],
    [
      ".",
      "L"
    ],
    [
      ".",
      "L"
    ],
    [
      ".",
      "L"
    ],
    [
      ".",
      "L"
    ],
    [
      ".",
      "L"
    ],
    [
      ".",
      "L"
    ],
    [
      ".",
      "L"
    ],
    [
      ".",
      "L"
    ],
    [
      ".",
      "L"
    ],
    [
      ".",
      "L"
    ],
    [
      ".",
      "L"
    ],
    [
      ".",
      "L"
    ],
    [
      ".",
      "L"
    ],
    [
      ".",
      "L"
    ],
    [
      ".",
      "L"
    ],
    [
      ".",
      "L"
    ],
    [
      ".",
      "L"
    ],
    [
      ".",
      "L"
    ],
    [
      ".",
      "L"
    ],
    [
      ".",
      "L"
    ],
    [
      ".",
      "L"
    ],
    [
      ".",
      "L"
    ],
    [
      ".",
      "L"
    ],
    [
      ".",
      "L"
    ],
    [
      ".",
      "L"
    ],
    [
      ".",
      "L"
    ],
    [
      ".",
      "L"
    ],
    [
      ".",
      "L"
    ],
    [
      ".",
      "L"
    ],
    [
      ".",
      "L"
    ],
    [
      ".",
      "L"
    ],
    [
      ".",
      "L"
    ],
    [
      ".",
      "L"
    ],
    [
      ".",
      "L"
    ],
    [
      ".",
      "L"
    ],
    [
      ".",
      "L"
    ],
    [
      ".",
      "L"
    ],
    [
      ".",
      "L"
    ],
    [
      ".",
      "L"
    ],
    [
      ".",
      "L"
    ],
    [
      ".",
      "L"
    ],
    [
      ".",
      "L"
    ],
    [
      ".",
      "L"
    ],
    [
      ".",
      "L"
    ],
    [
      ".",
      "L"
    ],
    [
      ".",
      "L"
    ],
    [
      ".",
      "L"
    ],
    [
      ".",
      "L"
    ],
    [
      ".",
      "L"
    ],
    [
      ".",
      "L"
    ],
    [
      ".",
      "L"
    ],
    [
      ".",
      "L"
    ],
    [
      ".",
      "L"
    ],
    [
      ".",
      "L"
    ],
    [
      ".",
      "L"
    ],
    [
      ".",
      "L"
    ],
    [
      ".",
      "L"
    ],
    [
      ".",
      "L"
    ],
    [
      ".",
      "L"
    ],
    [
      ".",
      "L"
    ],
    [
      ".",
      "L"
    ],
    [
      ".",
      "L"
    ],
    [
      ".",
      "L"
    ],
    [
      ".",
      "L"
    ],
    [
      ".",
      "L"
    ],
    [
      ".",
      "L"
    ],
    [
      ".",
      "L"
    ],
    [
      ".",
      "L"
    ],
    [
      ".",
      "L"
    ],
    [
      ".",
      "L"
    ],
    [
      ".",
      "L"
    ],
    [
      ".",
      "L"
    ],
    [
      ".",
      "L"
    ],
    [
      ".",
      "L"
    ],
    [
      ".",
      "L"
    ],
    [
      ".",
      "L"
    ],
    [
      ".",
      "L"
    ],
    [
      ".",
      "L"
    ],
    [
      ".",
      "L"
    ],
    [
      ".",
      "L"
    ],
    [
      ".",
      "L"
    ],
    [
      ".",
      "L"
    ],
    [
      ".",
      "L"
    ],
    [
      ".",
      "L"
    ],
    [
      ".",
      "L"
    ],
    [
      ".",
      "L"
    ],
    [
      ".",
      "L"
    ],
    [
      ".",
      "L"
    ],
    [
      ".",
      "L"
    ],
    [
      ".",
      "L"
    ],
    [
      ".",
      "L"
    ],
    [
      ".",
      "L"
    ],
    [
      ".",
      "L"
    ],
    [
      ".",
      "L"
    ],
    [
      ".",
      "L"
    ],
    [
      ".",
      "L"
    ],
    [
      ".",
      "L"
    ],
    [
      ".",
      "L"
    ],
    [
      ".",
      "L"
    ],
    [
      ".",
      "L"
    ],
    [
      ".",
      "L"
    ],
    [
      ".",
      "L"
    ],
    [
      ".",
      "L"
    ],
    [
      ".",
      "L"
    ],
    [
      ".",
      "L"
    ],
    [
      ".",
      "L"
    ],
    [
      ".",
      "L"
    ],
    [
      ".",
      "L"
    ],
    [
      ".",
      "L"
    ],
    [
      ".",
      "L"
    ],
    [
      ".",
      "L"
    ],
    [
      ".",
      "L"
    ],
    [
      ".",
      "L"
    ],
    [
      ".",
      "L"
    ],
    [
      ".",
      "L"
    ],
    [
      ".",
      "L"
    ],
    [
      ".",
      "L"
    ],
    [
      ".",
      "L"
    ],
    [
      ".",
      "L"
    ],
    [
      ".",
      "L"
    ],
    [
      ".",
      "L"
    ],
    [
      ".",
      "L"
    ],
    [
      ".",
      "L"
    ],
    [
      ".",
      "L"
    ],
    [
      ".",
      "L"
    ],
    [
      ".",
      "L"
    ],
    [
      ".",
      "L"
    ],
    [
      ".",
      "L"
    ],
    [
      ".",
      "L"
    ],
    [
      ".",
      "L"
    ],
    [
      ".",
      "L"
    ],
    [
      ".",
      "L"
    ],
    [
      ".",
      "L"
    ],
    [
      ".",
      "L"
    ],
    [
      ".",
      "L"
    ],
    [
      ".",
      "L"
    ],
    [
      ".",
      "L"
    ],
    [
      ".",
      "L"
    ],
    [
      ".",
      "L"
    ],
    [
      ".",
      "L"
    ],
    [
      ".",
      "L"
    ],
    [
      ".",
      "L"
    ],
    [
      ".",
      "L"
    ],
    [
      ".",
      "L"
    ],
    [
      ".",
      "L"
    ],
    [
      ".",
      "L"
    ],
    [
      ".",
      "L"
    ],
    [
      ".",
      "L"
    ],
    [
      ".",
      "L"
    ],
    [
      ".",
      "L"
    ],
    [
      ".",
      "L"
    ],
    [
      ".",
      "L"
    ],
    [
      ".",
      "L"
    ],
    [
      ".",
      "L"
    ],
    [
      ".",
      "L"
    ],
    [
      ".",
      "L"
    ],
    [
      ".",
      "L"
    ],
    [
      ".",
      "L"
    ],
    [
      ".",
      "L"
    ],
    [
      ".",
      "L"
    ],
    [
      ".",
      "L"
    ],
    [
      ".",
      "L"
    ],
    [
      ".",
      "L"
    ],
    [
      ".",
      "L"
    ],
    [
      ".",
      "L"
    ],
    [
      ".",
      "L"
    ],
    [
      ".",
      "L"
    ],
    [
      ".",
      "L"
    ],
    [
      ".",
      "L"
    ],
    [
      ".",
      "L"
    ],
    [
      ".",
      "L"
    ],
    [
      ".",
      "L"
    ],
    [
      ".",
      "L"
    ],
    [
      ".",
      "L"
    ],
    [
      ".",
      "L"
    ],
    [
      ".",
      "L"
    ],
    [
      ".",
      "L"
    ],
    [
      ".",
      "L"
    ],
    [
      ".",
      "L"
    ],
    [
      ".",
      "L"
    ],
    [
      ".",
      "L"
    ],
    [
      ".",
      "L"
    ],
    [
      ".",
      "L"
    ],
    [
      ".",
      "L"
    ],
    [
      ".",
      "L"
    ],
    [
      ".",
      "L"
    ],
    [
      ".",
      "L"
    ],
    [
      ".",
      "L"
    ],
    [
      ".",
      "L"
    ],
    [
      ".",
      "L"
    ],
    [
      ".",
      "L"
    ],
    [
      ".",
      "L"
    ],
    [
      ".",
      "L"
    ],
    [
      ".",
      "L"
    ],
    [
      ".",
      "L"
    ],
    [
      ".",
      "L"
    ],
    [
      ".",
      "L"
    ],
    [
      ".",
      "L"
    ],
    [
      ".",
      "L"
    ],
    [
      ".",
      "L"
    ],
    [
      ".",
      "L"
    ],
    [
      ".",
      "L"
    ],
    [
      ".",
      "L"
    ],
    [
      ".",
      "L"
    ],
    [
      ".",
      "L"
    ],
    [
      ".",
      "L"
    ],
    [
      ".",
      "L"
    ],
    [
      ".",
      "L"
    ],
    [
      ".",
      "L"
    ],
    [
      ".",
      "L"
    ],
    [
      ".",
      "L"
    ],
    [
      ".",
      "L"
    ],
    [
      ".",
      "L"
    ],
    [
      ".",
      "L"
    ],
    [
      ".",
      "L"
    ],
    [
      ".",
      "L"
    ],
    [
      ".",
      "L"
    ],
    [
      ".",
      "L"
    ],
    [
      ".",
      "L"
    ],
    [
      ".",
      "L"
    ],
    [
      ".",
      "L"
    ],
    [
      ".",
      "L"
    ],
    [
      ".",
      "L"
    ],
    [
      ".",
      "L"
    ],
    [
      ".",
      "L"
    ],
    [
      ".",
      "L"
    ],
    [
      ".",
      "L"
    ],
    [
      ".",
      "L"
    ],
    [
      ".",
      "L"
    ],
    [
      ".",
      "L"
    ],
    [
      ".",
      "L"
    ],
    [
      ".",
      "L"
    ],
    [
      ".",
      "L"
    ],
    [
      ".",
      "L"
    ],
    [
      ".",
      "L"
    ],
    [
      ".",
      "L"
    ],
    [
      ".",
      "L"
    ],
    [
      ".",
      "L"
    ],
    [
      ".",
      "L"
    ],
    [
      ".",
      "L"
    ],
    [
      ".",
      "L"
    ],
    [
      ".",
      "L"
    ],
    [
      ".",
      "L"
    ],
    [
      ".",
      "L"
    ],
    [
      ".",
      "L"
    ],
    [
      ".",
      "L"
    ],
    [
      ".",
      "L"
    ],
    [
      ".",
      "L"
    ],
    [
      ".",
      "L"
    ],
    [
      ".",
      "L"
    ],
    [
      ".",
      "L"
    ],
    [
      ".",
      "L"
    ],
    [
      ".",
      "L"
    ],
    [
      ".",
      "L"
    ],
    [
      ".",
      "L"
    ],
    [
      ".",
      "L"
    ],
    [
      ".",
      "L"
    ],
    [
      ".",
      "L"
    ],
    [
      ".",
      "L"
    ],
    [
      ".",
      "L"
    ],
    [
      ".",
      "L"
    ],
    [
      ".",
      "L"
    ],
    [
      ".",
      "L"
    ],
    [
      ".",
      "L"
    ],
    [
      ".",
      "L"
    ],
    [
      ".",
      "L"
    ],
    [
      ".",
      "L"
    ],
    [
      ".",
      "L"
    ],
    [
      ".",
      "L"
    ],
    [
      ".",
      "L"
    ],
    [
      ".",
      "L"
    ],
    [
      ".",
      "L"
    ],
    [
      ".",
      "L"
    ],
    [
      ".",
      "L"
    ],
    [
      ".",
      "L"
    ],
    [
      ".",
      "L"
    ],
    [
      ".",
      "L"
    ],
    [
      ".",
      "L"
    ],
    [
      ".",
      "L"
    ],
    [
      ".",
      "L"
    ],
    [
      ".",
      "L"
    ],
    [
      ".",
      "L"
    ],
    [
      ".",
      "L"
    ],
    [
      ".",
      "L"
    ],
    [
      ".",
      "L"
    ],
    [
      ".",
      "L"
    ],
    [
      ".",
      "L"
    ],
    [
      ".",
      "L"
    ],
    [
      ".",
      "L"
    ],
    [
      ".",
      "L"
    ],
    [
      ".",
      "L"
    ],
    [
      ".",
      "L"
    ],
    [
      ".",
      "L"
    ],
    [
      ".",
      "L"
    ],
    [
      ".",
      "L"
    ],
    [
      ".",
      "L"
    ],
    [
      ".",
      "L"
    ],
    [
      ".",
      "L"
    ],
    [
      ".",
      "L"
    ],
    [
      ".",
      "L"
    ],
    [
      ".",
      "L"
    ],
    [
      ".",
      "L"
    ],
    [
      ".",
      "L"
    ],
    [
      ".",
      "L"
    ],
    [
      ".",
      "L"
    ],
    [
      ".",
      "L"
    ],
    [
      ".",
      "L"
    ],
    [
      ".",
      "L"
    ],
    [
      ".",
      "L"
    ],
    [
      ".",
      "L"
    ],
    [
      ".",
      "L"
    ],
    [
      ".",
      "L"
    ],
    [
      ".",
      "L"
    ],
    [
      ".",
      "L"
    ],
    [
      ".",
      "L"
    ],
    [
      ".",
      "L"
    ],
    [
      ".",
      "L"
    ],
    [
      ".",
      "L"
    ],
    [
      ".",
      "L"
    ],
    [
      ".",
      "L"
    ],
    [
      ".",
      "L"
    ],
    [
      ".",
      "L"
    ],
    [
      ".",
      "L"
    ],
    [
      ".",
      "L"
    ],
    [
      ".",
      "L"
    ],
    [
      ".",
      "L"
    ],
    [
      ".",
      "L"
    ],
    [
      ".",
      "L"
    ],
    [
      ".",
      "L"
    ],
    [
      ".",
      "L"
    ],
    [
      ".",
      "L"
    ],
    [
      ".",
      "L"
    ],
    [
      ".",
      "L"
    ],
    [
      ".",
      "L"
    ],
    [
      ".",
      "L"
    ],
    [
      ".",
      "L"
    ],
    [
      ".",
      "L"
    ],
    [
      ".",
      "L"
    ],
    [
      ".",
      "L"
    ],
    [
      ".",
      "L"
    ],
    [
      ".",
      "L"
    ],
    [
      ".",
      "L"
    ],
    [
      ".",
      "L"
    ],
    [
      ".",
      "L"
    ],
    [
      ".",
      "L"
    ],
    [
      ".",
      "L"
    ],
    [
      ".",
      "L"
    ],
    [
      ".",
      "L"
    ],
    [
      ".",
      "L"
    ],
    [
      ".",
      "L"
    ],
    [
      ".",
      "L"
    ],
    [
      ".",
      "L"
    ],
    [
      ".",
      "L"
    ],
    [
      ".",
      "L"
    ],
    [
      ".",
      "L"
    ],
    [
      ".",
      "L"
    ],
    [
      ".",
      "L"
    ],
    [
      ".",
      "L"
    ],
    [
      ".",
      "L"
    ],
    [
      ".",
      "L"
    ],
    [
      ".",
      "L"
    ],
    [
      ".",
      "L"
    ],
    [
      ".",
      "L"
    ],
    [
      ".",
      "L"
    ],
    [
      ".",
      "L"
    ],
    [
      ".",
      "L"
    ],
    [
      ".",
      "L"
    ],
    [
      ".",
      "L"
    ],
    [
      ".",
      "L"
    ],
    [
      ".",
      "L"
    ],
    [
      ".",
      "L"
    ],
    [
      ".",
      "L"
    ],
    [
      ".",
      "L"
    ],
    [
      ".",
      "L"
    ],
    [
      ".",
      "L"
    ],
    [
      ".",
      "L"
    ],
    [
      ".",
      "L"
    ],
    [
      ".",
      "L"
    ],
    [
      ".",
      "L"
    ],
    [
      ".",
      "L"
    ],
    [
      ".",
      "L"
    ],
    [
      ".",
      "L"
    ],
    [
      ".",
      "L"
    ],
    [
      ".",
      "L"
    ],
    [
      ".",
      "L"
    ],
    [
      ".",
      "L"
    ],
    [
      ".",
      "L"
    ],
    [
      ".",
      "L"
    ],
    [
      ".",
      "L"
    ],
    [
      ".",
      "L"
    ],
    [
      ".",
      "L"
    ],
    [
      ".",
      "L"
    ],
    [
      ".",
      "L"
    ],
    [
      ".",
      "L"
    ],
    [
      ".",
      "L"
    ],
    [
      ".",
      "L"
    ],
    [
      ".",
      "L"
    ],
    [
      ".",
      "L"
    ],
    [
      ".",
      "L"
    ],
    [
      ".",
      "L"
    ],
    [
      ".",
      "L"
    ],
    [
      ".",
      "L"
    ],
    [
      ".",
      "L"
    ],
    [
      ".",
      "L"
    ],
    [
      ".",
      "L"
    ],
    [
      ".",
      "L"
    ],
    [
      ".",
      "L"
    ],
    [
      ".",
      "L"
    ],
    [
      ".",
      "L"
    ],
    [
      ".",
      "L"
    ],
    [
      ".",
      "L"
    ],
    [
      ".",
      "L"
    ],
    [
      ".",
      "L"
    ],
    [
      ".",
      "L"
    ],
    [
      ".",
      "L"
    ],
    [
      ".",
      "L"
    ],
    [
      ".",
      "L"
    ],
    [
      ".",
      "L"
    ],
    [
      ".",
      "L"
    ],
    [
      ".",
      "L"
    ],
    [
      ".",
      "L"
    ],
    [
      ".",
      "L"
    ],
    [
      ".",
      "L"
    ],
    [
      ".",
      "L"
    ],
    [
      ".",
      "L"
    ],
    [
      ".",
      "L"
    ],
    [
      ".",
      "L"
    ],
    [
      ".",
      "L"
    ],
    [
      ".",
      "L"
    ],
    [
      ".",
      "L"
    ],
    [
      ".",
      "L"
    ],
    [
      ".",
      "L"
    ],
    [
      ".",
      "L"
    ],
    [
      ".",
      "L"
    ],
    [
      ".",
      "L"
    ],
    [
      ".",
      "L"
    ],
    [
      ".",
      "L"
    ],
    [
      ".",
      "L"
    ],
    [
      ".",
      "L"
    ],
    [
      ".",
      "L"
    ],
    [
      ".",
      "L"
    ],
    [
      ".",
      "L"
    ],
    [
      ".",
      "L"
    ],
    [
      ".",
      "L"
    ],
    [
      ".",
      "L"
    ],
    [
      ".",
      "L"
    ],
    [
      ".",
      "L"
    ],
    [
      ".",
      "L"
    ],
    [
      ".",
      "L"
    ],
    [
      ".",
      "L"
    ],
    [
      ".",
      "L"
    ],
    [
      ".",
      "L"
    ],
    [
      ".",
      "L"
    ],
    [
      ".",
      "L"
    ],
    [
      ".",
      "L"
    ],
    [
      ".",
      "L"
    ],
    [
      ".",
      "L"
    ],
    [
      ".",
      "L"
    ],
    [
      ".",
      "L"
    ],
    [
      ".",
      "L"
    ],
    [
      ".",
      "L"
    ],
    [
      ".",
      "L"
    ],
    [
      ".",
      "L"
    ],
    [
      ".",
      "L"
    ],
    [
      ".",
      "L"
    ],
    [
      ".",
      "L"
    ],
    [
      ".",
      "L"
    ],
    [
      ".",
      "L"
    ],
    [
      ".",
      "L"
    ],
    [
      ".",
      "L"
    ],
    [
      ".",
      "L"
    ],
    [
      ".",
      "L"
    ],
    [
      ".",
      "L"
    ],
    [
      ".",
      "L"
    ],
    [
      ".",
      "L"
    ],
    [
      ".",
      "L"
    ],
    [
      ".",
      "L"
    ],
    [
      ".",
      "L"
    ],
    [
      ".",
      "L"
    ],
    [
      ".",
      "L"
    ],
    [
      ".",
      "L"
    ],
    [
      ".",
      "L"
    ],
    [
      ".",
      "L"
    ],
    [
      ".",
      "L"
    ],
    [
      ".",
      "L"
    ],
    [
      ".",
      "L"
    ],
    [
      ".",
      "L"
    ],
    [
      ".",
      "L"
    ],
    [
      ".",
      "L"
    ],
    [
      ".",
      "L"
    ],
    [
      ".",
      "L"
    ],
    [
      ".",
      "L"
    ],
    [
      ".",
      "L"
    ],
    [
      ".",
      "L"
    ],
    [
      ".",
      "L"
    ],
    [
      ".",
      "L"
    ],
    [
      ".",
      "L"
    ],
    [
      ".",
      "L"
    ],
    [
      ".",
      "L"
    ],
    [
      ".",
      "L"
    ],
    [
      ".",
      "L"
    ],
    [
      ".",
      "L"
    ],
    [
      ".",
      "L"
    ],
    [
      ".",
      "L"
    ],
    [
      ".",
      "L"
    ],
    [
      ".",
      "L"
    ],
    [
      ".",
      "L"
    ],
    [
      ".",
      "L"
    ],
    [
      ".",
      "L"
    ],
    [
      ".",
      "L"
    ],
    [
      ".",
      "L"
    ],
    [
      ".",
      "L"
    ],
    [
      ".",
      "L"
    ],
    [
      ".",
      "L"
    ],
    [
      ".",
      "L"
    ],
    [
      ".",
      "L"
    ],
    [
      ".",
      "L"
    ],
    [
      ".",
      "L"
    ],
    [
      ".",
      "L"
    ],
    [
      ".",
      "L"
    ],
    [
      ".",
      "L"
    ],
    [
      ".",
      "L"
    ],
    [
      ".",
      "L"
    ],
    [
      ".",
      "L"
    ],
    [
      ".",
      "L"
    ],
    [
      ".",
      "L"
    ],
    [
      ".",
      "L"
    ],
    [
      ".",
      "L"
    ],
    [
      ".",
      "L"
    ],
    [
      ".",
      "L"
    ],
    [
      ".",
      "L"
    ],
    [
      ".",
      "L"
    ],
    [
      ".",
      "L"
    ],
    [
      ".",
      "L"
    ],
    [
      ".",
      "L"
    ],
    [
      ".",
      "L"
    ],
    [
      ".",
      "L"
    ],
    [
      ".",
      "L"
    ],
    [
      ".",
      "L"
    ],
    [
      ".",
      "L"
    ],
    [
      ".",
      "L"
    ],
    [
      ".",
      "L"
    ],
    [
      ".",
      "L"
    ],
    [
      ".",
      "L"
    ],
    [
      ".",
      "L"
    ],
    [
      ".",
      "L"
    ],
    [
      ".",
      "L"
    ],
    [
      ".",
      "L"
    ],
    [
      ".",
      "L"
    ],
    [
      ".",
      "L"
    ],
    [
      ".",
      "L"
    ],
    [
      ".",
      "L"
    ],
    [
      ".",
      "L"
    ],
    [
      ".",
      "L"
    ],
    [
      ".",
      "L"
    ],
    [
      ".",
      "L"
    ],
    [
      ".",
      "L"
    ],
    [
      ".",
      "L"
    ],
    [
      ".",
      "L"
    ],
    [
      ".",
      "L"
    ],
    [
      ".",
      "L"
    ],
    [
      ".",
      "L"
    ],
    [
      ".",
      "L"
    ],
    [
      ".",
      "L"
    ],
    [
      ".",
      "L"
    ],
    [
      ".",
      "L"
    ],
    [
      ".",
      "L"
    ],
    [
      ".",
      "L"
    ],
    [
      ".",
      "L"
    ],
    [
      ".",
      "L"
    ],
    [
      ".",
      "L"
    ],
    [
      ".",
      "L"
    ],
    [
      ".",
      "L"
    ],
    [
      ".",
      "L"
    ],
    [
      ".",
      "L"
    ],
    [
      ".",
      "L"
    ],
    [
      ".",
      "L"
    ],
    [
      ".",
      "L"
    ],
    [
      ".",
      "L"
    ],
    [
      ".",
      "L"
    ],
    [
      ".",
      "L"
    ],
    [
      ".",
      "L"
    ],
    [
      ".",
      "L"
    ],
    [
      ".",
      "L"
    ],
    [
      ".",
      "L"
    ],
    [
      ".",
      "L"
    ],
    [
      ".",
      "L"
    ],
    [
      ".",
      "L"
    ],
    [
      ".",
      "L"
    ],
    [
      ".",
      "L"
    ],
    [
      ".",
      "L"
    ],
    [
      ".",
      "L"
    ],
    [
      ".",
      "L"
    ],
    [
      ".",
      "L"
    ],
    [
      ".",
      "L"
    ],
    [
      ".",
      "L"
    ],
    [
      ".",
      "L"
    ],
    [
      ".",
      "L"
    ],
    [
      ".",
      "L"
    ],
    [
      ".",
      "L"
    ],
    [
      ".",
      "L"
    ],
    [
      ".",
      "L"
    ],
    [
      ".",
      "L"
    ],
    [
      ".",
      "L"
    ],
    [
      ".",
      "L"
    ],
    [
      ".",
      "L"
    ],
    [
      ".",
      "L"
    ],
    [
      ".",
      "L"
    ],
    [
      ".",
      "L"
    ],
    [
      ".",
      "L"
    ],
    [
      ".",
      "L"
    ],
    [
      ".",
      "L"
    ],
    [
      ".",
      "L"
    ],
    [
      ".",
      "L"
    ],
    [
      ".",
      "L"
    ],
    [
      ".",
      "L"
    ],
    [
      ".",
      "L"
    ],
    [
      ".",
      "L"
    ],
    [
      ".",
      "L"
    ],
    [
      ".",
      "L"
    ],
    [
      ".",
      "L"
    ],
    [
      ".",
      "L"
    ],
    [
      ".",
      "L"
    ],
    [
      ".",
      "L"
    ],
    [
      ".",
      "L"
    ],
    [
      ".",
      "L"
    ],
    [
      ".",
      "L"
    ],
    [
      ".",
      "L"
    ],
    [
      ".",
      "L"
    ],
    [
      ".",
      "L"
    ],
    [
      ".",
      "L"
    ],
    [
      ".",
      "L"
    ],
    [
      ".",
      "L"
    ],
    [
      ".",
      "L"
    ],
    [
      ".",
      "L"
    ],
    [
      ".",
      "L"
    ],
    [
      ".",
      "L"
    ],
    [
      ".",
      "L"
    ],
    [
      ".",
      "L"
    ],
    [
      ".",
      "L"
    ],
    [
      ".",
      "L"
    ],
    [
      ".",
      "L"
    ],
    [
      ".",
      "L"
    ],
    [
      ".",
      "L"
    ],
    [
      ".",
      "L"
    ],
    [
      ".",
      "L"
    ],
    [
      ".",
      "L"
    ],
    [
      ".",
      "L"
    ],
    [
      ".",
      "L"
    ],
    [
      ".",
      "L"
    ],
    [
      ".",
      "L"
    ],
    [
      ".",
      "L"
    ],
    [
      ".",
      "L"
    ],
    [
      ".",
      "L"
    ],
    [
      ".",
      "L"
    ],
    [
      ".",
      "L"
    ],
    [
      ".",
      "L"
    ],
    [
      ".",
      "L"
    ],
    [
      ".",
      "L"
    ],
    [
      ".",
      "L"
    ],
    [
      ".",
      "L"
    ],
    [
      ".",
      "L"
    ],
    [
      ".",
      "L"
    ],
    [
      ".",
      "L"
    ],
    [
      ".",
      "L"
    ],
    [
      ".",
      "L"
    ],
    [
      ".",
      "L"
    ],
    [
      ".",
      "L"
    ],
    [
      ".",
      "L"
    ],
    [
      ".",
      "L"
    ],
    [
      ".",
      "L"
    ],
    [
      ".",
      "L"
    ],
    [
      ".",
      "L"
    ],
    [
      ".",
      "L"
    ],
    [
      ".",
      "L"
    ],
    [
      ".",
      "L"
    ],
    [
      ".",
      "L"
    ],
    [
      ".",
      "L"
    ],
    [
      ".",
      "L"
    ],
    [
      ".",
      "L"
    ],
    [
      ".",
      "L"
    ],
    [
      ".",
      "L"
    ],
    [
      ".",
      "L"
    ],
    [
      ".",
      "L"
    ],
    [
      ".",
      "L"
    ],
    [
      ".",
      "L"
    ],
    [
      ".",
      "L"
    ],
    [
      ".",
      "L"
    ],
    [
      ".",
      "L"
    ],
    [
      ".",
      "L"
    ],
    [
      ".",
      "L"
    ],
    [
      ".",
      "L"
    ],
    [
      ".",
      "L"
    ],
    [
      ".",
      "L"
    ],
    [
      ".",
      "L"
    ],
    [
      ".",
      "L"
    ],
    [
      ".",
      "L"
    ],
    [
      ".",
      "L"
    ],
    [
      ".",
      "L"
    ],
    [
      ".",
      "L"
    ],
    [
      ".",
      "L"
    ],
    [
      ".",
      "L"
    ],
    [
      ".",
      "L"
    ],
    [
      ".",
      "L"
    ],
    [
      ".",
      "L"
    ],
    [
      ".",
      "L"
    ],
    [
      ".",
      "L"
    ],
    [
      ".",
      "L"
    ],
    [
      ".",
      "L"
    ],
    [
      ".",
      "L"
    ],
    [
      ".",
      "L"
    ],
    [
      ".",
      "L"
    ],
    [
      ".",
      "L"
    ],
    [
      ".",
      "L"
    ],
    [
      ".",
      "L"
    ],
    [
      ".",
      "L"
    ],
    [
      ".",
      "L"
    ],
    [
      ".",
      "L"
    ],
    [
      ".",
      "L"
    ],
    [
      ".",
      "L"
    ],
    [
      ".",
      "L"
    ],
    [
      ".",
      "L"
    ],
    [
      ".",
      "L"
    ],
    [
      ".",
      "L"
    ],
    [
      ".",
      "L"
    ],
    [
      ".",
      "L"
    ],
    [
      ".",
      "L"
    ],
    [
      ".",
      "L"
    ],
    [
      ".",
      "L"
    ],
    [
      ".",
      "L"
    ],
    [
      ".",
      "L"
    ],
    [
      ".",
      "L"
    ],
    [
      ".",
      "L"
    ],
    [
      ".",
      "L"
    ],
    [
      ".",
      "L"
    ],
    [
      ".",
      "L"
    ],
    [
      ".",
      "L"
    ],
    [
      ".",
      "L"
    ],
    [
      ".",
      "L"
    ],
    [
      ".",
      "L"
    ],
    [
      ".",
      "L"
    ],
    [
      ".",
      "L"
    ],
    [
      ".",
      "L"
    ],
    [
      ".",
      "L"
    ],
    [
      ".",
      "L"
    ],
    [
      ".",
      "L"
    ],
    [
      ".",
      "L"
    ],
    [
      ".",
      "L"
    ],
    [
      ".",
      "L"
    ],
    [
      ".",
      "L"
    ],
    [
      ".",
      "L"
    ],
    [
      ".",
      "L"
    ],
    [
      ".",
      "L"
    ],
    [
      ".",
      "L"
    ],
    [
      ".",
      "L"
    ],
    [
      ".",
      "L"
    ],
    [
      ".",
      "L"
    ],
    [
      ".",
      "L"
    ],
    [
      ".",
      "L"
    ],
    [
      ".",
      "L"
    ],
    [
      ".",
      "L"
    ],
    [
      ".",
      "L"
    ],
    [
      ".",
      "L"
    ],
    [
      ".",
      "L"
    ],
    [
      ".",
      "L"
    ],
    [
      ".",
      "L"
    ],
    [
      ".",
      "L"
    ],
    [
      ".",
      "L"
    ],
    [
      ".",
      "L"
    ],
    [
      ".",
      "L"
    ],
    [
      ".",
      "L"
    ],
    [
      ".",
      "L"
    ],
    [
      ".",
      "L"
    ],
    [
      ".",
      "L"
    ],
    [
      ".",
      "L"
    ],
    [
      ".",
      "L"
    ],
    [
      ".",
      "L"
    ],
    [
      ".",
      "L"
    ],
    [
      ".",
      "L"
    ],
    [
      ".",
      "L"
    ],
    [
      ".",
      "L"
    ],
    [
      ".",
      "L"
    ],
    [
      ".",
      "L"
    ],
    [
      ".",
      "L"
    ],
    [
      ".",
      "L"
    ],
    [
      ".",
      "L"
    ],
    [
      ".",
      "L"
    ],
    [
      ".",
      "L"
    ],
    [
      ".",
      "L"
    ],
    [
      ".",
      "L"
    ],
    [
      ".",
      "L"
    ],
    [
      ".",
      "L"
    ],
    [
      ".",
      "L"
    ],
    [
      ".",
      "L"
    ],
    [
      ".",
      "L"
    ],
    [
      ".",
      "L"
    ],
    [
      ".",
      "L"
    ],
    [
      ".",
      "L"
    ],
    [
      ".",
      "L"
    ],
    [
      ".",
      "L"
    ],
    [
      ".",
      "L"
    ],
    [
      ".",
      "L"
    ],
    [
      ".",
      "L"
    ],
    [
      ".",
      "L"
    ],
    [
      ".",
      "L"
    ],
    [
      ".",
      "L"
    ],
    [
      ".",
      "L"
    ],
    [
      ".",
      "L"
    ],
    [
      ".",
      "L"
    ],
    [
      ".",
      "L"
    ],
    [
      ".",
      "L"
    ],
    [
      ".",
      "L"
    ],
    [
      ".",
      "L"
    ],
    [
      ".",
      "L"
    ],
    [
      ".",
      "L"
    ],
    [
      ".",
      "L"
    ],
    [
      ".",
      "L"
    ],
    [
      ".",
      "L"
    ],
    [
      ".",
      "L"
    ],
    [
      ".",
      "L"
    ],
    [
      ".",
      "L"
    ],
    [
      ".",
      "L"
    ],
    [
      ".",
      "L"
    ],
    [
      ".",
      "L"
    ],
    [
      ".",
      "L"
    ],
    [
      ".",
      "L"
    ],
    [
      ".",
      "L"
    ],
    [
      ".",
      "L"
    ],
    [
      ".",
      "L"
    ],
    [
      ".",
      "L"
    ],
    [
      ".",
      "L"
    ],
    [
      ".",
      "L"
    ],
    [
      ".",
      "L"
    ],
    [
      ".",
      "L"
    ],
    [
      ".",
      "L"
    ],
    [
      ".",
      "L"
    ],
    [
      ".",
      "L"
    ],
    [
      ".",
      "L"
    ],
    [
      ".",
      "L"
    ],
    [
      ".",
      "L"
    ],
    [
      ".",
      "L"
    ],
    [
      ".",
      "L"
    ],
    [
      ".",
      "L"
    ],
    [
      ".",
      "L"
    ],
    [
      ".",
      "L"
    ],
    [
      ".",
      "L"
    ],
    [
      ".",
      "L"
    ],
    [
      ".",
      "L"
    ],
    [
      ".",
      "L"
    ],
    [
      ".",
      "L"
    ],
    [
      ".",
      "L"
    ],
    [
      ".",
      "L"
    ],
    [
      ".",
      "L"
    ],
    [
      ".",
      "L"
    ],
    [
      ".",
      "L"
    ],
    [
      ".",
      "L"
    ],
    [
      ".",
      "L"
    ],
    [
      ".",
      "L"
    ],
    [
      ".",
      "L"
    ],
    [
      ".",
      "L"
    ],
    [
      ".",
      "L"
    ],
    [
      ".",
      "L"
    ],
    [
      ".",
      "L"
    ],
    [
      ".",
      "L"
    ],
    [
      ".",
      "L"
    ],
    [
      ".",
      "L"
    ],
    [
      ".",
      "L"
    ],
    [
      ".",
      "L"
    ],
    [
      ".",
      "L"
    ],
    [
      ".",
      "L"
    ],
    [
      ".",
      "L"
    ],
    [
      ".",
      "L"
    ],
    [
      ".",
      "L"
    ],
    [
      ".",
      "L"
    ],
    [
      ".",
      "L"
    ],
    [
      ".",
      "L"
    ],
    [
      ".",
      "L"
    ],
    [
      ".",
      "L"
    ],
    [
      ".",
      "L"
    ],
    [
      ".",
      "L"
    ],
    [
      ".",
      "L"
    ],
    [
      ".",
      "L"
    ],
    [
      ".",
      "L"
    ],
    [
      ".",
      "L"
    ],
    [
      ".",
      "L"
    ],
    [
      ".",
      "L"
    ],
    [
      ".",
      "L"
    ],
    [
      ".",
      "L"
    ],
    [
      ".",
      "L"
    ],
    [
      ".",
      "L"
    ],
    [
      ".",
      "L"
    ],
    [
      ".",
      "L"
    ],
    [
      ".",
      "L"
    ],
    [
      ".",
      "L"
    ],
    [
      ".",
      "L"
    ],
    [
      ".",
      "L"
    ],
    [
      ".",
      "L"
    ],
    [
      ".",
      "L"
    ],
    [
      ".",
      "L"
    ],
    [
      ".",
      "L"
    ],
    [
      ".",
      "L"
    ],
    [
      ".",
      "L"
    ],
    [
      ".",
      "L"
    ],
    [
      ".",
      "L"
    ],
    [
      ".",
      "L"
    ],
    [
      ".",
      "L"
    ],
    [
      ".",
      "L"
    ],
    [
      ".",
      "L"
    ],
    [
      ".",
      "L"
    ],
    [
      ".",
      "L"
    ],
    [
      ".",
      "L"
    ],
    [
      ".",
      "L"
    ],
    [
      ".",
      "L"
    ],
    [
      ".",
      "L"
    ],
    [
      ".",
      "L"
    ],
    [
      ".",
      "L"
    ],
    [
      ".",
      "L"
    ],
    [
      ".",
      "L"
    ],
    [
      ".",
      "L"
    ],
    [
      ".",
      "L"
    ],
    [
      ".",
      "L"
    ],
    [
      ".",
      "L"
    ],
    [
      ".",
      "L"
    ],
    [
      ".",
      "L"
    ],
    [
      ".",
      "L"
    ],
    [
      ".",
      "L"
    ],
    [
      ".",
      "L"
    ],
    [
      ".",
      "L"
    ],
    [
      ".",
      "L"
    ],
    [
      ".",
      "L"
    ],
    [
      ".",
      "L"
    ],
    [
      ".",
      "L"
    ],
    [
      ".",
      "L"
    ],
    [
      ".",
      "L"
    ],
    [
      ".",
      "L"
    ],
    [
      ".",
      "L"
    ],
    [
      ".",
      "L"
    ],
    [
      ".",
      "L"
    ],
    [
      ".",
      "L"
    ],
    [
      ".",
      "L"
    ],
    [
      ".",
      "L"
    ],
    [
      ".",
      "L"
    ],
    [
      ".",
      "L"
    ],
    [
      ".",
      "L"
    ],
    [
      ".",
      "L"
    ],
    [
      ".",
      "L"
    ],
    [
      ".",
      "L"
    ],
    [
      ".",
      "L"
    ],
    [
      ".",
      "L"
    ],
    [
      ".",
      "L"
    ],
    [
      ".",
      "L"
    ],
    [
      ".",
      "L"
    ],
    [
      ".",
      "L"
    ],
    [
      ".",
      "L"
    ],
    [
      ".",
      "L"
    ],
    [
      ".",
      "L"
    ],
    [
      ".",
      "L"
    ],
    [
      ".",
      "L"
    ],
    [
      ".",
      "L"
    ],
    [
      ".",
      "L"
    ],
    [
      ".",
      "L"
    ],
    [
      ".",
      "L"
    ],
    [
      ".",
      "L"
    ],
    [
      ".",
      "L"
    ],
    [
      ".",
      "L"
    ],
    [
      ".",
      "L"
    ],
    [
      ".",
      "L"
    ],
    [
      ".",
      "L"
    ],
    [
      ".",
      "L"
    ],
    [
      ".",
      "L"
    ],
    [
      ".",
      "L"
    ],
    [
      ".",
      "L"
    ],
    [
      ".",
      "L"
    ],
    [
      ".",
      "L"
    ],
    [
      ".",
      "L"
    ],
    [
      ".",
      "L"
    ],
    [
      ".",
      "L"
    ],
    [
      ".",
      "L"
    ],
    [
      ".",
      "L"
    ],
    [
      ".",
      "L"
    ],
    [
      ".",
      "L"
    ],
    [
      ".",
      "L"
    ],
    [
      ".",
      "L"
    ],
    [
      ".",
      "L"
    ],
    [
      ".",
      "L"
    ],
    [
      ".",
      "L"
    ],
    [
      ".",
      "L"
    ],
    [
      ".",
      "L"
    ],
    [
      ".",
      "L"
    ],
    [
      ".",
      "L"
    ],
    [
      ".",
      "L"
    ],
    [
      ".",
      "L"
    ],
    [
      ".",
      "L"
    ],
    [
      ".",
      "L"
    ],
    [
      ".",
      "L"
    ],
    [
      ".",
      "L"
    ],
    [
      ".",
      "L"
    ],
    [
      ".",
      "L"
    ],
    [
      ".",
      "L"
    ],
    [
      ".",
      "L"
    ],
    [
      ".",
      "L"
    ],
    [
      ".",
      "L"
    ],
    [
      ".",
      "L"
    ],
    [
      ".",
      "L"
    ],
    [
      ".",
      "L"
    ],
    [
      ".",
      "L"
    ],
    [
      ".",
      "L"
    ],
    [
      ".",
      "L"
    ],
    [
      ".",
      "L"
    ],
    [
      ".",
      "L"
    ],
    [
      ".",
      "L"
    ],
    [
      ".",
      "L"
    ],
    [
      ".",
      "L"
    ],
    [
      ".",
      "L"
    ],
    [
      ".",
      "L"
    ],
    [
      ".",
      "L"
    ],
    [
      ".",
      "L"
    ],
    [
      ".",
      "L"
    ],
    [
      ".",
      "L"
    ],
    [
      ".",
      "L"
    ],
    [
      ".",
      "L"
    ],
    [
      ".",
      "L"
    ],
    [
      ".",
      "L"
    ],
    [
      ".",
      "L"
    ],
    [
      ".",
      "L"
    ],
    [
      ".",
      "L"
    ],
    [
      ".",
      "L"
    ],
    [
      ".",
      "L"
    ],
    [
      ".",
      "L"
    ],
    [
      ".",
      "L"
    ],
    [
      ".",
      "L"
    ],
    [
      ".",
      "L"
    ],
    [
      ".",
      "L"
    ],
    [
      ".",
      "L"
    ],
    [
      ".",
      "L"
    ],
    [
      ".",
      "L"
    ],
    [
      ".",
      "L"
    ],
    [
      ".",
      "L"
    ],
    [
      ".",
      "L"
    ],
    [
      ".",
      "L"
    ],
    [
      ".",
      "L"
    ],
    [
      ".",
      "L"
    ],
    [
      ".",
      "L"
    ],
    [
      ".",
      "L"
    ],
    [
      ".",
      "L"
    ],
    [
      ".",
      "L"
    ],
    [
      ".",
      "L"
    ],
    [
      ".",
      "L"
    ],
    [
      ".",
      "L"
    ],
    [
      ".",
      "L"
    ],
    [
      ".",
      "L"
    ],
    [
      ".",
      "L"
    ],
    [
      ".",
      "L"
    ],
    [
      ".",
      "L"
    ],
    [
      ".",
      "L"
    ],
    [
      ".",
      "L"
    ],
    [
      ".",
      "L"
    ],
    [
      ".",
      "L"
    ],
    [
      ".",
      "L"
    ],
    [
      ".",
      "L"
    ],
    [
      ".",
      "L"
    ],
    [
      ".",
      "L"
    ],
    [
      ".",
      "L"
    ],
    [
      ".",
      "L"
    ],
    [
      ".",
      "L"
    ],
    [
      ".",
      "L"
    ],
    [
      ".",
      "L"
    ],
    [
      ".",
      "L"
    ],
    [
      ".",
      "L"
    ],
    [
      ".",
      "L"
    ],
    [
      ".",
      "L"
    ],
    [
      ".",
      "L"
    ],
    [
      ".",
      "L"
    ],
    [
      ".",
      "L"
    ],
    [
      ".",
      "L"
    ],
    [
      ".",
      "L"
    ],
    [
      ".",
      "L"
    ],
    [
      ".",
      "L"
    ],
    [
      ".",
      "L"
    ],
    [
      ".",
      "L"
    ],
    [
      ".",
      "L"
    ],
    [
      ".",
      "L"
    ],
    [
      ".",
      "L"
    ],
    [
      ".",
      "L"
    ],
    [
      ".",
      "L"
    ],
    [
      ".",
      "L"
    ],
    [
      ".",
      "L"
    ],
    [
      ".",
      "L"
    ],
    [
      ".",
      "L"
    ],
    [
      ".",
      "L"
    ],
    [
      ".",
      "L"
    ],
    [
      ".",
      "L"
    ],
    [
      ".",
      "L"
    ],
    [
      ".",
      "L"
    ],
    [
      ".",
      "L"
    ],
    [
      ".",
      "L"
    ],
    [
      ".",
      "L"
    ],
    [
      ".",
      "L"
    ],
    [
      ".",
      "L"
    ],
    [
      ".",
      "L"
    ],
    [
      ".",
      "L"
    ],
    [
      ".",
      "L"
    ],
    [
      ".",
      "L"
    ],
    [
      ".",
      "L"
    ],
    [
      ".",
      "L"
    ],
    [
      ".",
      "L"
    ],
    [
      ".",
      "L"
    ],
    [
      ".",
      "L"
    ],
    [
      ".",
      "L"
    ],
    [
      ".",
      "L"
    ],
    [
      ".",
      "L"
    ],
    [
      ".",
      "L"
    ],
    [
      ".",
      "L"
    ],
    [
      ".",
      "L"
    ],
    [
      ".",
      "L"
    ],
    [
      ".",
      "L"
    ],
    [
      ".",
      "L"
    ],
    [
      ".",
      "L"
    ],
    [
      ".",
      "L"
    ],
    [
      ".",
      "L"
    ],
    [
      ".",
      "L"
    ],
    [
      ".",
      "L"
    ],
    [
      ".",
      "L"
    ],
    [
      ".",
      "L"
    ],
    [
      ".",
      "L"
    ],
    [
      ".",
      "L"
    ],
    [
      ".",
      "L"
    ],
    [
      ".",
      "L"
    ],
    [
      ".",
      "L"
    ],
    [
      ".",
      "L"
    ],
    [
      ".",
      "L"
    ],
    [
      ".",
      "L"
    ],
    [
      ".",
      "L"
    ],
    [
      ".",
      "L"
    ],
    [
      ".",
      "L"
    ],
    [
      ".",
      "L"
    ],
    [
      ".",
      "L"
    ],
    [
      ".",
      "L"
    ],
    [
      ".",
      "L"
    ],
    [
      ".",
      "L"
    ],
    [
      ".",
      "L"
    ],
    [
      ".",
      "L"
    ],
    [
      ".",
      "L"
    ],
    [
      ".",
      "L"
    ],
    [
      ".",
      "L"
    ],
    [
      ".",
      "L"
    ],
    [
      ".",
      "L"
    ],
    [
      ".",
      "L"
    ],
    [
      ".",
      "L"
    ],
    [
      ".",
      "L"
    ],
    [
      ".",
      "L"
    ],
    [
      ".",
      "L"
    ],
    [
      ".",
      "L"
    ],
    [
      ".",
      "L"
    ],
    [
      ".",
      "L"
    ],
    [
      ".",
      "L"
    ],
    [
      ".",
      "L"
    ],
    [
      ".",
      "L"
    ],
    [
      ".",
      "L"
    ],
    [
      ".",
      "L"
    ],
    [
      ".",
      "L"
    ],
    [
      ".",
      "L"
    ],
    [
      ".",
      "L"
    ],
    [
      ".",
      "L"
    ],
    [
      ".",
      "L"
    ],
    [
      ".",
      "L"
    ],
    [
      ".",
      "L"
    ],
    [
      ".",
      "L"
    ],
    [
      ".",
      "L"
    ],
    [
      ".",
      "L"
    ],
    [
      ".",
      "L"
    ],
    [
      ".",
      "L"
    ],
    [
      ".",
      "L"
    ],
    [
      ".",
      "L"
    ],
    [
      ".",
      "L"
    ],
    [
      ".",
      "L"
    ],
    [
      ".",
      "L"
    ],
    [
      ".",
      "L"
    ],
    [
      ".",
      "L"
    ],
    [
      ".",
      "L"
    ],
    [
      ".",
      "L"
    ],
    [
      ".",
      "L"
    ],
    [
      ".",
      "L"
    ],
    [
      ".",
      "L"
    ],
    [
      ".",
      "L"
    ],
    [
      ".",
      "L"
    ],
    [
      ".",
      "L"
    ],
    [
      ".",
      "L"
    ],
    [
      ".",
      "L"
    ],
    [
      ".",
      "L"
    ],
    [
      ".",
      "L"
    ],
    [
      ".",
      "L"
    ],
    [
      ".",
      "L"
    ],
    [
      ".",
      "L"
    ],
    [
      ".",
      "L"
    ],
    [
      ".",
      "L"
    ],
    [
      ".",
      "L"
    ],
    [
      ".",
      "L"
    ],
    [
      ".",
      "L"
    ],
    [
      ".",
      "L"
    ],
    [
      ".",
      "L"
    ],
    [
      ".",
      "L"
    ],
    [
      ".",
      "L"
    ],
    [
      ".",
      "L"
    ],
    [
      ".",
      "L"
    ],
    [
      ".",
      "L"
    ],
    [
      ".",
      "L"
    ],
    [
      ".",
      "L"
    ],
    [
      ".",
      "L"
    ],
    [
      ".",
      "L"
    ],
    [
      ".",
      "L"
    ],
    [
      ".",
      "L"
    ],
    [
      ".",
      "L"
    ],
    [
      ".",
      "L"
    ],
    [
      ".",
      "L"
    ],
    [
      ".",
      "L"
    ],
    [
      ".",
      "L"
    ],
    [
      ".",
      "L"
    ],
    [
      ".",
      "L"
    ],
    [
      ".",
      "L"
    ],
    [
      ".",
      "L"
    ],
    [
      ".",
      "L"
    ],
    [
      ".",
      "L"
    ],
    [
      ".",
      "L"
    ],
    [
      ".",
      "L"
    ],
    [
      ".",
      "L"
    ],
    [
      ".",
      "L"
    ],
    [
      ".",
      "L"
    ],
    [
      ".",
      "L"
    ],
    [
      ".",
      "L"
    ],
    [
      ".",
      "L"
    ],
    [
      ".",
      "L"
    ],
    [
      ".",
      "L"
    ],
    [
      ".",
      "L"
    ],
    [
      ".",
      "L"
    ],
    [
      ".",
      "L"
    ],
    [
      ".",
      "L"
    ],
    [
      ".",
      "L"
    ],
    [
      ".",
      "L"
    ],
    [
      ".",
      "L"
    ],
    [
      ".",
      "L"
    ],
    [
      ".",
      "L"
    ],
    [
      ".",
      "L"
    ],
    [
      ".",
      "L"
    ],
    [
      ".",
      "L"
    ],
    [
      ".",
      "L"
    ],
    [
      ".",
      "L"
    ],
    [
      ".",
      "L"
    ],
    [
      ".",
      "L"
    ],
    [
      ".",
      "L"
    ],
    [
      ".",
      "L"
    ],
    [
      ".",
      "L"
    ],
    [
      ".",
      "L"
    ],
    [
      ".",
      "L"
    ],
    [
      ".",
      "L"
    ],
    [
      ".",
      "L"
    ],
    [
      ".",
      "L"
    ],
    [
      ".",
      "L"
    ],
    [
      ".",
      "L"
    ],
    [
      ".",
      "L"
    ],
    [
      ".",
      "L"
    ],
    [
      ".",
      "L"
    ],
    [
      ".",
      "L"
    ],
    [
      ".",
      "L"
    ],
    [
      ".",
      "L"
    ],
    [
      ".",
      "L"
    ],
    [
      ".",
      "L"
    ],
    [
      ".",
      "L"
    ],
    [
      ".",
      "L"
    ],
    [
      ".",
      "L"
    ],
    [
      ".",
      "L"
    ],
    [
      ".",
      "L"
    ],
    [
      ".",
      "L"
    ],
    [
      ".",
      "L"
    ],
    [
      ".",
      "L"
    ],
    [
      ".",
      "L"
    ],
    [
      ".",
      "L"
    ],
    [
      ".",
      "L"
    ],
    [
      ".",
      "L"
    ],
    [
      ".",
      "L"
    ],
    [
      ".",
      "L"
    ],
    [
      ".",
      "L"
    ],
    [
      ".",
      "L"
    ],
    [
      ".",
      "L"
    ],
    [
      ".",
      "L"
    ],
    [
      ".",
      "L"
    ],
    [
      ".",
      "L"
    ],
    [
      ".",
      "L"
    ],
    [
      ".",
      "L"
    ],
    [
      ".",
      "L"
    ],
    [
      ".",
      "L"
    ],
    [
      ".",
      "L"
    ],
    [
      ".",
      "L"
    ],
    [
      ".",
      "L"
    ],
    [
      ".",
      "L"
    ],
    [
      ".",
      "L"
    ],
    [
      ".",
      "L"
    ],
    [
      ".",
      "L"
    ],
    [
      ".",
      "L"
    ],
    [
      ".",
      "L"
    ],
    [
      ".",
      "L"
    ],
    [
      ".",
      "L"
    ],
    [
      ".",
      "L"
    ],
    [
      ".",
      "L"
    ],
    [
      ".",
      "L"
    ],
    [
      ".",
      "L"
    ],
    [
      ".",
      "L"
    ],
    [
      ".",
      "L"
    ],
    [
      ".",
      "L"
    ],
    [
      ".",
      "L"
    ],
    [
      ".",
      "L"
    ],
    [
      ".",
      "L"
    ],
    [
      ".",
      "L"
    ],
    [
      ".",
      "L"
    ],
    [
      ".",
      "L"
    ],
    [
      ".",
      "L"
    ],
    [
      ".",
      "L"
    ],
    [
      ".",
      "L"
    ],
    [
      ".",
      "L"
    ],
    [
      ".",
      "L"
    ],
    [
      ".",
      "L"
    ],
    [
      ".",
      "L"
    ],
    [
      ".",
      "L"
    ],
    [
      ".",
      "L"
    ],
    [
      ".",
      "L"
    ],
    [
      ".",
      "L"
    ],
    [
      ".",
      "L"
    ],
    [
      ".",
      "L"
    ],
    [
      ".",
      "L"
    ],
    [
      ".",
      "L"
    ],
    [
      ".",
      "L"
    ],
    [
      ".",
      "L"
    ],
    [
      ".",
      "L"
    ],
    [
      ".",
      "L"
    ],
    [
      ".",
      "L"
    ],
    [
      ".",
      "L"
    ],
    [
      ".",
      "L"
    ],
    [
      ".",
      "L"
    ],
    [
      ".",
      "L"
    ],
    [
      ".",
      "L"
    ],
    [
      ".",
      "L"
    ],
    [
      ".",
      "L"
    ],
    [
      ".",
      "L"
    ],
    [
      ".",
      "L"
    ],
    [
      ".",
      "L"
    ],
    [
      ".",
      "L"
    ],
    [
      ".",
      "L"
    ],
    [
      ".",
      "L"
    ],
    [
      ".",
      "L"
    ],
    [
      ".",
      "L"
    ],
    [
      ".",
      "L"
    ],
    [
      ".",
      "L"
    ],
    [
      ".",
      "L"
    ],
    [
      ".",
      "L"
    ],
    [
      ".",
      "L"
    ],
    [
      ".",
      "L"
    ],
    [
      ".",
      "L"
    ],
    [
      ".",
      "L"
    ],
    [
      ".",
      "L"
    ],
    [
      ".",
      "L"
    ],
    [
      ".",
      "L"
    ],
    [
      ".",
      "L"
    ],
    [
      ".",
      "L"
    ],
    [
      ".",
      "L"
    ],
    [
      ".",
      "L"
    ],
    [
      ".",
      "L"
    ],
    [
      ".",
      "L"
    ],
    [
      ".",
      "L"
    ],
    [
      ".",
      "L"
    ],
    [
      ".",
      "L"
    ],
    [
      ".",
      "L"
    ],
    [
      ".",
      "L"
    ],
    [
      ".",
      "L"
    ],
    [
      ".",
      "L"
    ],
    [
      ".",
      "L"
    ],
    [
      ".",
      "L"
    ],
    [
      ".",
      "L"
    ],
    [
      ".",
      "L"
    ],
    [
      ".",
      "L"
    ],
    [
      ".",
      "L"
    ],
    [
      ".",
      "L"
    ],
    [
      ".",
      "L"
    ],
    [
      ".",
      "L"
    ],
    [
      ".",
      "L"
    ],
    [
      ".",
      "L"
    ],
    [
      ".",
      "L"
    ],
    [
      ".",
      "L"
    ],
    [
      ".",
      "L"
    ],
    [
      ".",
      "L"
    ],
    [
      ".",
      "L"
    ],
    [
      ".",
      "L"
    ],
    [
      ".",
      "L"
    ],
    [
      ".",
      "L"
    ],
    [
      ".",
      "L"
    ],
    [
      ".",
      "L"
    ],
    [
      ".",
      "L"
    ],
    [
      ".",
      "L"
    ],
    [
      ".",
      "L"
    ],
    [
      ".",
      "L"
    ],
    [
      ".",
      "L"
    ],
    [
      ".",
      "L"
    ],
    [
      ".",
      "L"
    ],
    [
      ".",
      "L"
    ],
    [
      ".",
      "L"
    ],
    [
      ".",
      "L"
    ],
    [
      ".",
      "L"
    ],
    [
      ".",
      "L"
    ],
    [
      ".",
      "L"
    ],
    [
      ".",
      "L"
    ],
    [
      ".",
      "L"
    ],
    [
      ".",
      "L"
    ],
    [
      ".",
      "L"
    ],
    [
      ".",
      "L"
    ],
    [
      ".",
      "L"
    ],
    [
      ".",
      "L"
    ],
    [
      ".",
      "L"
    ],
    [
      ".",
      "L"
    ],
    [
      ".",
      "L"
    ],
    [
      ".",
      "L"
    ],
    [
      ".",
      "L"
    ],
    [
      ".",
      "L"
    ],
    [
      ".",
      "L"
    ],
    [
      ".",
      "L"
    ],
    [
      ".",
      "L"
    ],
    [
      ".",
      "L"
    ],
    [
      ".",
      "L"
    ],
    [
      ".",
      "L"
    ],
    [
      ".",
      "L"
    ],
    [
      ".",
      "L"
    ],
    [
      ".",
      "L"
    ],
    [
      ".",
      "L"
    ],
    [
      ".",
      "L"
    ],
    [
      ".",
      "L"
    ],
    [
      ".",
      "L"
    ],
    [
      ".",
      "L"
    ],
    [
      ".",
      "L"
    ],
    [
      ".",
      "L"
    ],
    [
      ".",
      "L"
    ],
    [
      ".",
      "L"
    ],
    [
      ".",
      "L"
    ],
    [
      ".",
      "L"
    ],
    [
      ".",
      "L"
    ],
    [
      ".",
      "L"
    ],
    [
      ".",
      "L"
    ],
    [
      ".",
      "L"
    ],
    [
      ".",
      "L"
    ],
    [
      ".",
      "L"
    ],
    [
      ".",
      "L"
    ],
    [
      ".",
      "L"
    ],
    [
      ".",
      "L"
    ],
    [
      ".",
      "L"
    ],
    [
      ".",
      "L"
    ],
    [
      ".",
      "L"
    ],
    [
      ".",
      "L"
    ],
    [
      ".",
      "L"
    ],
    [
      ".",
      "L"
    ],
    [
      ".",
      "L"
    ],
    [
      ".",
      "L"
    ],
    [
      ".",
      "L"
    ],
    [
      ".",
      "L"
    ],
    [
      ".",
      "L"
    ],
    [
      ".",
      "L"
    ],
    [
      ".",
      "L"
    ],
    [
      ".",
      "L"
    ],
    [
      ".",
      "L"
    ],
    [
      ".",
      "L"
    ],
    [
      ".",
      "L"
    ],
    [
      ".",
      "L"
    ],
    [
      ".",
      "L"
    ],
    [
      ".",
      "L"
    ],
    [
      ".",
      "L"
    ],
    [
      ".",
      "L"
    ],
    [
      ".",
      "L"
    ],
    [
      ".",
      "L"
    ],
    [
      ".",
      "L"
    ],
    [
      ".",
      "L"
    ],
    [
      ".",
      "L"
    ],
    [
      ".",
      "L"
    ],
    [
      ".",
      "L"
    ],
    [
      ".",
      "L"
    ],
    [
      ".",
      "L"
    ],
    [
      ".",
      "L"
    ],
    [
      ".",
      "L"
    ],
    [
      ".",
      "L"
    ],
    [
      ".",
      "L"
    ],
    [
      ".",
      "L"
    ],
    [
      ".",
      "L"
    ],
    [
      ".",
      "L"
    ],
    [
      ".",
      "L"
    ],
    [
      ".",
      "L"
    ],
    [
      ".",
      "L"
    ],
    [
      ".",
      "L"
    ],
    [
      ".",
      "L"
    ],
    [
      ".",
      "L"
    ],
    [
      ".",
      "L"
    ],
    [
      ".",
      "L"
    ],
    [
      ".",
      "L"
    ],
    [
      ".",
      "L"
    ],
    [
      ".",
      "L"
    ],
    [
      ".",
      "L"
    ],
    [
      ".",
      "L"
    ],
    [
      ".",
      "L"
    ],
    [
      ".",
      "L"
    ],
    [
      ".",
      "L"
    ],
    [
      ".",
      "L"
    ],
    [
      ".",
      "L"
    ],
    [
      ".",
      "L"
    ],
    [
      ".",
      "L"
    ],
    [
      ".",
      "L"
    ],
    [
      ".",
      "L"
    ],
    [
      ".",
      "L"
    ],
    [
      ".",
      "L"
    ],
    [
      ".",
      "L"
    ],
    [
      ".",
      "L"
    ],
    [
      ".",
      "L"
    ],
    [
      ".",
      "L"
    ],
    [
      ".",
      "L"
    ],
    [
      ".",
      "L"
    ],
    [
      ".",
      "L"
    ],
    [
      ".",
      "L"
    ],
    [
      ".",
      "L"
    ],
    [
      ".",
      "L"
    ],
    [
      ".",
      "L"
    ],
    [
      ".",
      "L"
    ],
    [
      ".",
      "L"
    ],
    [
      ".",
      "L"
    ],
    [
      ".",
      "L"
    ],
    [
      ".",
      "L"
    ],
    [
      ".",
      "L"
    ],
    [
      ".",
      "L"
    ],
    [
      ".",
      "L"
    ],
    [
      ".",
      "L"
    ],
    [
      ".",
      "L"
    ],
    [
      ".",
      "L"
    ],
    [
      ".",
      "L"
    ],
    [
      ".",
      "L"
    ],
    [
      ".",
      "L"
    ],
    [
      ".",
      "L"
    ],
    [
      ".",
      "L"
    ],
    [
      ".",
      "L"
    ],
    [
      ".",
      "L"
    ],
    [
      ".",
      "L"
    ],
    [
      ".",
      "L"
    ],
    [
      ".",
      "L"
    ],
    [
      ".",
      "L"
    ],
    [
      ".",
      "L"
    ],
    [
      ".",
      "L"
    ],
    [
      ".",
      "L"
    ],
    [
      ".",
      "L"
    ],
    [
      ".",
      "L"
    ],
    [
      ".",
      "L"
    ],
    [
      ".",
      "L"
    ],
    [
      ".",
      "L"
    ],
    [
      ".",
      "L"
    ],
    [
      ".",
      "L"
    ],
    [
      ".",
      "L"
    ],
    [
      ".",
      "L"
    ],
    [
      ".",
      "L"
    ],
    [
      ".",
      "L"
    ],
    [
      ".",
      "L"
    ],
    [
      ".",
      "L"
    ],
    [
      ".",
      "L"
    ],
    [
      ".",
      "L"
    ],
    [
      ".",
      "L"
    ],
    [
      ".",
      "L"
    ],
    [
      ".",
      "L"
    ],
    [
      ".",
      "L"
    ],
    [
      ".",
      "L"
    ],
    [
      ".",
      "L"
    ],
    [
      ".",
      "L"
    ],
    [
      ".",
      "L"
    ],
    [
      ".",
      "L"
    ],
    [
      ".",
      "L"
    ],
    [
      ".",
      "L"
    ],
    [
      ".",
      "L"
    ],
    [
      ".",
      "L"
    ],
    [
      ".",
      "L"
    ],
    [
      ".",
      "L"
    ],
    [
      ".",
      "L"
    ],
    [
      ".",
      "L"
    ],
    [
      ".",
      "L"
    ],
    [
      ".",
      "L"
    ],
    [
      ".",
      "L"
    ],
    [
      ".",
      "L"
    ],
    [
      ".",
      "L"
    ],
    [
      ".",
      "L"
    ],
    [
      ".",
      "L"
    ],
    [
      ".",
      "L"
    ],
    [
      ".",
      "L"
    ],
    [
      ".",
      "L"
    ],
    [
      ".",
      "L"
    ],
    [
      ".",
      "L"
    ],
    [
      ".",
      "L"
    ],
    [
      ".",
      "L"
    ],
    [
      ".",
      "L"
    ],
    [
      ".",
      "L"
    ],
    [
      ".",
      "L"
    ],
    [
      ".",
      "L"
    ],
    [
      ".",
      "L"
    ],
    [
      ".",
      "L"
    ],
    [
      ".",
      "L"
    ],
    [
      ".",
      "L"
    ],
    [
      ".",
      "L"
    ],
    [
      ".",
      "L"
    ],
    [
      ".",
      "L"
    ],
    [
      ".",
      "L"
    ],
    [
      ".",
      "L"
    ],
    [
      ".",
      "L"
    ],
    [
      ".",
      "L"
    ],
    [
      ".",
      "L"
    ],
    [
      ".",
      "L"
    ],
    [
      ".",
      "L"
    ],
    [
      ".",
      "L"
    ],
    [
      ".",
      "L"
    ],
    [
      ".",
      "L"
    ],
    [
      ".",
      "L"
    ],
    [
      ".",
      "L"
    ],
    [
      ".",
      "L"
    ],
    [
      ".",
      "L"
    ],
    [
      ".",
      "L"
    ],
    [
      ".",
      "L"
    ],
    [
      ".",
      "L"
    ],
    [
      ".",
      "L"
    ],
    [
      ".",
      "L"
    ],
    [
      ".",
      "L"
    ],
    [
      ".",
      "L"
    ],
    [
      ".",
      "L"
    ],
    [
      ".",
      "L"
    ],
    [
      ".",
      "L"
    ],
    [
      ".",
      "L"
    ],
    [
      ".",
      "L"
    ],
    [
      ".",
      "L"
    ],
    [
      ".",
      "L"
    ],
    [
      ".",
      "L"
    ],
    [
      ".",
      "L"
    ],
    [
      ".",
      "L"
    ],
    [
      ".",
      "L"
    ],
    [
      ".",
      "L"
    ],
    [
      ".",
      "L"
    ],
    [
      ".",
      "L"
    ],
    [
      ".",
      "L"
    ],
    [
      ".",
      "L"
    ],
    [
      ".",
      "L"
    ],
    [
      ".",
      "L"
    ],
    [
      ".",
      "L"
    ],
    [
      ".",
      "L"
    ],
    [
      ".",
      "L"
    ],
    [
      ".",
      "L"
    ],
    [
      ".",
      "L"
    ],
    [
      ".",
      "L"
    ],
    [
      ".",
      "L"
    ],
    [
      ".",
      "L"
    ],
    [
      ".",
      "L"
    ],
    [
      ".",
      "L"
    ],
    [
      ".",
      "L"
    ],
    [
      ".",
      "L"
    ],
    [
      ".",
      "L"
    ],
    [
      ".",
      "L"
    ],
    [
      ".",
      "L"
    ],
    [
      ".",
      "L"
    ],
    [
      ".",
      "L"
    ],
    [
      ".",
      "L"
    ],
    [
      ".",
      "L"
    ],
    [
      ".",
      "L"
    ],
    [
      ".",
      "L"
    ],
    [
      ".",
      "L"
    ],
    [
      ".",
      "L"
    ],
    [
      ".",
      "L"
    ],
    [
      ".",
      "L"
    ],
    [
      ".",
      "L"
    ],
    [
      ".",
      "L"
    ],
    [
      ".",
      "L"
    ],
    [
      ".",
      "L"
    ],
    [
      ".",
      "L"
    ],
    [
      ".",
      "L"
    ],
    [
      ".",
      "L"
    ],
    [
      ".",
      "L"
    ],
    [
      ".",
      "L"
    ],
    [
      ".",
      "L"
    ],
    [
      ".",
      "L"
    ],
    [
      ".",
      "L"
    ],
    [
      ".",
      "L"
    ],
    [
      ".",
      "L"
    ],
    [
      ".",
      "L"
    ],
    [
      ".",
      "L"
    ],
    [
      ".",
      "L"
    ],
    [
      ".",
      "L"
    ],
    [
      ".",
      "L"
    ],
    [
      ".",
      "L"
    ],
    [
      ".",
      "L"
    ],
    [
      ".",
      "L"
    ],
    [
      ".",
      "L"
    ],
    [
      ".",
      "L"
    ],
    [
      ".",
      "L"
    ],
    [
      ".",
      "L"
    ],
    [
      ".",
      "L"
    ],
    [
      ".",
      "L"
    ],
    [
      ".",
      "L"
    ],
    [
      ".",
      "L"
    ],
    [
      ".",
      "L"
    ],
    [
      ".",
      "L"
    ],
    [
      ".",
      "L"
    ],
    [
      ".",
      "L"
    ],
    [
      ".",
      "L"
    ],
    [
      ".",
      "L"
    ],
    [
      ".",
      "L"
    ],
    [
      ".",
      "L"
    ],
    [
      ".",
      "L"
    ],
    [
      ".",
      "L"
    ],
    [
      ".",
      "L"
    ],
    [
      ".",
      "L"
    ],
    [
      ".",
      "L"
    ],
    [
      ".",
      "L"
    ],
    [
      ".",
      "L"
    ],
    [
      ".",
      "L"
    ],
    [
      ".",
      "L"
    ],
    [
      ".",
      "L"
    ],
    [
      ".",
      "L"
    ],
    [
      ".",
      "L"
    ],
    [
      ".",
      "L"
    ],
    [
      ".",
      "L"
    ],
    [
      ".",
      "L"
    ],
    [
      ".",
      "L"
    ],
    [
      ".",
      "L"
    ],
    [
      ".",
      "L"
    ],
    [
      ".",
      "L"
    ],
    [
      ".",
      "L"
    ],
    [
      ".",
      "L"
    ],
    [
      ".",
      "L"
    ],
    [
      ".",
      "L"
    ],
    [
      ".",
      "L"
    ],
    [
      ".",
      "L"
    ],
    [
      ".",
      "L"
    ],
    [
      ".",
      "L"
    ],
    [
      ".",
      "L"
    ],
    [
      ".",
      "L"
    ],
    [
      ".",
      "L"
    ],
    [
      ".",
      "L"
    ],
    [
      ".",
      "L"
    ],
    [
      ".",
      "L"
    ],
    [
      ".",
      "L"
    ],
    [
      ".",
      "L"
    ],
    [
      ".",
      "L"
    ],
    [
      ".",
      "L"
    ],
    [
      ".",
      "L"
    ],
    [
      ".",
      "L"
    ],
    [
      ".",
      "L"
    ],
    [
      ".",
      "L"
    ],
    [
      ".",
      "L"
    ],
    [
      ".",
      "L"
    ],
    [
      ".",
      "L"
    ],
    [
      ".",
      "L"
    ],
    [
      ".",
      "L"
    ],
    [
      ".",
      "L"
    ],
    [
      ".",
      "L"
    ],
    [
      ".",
      "L"
    ],
    [
      ".",
      "L"
    ],
    [
      ".",
      "L"
    ],
    [
      ".",
      "L"
    ],
    [
      ".",
      "L"
    ],
    [
      ".",
      "L"
    ],
    [
      ".",
      "L"
    ],
    [
      ".",
      "L"
    ],
    [
      ".",
      "L"
    ],
    [
      ".",
      "L"
    ],
    [
      ".",
      "L"
    ],
    [
      ".",
      "L"
    ],
    [
      ".",
      "L"
    ],
    [
      ".",
      "L"
    ],
    [
      ".",
      "L"
    ],
    [
      ".",
      "L"
    ],
    [
      ".",
      "L"
    ],
    [
      ".",
      "L"
    ],
    [
      ".",
      "L"
    ],
    [
      ".",
      "L"
    ],
    [
      ".",
      "L"
    ],
    [
      ".",
      "L"
    ],
    [
      ".",
      "L"
    ],
    [
      ".",
      "L"
    ],
    [
      ".",
      "L"
    ],
    [
      ".",
      "L"
    ],
    [
      ".",
      "L"
    ],
    [
      ".",
      "L"
    ],
    [
      ".",
      "L"
    ],
    [
      ".",
      "L"
    ],
    [
      ".",
      "L"
    ],
    [
      ".",
      "L"
    ],
    [
      ".",
      "L"
    ],
    [
      ".",
      "L"
    ],
    [
      ".",
      "L"
    ],
    [
      ".",
      "L"
    ],
    [
      ".",
      "L"
    ],
    [
      ".",
      "L"
    ],
    [
      ".",
      "L"
    ],
    [
      ".",
      "L"
    ],
    [
      ".",
      "L"
    ],
    [
      ".",
      "L"
    ],
    [
      ".",
      "L"
    ],
    [
      ".",
      "L"
    ],
    [
      ".",
      "L"
    ],
    [
      ".",
      "L"
    ],
    [
      ".",
      "L"
    ],
    [
      ".",
      "L"
    ],
    [
      ".",
      "L"
    ],
    [
      ".",
      "L"
    ],
    [
      ".",
      "L"
    ],
    [
      ".",
      "L"
    ],
    [
      ".",
      "L"
    ],
    [
      ".",
      "L"
    ],
    [
      ".",
      "L"
    ],
    [
      ".",
      "L"
    ],
    [
      ".",
      "L"
    ],
    [
      ".",
      "L"
    ],
    [
      ".",
      "L"
    ],
    [
      ".",
      "L"
    ],
    [
      ".",
      "L"
    ],
    [
      ".",
      "L"
    ],
    [
      ".",
      "L"
    ],
    [
      ".",
      "L"
    ],
    [
      ".",
      "L"
    ],
    [
      ".",
      "L"
    ],
    [
      ".",
      "L"
    ],
    [
      ".",
      "L"
    ],
    [
      ".",
      "L"
    ],
    [
      ".",
      "L"
    ],
    [
      ".",
      "L"
    ],
    [
      ".",
      "L"
    ],
    [
      ".",
      "L"
    ],
    [
      ".",
      "L"
    ],
    [
      ".",
      "L"
    ],
    [
      ".",
      "L"
    ],
    [
      ".",
      "L"
    ],
    [
      ".",
      "L"
    ],
    [
      ".",
      "L"
    ],
    [
      ".",
      "L"
    ],
    [
      ".",
      "L"
    ],
    [
      ".",
      "L"
    ],
    [
      ".",
      "L"
    ],
    [
      ".",
      "L"
    ],
    [
      ".",
      "L"
    ],
    [
      ".",
      "L"
    ],
    [
      ".",
      "L"
    ],
    [
      ".",
      "L"
    ],
    [
      ".",
      "L"
    ],
    [
      ".",
      "L"
    ],
    [
      ".",
      "L"
    ],
    [
      ".",
      "L"
    ],
    [
      ".",
      "L"
    ],
    [
      ".",
      "L"
    ],
    [
      ".",
      "L"
    ],
    [
      ".",
      "L"
    ],
    [
      ".",
      "L"
    ],
    [
      ".",
      "L"
    ],
    [
      ".",
      "L"
    ],
    [
      ".",
      "L"
    ],
    [
      ".",
      "L"
    ],
    [
      ".",
      "L"
    ],
    [
      ".",
      "L"
    ],
    [
      ".",
      "L"
    ],
    [
      ".",
      "L"
    ],
    [
      ".",
      "L"
    ],
    [
      ".",
      "L"
    ],
    [
      ".",
      "L"
    ],
    [
      ".",
      "L"
    ],
    [
      ".",
      "L"
    ],
    [
      ".",
      "L"
    ],
    [
      ".",
      "L"
    ],
    [
      ".",
      "L"
    ],
    [
      ".",
      "L"
    ],
    [
      ".",
      "L"
    ],
    [
      ".",
      "L"
    ],
    [
      ".",
      "L"
    ],
    [
      ".",
      "L"
    ],
    [
      ".",
      "L"
    ],
    [
      ".",
      "L"
    ],
    [
      ".",
      "L"
    ],
    [
      ".",
      "L"
    ],
    [
      ".",
      "L"
    ],
    [
      ".",
      "L"
    ],
    [
      ".",
      "L"
    ],
    [
      ".",
      "L"
    ],
    [
      ".",
      "L"
    ],
    [
      ".",
      "L"
    ],
    [
      ".",
      "L"
    ],
    [
      ".",
      "L"
    ],
    [
      ".",
      "L"
    ],
    [
      ".",
      "L"
    ],
    [
      ".",
      "L"
    ],
    [
      ".",
      "L"
    ],
    [
      ".",
      "L"
    ],
    [
      ".",
      "L"
    ],
    [
      ".",
      "L"
    ],
    [
      ".",
      "L"
    ],
    [
      ".",
      "L"
    ],
    [
      ".",
      "L"
    ],
    [
      ".",
      "L"
    ],
    [
      ".",
      "L"
    ],
    [
      ".",
      "L"
    ],
    [
      ".",
      "L"
    ],
    [
      ".",
      "L"
    ],
    [
      ".",
      "L"
    ],
    [
      ".",
      "L"
    ],
    [
      ".",
      "L"
    ],
    [
      ".",
      "L"
    ],
    [
      ".",
      "L"
    ],
    [
      ".",
      "L"
    ],
    [
      ".",
      "L"
    ],
    [
      ".",
      "L"
    ],
    [
      ".",
      "L"
    ],
    [
      ".",
      "L"
    ],
    [
      ".",
      "L"
    ],
    [
      ".",
      "L"
    ],
    [
      ".",
      "L"
    ],
    [
      ".",
      "L"
    ],
    [
      ".",
      "L"
    ],
    [
      ".",
      "L"
    ],
    [
      ".",
      "L"
    ],
    [
      ".",
      "L"
    ],
    [
      ".",
      "L"
    ],
    [
      ".",
      "L"
    ],
    [
      ".",
      "L"
    ],
    [
      ".",
      "L"
    ],
    [
      ".",
      "L"
    ],
    [
      ".",
      "L"
    ],
    [
      ".",
      "L"
    ],
    [
      ".",
      "L"
    ],
    [
      ".",
      "L"
    ],
    [
      ".",
      "L"
    ],
    [
      ".",
      "L"
    ],
    [
      ".",
      "L"
    ],
    [
      ".",
      "L"
    ],
    [
      ".",
      "L"
    ],
    [
      ".",
      "L"
    ],
    [
      ".",
      "L"
    ],
    [
      ".",
      "L"
    ],
    [
      ".",
      "L"
    ],
    [
      ".",
      "L"
    ],
    [
      ".",
      "L"
    ],
    [
      ".",
      "L"
    ],
    [
      ".",
      "L"
    ],
    [
      ".",
      "L"
    ],
    [
      ".",
      "L"
    ],
    [
      ".",
      "L"
    ],
    [
      ".",
      "L"
    ],
    [
      ".",
      "L"
    ],
    [
      ".",
      "L"
    ],
    [
      ".",
      "L"
    ],
    [
      ".",
      "L"
    ],
    [
      ".",
      "L"
    ],
    [
      ".",
      "L"
    ],
    [
      ".",
      "L"
    ],
    [
      ".",
      "L"
    ],
    [
      ".",
      "L"
    ],
    [
      ".",
      "L"
    ],
    [
      ".",
      "L"
    ],
    [
      ".",
      "L"
    ],
    [
      ".",
      "L"
    ],
    [
      ".",
      "L"
    ],
    [
      ".",
      "L"
    ],
    [
      ".",
      "L"
    ],
    [
      ".",
      "L"
    ],
    [
      ".",
      "L"
    ],
    [
      ".",
      "L"
    ],
    [
      ".",
      "L"
    ],
    [
      ".",
      "L"
    ],
    [
      ".",
      "L"
    ],
    [
      ".",
      "L"
    ],
    [
      ".",
      "L"
    ],
    [
      ".",
      "L"
    ],
    [
      ".",
      "L"
    ],
    [
      ".",
      "L"
    ],
    [
      ".",
      "L"
    ],
    [
      ".",
      "L"
    ],
    [
      ".",
      "L"
    ],
    [
      ".",
      "L"
    ],
    [
      ".",
      "L"
    ],
    [
      ".",
      "L"
    ],
    [
      ".",
      "L"
    ],
    [
      ".",
      "L"
    ],
    [
      ".",
      "L"
    ],
    [
      ".",
      "L"
    ],
    [
      ".",
      "L"
    ],
    [
      ".",
      "L"
    ],
    [
      ".",
      "L"
    ],
    [
      ".",
      "L"
    ],
    [
      ".",
      "L"
    ],
    [
      ".",
      "L"
    ],
    [
      ".",
      "L"
    ],
    [
      ".",
      "L"
    ],
    [
      ".",
      "L"
    ],
    [
      ".",
      "L"
    ],
    [
      ".",
      "L"
    ],
    [
      ".",
      "L"
    ],
    [
      ".",
      "L"
    ],
    [
      ".",
      "L"
    ],
    [
      ".",
      "L"
    ],
    [
      ".",
      "L"
    ],
    [
      ".",
      "L"
    ],
    [
      ".",
      "L"
    ],
    [
      ".",
      "L"
    ],
    [
      ".",
      "L"
    ],
    [
      ".",
      "L"
    ],
    [
      ".",
      "L"
    ],
    [
      ".",
      "L"
    ],
    [
      ".",
      "L"
    ],
    [
      ".",
      "L"
    ],
    [
      ".",
      "L"
    ],
    [
      ".",
      "L"
    ],
    [
      ".",
      "L"
    ],
    [
      ".",
      "L"
    ],
    [
      ".",
      "L"
    ],
    [
      ".",
      "L"
    ],
    [
      ".",
      "L"
    ],
    [
      ".",
      "L"
    ],
    [
      ".",
      "L"
    ],
    [
      ".",
      "L"
    ],
    [
      ".",
      "L"
    ],
    [
      ".",
      "L"
    ],
    [
      ".",
      "L"
    ],
    [
      ".",
      "L"
    ],
    [
      ".",
      "L"
    ],
    [
      ".",
      "L"
    ],
    [
      ".",
      "L"
    ],
    [
      ".",
      "L"
    ],
    [
      ".",
      "L"
    ],
    [
      ".",
      "L"
    ],
    [
      ".",
      "L"
    ],
    [
      ".",
      "L"
    ],
    [
      ".",
      "L"
    ],
    [
      ".",
      "L"
    ],
    [
      ".",
      "L"
    ],
    [
      ".",
      "L"
    ],
    [
      ".",
      "L"
    ],
    [
      ".",
      "L"
    ],
    [
      ".",
      "L"
    ],
    [
      ".",
      "L"
    ],
    [
      ".",
      "L"
    ],
    [
      ".",
      "L"
    ],
    [
      ".",
      "L"
    ],
    [
      ".",
      "L"
    ],
    [
      ".",
      "L"
    ],
    [
      ".",
      "L"
    ],
    [
      ".",
      "L"
    ],
    [
      ".",
      "L"
    ],
    [
      ".",
      "L"
    ],
    [
      ".",
      "L"
    ],
    [
      ".",
      "L"
    ],
    [
      ".",
      "L"
    ],
    [
      ".",
      "L"
    ],
    [
      ".",
      "L"
    ],
    [
      ".",
      "L"
    ],
    [
      ".",
      "L"
    ],
    [
      ".",
      "L"
    ],
    [
      ".",
      "L"
    ],
    [
      ".",
      "L"
    ],
    [
      ".",
      "L"
    ],
    [
      ".",
      "L"
    ],
    [
      ".",
      "L"
    ],
    [
      ".",
      "L"
    ],
    [
      ".",
      "L"
    ],
    [
      ".",
      "L"
    ],
    [
      ".",
      "L"
    ],
    [
      ".",
      "L"
    ],
    [
      ".",
      "L"
    ],
    [
      ".",
      "L"
    ],
    [
      ".",
      "L"
    ],
    [
      ".",
      "L"
    ],
    [
      ".",
      "L"
    ],
    [
      ".",
      "L"
    ],
    [
      ".",
      "L"
    ],
    [
      ".",
      "L"
    ],
    [
      ".",
      "L"
    ],
    [
      ".",
      "L"
    ],
    [
      ".",
      "L"
    ],
    [
      ".",
      "L"
    ],
    [
      ".",
      "L"
    ],
    [
      ".",
      "L"
    ],
    [
      ".",
      "L"
    ],
    [
      ".",
      "L"
    ],
    [
      ".",
      "L"
    ],
    [
      ".",
      "L"
    ],
    [
      ".",
      "L"
    ],
    [
      ".",
      "L"
    ],
    [
      ".",
      "L"
    ],
    [
      ".",
      "L"
    ],
    [
      ".",
      "L"
    ],
    [
      ".",
      "L"
    ],
    [
      ".",
      "L"
    ],
    [
      ".",
      "L"
    ],
    [
      ".",
      "L"
    ],
    [
      ".",
      "L"
    ],
    [
      ".",
      "L"
    ],
    [
      ".",
      "L"
    ],
    [
      ".",
      "L"
    ],
    [
      ".",
      "L"
    ],
    [
      ".",
      "L"
    ],
    [
      ".",
      "L"
    ],
    [
      ".",
      "L"
    ],
    [
      ".",
      "L"
    ],
    [
      ".",
      "L"
    ],
    [
      ".",
      "L"
    ],
    [
      ".",
      "L"
    ],
    [
      ".",
      "L"
    ],
    [
      ".",
      "L"
    ],
    [
      ".",
      "L"
    ],
    [
      ".",
      "L"
    ],
    [
      ".",
      "L"
    ],
    [
      ".",
      "L"
    ],
    [
      ".",
      "L"
    ],
    [
      ".",
      "L"
    ],
    [
      ".",
      "L"
    ],
    [
      ".",
      "L"
    ],
    [
      ".",
      "L"
    ],
    [
      ".",
      "L"
    ],
    [
      ".",
      "L"
    ],
    [
      ".",
      "L"
    ],
    [
      ".",
      "L"
    ],
    [
      ".",
      "L"
    ],
    [
      ".",
      "L"
    ],
    [
      ".",
      "L"
    ],
    [
      ".",
      "L"
    ],
    [
      ".",
      "L"
    ],
    [
      ".",
      "L"
    ],
    [
      ".",
      "L"
    ],
    [
      ".",
      "L"
    ],
    [
      ".",
      "L"
    ],
    [
      ".",
      "L"
    ],
    [
      ".",
      "L"
    ],
    [
      ".",
      "L"
    ],
    [
      ".",
      "L"
    ],
    [
      ".",
      "L"
    ],
    [
      ".",
      "L"
    ],
    [
      ".",
      "L"
    ],
    [
      ".",
      "L"
    ],
    [
      ".",
      "L"
    ],
    [
      ".",
      "L"
    ],
    [
      ".",
      "L"
    ],
    [
      ".",
      "L"
    ],
    [
      ".",
      "L"
    ],
    [
      ".",
      "L"
    ],
    [
      ".",
      "L"
    ],
    [
      ".",
      "L"
    ],
    [
      ".",
      "L"
    ],
    [
      ".",
      "L"
    ],
    [
      ".",
      "L"
    ],
    [
      ".",
      "L"
    ],
    [
      ".",
      "L"
    ],
    [
      ".",
      "L"
    ],
    [
      ".",
      "L"
    ],
    [
      ".",
      "L"
    ],
    [
      ".",
      "L"
    ],
    [
      ".",
      "L"
    ],
    [
      ".",
      "L"
    ],
    [
      ".",
      "L"
    ],
    [
      ".",
      "L"
    ],
    [
      ".",
      "L"
    ],
    [
      ".",
      "L"
    ],
    [
      ".",
      "L"
    ],
    [
      ".",
      "L"
    ],
    [
      ".",
      "L"
    ],
    [
      ".",
      "L"
    ],
    [
      ".",
      "L"
    ],
    [
      ".",
      "L"
    ],
    [
      ".",
      "L"
    ],
    [
      ".",
      "L"
    ],
    [
      ".",
      "L"
    ],
    [
      ".",
      "L"
    ],
    [
      ".",
      "L"
    ],
    [
      ".",
      "L"
    ],
    [
      ".",
      "L"
    ],
    [
      ".",
      "L"
    ],
    [
      ".",
      "L"
    ],
    [
      ".",
      "L"
    ],
    [
      ".",
      "L"
    ],
    [
      ".",
      "L"
    ],
    [
      ".",
      "L"
    ],
    [
      ".",
      "L"
    ],
    [
      ".",
      "L"
    ],
    [
      ".",
      "L"
    ],
    [
      ".",
      "L"
    ],
    [
      ".",
      "L"
    ],
    [
      ".",
      "L"
    ],
    [
      ".",
      "L"
    ],
    [
      ".",
      "L"
    ],
    [
      ".",
      "L"
    ],
    [
      ".",
      "L"
    ],
    [
      ".",
      "L"
    ],
    [
      ".",
      "L"
    ],
    [
      ".",
      "L"
    ],
    [
      ".",
      "L"
    ],
    [
      ".",
      "L"
    ],
    [
      ".",
      "L"
    ],
    [
      ".",
      "L"
    ],
    [
      ".",
      "L"
    ],
    [
      ".",
      "L"
    ],
    [
      ".",
      "L"
    ],
    [
      ".",
      "L"
    ],
    [
      ".",
      "L"
    ],
    [
      ".",
      "L"
    ],
    [
      ".",
      "L"
    ],
    [
      ".",
      "L"
    ],
    [
      ".",
      "L"
    ],
    [
      ".",
      "L"
    ],
    [
      ".",
      "L"
    ],
    [
      ".",
      "L"
    ],
    [
      ".",
      "L"
    ],
    [
      ".",
      "L"
    ],
    [
      ".",
      "L"
    ],
    [
      ".",
      "L"
    ],
    [
      ".",
      "L"
    ],
    [
      ".",
      "L"
    ],
    [
      ".",
      "L"
    ],
    [
      ".",
      "L"
    ],
    [
      ".",
      "L"
    ],
    [
      ".",
      "L"
    ],
    [
      ".",
      "L"
    ],
    [
      ".",
      "L"
    ],
    [
      ".",
      "L"
    ],
    [
      ".",
      "L"
    ],
    [
      ".",
      "L"
    ],
    [
      ".",
      "L"
    ],
    [
      ".",
      "L"
    ],
    [
      ".",
      "L"
    ],
    [
      ".",
      "L"
    ],
    [
      ".",
      "L"
    ],
    [
      ".",
      "L"
    ],
    [
      ".",
      "L"
    ],
    [
      ".",
      "L"
    ],
    [
      ".",
      "L"
    ],
    [
      ".",
      "L"
    ],
    [
      ".",
      "L"
    ],
    [
      ".",
      "L"
    ],
    [
      ".",
      "L"
    ],
    [
      ".",
      "L"
    ],
    [
      ".",
      "L"
    ],
    [
      ".",
      "L"
    ],
    [
      ".",
      "L"
    ],
    [
      ".",
      "L"
    ],
    [
      ".",
      "L"
    ],
    [
      ".",
      "L"
    ],
    [
      ".",
      "L"
    ],
    [
      ".",
      "L"
    ],
    [
      ".",
      "L"
    ],
    [
      ".",
      "L"
    ],
    [
      ".",
      "L"
    ],
    [
      ".",
      "L"
    ],
    [
      ".",
      "L"
    ],
    [
      ".",
      "L"
    ],
    [
      ".",
      "L"
    ],
    [
      ".",
      "L"
    ],
    [
      ".",
      "L"
    ],
    [
      ".",
      "L"
    ],
    [
      ".",
      "L"
    ],
    [
      ".",
      "L"
    ],
    [
      ".",
      "L"
    ],
    [
      ".",
      "L"
    ],
    [
      ".",
      "L"
    ],
    [
      ".",
      "L"
    ],
    [
      ".",
      "L"
    ],
    [
      ".",
      "L"
    ],
    [
      ".",
      "L"
    ],
    [
      ".",
      "L"
    ],
    [
      ".",
      "L"
    ],
    [
      ".",
      "L"
    ],
    [
      ".",
      "L"
    ],
    [
      ".",
      "L"
    ],
    [
      ".",
      "L"
    ],
    [
      ".",
      "L"
    ],
    [
      ".",
      "L"
    ],
    [
      ".",
      "L"
    ],
    [
      ".",
      "L"
    ],
    [
      ".",
      "L"
    ],
    [
      ".",
      "L"
    ],
    [
      ".",
      "L"
    ],
    [
      ".",
      "L"
    ],
    [
      ".",
      "L"
    ],
    [
      ".",
      "L"
    ],
    [
      ".",
      "L"
    ],
    [
      ".",
      "L"
    ],
    [
      ".",
      "L"
    ],
    [
      ".",
      "L"
    ],
    [
      ".",
      "L"
    ],
    [
      ".",
      "L"
    ],
    [
      ".",
      "L"
    ],
    [
      ".",
      "L"
    ],
    [
      ".",
      "L"
    ],
    [
      ".",
      "L"
    ],
    [
      ".",
      "L"
    ],
    [
      ".",
      "L"
    ],
    [
      ".",
      "L"
    ],
    [
      ".",
      "L"
    ],
    [
      ".",
      "L"
    ],
    [
      ".",
      "L"
    ],
    [
      ".",
      "L"
    ],
    [
      ".",
      "L"
    ],
    [
      ".",
      "L"
    ],
    [
      ".",
      "L"
    ],
    [
      ".",
      "L"
    ],
    [
      ".",
      "L"
    ],
    [
      ".",
      "L"
    ],
    [
      ".",
      "L"
    ],
    [
      ".",
      "L"
    ],
    [
      ".",
      "L"
    ],
    [
      ".",
      "L"
    ],
    [
      ".",
      "L"
    ],
    [
      ".",
      "L"
    ],
    [
      ".",
      "L"
    ],
    [
      ".",
      "L"
    ],
    [
      ".",
      "L"
    ],
    [
      ".",
      "L"
    ],
    [
      ".",
      "L"
    ],
    [
      ".",
      "L"
    ],
    [
      ".",
      "L"
    ],
    [
      ".",
      "L"
    ],
    [
      ".",
      "L"
    ],
    [
      ".",
      "L"
    ],
    [
      ".",
      "L"
    ],
    [
      ".",
      "L"
    ],
    [
      ".",
      "L"
    ],
    [
      ".",
      "L"
    ],
    [
      ".",
      "L"
    ],
    [
      ".",
      "L"
    ],
    [
      ".",
      "L"
    ],
    [
      ".",
      "L"
    ],
    [
      ".",
      "L"
    ],
    [
      ".",
      "L"
    ],
    [
      ".",
      "L"
    ],
    [
      ".",
      "L"
    ],
    [
      ".",
      "L"
    ],
    [
      ".",
      "L"
    ],
    [
      ".",
      "L"
    ],
    [
      ".",
      "L"
    ],
    [
      ".",
      "L"
    ],
    [
      ".",
      "L"
    ],
    [
      ".",
      "L"
    ],
    [
      ".",
      "L"
    ],
    [
      ".",
      "L"
    ],
    [
      ".",
      "L"
    ],
    [
      ".",
      "L"
    ],
    [
      ".",
      "L"
    ],
    [
      ".",
      "L"
    ],
    [
      ".",
      "L"
    ],
    [
      ".",
      "L"
    ],
    [
      ".",
      "L"
    ],
    [
      ".",
      "L"
    ],
    [
      ".",
      "L"
    ],
    [
      ".",
      "L"
    ],
    [
      ".",
      "L"
    ],
    [
      ".",
      "L"
    ],
    [
      ".",
      "L"
    ],
    [
      ".",
      "L"
    ],
    [
      ".",
      "L"
    ],
    [
      ".",
      "L"
    ],
    [
      ".",
      "L"
    ],
    [
      ".",
      "L"
    ],
    [
      ".",
      "L"
    ],
    [
      ".",
      "L"
    ],
    [
      ".",
      "L"
    ],
    [
      ".",
      "L"
    ],
    [
      ".",
      "L"
    ],
    [
      ".",
      "L"
    ],
    [
      ".",
      "L"
    ],
    [
      ".",
      "L"
    ],
    [
      ".",
      "L"
    ],
    [
      ".",
      "L"
    ],
    [
      ".",
      "L"
    ],
    [
      ".",
      "L"
    ],
    [
      ".",
      "L"
    ],
    [
      ".",
      "L"
    ],
    [
      ".",
      "L"
    ],
    [
      ".",
      "L"
    ],
    [
      ".",
      "L"
    ],
    [
      ".",
      "L"
    ],
    [
      ".",
      "L"
    ],
    [
      ".",
      "L"
    ],
    [
      ".",
      "L"
    ],
    [
      ".",
      "L"
    ],
    [
      ".",
      "L"
    ],
    [
      ".",
      "L"
    ],
    [
      ".",
      "L"
    ],
    [
      ".",
      "L"
    ],
    [
      ".",
      "L"
    ],
    [
      ".",
      "L"
    ],
    [
      ".",
      "L"
    ],
    [
      ".",
      "L"
    ],
    [
      ".",
      "L"
    ],
    [
      ".",
      "L"
    ],
    [
      ".",
      "L"
    ],
    [
      ".",
      "L"
    ],
    [
      ".",
      "L"
    ],
    [
      ".",
      "L"
    ],
    [
      ".",
      "L"
    ],
    [
      ".",
      "L"
    ],
    [
      ".",
      "L"
    ],
    [
      ".",
      "L"
    ],
    [
      ".",
      "L"
    ],
    [
      ".",
      "L"
    ],
    [
      ".",
      "L"
    ],
    [
      ".",
      "L"
    ],
    [
      ".",
      "L"
    ],
    [
      ".",
      "L"
    ],
    [
      ".",
      "L"
    ],
    [
      ".",
      "L"
    ],
    [
      ".",
      "L"
    ],
    [
      ".",
      "L"
    ],
    [
      ".",
      "L"
    ],
    [
      ".",
      "L"
    ],
    [
      ".",
      "L"
    ],
    [
      ".",
      "L"
    ],
    [
      ".",
      "L"
    ],
    [
      ".",
      "L"
    ],
    [
      ".",
      "L"
    ],
    [
      ".",
      "L"
    ],
    [
      ".",
      "L"
    ],
    [
      ".",
      "L"
    ],
    [
      ".",
      "L"
    ],
    [
      ".",
      "L"
    ],
    [
      ".",
      "L"
    ],
    [
      ".",
      "L"
    ],
    [
      ".",
      "L"
    ],
    [
      ".",
      "L"
    ],
    [
      ".",
      "L"
    ],
    [
      ".",
      "L"
    ],
    [
      ".",
      "L"
    ],
    [
      ".",
      "L"
    ],
    [
      ".",
      "L"
    ],
    [
      ".",
      "L"
    ],
    [
      ".",
      "L"
    ],
    [
      ".",
      "L"
    ],
    [
      ".",
      "L"
    ],
    [
      ".",
      "L"
    ],
    [
      ".",
      "L"
    ],
    [
      ".",
      "L"
    ],
    [
      ".",
      "L"
    ],
    [
      ".",
      "L"
    ],
    [
      ".",
      "L"
    ],
    [
      ".",
      "L"
    ],
    [
      ".",
      "L"
    ],
    [
      ".",
      "L"
    ],
    [
      ".",
      "L"
    ],
    [
      ".",
      "L"
    ],
    [
      ".",
      "L"
    ],
    [
      ".",
      "L"
    ],
    [
      ".",
      "L"
    ],
    [
      ".",
      "L"
    ],
    [
      ".",
      "L"
    ],
    [
      ".",
      "L"
    ],
    [
      ".",
      "L"
    ],
    [
      ".",
      "L"
    ],
    [
      ".",
      "L"
    ],
    [
      ".",
      "L"
    ],
    [
      ".",
      "L"
    ],
    [
      ".",
      "L"
    ],
    [
      ".",
      "L"
    ],
    [
      ".",
      "L"
    ],
    [
      ".",
      "L"
    ],
    [
      ".",
      "L"
    ],
    [
      ".",
      "L"
    ],
    [
      ".",
      "L"
    ],
    [
      ".",
      "L"
    ],
    [
      ".",
      "L"
    ],
    [
      ".",
      "L"
    ],
    [
      ".",
      "L"
    ],
    [
      ".",
      "L"
    ],
    [
      ".",
      "L"
    ],
    [
      ".",
      "L"
    ],
    [
      ".",
      "L"
    ],
    [
      ".",
      "L"
    ],
    [
      ".",
      "L"
    ],
    [
      ".",
      "L"
    ],
    [
      ".",
      "L"
    ],
    [
      ".",
      "L"
    ],
    [
      ".",
      "L"
    ],
    [
      ".",
      "L"
    ],
    [
      ".",
      "L"
    ],
    [
      ".",
      "L"
    ],
    [
      ".",
      "L"
    ],
    [
      ".",
      "L"
    ],
    [
      ".",
      "L"
    ],
    [
      ".",
      "L"
    ],
    [
      ".",
      "L"
    ],
    [
      ".",
      "L"
    ],
    [
      ".",
      "L"
    ],
    [
      ".",
      "L"
    ],
    [
      ".",
      "L"
    ],
    [
      ".",
      "L"
    ],
    [
      ".",
      "L"
    ],
    [
      ".",
      "L"
    ],
    [
      ".",
      "L"
    ],
    [
      ".",
      "L"
    ],
    [
      ".",
      "L"
    ],
    [
      ".",
      "L"
    ],
    [
      ".",
      "L"
    ],
    [
      ".",
      "L"
    ],
    [
      ".",
      "L"
    ],
    [
      ".",
      "L"
    ],
    [
      ".",
      "L"
    ],
    [
      ".",
      "L"
    ],
    [
      ".",
      "L"
    ],
    [
      ".",
      "L"
    ],
    [
      ".",
      "L"
    ],
    [
      ".",
      "L"
    ],
    [
      ".",
      "L"
    ],
    [
      ".",
      "L"
    ],
    [
      ".",
      "L"
    ],
    [
      ".",
      "L"
    ],
    [
      ".",
      "L"
    ],
    [
      ".",
      "L"
    ],
    [
      ".",
      "L"
    ],
    [
      ".",
      "L"
    ],
    [
      ".",
      "L"
    ],
    [
      ".",
      "L"
    ],
    [
      ".",
      "L"
    ],
    [
      ".",
      "L"
    ],
    [
      ".",
      "L"
    ],
    [
      ".",
      "L"
    ],
    [
      ".",
      "L"
    ],
    [
      ".",
      "L"
    ],
    [
      ".",
      "L"
    ],
    [
      ".",
      "L"
    ],
    [
      ".",
      "L"
    ],
    [
      ".",
      "L"
    ],
    [
      ".",
      "L"
    ],
    [
      ".",
      "L"
    ],
    [
      ".",
      "L"
    ],
    [
      ".",
      "L"
    ],
    [
      ".",
      "L"
    ],
    [
      ".",
      "L"
    ],
    [
      ".",
      "L"
    ],
    [
      ".",
      "L"
    ],
    [
      ".",
      "L"
    ],
    [
      ".",
      "L"
    ],
    [
      ".",
      "L"
    ],
    [
      ".",
      "L"
    ],
    [
      ".",
      "L"
    ],
    [
      ".",
      "L"
    ],
    [
      ".",
      "L"
    ],
    [
      ".",
      "L"
    ],
    [
      ".",
      "L"
    ],
    [
      ".",
      "L"
    ],
    [
      ".",
      "L"
    ],
    [
      ".",
      "L"
    ],
    [
      ".",
      "L"
    ],
    [
      ".",
      "L"
    ],
    [
      ".",
      "L"
    ],
    [
      ".",
      "L"
    ],
    [
      ".",
      "L"
    ],
    [
      ".",
      "L"
    ],
    [
      ".",
      "L"
    ],
    [
      ".",
      "L"
    ],
    [
      ".",
      "L"
    ],
    [
      ".",
      "L"
    ],
    [
      ".",
      "L"
    ],
    [
      ".",
      "L"
    ],
    [
      ".",
      "L"
    ],
    [
      ".",
      "L"
    ],
    [
      ".",
      "L"
    ],
    [
      ".",
      "L"
    ],
    [
      ".",
      "L"
    ],
    [
      ".",
      "L"
    ],
    [
      ".",
      "L"
    ],
    [
      ".",
      "L"
    ],
    [
      ".",
      "L"
    ],
    [
      ".",
      "L"
    ],
    [
      ".",
      "L"
    ],
    [
      ".",
      "L"
    ],
    [
      ".",
      "L"
    ],
    [
      ".",
      "L"
    ],
    [
      ".",
      "L"
    ],
    [
      ".",
      "L"
    ],
    [
      ".",
      "L"
    ],
    [
      ".",
      "L"
    ],
    [
      ".",
      "L"
    ],
    [
      ".",
      "L"
    ],
    [
      ".",
      "L"
    ],
    [
      ".",
      "L"
    ],
    [
      ".",
      "L"
    ],
    [
      ".",
      "L"
    ],
    [
      ".",
      "L"
    ],
    [
      ".",
      "L"
    ],
    [
      ".",
      "L"
    ],
    [
      ".",
      "L"
    ],
    [
      ".",
      "L"
    ],
    [
      ".",
      "L"
    ],
    [
      ".",
      "L"
    ],
    [
      ".",
      "L"
    ],
    [
      ".",
      "L"
    ],
    [
      ".",
      "L"
    ],
    [
      ".",
      "L"
    ],
    [
      ".",
      "L"
    ],
    [
      ".",
      "L"
    ],
    [
      ".",
      "L"
    ],
    [
      ".",
      "L"
    ],
    [
      ".",
      "L"
    ],
    [
      ".",
      "L"
    ],
    [
      ".",
      "L"
    ],
    [
      ".",
      "L"
    ],
    [
      ".",
      "L"
    ],
    [
      ".",
      "L"
    ],
    [
      ".",
      "L"
    ],
    [
      ".",
      "L"
    ],
    [
      ".",
      "L"
    ],
    [
      ".",
      "L"
    ],
    [
      ".",
      "L"
    ],
    [
      ".",
      "L"
    ],
    [
      ".",
      "L"
    ],
    [
      ".",
      "L"
    ],
    [
      ".",
      "L"
    ],
    [
      ".",
      "L"
    ],
    [
      ".",
      "L"
    ],
    [
      ".",
      "L"
    ],
    [
      ".",
      "L"
    ],
    [
      ".",
      "L"
    ],
    [
      ".",
      "L"
    ],
    [
      ".",
      "L"
    ],
    [
      ".",
      "L"
    ],
    [
      ".",
      "L"
    ],
    [
      ".",
      "L"
    ],
    [
      ".",
      "L"
    ],
    [
      ".",
      "L"
    ],
    [
      ".",
      "L"
    ],
    [
      ".",
      "L"
    ],
    [
      ".",
      "L"
    ],
    [
      ".",
      "L"
    ],
    [
      ".",
      "L"
    ],
    [
      ".",
      "L"
    ],
    [
      ".",
      "L"
    ],
    [
      ".",
      "L"
    ],
    [
      ".",
      "L"
    ],
    [
      ".",
      "L"
    ],
    [
      ".",
      "L"
    ],
    [
      ".",
      "L"
    ],
    [
      ".",
      "L"
    ],
    [
      ".",
      "L"
    ],
    [
      ".",
      "L"
    ],
    [
      ".",
      "L"
    ],
    [
      ".",
      "L"
    ],
    [
      ".",
      "L"
    ],
    [
      ".",
      "L"
    ],
    [
      ".",
      "L"
    ],
    [
      ".",
      "L"
    ],
    [
      ".",
      "L"
    ],
    [
      ".",
      "L"
    ],
    [
      ".",
      "L"
    ],
    [
      ".",
      "L"
    ],
    [
      ".",
      "L"
    ],
    [
      ".",
      "L"
    ],
    [
      ".",
      "L"
    ],
    [
      ".",
      "L"
    ],
    [
      ".",
      "L"
    ],
    [
      ".",
      "L"
    ],
    [
      ".",
      "L"
    ],
    [
      ".",
      "L"
    ],
    [
      ".",
      "L"
    ],
    [
      ".",
      "L"
    ],
    [
      ".",
      "L"
    ],
    [
      ".",
      "L"
    ],
    [
      ".",
      "L"
    ],
    [
      ".",
      "L"
    ],
    [
      ".",
      "L"
    ],
    [
      ".",
      "L"
    ],
    [
      ".",
      "L"
    ],
    [
      ".",
      "L"
    ],
    [
      ".",
      "L"
    ],
    [
      ".",
      "L"
    ],
    [
      ".",
      "L"
    ],
    [
      ".",
      "L"
    ],
    [
      ".",
      "L"
    ],
    [
      ".",
      "L"
    ],
    [
      ".",
      "L"
    ],
    [
      ".",
      "L"
    ],
    [
      ".",
      "L"
    ],
    [
      ".",
      "L"
    ],
    [
      ".",
      "L"
    ],
    [
      ".",
      "L"
    ],
    [
      ".",
      "L"
    ],
    [
      ".",
      "L"
    ],
    [
      ".",
      "L"
    ],
    [
      ".",
      "L"
    ],
    [
      ".",
      "L"
    ],
    [
      ".",
      "L"
    ],
    [
      ".",
      "L"
    ],
    [
      ".",
      "L"
    ],
    [
      ".",
      "L"
    ],
    [
      ".",
      "L"
    ],
    [
      ".",
      "L"
    ],
    [
      ".",
      "L"
    ],
    [
      ".",
      "L"
    ],
    [
      ".",
      "L"
    ],
    [
      ".",
      "L"
    ],
    [
      ".",
      "L"
    ],
    [
      ".",
      "L"
    ],
    [
      ".",
      "L"
    ],
    [
      ".",
      "L"
    ],
    [
      ".",
      "L"
    ],
    [
      ".",
      "L"
    ],
    [
      ".",
      "L"
    ],
    [
      ".",
      "L"
    ],
    [
      ".",
      "L"
    ],
    [
      ".",
      "L"
    ],
    [
      ".",
      "L"
    ],
    [
      ".",
      "L"
    ],
    [
      ".",
      "L"
    ],
    [
      ".",
      "L"
    ],
    [
      ".",
      "L"
    ],
    [
      ".",
      "L"
    ],
    [
      ".",
      "L"
    ],
    [
      ".",
      "L"
    ],
    [
      ".",
      "L"
    ],
    [
      ".",
      "L"
    ],
    [
      ".",
      "L"
    ],
    [
      ".",
      "L"
    ],
    [
      ".",
      "L"
    ],
    [
      ".",
      "L"
    ],
    [
      ".",
      "L"
    ],
    [
      ".",
      "L"
    ],
    [
      ".",
      "L"
    ],
    [
      ".",
      "L"
    ],
    [
      ".",
      "L"
    ],
    [
      ".",
      "L"
    ],
    [
      ".",
      "L"
    ],
    [
      ".",
      "L"
    ],
    [
      ".",
      "L"
    ],
    [
      ".",
      "L"
    ],
    [
      ".",
      "L"
    ],
    [
      ".",
      "L"
    ],
    [
      ".",
      "L"
    ],
    [
      ".",
      "L"
    ],
    [
      ".",
      "L"
    ],
    [
      ".",
      "L"
    ],
    [
      ".",
      "L"
    ],
    [
      ".",
      "L"
    ],
    [
      ".",
      "L"
    ],
    [
      ".",
      "L"
    ],
    [
      ".",
      "L"
    ],
    [
      ".",
      "L"
    ],
    [
      ".",
      "L"
    ],
    [
      ".",
      "L"
    ],
    [
      ".",
      "L"
    ],
    [
      ".",
      "L"
    ],
    [
      ".",
      "L"
    ],
    [
      ".",
      "L"
    ],
    [
      ".",
      "L"
    ],
    [
      ".",
      "L"
    ],
    [
      ".",
      "L"
    ],
    [
      ".",
      "L"
    ],
    [
      ".",
      "L"
    ],
    [
      ".",
      "L"
    ],
    [
      ".",
      "L"
    ],
    [
      ".",
      "L"
    ],
    [
      ".",
      "L"
    ],
    [
      ".",
      "L"
    ],
    [
      ".",
      "L"
    ],
    [
      ".",
      "L"
    ],
    [
      ".",
      "L"
    ],
    [
      ".",
      "L"
    ],
    [
      ".",
      "L"
    ],
    [
      ".",
      "L"
    ],
    [
      ".",
      "L"
    ],
    [
      ".",
      "L"
    ],
    [
      ".",
      "L"
    ],
    [
      ".",
      "L"
    ],
    [
      ".",
      "L"
    ],
    [
      ".",
      "L"
    ],
    [
      ".",
      "L"
    ],
    [
      ".",
      "L"
    ],
    [
      ".",
      "L"
    ],
    [
      ".",
      "L"
    ],
    [
      ".",
      "L"
    ],
    [
      ".",
      "L"
    ],
    [
      ".",
      "L"
    ],
    [
      ".",
      "L"
    ],
    [
      ".",
      "L"
    ],
    [
      ".",
      "L"
    ],
    [
      ".",
      "L"
    ],
    [
      ".",
      "L"
    ],
    [
      ".",
      "L"
    ],
    [
      ".",
      "L"
    ],
    [
      ".",
      "L"
    ],
    [
      ".",
      "L"
    ],
    [
      ".",
      "L"
    ],
    [
      ".",
      "L"
    ],
    [
      ".",
      "L"
    ],
    [
      ".",
      "L"
    ],
    [
      ".",
      "L"
    ],
    [
      ".",
      "L"
    ],
    [
      ".",
      "L"
    ],
    [
      ".",
      "L"
    ],
    [
      ".",
      "L"
    ],
    [
      ".",
      "L"
    ],
    [
      ".",
      "L"
    ],
    [
      ".",
      "L"
    ],
    [
      ".",
      "L"
    ],
    [
      ".",
      "L"
    ],
    [
      ".",
      "L"
    ],
    [
      ".",
      "L"
    ],
    [
      ".",
      "L"
    ],
    [
      ".",
      "L"
    ],
    [
      ".",
      "L"
    ],
    [
      ".",
      "L"
    ],
    [
      ".",
      "L"
    ],
    [
      ".",
      "L"
    ],
    [
      ".",
      "L"
    ],
    [
      ".",
      "L"
    ],
    [
      ".",
      "L"
    ],
    [
      ".",
      "L"
    ],
    [
      ".",
      "L"
    ],
    [
      ".",
      "L"
    ],
    [
      ".",
      "L"
    ],
    [
      ".",
      "L"
    ],
    [
      ".",
      "L"
    ],
    [
      ".",
      "L"
    ],
    [
      ".",
      "L"
    ],
    [
      ".",
      "L"
    ],
    [
      ".",
      "L"
    ],
    [
      ".",
      "L"
    ],
    [
      ".",
      "L"
    ],
    [
      ".",
      "L"
    ],
    [
      ".",
      "L"
    ],
    [
      ".",
      "L"
    ],
    [
      ".",
      "L"
    ],
    [
      ".",
      "L"
    ],
    [
      ".",
      "L"
    ],
    [
      ".",
      "L"
    ],
    [
      ".",
      "L"
    ],
    [
      ".",
      "L"
    ],
    [
      ".",
      "L"
    ],
    [
      ".",
      "L"
    ],
    [
      ".",
      "L"
    ],
    [
      ".",
      "L"
    ],
    [
      ".",
      "L"
    ],
    [
      ".",
      "L"
    ],
    [
      ".",
      "L"
    ],
    [
      ".",
      "L"
    ],
    [
      ".",
      "L"
    ],
    [
      ".",
      "L"
    ],
    [
      ".",
      "L"
    ],
    [
      ".",
      "L"
    ],
    [
      ".",
      "L"
    ],
    [
      ".",
      "L"
    ],
    [
      ".",
      "L"
    ],
    [
      ".",
      "L"
    ],
    [
      ".",
      "L"
    ],
    [
      ".",
      "L"
    ],
    [
      ".",
      "L"
    ],
    [
      ".",
      "L"
    ],
    [
      ".",
      "L"
    ],
    [
      ".",
      "L"
    ],
    [
      ".",
      "L"
    ],
    [
      ".",
      "L"
    ],
    [
      ".",
      "L"
    ],
    [
      ".",
      "L"
    ],
    [
      ".",
      "L"
    ],
    [
      ".",
      "L"
    ],
    [
      ".",
      "L"
    ],
    [
      ".",
      "L"
    ],
    [
      ".",
      "L"
    ],
    [
      ".",
      "L"
    ],
    [
      ".",
      "L"
    ],
    [
      ".",
      "L"
    ],
    [
      ".",
      "L"
    ],
    [
      ".",
      "L"
    ],
    [
      ".",
      "L"
    ],
    [
      ".",
      "L"
    ],
    [
      ".",
      "L"
    ],
    [
      ".",
      "L"
    ],
    [
      ".",
      "L"
    ],
    [
      ".",
      "L"
    ],
    [
      ".",
      "L"
    ],
    [
      ".",
      "L"
    ],
    [
      ".",
      "L"
    ],
    [
      ".",
      "L"
    ],
    [
      ".",
      "L"
    ],
    [
      ".",
      "L"
    ],
    [
      ".",
      "L"
    ],
    [
      ".",
      "L"
    ],
    [
      ".",
      "L"
    ],
    [
      ".",
      "L"
    ],
    [
      ".",
      "L"
    ],
    [
      ".",
      "L"
    ],
    [
      ".",
      "L"
    ],
    [
      ".",
      "L"
    ],
    [
      ".",
      "L"
    ],
    [
      ".",
      "L"
    ],
    [
      ".",
      "L"
    ],
    [
      ".",
      "L"
    ],
    [
      ".",
      "L"
    ],
    [
      ".",
      "L"
    ],
    [
      ".",
      "L"
    ],
    [
      ".",
      "L"
    ],
    [
      ".",
      "L"
    ],
    [
      ".",
      "L"
    ],
    [
      ".",
      "L"
    ],
    [
      ".",
      "L"
    ],
    [
      ".",
      "L"
    ],
    [
      ".",
      "L"
    ],
    [
      ".",
      "L"
    ],
    [
      ".",
      "L"
    ],
    [
      ".",
      "L"
    ],
    [
      ".",
      "L"
    ],
    [
      ".",
      "L"
    ],
    [
      ".",
      "L"
    ],
    [
      ".",
      "L"
    ],
    [
      ".",
      "L"
    ],
    [
      ".",
      "L"
    ],
    [
      ".",
      "L"
    ],
    [
      ".",
      "L"
    ],
    [
      ".",
      "L"
    ],
    [
      ".",
      "L"
    ],
    [
      ".",
      "L"
    ],
    [
      ".",
      "L"
    ],
    [
      ".",
      "L"
    ],
    [
      ".",
      "L"
    ],
    [
      ".",
      "L"
    ],
    [
      ".",
      "L"
    ],
    [
      ".",
      "L"
    ],
    [
      ".",
      "L"
    ],
    [
      ".",
      "L"
    ],
    [
      ".",
      "L"
    ],
    [
      ".",
      "L"
    ],
    [
      ".",
      "L"
    ],
    [
      ".",
      "L"
    ],
    [
      ".",
      "L"
    ],
    [
      ".",
      "L"
    ],
    [
      ".",
      "L"
    ],
    [
      ".",
      "L"
    ],
    [
      ".",
      "L"
    ],
    [
      ".",
      "L"
    ],
    [
      ".",
      "L"
    ],
    [
      ".",
      "L"
    ],
    [
      ".",
      "L"
    ],
    [
      ".",
      "L"
    ],
    [
      ".",
      "L"
    ],
    [
      ".",
      "L"
    ],
    [
      ".",
      "L"
    ],
    [
      ".",
      "L"
    ],
    [
      ".",
      "L"
    ],
    [
      ".",
      "L"
    ],
    [
      ".",
      "L"
    ],
    [
      ".",
      "L"
    ],
    [
      ".",
      "L"
    ],
    [
      ".",
      "L"
    ],
    [
      ".",
      "L"
    ],
    [
      ".",
      "L"
    ],
    [
      ".",
      "L"
    ],
    [
      ".",
      "L"
    ],
    [
      ".",
      "L"
    ],
    [
      ".",
      "L"
    ],
    [
      ".",
      "L"
    ],
    [
      ".",
      "L"
    ],
    [
      ".",
      "L"
    ],
    [
      ".",
      "L"
    ],
    [
      ".",
      "L"
    ],
    [
      ".",
      "L"
    ],
    [
      ".",
      "L"
    ],
    [
      ".",
      "L"
    ],
    [
      ".",
      "L"
    ],
    [
      ".",
      "L"
    ],
    [
      ".",
      "L"
    ],
    [
      ".",
      "L"
    ],
    [
      ".",
      "L"
    ],
    [
      ".",
      "L"
    ],
    [
      ".",
      "L"
    ],
    [
      ".",
      "L"
    ],
    [
      ".",
      "L"
    ],
    [
      ".",
      "L"
    ],
    [
      ".",
      "L"
    ],
    [
      ".",
      "L"
    ],
    [
      ".",
      "L"
    ],
    [
      ".",
      "L"
    ],
    [
      ".",
      "L"
    ],
    [
      ".",
      "L"
    ],
    [
      ".",
      "L"
    ],
    [
      ".",
      "L"
    ],
    [
      ".",
      "L"
    ],
    [
      ".",
      "L"
    ],
    [
      ".",
      "L"
    ],
    [
      ".",
      "L"
    ],
    [
      ".",
      "L"
    ],
    [
      ".",
      "L"
    ],
    [
      ".",
      "L"
    ],
    [
      ".",
      "L"
    ],
    [
      ".",
      "L"
    ],
    [
      ".",
      "L"
    ],
    [
      ".",
      "L"
    ],
    [
      ".",
      "L"
    ],
    [
      ".",
      "L"
    ],
    [
      ".",
      "L"
    ],
    [
      ".",
      "L"
    ],
    [
      ".",
      "L"
    ],
    [
      ".",
      "L"
    ],
    [
      ".",
      "L"
    ],
    [
      ".",
      "L"
    ],
    [
      ".",
      "L"
    ],
    [
      ".",
      "L"
    ],
    [
      ".",
      "L"
    ],
    [
      ".",
      "L"
    ],
    [
      ".",
      "L"
    ],
    [
      ".",
      "L"
    ],
    [
      ".",
      "L"
    ],
    [
      ".",
      "L"
    ],
    [
      ".",
      "L"
    ],
    [
      ".",
      "L"
    ],
    [
      ".",
      "L"
    ],
    [
      ".",
      "L"
    ],
    [
      ".",
      "L"
    ],
    [
      ".",
      "L"
    ],
    [
      ".",
      "L"
    ],
    [
      ".",
      "L"
    ],
    [
      ".",
      "L"
    ],
    [
      ".",
      "L"
    ],
    [
      ".",
      "L"
    ],
    [
      ".",
      "L"
    ],
    [
      ".",
      "L"
    ],
    [
      ".",
      "L"
    ],
    [
      ".",
      "L"
    ],
    [
      ".",
      "L"
    ],
    [
      ".",
      "L"
    ],
    [
      ".",
      "L"
    ],
    [
      ".",
      "L"
    ],
    [
      ".",
      "L"
    ],
    [
      ".",
      "L"
    ],
    [
      ".",
      "L"
    ],
    [
      ".",
      "L"
    ],
    [
      ".",
      "L"
    ],
    [
      ".",
      "L"
    ],
    [
      ".",
      "L"
    ],
    [
      ".",
      "L"
    ],
    [
      ".",
      "L"
    ],
    [
      ".",
      "L"
    ],
    [
      ".",
      "L"
    ],
    [
      ".",
      "L"
    ],
    [
      ".",
      "L"
    ],
    [
      ".",
      "L"
    ],
    [
      ".",
      "L"
    ],
    [
      ".",
      "L"
    ],
    [
      ".",
      "L"
    ],
    [
      ".",
      "L"
    ],
    [
      ".",
      "L"
    ],
    [
      ".",
      "L"
    ],
    [
      ".",
      "L"
    ],
    [
      ".",
      "L"
    ],
    [
      ".",
      "L"
    ],
    [
      ".",
      "L"
    ],
    [
      ".",
      "L"
    ],
    [
      ".",
      "L"
    ]
  ]
}