{
  "vocab": {
    " ": 0,
    "!": 1,
    "!!": 2,
    "!!!!": 3,
    "!!!!</w>": 4,
    "!!!</w>": 5,
    "!!</w>": 6,
    "!\"</w>": 7,
    "!)</w>": 8,
    "!*</w>": 9,
    "!</w>": 10,
    "!?</w>": 11,
    "!remindme</w>": 12,
    "\"": 13,
    "\",</w>": 14,
    "\".</w>": 15,
    "\"</w>": 16,
    "\"I</w>": 17,
    "\"girl\"</w>": 18,
    "#": 19,
    "$": 20,
    "%": 21,
    "%</w>": 22,
    "&amp;": 23,
    "&amp;</w>": 24,
    "&gt;": 25,
    "&gt;</w>": 26,
    "&lt;": 27,
    "&lt;3</w>": 28,
    "'": 29,
    "'</w>": 30,
    "'d</w>": 31,
    "'ll</w>": 32,
    "'re</w>": 33,
    "'s.</w>": 34,
    "'s</w>": 35,
    "'t.</w>": 36,
    "'t</w>": 37,
    "'ve</w>": 38,
    "(": 39,
    "(:</w>": 40,
    "(</w>": 41,
    "(or</w>": 42,
    "(ツ)": 43,
    "(ツ)_/¯</w>": 44,
    ")": 45,
    ").</w>": 46,
    ")</w>": 47,
    "*": 48,
    "**": 49,
    "***": 50,
    "***</w>": 51,
    "**</w>": 52,
    "*</w>": 53,
    "*I</w>": 54,
    "+": 55,
    "+</w>": 56,
    ",": 57,
    ",</w>": 58,
    "-": 59,
    "-</w>": 60,
    "-_-</w>": 61,
    "-fi</w>": 62,
    ".": 63,
    ".\"</w>": 64,
    ".)</w>": 65,
    ".*</w>": 66,
    "..": 67,
    "...": 68,
    "...*</w>": 69,
    "....": 70,
    ".....": 71,
    ".....</w>": 72,
    "....</w>": 73,
    "...</w>": 74,
    "..</w>": 75,
    ".</w>": 76,
    "/": 77,
    "/10</w>": 78,
    "/</w>": 79,
    "/r/": 80,
    "/s</w>": 81,
    "/u/": 82,
    "/¯</w>": 83,
    "0": 84,
    "00": 85,
    "000</w>": 86,
    "00</w>": 87,
    "0</w>": 88,
    "1": 89,
    "1-": 90,
    "1-60</w>": 91,
    "1.</w>": 92,
    "10": 93,
    "10.</w>": 94,
    "100": 95,
    "100</w>": 96,
    "101</w>": 97,
    "10</w>": 98,
    "11": 99,
    "11/": 100,
    "11</w>": 101,
    "12": 102,
    "12/": 103,
    "120</w>": 104,
    "12</w>": 105,
    "13": 106,
    "13</w>": 107,
    "14</w>": 108,
    "15": 109,
    "15</w>": 110,
    "16": 111,
    "16</w>": 112,
    "17": 113,
    "17</w>": 114,
    "18": 115,
    "18</w>": 116,
    "19": 117,
    "199": 118,
    "1998</w>": 119,
    "19</w>": 120,
    "1</w>": 121,
    "2": 122,
    "2)</w>": 123,
    "2.": 124,
    "2.</w>": 125,
    "20": 126,
    "20'": 127,
    "20's,</w>": 128,
    "20's.</w>": 129,
    "20's</w>": 130,
    "200": 131,
    "2017</w>": 132,
    "20</w>": 133,
    "21": 134,
    "22": 135,
    "23</w>": 136,
    "24</w>": 137,
    "25": 138,
    "25</w>": 139,
    "28": 140,
    "2</w>": 141,
    "3": 142,
    "3,</w>": 143,
    "3-": 144,
    "3.</w>": 145,
    "30": 146,
    "30's.</w>": 147,
    "30</w>": 148,
    "35": 149,
    "3</w>": 150,
    "4": 151,
    "4,</w>": 152,
    "4-": 153,
    "4.</w>": 154,
    "40</w>": 155,
    "4</w>": 156,
    "5": 157,
    "5'": 158,
    "5.</w>": 159,
    "50</w>": 160,
    "5</w>": 161,
    "6": 162,
    "600</w>": 163,
    "66": 164,
    "6</w>": 165,
    "7": 166,
    "7</w>": 167,
    "8": 168,
    "8</w>": 169,
    "9": 170,
    "9.</w>": 171,
    "90": 172,
    "99": 173,
    "9999": 174,
    "9</w>": 175,
    ":": 176,
    ":'": 177,
    ":')</w>": 178,
    ":(": 179,
    ":(</w>": 180,
    ":)": 181,
    ":))": 182,
    ":)</w>": 183,
    ":-": 184,
    ":-)</w>": 185,
    ":/</w>": 186,
    ":3</w>": 187,
    ":</w>": 188,
    ":D</w>": 189,
    ":P</w>": 190,
    ":l</w>": 191,
    ":o</w>": 192,
    ":p</w>": 193,
    ";": 194,
    ";)</w>": 195,
    ";</w>": 196,
    "</w>": 197,
    "<unk>": 198,
    "=": 199,
    "=)</w>": 200,
    "=</w>": 201,
    "?": 202,
    "?!": 203,
    "?!</w>": 204,
    "?\"</w>": 205,
    "?)</w>": 206,
    "?*</w>": 207,
    "?</w>": 208,
    "??": 209,
    "??</w>": 210,
    "???</w>": 211,
    "@": 212,
    "A": 213,
    "A</w>": 214,
    "AA": 215,
    "AAAA": 216,
    "AC": 217,
    "ALL</w>": 218,
    "AM": 219,
    "AM</w>": 220,
    "AMA": 221,
    "AMA,</w>": 222,
    "AMA</w>": 223,
    "AN": 224,
    "AN</w>": 225,
    "AND</w>": 226,
    "AR": 227,
    "ARE</w>": 228,
    "AS": 229,
    "AT": 230,
    "Ab": 231,
    "About</w>": 232,
    "Ac": 233,
    "Actu": 234,
    "Actually,</w>": 235,
    "Ad": 236,
    "Af": 237,
    "Afric": 238,
    "After</w>": 239,
    "Ah,</w>": 240,
    "Ah</w>": 241,
    "Ahh</w>": 242,
    "Al": 243,
    "All</w>": 244,
    "Almost</w>": 245,
    "Also,</w>": 246,
    "Also</w>": 247,
    "Although</w>": 248,
    "Always</w>": 249,
    "Am</w>": 250,
    "Americ": 251,
    "American</w>": 252,
    "An": 253,
    "An</w>": 254,
    "And</w>": 255,
    "Another</w>": 256,
    "Any": 257,
    "Any</w>": 258,
    "Anybody</w>": 259,
    "Anyone</w>": 260,
    "Anything</w>": 261,
    "Ap": 262,
    "Ar": 263,
    "Arc": 264,
    "Are</w>": 265,
    "As": 266,
    "As</w>": 267,
    "Asi": 268,
    "Asian</w>": 269,
    "Ask</w>": 270,
    "At</w>": 271,
    "Au": 272,
    "Australi": 273,
    "Aw": 274,
    "Aw</w>": 275,
    "Awesome": 276,
    "Awesome!</w>": 277,
    "Awesome</w>": 278,
    "Aww,</w>": 279,
    "Aww</w>": 280,
    "B": 281,
    "B</w>": 282,
    "BE": 283,
    "BI": 284,
    "Bar": 285,
    "Bat": 286,
    "Be": 287,
    "Be</w>": 288,
    "Beat": 289,
    "Beatles</w>": 290,
    "Because</w>": 291,
    "Been</w>": 292,
    "Beer</w>": 293,
    "Begin</w>": 294,
    "Being</w>": 295,
    "Best</w>": 296,
    "Better</w>": 297,
    "Bi": 298,
    "Big</w>": 299,
    "Bir": 300,
    "Birth": 301,
    "Bl": 302,
    "Black</w>": 303,
    "Blonde</w>": 304,
    "Blu": 305,
    "Blue</w>": 306,
    "Bo": 307,
    "Boo": 308,
    "Bor": 309,
    "Both</w>": 310,
    "Br": 311,
    "Bra": 312,
    "Braz": 313,
    "Brea": 314,
    "Breaking</w>": 315,
    "Bri": 316,
    "Bro": 317,
    "Brown</w>": 318,
    "Bu": 319,
    "Bur": 320,
    "But</w>": 321,
    "By</w>": 322,
    "C": 323,
    "C.</w>": 324,
    "C</w>": 325,
    "CA": 326,
    "CH": 327,
    "CK": 328,
    "Ca": 329,
    "Cal": 330,
    "Can": 331,
    "Can't</w>": 332,
    "Can</w>": 333,
    "Canad": 334,
    "Canada</w>": 335,
    "Canadi": 336,
    "Canadian</w>": 337,
    "Candy</w>": 338,
    "Car": 339,
    "Care": 340,
    "Cas": 341,
    "Cat": 342,
    "Ch": 343,
    "Cha": 344,
    "Chat</w>": 345,
    "Che": 346,
    "Chi": 347,
    "Chick": 348,
    "Chicken</w>": 349,
    "Chin": 350,
    "Cho": 351,
    "Chocolate</w>": 352,
    "Christ": 353,
    "Christmas</w>": 354,
    "Cl": 355,
    "Clu": 356,
    "Co": 357,
    "Coff": 358,
    "Coke</w>": 359,
    "Col": 360,
    "Com": 361,
    "Come</w>": 362,
    "Comment</w>": 363,
    "Commun": 364,
    "Communic": 365,
    "Communications</w>": 366,
    "Con": 367,
    "Congrat": 368,
    "Congrats!</w>": 369,
    "Congrats</w>": 370,
    "Congratul": 371,
    "Convers": 372,
    "Cool!</w>": 373,
    "Cool,</w>": 374,
    "Cool</w>": 375,
    "Cor": 376,
    "Correc": 377,
    "Could</w>": 378,
    "Cre": 379,
    "Cu": 380,
    "Curr": 381,
    "Czech</w>": 382,
    "D": 383,
    "D.</w>": 384,
    "D:</w>": 385,
    "D</w>": 386,
    "DE": 387,
    "Dam": 388,
    "Damn,</w>": 389,
    "Damn</w>": 390,
    "Dan": 391,
    "Dang": 392,
    "Dang,</w>": 393,
    "Dark</w>": 394,
    "Day": 395,
    "Day</w>": 396,
    "De": 397,
    "Dec": 398,
    "Definitely</w>": 399,
    "Dep": 400,
    "Depends</w>": 401,
    "Des": 402,
    "Di": 403,
    "Did": 404,
    "Did</w>": 405,
    "Didn't</w>": 406,
    "Dirty</w>": 407,
    "Dis": 408,
    "Do": 409,
    "Do</w>": 410,
    "Does</w>": 411,
    "Don": 412,
    "Don't</w>": 413,
    "Donal": 414,
    "Dou": 415,
    "Dr": 416,
    "Dre": 417,
    "Drink</w>": 418,
    "Dude</w>": 419,
    "Dun": 420,
    "E": 421,
    "E</w>": 422,
    "EE": 423,
    "EEEE": 424,
    "EN": 425,
    "ER": 426,
    "ER</w>": 427,
    "ES": 428,
    "ET</w>": 429,
    "EV": 430,
    "Ear": 431,
    "Early</w>": 432,
    "El": 433,
    "En": 434,
    "Eng": 435,
    "Engl": 436,
    "England</w>": 437,
    "Engli": 438,
    "English</w>": 439,
    "Enjo": 440,
    "Enjoy</w>": 441,
    "Especially</w>": 442,
    "Euro": 443,
    "Even</w>": 444,
    "Ever": 445,
    "Ever</w>": 446,
    "Every": 447,
    "Every</w>": 448,
    "Everyone</w>": 449,
    "Everything</w>": 450,
    "Ex": 451,
    "Exact": 452,
    "Exc": 453,
    "F": 454,
    "F</w>": 455,
    "FU": 456,
    "Fa": 457,
    "Face": 458,
    "Fair</w>": 459,
    "Fan</w>": 460,
    "Favorite</w>": 461,
    "Favour": 462,
    "Favourite</w>": 463,
    "Fe": 464,
    "Feel": 465,
    "Feel</w>": 466,
    "Feeling</w>": 467,
    "Fi": 468,
    "Fin": 469,
    "Find</w>": 470,
    "Fir": 471,
    "First</w>": 472,
    "Fl": 473,
    "Florid": 474,
    "Fo": 475,
    "For": 476,
    "For</w>": 477,
    "Fr": 478,
    "Fran": 479,
    "Franc": 480,
    "Fre": 481,
    "Free</w>": 482,
    "French</w>": 483,
    "Fri": 484,
    "Friday</w>": 485,
    "Friend": 486,
    "Fro": 487,
    "From</w>": 488,
    "Fuc": 489,
    "Fuck</w>": 490,
    "Fun": 491,
    "G": 492,
    "G</w>": 493,
    "GH": 494,
    "GO": 495,
    "GOO": 496,
    "Gam": 497,
    "Game": 498,
    "Game</w>": 499,
    "Gast": 500,
    "Gaston</w>": 501,
    "Ge": 502,
    "Gen": 503,
    "Ger": 504,
    "Get</w>": 505,
    "Getting</w>": 506,
    "Give</w>": 507,
    "Gl": 508,
    "Glad</w>": 509,
    "Glasses.</w>": 510,
    "Glasses</w>": 511,
    "Go": 512,
    "Go</w>": 513,
    "God</w>": 514,
    "Going</w>": 515,
    "Goo": 516,
    "Good</w>": 517,
    "Gor": 518,
    "Got</w>": 519,
    "Gotta</w>": 520,
    "Gr": 521,
    "Gre": 522,
    "Great</w>": 523,
    "Green</w>": 524,
    "Gu": 525,
    "Guess</w>": 526,
    "H": 527,
    "H</w>": 528,
    "HA": 529,
    "HAHA": 530,
    "HH": 531,
    "HO": 532,
    "Ha": 533,
    "Had</w>": 534,
    "Haha": 535,
    "Haha,</w>": 536,
    "Haha.</w>": 537,
    "Haha</w>": 538,
    "Hahaha</w>": 539,
    "Hal": 540,
    "Half</w>": 541,
    "Hallow": 542,
    "Happy</w>": 543,
    "Har": 544,
    "Harry</w>": 545,
    "Has</w>": 546,
    "Hav": 547,
    "Have</w>": 548,
    "Haven't</w>": 549,
    "Having</w>": 550,
    "He": 551,
    "He's</w>": 552,
    "He</w>": 553,
    "Hear": 554,
    "Hel": 555,
    "Hell</w>": 556,
    "Hello": 557,
    "Hello!</w>": 558,
    "Hello,</w>": 559,
    "Hello</w>": 560,
    "Hello😀😊☺🙌👍</w>": 561,
    "Her": 562,
    "Her</w>": 563,
    "Here's</w>": 564,
    "Here</w>": 565,
    "Hey!</w>": 566,
    "Hey,</w>": 567,
    "Hey.</w>": 568,
    "Hey</w>": 569,
    "Hi": 570,
    "Hi!</w>": 571,
    "Hi</w>": 572,
    "High</w>": 573,
    "His</w>": 574,
    "Hit</w>": 575,
    "Hm": 576,
    "Hmm": 577,
    "Hmm,</w>": 578,
    "Hmm</w>": 579,
    "Ho": 580,
    "Hol": 581,
    "Holy</w>": 582,
    "Home</w>": 583,
    "Hon": 584,
    "Honest": 585,
    "Hope</w>": 586,
    "Hopefully</w>": 587,
    "Hor": 588,
    "Hot</w>": 589,
    "How": 590,
    "How'd</w>": 591,
    "How's</w>": 592,
    "How</w>": 593,
    "Hu": 594,
    "Hufflepuff": 595,
    "Hun": 596,
    "I": 597,
    "I'": 598,
    "I'd</w>": 599,
    "I'l</w>": 600,
    "I'll</w>": 601,
    "I'm</w>": 602,
    "I've</w>": 603,
    "I</w>": 604,
    "I?</w>": 605,
    "II": 606,
    "IM": 607,
    "IM</w>": 608,
    "IN": 609,
    "IN</w>": 610,
    "ING": 611,
    "ING</w>": 612,
    "IS": 613,
    "IS</w>": 614,
    "IT": 615,
    "IT</w>": 616,
    "IV": 617,
    "Id": 618,
    "Idk</w>": 619,
    "If</w>": 620,
    "Im</w>": 621,
    "In": 622,
    "In</w>": 623,
    "Indeed</w>": 624,
    "Indi": 625,
    "Inter": 626,
    "Interest": 627,
    "Interesting.</w>": 628,
    "Interesting</w>": 629,
    "Irish</w>": 630,
    "Is</w>": 631,
    "Isn't</w>": 632,
    "It": 633,
    "It's</w>": 634,
    "It</w>": 635,
    "Ital": 636,
    "Its</w>": 637,
    "It’s</w>": 638,
    "Ive</w>": 639,
    "I’": 640,
    "I’m</w>": 641,
    "J": 642,
    "Jack</w>": 643,
    "Jap": 644,
    "Jer": 645,
    "Jes": 646,
    "Jesus</w>": 647,
    "Jim": 648,
    "Jo": 649,
    "Joh": 650,
    "John": 651,
    "Jor": 652,
    "Ju": 653,
    "Just</w>": 654,
    "K": 655,
    "K,</w>": 656,
    "K</w>": 657,
    "Keep</w>": 658,
    "Kill": 659,
    "Kill</w>": 660,
    "Kind</w>": 661,
    "King</w>": 662,
    "Kor": 663,
    "L": 664,
    "L</w>": 665,
    "LE": 666,
    "LES": 667,
    "LI": 668,
    "LL": 669,
    "LL</w>": 670,
    "LO": 671,
    "LOL": 672,
    "LOL.</w>": 673,
    "LOVE</w>": 674,
    "Lab": 675,
    "Last</w>": 676,
    "Late</w>": 677,
    "Le": 678,
    "Let's</w>": 679,
    "Let</w>": 680,
    "Lets</w>": 681,
    "Li": 682,
    "Life</w>": 683,
    "Light</w>": 684,
    "Lik": 685,
    "Like,</w>": 686,
    "Like</w>": 687,
    "Lin": 688,
    "Linkin</w>": 689,
    "List": 690,
    "Listening</w>": 691,
    "Liter": 692,
    "Lmao</w>": 693,
    "Lo": 694,
    "Lol": 695,
    "Lol,</w>": 696,
    "Lol.</w>": 697,
    "Lol</w>": 698,
    "Lond": 699,
    "Long</w>": 700,
    "Loo": 701,
    "Looking</w>": 702,
    "Love</w>": 703,
    "Luck": 704,
    "M": 705,
    "M</w>": 706,
    "ME": 707,
    "ME</w>": 708,
    "MO": 709,
    "MU": 710,
    "MY</w>": 711,
    "Ma": 712,
    "Make</w>": 713,
    "Makes</w>": 714,
    "Mal": 715,
    "Man": 716,
    "Man,</w>": 717,
    "Man</w>": 718,
    "Mar": 719,
    "Marvel</w>": 720,
    "Mass</w>": 721,
    "Mast": 722,
    "May": 723,
    "May</w>": 724,
    "Maybe.</w>": 725,
    "Maybe</w>": 726,
    "Mc": 727,
    "Me": 728,
    "Me!</w>": 729,
    "Me</w>": 730,
    "Mexic": 731,
    "Mid": 732,
    "Mid</w>": 733,
    "Midw": 734,
    "Might</w>": 735,
    "Mil": 736,
    "Min": 737,
    "Mind</w>": 738,
    "Mine</w>": 739,
    "Mo": 740,
    "Mon": 741,
    "Mor": 742,
    "More</w>": 743,
    "Morty</w>": 744,
    "Most</w>": 745,
    "Mostly</w>": 746,
    "Movi": 747,
    "Mr": 748,
    "Mus": 749,
    "Music</w>": 750,
    "My</w>": 751,
    "N": 752,
    "N</w>": 753,
    "NO": 754,
    "NOT</w>": 755,
    "NY</w>": 756,
    "Na": 757,
    "Nah,</w>": 758,
    "Nah</w>": 759,
    "Name</w>": 760,
    "Nana</w>": 761,
    "Ne": 762,
    "Net": 763,
    "Netfli": 764,
    "Netflix</w>": 765,
    "Never</w>": 766,
    "New</w>": 767,
    "Nic": 768,
    "Nice!</w>": 769,
    "Nice,</w>": 770,
    "Nice.</w>": 771,
    "Nice</w>": 772,
    "No": 773,
    "No!</w>": 774,
    "No,</w>": 775,
    "No.</w>": 776,
    "No</w>": 777,
    "Nope": 778,
    "Nope!</w>": 779,
    "Nope,</w>": 780,
    "Nope.</w>": 781,
    "Nope</w>": 782,
    "Nor": 783,
    "North</w>": 784,
    "Not</w>": 785,
    "Nothing</w>": 786,
    "Nov": 787,
    "November</w>": 788,
    "Now</w>": 789,
    "O": 790,
    "O</w>": 791,
    "OM": 792,
    "ON": 793,
    "OO": 794,
    "OOOO": 795,
    "OP": 796,
    "OP.</w>": 797,
    "OP</w>": 798,
    "OU": 799,
    "Ob": 800,
    "Oc": 801,
    "Of": 802,
    "Of</w>": 803,
    "Off": 804,
    "Oh,</w>": 805,
    "Oh.</w>": 806,
    "Oh</w>": 807,
    "Ok": 808,
    "Ok</w>": 809,
    "Okay,</w>": 810,
    "On": 811,
    "On</w>": 812,
    "Once</w>": 813,
    "One</w>": 814,
    "Only</w>": 815,
    "Ooo": 816,
    "Op": 817,
    "Or": 818,
    "Or</w>": 819,
    "Ou": 820,
    "P": 821,
    "P</w>": 822,
    "PM</w>": 823,
    "PR": 824,
    "PS": 825,
    "Pan": 826,
    "Par": 827,
    "Pe": 828,
    "People</w>": 829,
    "Pep": 830,
    "Pepsi?</w>": 831,
    "Per": 832,
    "Ph": 833,
    "Pick</w>": 834,
    "Pineapple</w>": 835,
    "Pizz": 836,
    "Pizza</w>": 837,
    "Pl": 838,
    "Plan": 839,
    "Play</w>": 840,
    "Pleas": 841,
    "Please.</w>": 842,
    "Please</w>": 843,
    "Plenty</w>": 844,
    "Po": 845,
    "Pok": 846,
    "Pokemon</w>": 847,
    "Pol": 848,
    "Poland</w>": 849,
    "Pop": 850,
    "Por": 851,
    "Post</w>": 852,
    "Pr": 853,
    "Pre": 854,
    "Pretty</w>": 855,
    "Pring": 856,
    "Pringles</w>": 857,
    "Pro": 858,
    "Probably</w>": 859,
    "Pu": 860,
    "Q": 861,
    "Qu": 862,
    "Question": 863,
    "Question</w>": 864,
    "Questions</w>": 865,
    "R": 866,
    "R</w>": 867,
    "RE": 868,
    "RE</w>": 869,
    "REA": 870,
    "RI": 871,
    "RO": 872,
    "Ran": 873,
    "Re": 874,
    "Real": 875,
    "Really</w>": 876,
    "Rec": 877,
    "Red": 878,
    "Red</w>": 879,
    "Redd": 880,
    "Reddit": 881,
    "Reddit.</w>": 882,
    "Reddit</w>": 883,
    "Reddit?</w>": 884,
    "Rel": 885,
    "Rem": 886,
    "Remind": 887,
    "RemindMe!</w>": 888,
    "Rep": 889,
    "Republic": 890,
    "Ri": 891,
    "Rick</w>": 892,
    "Righ": 893,
    "Right</w>": 894,
    "Ro": 895,
    "Roc": 896,
    "Rock</w>": 897,
    "Run</w>": 898,
    "Russi": 899,
    "Russian</w>": 900,
    "S": 901,
    "S</w>": 902,
    "SE": 903,
    "SE</w>": 904,
    "SO</w>": 905,
    "SS": 906,
    "ST": 907,
    "Sa": 908,
    "Sad": 909,
    "Sadly</w>": 910,
    "Sal": 911,
    "Same.</w>": 912,
    "Same</w>": 913,
    "Satur": 914,
    "Sc": 915,
    "Sch": 916,
    "School</w>": 917,
    "Sci": 918,
    "Science</w>": 919,
    "Scot": 920,
    "Seas": 921,
    "Sec": 922,
    "See": 923,
    "Sel": 924,
    "Self</w>": 925,
    "Sep": 926,
    "Septem": 927,
    "September</w>": 928,
    "Seri": 929,
    "Sh": 930,
    "Sha": 931,
    "She's</w>": 932,
    "She</w>": 933,
    "Shit</w>": 934,
    "Should</w>": 935,
    "Si": 936,
    "Sitting</w>": 937,
    "Sk": 938,
    "Sm": 939,
    "Sn": 940,
    "So": 941,
    "So,</w>": 942,
    "So</w>": 943,
    "Some": 944,
    "Some</w>": 945,
    "Someone</w>": 946,
    "Something</w>": 947,
    "Sometimes</w>": 948,
    "Sor": 949,
    "Sorry</w>": 950,
    "Sou": 951,
    "Sounds</w>": 952,
    "Sp": 953,
    "Spo": 954,
    "Spoti": 955,
    "Spr": 956,
    "Squ": 957,
    "St": 958,
    "Star": 959,
    "Star</w>": 960,
    "Ste": 961,
    "Still</w>": 962,
    "Stor": 963,
    "Str": 964,
    "Strange</w>": 965,
    "Strawberry</w>": 966,
    "Stu": 967,
    "Su": 968,
    "Sub": 969,
    "Such</w>": 970,
    "Sum": 971,
    "Sun": 972,
    "Sup</w>": 973,
    "Super": 974,
    "Super</w>": 975,
    "Sure,</w>": 976,
    "Sure</w>": 977,
    "Swee": 978,
    "Sweet!</w>": 979,
    "T": 980,
    "T.</w>": 981,
    "T</w>": 982,
    "TF": 983,
    "TH": 984,
    "THE": 985,
    "THE</w>": 986,
    "TI": 987,
    "TO": 988,
    "TO</w>": 989,
    "TOO</w>": 990,
    "TV": 991,
    "TV</w>": 992,
    "Ta": 993,
    "Take</w>": 994,
    "Tal": 995,
    "Talk</w>": 996,
    "Te": 997,
    "Tell</w>": 998,
    "Tells</w>": 999,
    "Ter": 1000,
    "Terri": 1001,
    "Tex": 1002,
    "Texas</w>": 1003,
    "Th": 1004,
    "Tha": 1005,
    "Thank": 1006,
    "Thank</w>": 1007,
    "Thanks!</w>": 1008,
    "Thanks,</w>": 1009,
    "Thanks.</w>": 1010,
    "Thanks</w>": 1011,
    "That": 1012,
    "That's</w>": 1013,
    "That</w>": 1014,
    "Thats</w>": 1015,
    "The": 1016,
    "The</w>": 1017,
    "Then</w>": 1018,
    "There's</w>": 1019,
    "There</w>": 1020,
    "They": 1021,
    "They're</w>": 1022,
    "They</w>": 1023,
    "This</w>": 1024,
    "Tho": 1025,
    "Those</w>": 1026,
    "Thread</w>": 1027,
    "Ti": 1028,
    "Time</w>": 1029,
    "To": 1030,
    "To</w>": 1031,
    "Today</w>": 1032,
    "Too</w>": 1033,
    "Top</w>": 1034,
    "Tot": 1035,
    "Tr": 1036,
    "Tra": 1037,
    "Trav": 1038,
    "Tru": 1039,
    "True</w>": 1040,
    "Trump</w>": 1041,
    "Truth</w>": 1042,
    "Try</w>": 1043,
    "Trying</w>": 1044,
    "Tu": 1045,
    "Tw": 1046,
    "Two</w>": 1047,
    "Ty": 1048,
    "U": 1049,
    "UK</w>": 1050,
    "UM": 1051,
    "UN": 1052,
    "US": 1053,
    "US.</w>": 1054,
    "US</w>": 1055,
    "UU": 1056,
    "Uh</w>": 1057,
    "Un": 1058,
    "Unfortunately</w>": 1059,
    "Unless</w>": 1060,
    "Up": 1061,
    "Up</w>": 1062,
    "Usually</w>": 1063,
    "V": 1064,
    "VE</w>": 1065,
    "Val": 1066,
    "Vancou": 1067,
    "Veg": 1068,
    "Very</w>": 1069,
    "Vi": 1070,
    "Vide": 1071,
    "W": 1072,
    "W</w>": 1073,
    "WA": 1074,
    "WH": 1075,
    "WHA": 1076,
    "Wa": 1077,
    "Wait</w>": 1078,
    "Waiting</w>": 1079,
    "Wal": 1080,
    "Wan": 1081,
    "Wanna</w>": 1082,
    "Want</w>": 1083,
    "War": 1084,
    "Was</w>": 1085,
    "Wat": 1086,
    "Watching</w>": 1087,
    "We": 1088,
    "We're</w>": 1089,
    "We</w>": 1090,
    "Wed": 1091,
    "Wee": 1092,
    "Week": 1093,
    "Weekend</w>": 1094,
    "Weekly</w>": 1095,
    "Well": 1096,
    "Well,</w>": 1097,
    "Well</w>": 1098,
    "Wh": 1099,
    "Wha": 1100,
    "What": 1101,
    "What're</w>": 1102,
    "What's</w>": 1103,
    "What</w>": 1104,
    "What?</w>": 1105,
    "Whatever</w>": 1106,
    "Whats</w>": 1107,
    "What’s</w>": 1108,
    "When": 1109,
    "When</w>": 1110,
    "Where</w>": 1111,
    "Which</w>": 1112,
    "White</w>": 1113,
    "Who": 1114,
    "Who's</w>": 1115,
    "Who</w>": 1116,
    "Why</w>": 1117,
    "Why?</w>": 1118,
    "Wi": 1119,
    "Wil": 1120,
    "Will</w>": 1121,
    "With</w>": 1122,
    "Wo": 1123,
    "Wom": 1124,
    "Woo": 1125,
    "Wor": 1126,
    "Would</w>": 1127,
    "Wow,</w>": 1128,
    "Wow</w>": 1129,
    "Wr": 1130,
    "X": 1131,
    "X</w>": 1132,
    "XD</w>": 1133,
    "Y": 1134,
    "Y!</w>": 1135,
    "Y.</w>": 1136,
    "Y</w>": 1137,
    "YES": 1138,
    "YOU": 1139,
    "YOU</w>": 1140,
    "Yay!</w>": 1141,
    "Ye": 1142,
    "Yea": 1143,
    "Yea</w>": 1144,
    "Yeah,</w>": 1145,
    "Yeah.</w>": 1146,
    "Yeah</w>": 1147,
    "Yep": 1148,
    "Yep!</w>": 1149,
    "Yep,</w>": 1150,
    "Yep.</w>": 1151,
    "Yep</w>": 1152,
    "Yes": 1153,
    "Yes!</w>": 1154,
    "Yes,</w>": 1155,
    "Yes.</w>": 1156,
    "Yes</w>": 1157,
    "You": 1158,
    "You'll</w>": 1159,
    "You're</w>": 1160,
    "You've</w>": 1161,
    "You</w>": 1162,
    "You?</w>": 1163,
    "YouTu": 1164,
    "YouTube</w>": 1165,
    "Your": 1166,
    "Your</w>": 1167,
    "Youre</w>": 1168,
    "Yup.</w>": 1169,
    "Z": 1170,
    "[": 1171,
    "[removed]</w>": 1172,
    "\\": 1173,
    "\\\\": 1174,
    "\\_": 1175,
    "\\_(ツ)_/¯</w>": 1176,
    "]": 1177,
    "](": 1178,
    "]</w>": 1179,
    "^": 1180,
    "^</w>": 1181,
    "^^": 1182,
    "^^^^": 1183,
    "_": 1184,
    "_</w>": 1185,
    "__": 1186,
    "`": 1187,
    "a": 1188,
    "a!</w>": 1189,
    "a,</w>": 1190,
    "a.</w>": 1191,
    "a</w>": 1192,
    "a?</w>": 1193,
    "aa": 1194,
    "aaaa": 1195,
    "ab": 1196,
    "ab</w>": 1197,
    "abil": 1198,
    "able.</w>": 1199,
    "able</w>": 1200,
    "abo": 1201,
    "abou": 1202,
    "about,</w>": 1203,
    "about.</w>": 1204,
    "about</w>": 1205,
    "about?</w>": 1206,
    "above</w>": 1207,
    "absolutely</w>": 1208,
    "ac": 1209,
    "acc": 1210,
    "accep": 1211,
    "accompli": 1212,
    "accomplish": 1213,
    "accomplished/been</w>": 1214,
    "accoun": 1215,
    "account</w>": 1216,
    "accur": 1217,
    "ace": 1218,
    "ace</w>": 1219,
    "ach": 1220,
    "ach</w>": 1221,
    "achiev": 1222,
    "achievem": 1223,
    "achievements</w>": 1224,
    "ack": 1225,
    "ack</w>": 1226,
    "acks</w>": 1227,
    "aco</w>": 1228,
    "act": 1229,
    "actic": 1230,
    "activ": 1231,
    "actu": 1232,
    "actual</w>": 1233,
    "actually,</w>": 1234,
    "actually.</w>": 1235,
    "actually</w>": 1236,
    "acy</w>": 1237,
    "ad": 1238,
    "ad</w>": 1239,
    "add</w>": 1240,
    "addic": 1241,
    "addicted</w>": 1242,
    "ade</w>": 1243,
    "adi": 1244,
    "ading</w>": 1245,
    "adop": 1246,
    "ador": 1247,
    "adorable</w>": 1248,
    "ads</w>": 1249,
    "adult</w>": 1250,
    "adv": 1251,
    "advice</w>": 1252,
    "af": 1253,
    "af.</w>": 1254,
    "aff": 1255,
    "afra": 1256,
    "afraid</w>": 1257,
    "after": 1258,
    "after</w>": 1259,
    "ag": 1260,
    "again": 1261,
    "again.</w>": 1262,
    "again</w>": 1263,
    "against</w>": 1264,
    "age,</w>": 1265,
    "age.</w>": 1266,
    "age</w>": 1267,
    "aged</w>": 1268,
    "ages</w>": 1269,
    "aging</w>": 1270,
    "ago": 1271,
    "ago.</w>": 1272,
    "ago</w>": 1273,
    "agon": 1274,
    "agre": 1275,
    "agree</w>": 1276,
    "ah</w>": 1277,
    "ahead</w>": 1278,
    "ail": 1279,
    "ain": 1280,
    "ain't</w>": 1281,
    "ain</w>": 1282,
    "ak": 1283,
    "ake</w>": 1284,
    "al": 1285,
    "al,</w>": 1286,
    "al.</w>": 1287,
    "al</w>": 1288,
    "al?</w>": 1289,
    "albu": 1290,
    "album</w>": 1291,
    "alcoho": 1292,
    "ali": 1293,
    "ality</w>": 1294,
    "all": 1295,
    "all,</w>": 1296,
    "all.</w>": 1297,
    "all</w>": 1298,
    "all?</w>": 1299,
    "allow": 1300,
    "allowed</w>": 1301,
    "ally!</w>": 1302,
    "ally,</w>": 1303,
    "ally.</w>": 1304,
    "ally</w>": 1305,
    "ally?</w>": 1306,
    "almost</w>": 1307,
    "alone</w>": 1308,
    "along</w>": 1309,
    "already</w>": 1310,
    "alright!</w>": 1311,
    "alright,</w>": 1312,
    "alright.</w>": 1313,
    "als</w>": 1314,
    "also</w>": 1315,
    "altern": 1316,
    "always</w>": 1317,
    "am": 1318,
    "am.</w>": 1319,
    "am</w>": 1320,
    "ama</w>": 1321,
    "amar": 1322,
    "amaz": 1323,
    "amazing!</w>": 1324,
    "amazing.</w>": 1325,
    "amazing</w>": 1326,
    "ame": 1327,
    "ame,</w>": 1328,
    "ame.</w>": 1329,
    "ame</w>": 1330,
    "amm": 1331,
    "amoun": 1332,
    "amp": 1333,
    "an": 1334,
    "an,</w>": 1335,
    "an.</w>": 1336,
    "an</w>": 1337,
    "an?</w>": 1338,
    "ana</w>": 1339,
    "anc": 1340,
    "ance</w>": 1341,
    "ancou": 1342,
    "and": 1343,
    "and.</w>": 1344,
    "and</w>": 1345,
    "ands</w>": 1346,
    "ang": 1347,
    "ang</w>": 1348,
    "ange</w>": 1349,
    "angered</w>": 1350,
    "ani": 1351,
    "anim": 1352,
    "animal": 1353,
    "animal</w>": 1354,
    "animals</w>": 1355,
    "anime</w>": 1356,
    "anno": 1357,
    "annoying</w>": 1358,
    "another</w>": 1359,
    "ans</w>": 1360,
    "answ": 1361,
    "answer,</w>": 1362,
    "answer</w>": 1363,
    "answers—comment</w>": 1364,
    "ant": 1365,
    "ant.</w>": 1366,
    "ant</w>": 1367,
    "antly</w>": 1368,
    "anxi": 1369,
    "any": 1370,
    "any</w>": 1371,
    "anybody</w>": 1372,
    "anymore</w>": 1373,
    "anyone</w>": 1374,
    "anyone?</w>": 1375,
    "anything.</w>": 1376,
    "anything</w>": 1377,
    "anything?</w>": 1378,
    "anyway": 1379,
    "anywhere</w>": 1380,
    "ap": 1381,
    "ap</w>": 1382,
    "apart": 1383,
    "apo": 1384,
    "apolo": 1385,
    "apologi": 1386,
    "app": 1387,
    "app</w>": 1388,
    "appear": 1389,
    "appear</w>": 1390,
    "appeared</w>": 1391,
    "appl": 1392,
    "apple</w>": 1393,
    "appreci": 1394,
    "appreciate</w>": 1395,
    "ar": 1396,
    "ar</w>": 1397,
    "ard": 1398,
    "ard</w>": 1399,
    "ards</w>": 1400,
    "are": 1401,
    "are.</w>": 1402,
    "are</w>": 1403,
    "are?</w>": 1404,
    "area": 1405,
    "aren't</w>": 1406,
    "arent</w>": 1407,
    "argu": 1408,
    "argue</w>": 1409,
    "ari": 1410,
    "ark</w>": 1411,
    "arm": 1412,
    "arm</w>": 1413,
    "arms</w>": 1414,
    "around</w>": 1415,
    "arre</w>": 1416,
    "art</w>": 1417,
    "arti": 1418,
    "ary</w>": 1419,
    "as": 1420,
    "as!</w>": 1421,
    "as,</w>": 1422,
    "as.</w>": 1423,
    "as</w>": 1424,
    "ash": 1425,
    "ash</w>": 1426,
    "ask": 1427,
    "ask</w>": 1428,
    "asked</w>": 1429,
    "asking</w>": 1430,
    "asleep</w>": 1431,
    "ass</w>": 1432,
    "assi": 1433,
    "assu": 1434,
    "assum": 1435,
    "assume</w>": 1436,
    "assuming</w>": 1437,
    "assump": 1438,
    "ast": 1439,
    "ast.</w>": 1440,
    "ast</w>": 1441,
    "aste</w>": 1442,
    "at": 1443,
    "at!</w>": 1444,
    "at,</w>": 1445,
    "at.</w>": 1446,
    "at</w>": 1447,
    "at?</w>": 1448,
    "ate": 1449,
    "ate.</w>": 1450,
    "ate</w>": 1451,
    "ated</w>": 1452,
    "ately</w>": 1453,
    "ater</w>": 1454,
    "ates</w>": 1455,
    "ath": 1456,
    "ati": 1457,
    "atic</w>": 1458,
    "ating</w>": 1459,
    "ation": 1460,
    "ation.</w>": 1461,
    "ation</w>": 1462,
    "ation?</w>": 1463,
    "ational</w>": 1464,
    "ations!</w>": 1465,
    "ations</w>": 1466,
    "ationshi": 1467,
    "atis": 1468,
    "ative</w>": 1469,
    "ator</w>": 1470,
    "ats</w>": 1471,
    "att": 1472,
    "atten": 1473,
    "attention</w>": 1474,
    "attle": 1475,
    "attrac": 1476,
    "attribute</w>": 1477,
    "atu": 1478,
    "atur": 1479,
    "au": 1480,
    "aur": 1481,
    "ause</w>": 1482,
    "auti": 1483,
    "auto": 1484,
    "av": 1485,
    "avail": 1486,
    "available</w>": 1487,
    "ave</w>": 1488,
    "aver": 1489,
    "aving</w>": 1490,
    "aw": 1491,
    "aw</w>": 1492,
    "awake</w>": 1493,
    "away.</w>": 1494,
    "away</w>": 1495,
    "awber": 1496,
    "awesome": 1497,
    "awesome!</w>": 1498,
    "awesome.</w>": 1499,
    "awesome</w>": 1500,
    "awk": 1501,
    "ay": 1502,
    "ay!</w>": 1503,
    "ay,</w>": 1504,
    "ay.</w>": 1505,
    "ay</w>": 1506,
    "ayed</w>": 1507,
    "aying</w>": 1508,
    "ays</w>": 1509,
    "az": 1510,
    "azz": 1511,
    "azz</w>": 1512,
    "b": 1513,
    "b.</w>": 1514,
    "b</w>": 1515,
    "ba": 1516,
    "bab": 1517,
    "baby</w>": 1518,
    "bac": 1519,
    "back": 1520,
    "back,</w>": 1521,
    "back.</w>": 1522,
    "back</w>": 1523,
    "bad": 1524,
    "bad,</w>": 1525,
    "bad.</w>": 1526,
    "bad</w>": 1527,
    "bad?</w>": 1528,
    "bag</w>": 1529,
    "bal": 1530,
    "ball": 1531,
    "ban": 1532,
    "band": 1533,
    "band</w>": 1534,
    "bang": 1535,
    "bar": 1536,
    "bar.</w>": 1537,
    "bar</w>": 1538,
    "bars</w>": 1539,
    "bas": 1540,
    "base</w>": 1541,
    "based</w>": 1542,
    "basement</w>": 1543,
    "basically</w>": 1544,
    "bat": 1545,
    "bby</w>": 1546,
    "bday</w>": 1547,
    "be": 1548,
    "be,</w>": 1549,
    "be.</w>": 1550,
    "be</w>": 1551,
    "be?</w>": 1552,
    "beach": 1553,
    "bear": 1554,
    "beauti": 1555,
    "beautiful.</w>": 1556,
    "beautiful</w>": 1557,
    "because</w>": 1558,
    "become</w>": 1559,
    "bed.</w>": 1560,
    "bed</w>": 1561,
    "been</w>": 1562,
    "been?</w>": 1563,
    "beer.</w>": 1564,
    "beer</w>": 1565,
    "befor": 1566,
    "before.</w>": 1567,
    "before</w>": 1568,
    "begin": 1569,
    "beginning</w>": 1570,
    "beh": 1571,
    "behind</w>": 1572,
    "being</w>": 1573,
    "bel": 1574,
    "beli": 1575,
    "believ": 1576,
    "believe</w>": 1577,
    "below</w>": 1578,
    "ber": 1579,
    "ber</w>": 1580,
    "bers</w>": 1581,
    "bes": 1582,
    "bes</w>": 1583,
    "besides</w>": 1584,
    "best": 1585,
    "best.</w>": 1586,
    "best</w>": 1587,
    "bet": 1588,
    "bet</w>": 1589,
    "bett": 1590,
    "better,</w>": 1591,
    "better.</w>": 1592,
    "better</w>": 1593,
    "between</w>": 1594,
    "bi": 1595,
    "big</w>": 1596,
    "bigg": 1597,
    "biggest</w>": 1598,
    "bike</w>": 1599,
    "bir": 1600,
    "birth": 1601,
    "birthday!</w>": 1602,
    "birthday.</w>": 1603,
    "birthday</w>": 1604,
    "birthday?</w>": 1605,
    "bit.</w>": 1606,
    "bit</w>": 1607,
    "bit?</w>": 1608,
    "bizarre</w>": 1609,
    "bl": 1610,
    "black</w>": 1611,
    "ble": 1612,
    "ble.</w>": 1613,
    "ble</w>": 1614,
    "blic": 1615,
    "blonde</w>": 1616,
    "bloo": 1617,
    "blue</w>": 1618,
    "bly</w>": 1619,
    "bo": 1620,
    "bo</w>": 1621,
    "body</w>": 1622,
    "bom": 1623,
    "bomb</w>": 1624,
    "boo": 1625,
    "book.</w>": 1626,
    "book</w>": 1627,
    "books</w>": 1628,
    "bor": 1629,
    "bored,</w>": 1630,
    "bored.</w>": 1631,
    "bored</w>": 1632,
    "boring</w>": 1633,
    "born</w>": 1634,
    "boss</w>": 1635,
    "bot</w>": 1636,
    "both</w>": 1637,
    "bother": 1638,
    "bought</w>": 1639,
    "bout</w>": 1640,
    "bow": 1641,
    "bow</w>": 1642,
    "bowl</w>": 1643,
    "box": 1644,
    "box</w>": 1645,
    "boy": 1646,
    "boy</w>": 1647,
    "boyfriend</w>": 1648,
    "br": 1649,
    "bra": 1650,
    "bre": 1651,
    "brea": 1652,
    "bread": 1653,
    "break": 1654,
    "break</w>": 1655,
    "breakfast</w>": 1656,
    "bri": 1657,
    "brief": 1658,
    "bring</w>": 1659,
    "bro": 1660,
    "bro.</w>": 1661,
    "bro</w>": 1662,
    "brok": 1663,
    "broke</w>": 1664,
    "brother</w>": 1665,
    "brow": 1666,
    "brown": 1667,
    "brown</w>": 1668,
    "browsing</w>": 1669,
    "bs.</w>": 1670,
    "bs</w>": 1671,
    "bu": 1672,
    "bu?</w>": 1673,
    "bud": 1674,
    "buil": 1675,
    "bum": 1676,
    "bun": 1677,
    "bur": 1678,
    "bus": 1679,
    "bus</w>": 1680,
    "busin": 1681,
    "but</w>": 1682,
    "butt": 1683,
    "butter</w>": 1684,
    "buy</w>": 1685,
    "by</w>": 1686,
    "by?</w>": 1687,
    "c": 1688,
    "c</w>": 1689,
    "ca": 1690,
    "cab": 1691,
    "cak": 1692,
    "cake</w>": 1693,
    "cakes</w>": 1694,
    "cal": 1695,
    "call": 1696,
    "call</w>": 1697,
    "called</w>": 1698,
    "calling</w>": 1699,
    "cam": 1700,
    "came</w>": 1701,
    "camp": 1702,
    "can": 1703,
    "can't</w>": 1704,
    "can.</w>": 1705,
    "can</w>": 1706,
    "canc": 1707,
    "cand": 1708,
    "candy</w>": 1709,
    "cannot</w>": 1710,
    "cap": 1711,
    "car": 1712,
    "car</w>": 1713,
    "card</w>": 1714,
    "care": 1715,
    "care</w>": 1716,
    "cas": 1717,
    "case</w>": 1718,
    "casual</w>": 1719,
    "cat": 1720,
    "cat</w>": 1721,
    "catch</w>": 1722,
    "cats</w>": 1723,
    "caught</w>": 1724,
    "cause</w>": 1725,
    "ce</w>": 1726,
    "cel": 1727,
    "celebr": 1728,
    "celebrate</w>": 1729,
    "cen": 1730,
    "cent": 1731,
    "cer": 1732,
    "cer</w>": 1733,
    "ch": 1734,
    "ch,</w>": 1735,
    "ch.</w>": 1736,
    "ch</w>": 1737,
    "ch?</w>": 1738,
    "cha": 1739,
    "cha</w>": 1740,
    "chall": 1741,
    "chan": 1742,
    "chanc": 1743,
    "chance</w>": 1744,
    "chance?</w>": 1745,
    "chang": 1746,
    "change</w>": 1747,
    "change?</w>": 1748,
    "changed</w>": 1749,
    "channel": 1750,
    "char": 1751,
    "charac": 1752,
    "character</w>": 1753,
    "chat</w>": 1754,
    "che": 1755,
    "chec": 1756,
    "check</w>": 1757,
    "checking</w>": 1758,
    "chee": 1759,
    "chees": 1760,
    "cheese.</w>": 1761,
    "cheese</w>": 1762,
    "chem": 1763,
    "chi": 1764,
    "chick": 1765,
    "chicken</w>": 1766,
    "chil": 1767,
    "childr": 1768,
    "chill": 1769,
    "chill</w>": 1770,
    "ching</w>": 1771,
    "chnic": 1772,
    "chnically</w>": 1773,
    "cho": 1774,
    "chocol": 1775,
    "chocolate</w>": 1776,
    "chol": 1777,
    "choo": 1778,
    "choose</w>": 1779,
    "chy</w>": 1780,
    "ci": 1781,
    "cin": 1782,
    "cir": 1783,
    "city</w>": 1784,
    "ck": 1785,
    "ck</w>": 1786,
    "cket</w>": 1787,
    "cl": 1788,
    "cla": 1789,
    "clas": 1790,
    "class": 1791,
    "class,</w>": 1792,
    "class.</w>": 1793,
    "class</w>": 1794,
    "classes</w>": 1795,
    "classic</w>": 1796,
    "cle</w>": 1797,
    "cles</w>": 1798,
    "cli": 1799,
    "clo": 1800,
    "clos": 1801,
    "close.</w>": 1802,
    "close</w>": 1803,
    "cloth": 1804,
    "clu": 1805,
    "co": 1806,
    "coff": 1807,
    "coffee": 1808,
    "coffee,</w>": 1809,
    "coffee</w>": 1810,
    "col": 1811,
    "cold</w>": 1812,
    "colle": 1813,
    "colleg": 1814,
    "college</w>": 1815,
    "color</w>": 1816,
    "com": 1817,
    "comb": 1818,
    "combin": 1819,
    "come": 1820,
    "come</w>": 1821,
    "comes</w>": 1822,
    "comfort": 1823,
    "comfortable</w>": 1824,
    "comic</w>": 1825,
    "comics</w>": 1826,
    "coming</w>": 1827,
    "comm": 1828,
    "comment": 1829,
    "comment.</w>": 1830,
    "comment</w>": 1831,
    "comments</w>": 1832,
    "common</w>": 1833,
    "commun": 1834,
    "comp": 1835,
    "company</w>": 1836,
    "compl": 1837,
    "complet": 1838,
    "completely</w>": 1839,
    "compli": 1840,
    "compliment</w>": 1841,
    "compu": 1842,
    "computer</w>": 1843,
    "con": 1844,
    "concer": 1845,
    "conf": 1846,
    "confessions</w>": 1847,
    "confid": 1848,
    "confir": 1849,
    "congrat": 1850,
    "connec": 1851,
    "consid": 1852,
    "consider</w>": 1853,
    "considered</w>": 1854,
    "const": 1855,
    "cont": 1856,
    "contac": 1857,
    "contacts</w>": 1858,
    "contin": 1859,
    "contro": 1860,
    "control</w>": 1861,
    "conv": 1862,
    "conveni": 1863,
    "convers": 1864,
    "conversation": 1865,
    "conversation!</w>": 1866,
    "conversation</w>": 1867,
    "conversation?</w>": 1868,
    "coo": 1869,
    "cook": 1870,
    "cookies</w>": 1871,
    "cool": 1872,
    "cool!</w>": 1873,
    "cool,</w>": 1874,
    "cool.</w>": 1875,
    "cool</w>": 1876,
    "cor": 1877,
    "cording</w>": 1878,
    "corn": 1879,
    "correc": 1880,
    "correct</w>": 1881,
    "cot": 1882,
    "cou": 1883,
    "could": 1884,
    "could</w>": 1885,
    "couldn't</w>": 1886,
    "coun": 1887,
    "count</w>": 1888,
    "countr": 1889,
    "countri": 1890,
    "country</w>": 1891,
    "couple</w>": 1892,
    "cour": 1893,
    "course!</w>": 1894,
    "course</w>": 1895,
    "cover": 1896,
    "cover</w>": 1897,
    "cr": 1898,
    "cra": 1899,
    "craz": 1900,
    "crazy</w>": 1901,
    "cre": 1902,
    "cream": 1903,
    "cream</w>": 1904,
    "creative</w>": 1905,
    "creep": 1906,
    "cri": 1907,
    "cro": 1908,
    "crun": 1909,
    "crush": 1910,
    "cry</w>": 1911,
    "cu": 1912,
    "cul": 1913,
    "cup": 1914,
    "cup</w>": 1915,
    "cur": 1916,
    "curi": 1917,
    "curious</w>": 1918,
    "curr": 1919,
    "currently</w>": 1920,
    "cut": 1921,
    "cut</w>": 1922,
    "cute.</w>": 1923,
    "cute</w>": 1924,
    "cuz</w>": 1925,
    "cy": 1926,
    "d": 1927,
    "d!</w>": 1928,
    "d's</w>": 1929,
    "d,</w>": 1930,
    "d.</w>": 1931,
    "d</w>": 1932,
    "d?</w>": 1933,
    "da": 1934,
    "da</w>": 1935,
    "dad": 1936,
    "dad</w>": 1937,
    "daily</w>": 1938,
    "dam": 1939,
    "damn</w>": 1940,
    "dan": 1941,
    "dang": 1942,
    "dar": 1943,
    "dark</w>": 1944,
    "dat": 1945,
    "date</w>": 1946,
    "dating</w>": 1947,
    "day": 1948,
    "day!</w>": 1949,
    "day,</w>": 1950,
    "day.</w>": 1951,
    "day</w>": 1952,
    "day?</w>": 1953,
    "days.</w>": 1954,
    "days</w>": 1955,
    "dd</w>": 1956,
    "de": 1957,
    "de</w>": 1958,
    "dead</w>": 1959,
    "deal</w>": 1960,
    "death</w>": 1961,
    "dec": 1962,
    "decad": 1963,
    "decid": 1964,
    "ded</w>": 1965,
    "deed</w>": 1966,
    "definitely</w>": 1967,
    "degre": 1968,
    "del": 1969,
    "delet": 1970,
    "deleted</w>": 1971,
    "deli": 1972,
    "delici": 1973,
    "delicious</w>": 1974,
    "den": 1975,
    "dep": 1976,
    "depend": 1977,
    "depress": 1978,
    "der": 1979,
    "der</w>": 1980,
    "des": 1981,
    "descri": 1982,
    "describe</w>": 1983,
    "describes</w>": 1984,
    "deser": 1985,
    "dev": 1986,
    "devel": 1987,
    "di": 1988,
    "dic": 1989,
    "dick</w>": 1990,
    "did": 1991,
    "did.</w>": 1992,
    "did</w>": 1993,
    "didn't</w>": 1994,
    "die</w>": 1995,
    "died</w>": 1996,
    "diff": 1997,
    "differ": 1998,
    "difference</w>": 1999,
    "different</w>": 2000,
    "diffic": 2001,
    "din": 2002,
    "ding</w>": 2003,
    "dinn": 2004,
    "dinner.</w>": 2005,
    "dinner</w>": 2006,
    "dir": 2007,
    "dis": 2008,
    "disagree</w>": 2009,
    "disap": 2010,
    "disappoin": 2011,
    "discover": 2012,
    "discovered</w>": 2013,
    "dit</w>": 2014,
    "dk": 2015,
    "dl": 2016,
    "dle</w>": 2017,
    "do": 2018,
    "do!</w>": 2019,
    "do,</w>": 2020,
    "do.</w>": 2021,
    "do</w>": 2022,
    "do?</w>": 2023,
    "doc": 2024,
    "doctor": 2025,
    "does": 2026,
    "does</w>": 2027,
    "doesn't</w>": 2028,
    "dog": 2029,
    "dog</w>": 2030,
    "dogs</w>": 2031,
    "doing</w>": 2032,
    "doing?</w>": 2033,
    "dom": 2034,
    "dom</w>": 2035,
    "don": 2036,
    "don't</w>": 2037,
    "done.</w>": 2038,
    "done</w>": 2039,
    "dont</w>": 2040,
    "don’t</w>": 2041,
    "door": 2042,
    "door</w>": 2043,
    "dou": 2044,
    "doub": 2045,
    "doubt</w>": 2046,
    "down": 2047,
    "down,</w>": 2048,
    "down.</w>": 2049,
    "down</w>": 2050,
    "downvot": 2051,
    "dr": 2052,
    "draw": 2053,
    "draw</w>": 2054,
    "dre": 2055,
    "dream": 2056,
    "dream</w>": 2057,
    "dress": 2058,
    "dri": 2059,
    "drin": 2060,
    "drink</w>": 2061,
    "drink?</w>": 2062,
    "drinking</w>": 2063,
    "drinks</w>": 2064,
    "driv": 2065,
    "drive</w>": 2066,
    "driving</w>": 2067,
    "dro": 2068,
    "drum": 2069,
    "drun": 2070,
    "drunk</w>": 2071,
    "ds.</w>": 2072,
    "ds</w>": 2073,
    "du": 2074,
    "duc": 2075,
    "dud": 2076,
    "dude,</w>": 2077,
    "dude.</w>": 2078,
    "dude</w>": 2079,
    "dun": 2080,
    "dur": 2081,
    "during</w>": 2082,
    "dy.</w>": 2083,
    "dy</w>": 2084,
    "dy?</w>": 2085,
    "dyed</w>": 2086,
    "e": 2087,
    "e!</w>": 2088,
    "e\"</w>": 2089,
    "e's</w>": 2090,
    "e)</w>": 2091,
    "e*</w>": 2092,
    "e,</w>": 2093,
    "e-": 2094,
    "e...": 2095,
    "e...</w>": 2096,
    "e..</w>": 2097,
    "e.</w>": 2098,
    "e:</w>": 2099,
    "e</w>": 2100,
    "e?</w>": 2101,
    "ea": 2102,
    "ea.</w>": 2103,
    "each</w>": 2104,
    "ead</w>": 2105,
    "eak</w>": 2106,
    "eal": 2107,
    "eap": 2108,
    "ear": 2109,
    "ear</w>": 2110,
    "early</w>": 2111,
    "ears</w>": 2112,
    "earth</w>": 2113,
    "eas": 2114,
    "easy</w>": 2115,
    "eat": 2116,
    "eat</w>": 2117,
    "eath</w>": 2118,
    "eating</w>": 2119,
    "eav": 2120,
    "eavy</w>": 2121,
    "ebr": 2122,
    "ec": 2123,
    "ech</w>": 2124,
    "eci": 2125,
    "ecially</w>": 2126,
    "eck</w>": 2127,
    "ect</w>": 2128,
    "ectr": 2129,
    "ectric</w>": 2130,
    "ed": 2131,
    "ed!</w>": 2132,
    "ed,</w>": 2133,
    "ed...</w>": 2134,
    "ed.</w>": 2135,
    "ed/": 2136,
    "ed</w>": 2137,
    "ed?</w>": 2138,
    "ed]</w>": 2139,
    "edit</w>": 2140,
    "ee": 2141,
    "ee.</w>": 2142,
    "ee</w>": 2143,
    "eed.</w>": 2144,
    "eeee": 2145,
    "eel</w>": 2146,
    "een</w>": 2147,
    "eep": 2148,
    "eep</w>": 2149,
    "eeth</w>": 2150,
    "eez": 2151,
    "ef": 2152,
    "eff": 2153,
    "effec": 2154,
    "eg": 2155,
    "egg": 2156,
    "egg</w>": 2157,
    "eggs</w>": 2158,
    "eh</w>": 2159,
    "ei": 2160,
    "either.</w>": 2161,
    "either</w>": 2162,
    "el": 2163,
    "el.</w>": 2164,
    "el</w>": 2165,
    "electric</w>": 2166,
    "eless</w>": 2167,
    "elic": 2168,
    "elicit</w>": 2169,
    "ell": 2170,
    "ell</w>": 2171,
    "elling</w>": 2172,
    "ello</w>": 2173,
    "ellow</w>": 2174,
    "ells</w>": 2175,
    "else</w>": 2176,
    "ely,</w>": 2177,
    "ely.</w>": 2178,
    "ely</w>": 2179,
    "em": 2180,
    "em</w>": 2181,
    "email": 2182,
    "ember</w>": 2183,
    "ement</w>": 2184,
    "emo": 2185,
    "emoj": 2186,
    "emon</w>": 2187,
    "emp": 2188,
    "emplo": 2189,
    "en": 2190,
    "en't</w>": 2191,
    "en,</w>": 2192,
    "en.</w>": 2193,
    "en</w>": 2194,
    "en?</w>": 2195,
    "enc": 2196,
    "ence.</w>": 2197,
    "ence</w>": 2198,
    "ence?</w>": 2199,
    "ences</w>": 2200,
    "ench</w>": 2201,
    "end": 2202,
    "end.</w>": 2203,
    "end</w>": 2204,
    "ended</w>": 2205,
    "ending</w>": 2206,
    "ends</w>": 2207,
    "ene": 2208,
    "enef": 2209,
    "eng": 2210,
    "engli": 2211,
    "eni": 2212,
    "ening</w>": 2213,
    "enjo": 2214,
    "enjoy": 2215,
    "enjoy</w>": 2216,
    "enjoyed</w>": 2217,
    "enni": 2218,
    "enough": 2219,
    "enough,</w>": 2220,
    "enough.</w>": 2221,
    "enough</w>": 2222,
    "ens</w>": 2223,
    "ensive</w>": 2224,
    "ent": 2225,
    "ent!</w>": 2226,
    "ent,</w>": 2227,
    "ent.</w>": 2228,
    "ent</w>": 2229,
    "enter": 2230,
    "entertain": 2231,
    "enti": 2232,
    "entire</w>": 2233,
    "ently</w>": 2234,
    "ents</w>": 2235,
    "enty</w>": 2236,
    "ep": 2237,
    "episo": 2238,
    "episod": 2239,
    "episode</w>": 2240,
    "episodes</w>": 2241,
    "ept</w>": 2242,
    "eption": 2243,
    "equ": 2244,
    "er": 2245,
    "er!</w>": 2246,
    "er's</w>": 2247,
    "er,</w>": 2248,
    "er.</w>": 2249,
    "er</w>": 2250,
    "er?</w>": 2251,
    "erc": 2252,
    "ere": 2253,
    "ere's</w>": 2254,
    "ere</w>": 2255,
    "ered</w>": 2256,
    "erg": 2257,
    "eri": 2258,
    "ering</w>": 2259,
    "ers": 2260,
    "ers,</w>": 2261,
    "ers.</w>": 2262,
    "ers</w>": 2263,
    "ers?</w>": 2264,
    "ery</w>": 2265,
    "es": 2266,
    "es!</w>": 2267,
    "es,</w>": 2268,
    "es.</w>": 2269,
    "es/": 2270,
    "es</w>": 2271,
    "es?</w>": 2272,
    "ese</w>": 2273,
    "esp": 2274,
    "especially</w>": 2275,
    "ess": 2276,
    "ess!</w>": 2277,
    "ess,</w>": 2278,
    "ess.</w>": 2279,
    "ess</w>": 2280,
    "essed</w>": 2281,
    "essi": 2282,
    "essions</w>": 2283,
    "est": 2284,
    "est.</w>": 2285,
    "est</w>": 2286,
    "est?</w>": 2287,
    "ester": 2288,
    "ester</w>": 2289,
    "estion</w>": 2290,
    "et": 2291,
    "et,</w>": 2292,
    "et</w>": 2293,
    "etc": 2294,
    "etch": 2295,
    "ets</w>": 2296,
    "ett": 2297,
    "ety</w>": 2298,
    "ev": 2299,
    "eve</w>": 2300,
    "even</w>": 2301,
    "event": 2302,
    "eventu": 2303,
    "ever": 2304,
    "ever.</w>": 2305,
    "ever</w>": 2306,
    "everal</w>": 2307,
    "every": 2308,
    "every</w>": 2309,
    "everyone's</w>": 2310,
    "everyone</w>": 2311,
    "everything</w>": 2312,
    "ex": 2313,
    "ex</w>": 2314,
    "exac": 2315,
    "exact</w>": 2316,
    "exactly</w>": 2317,
    "exam": 2318,
    "example</w>": 2319,
    "exc": 2320,
    "except</w>": 2321,
    "excit": 2322,
    "excited</w>": 2323,
    "exist": 2324,
    "exp": 2325,
    "expec": 2326,
    "expect</w>": 2327,
    "experienc": 2328,
    "experience.</w>": 2329,
    "experience</w>": 2330,
    "expl": 2331,
    "explain</w>": 2332,
    "ext</w>": 2333,
    "extr": 2334,
    "ey": 2335,
    "ey!</w>": 2336,
    "ey</w>": 2337,
    "eyes,</w>": 2338,
    "eyes.</w>": 2339,
    "eyes</w>": 2340,
    "f": 2341,
    "f-": 2342,
    "f.</w>": 2343,
    "f</w>": 2344,
    "fa": 2345,
    "fac": 2346,
    "face</w>": 2347,
    "fact</w>": 2348,
    "fai": 2349,
    "fair": 2350,
    "fair,</w>": 2351,
    "fair</w>": 2352,
    "fall": 2353,
    "fall</w>": 2354,
    "fam": 2355,
    "famil": 2356,
    "famili": 2357,
    "familiar": 2358,
    "family</w>": 2359,
    "famous</w>": 2360,
    "fan": 2361,
    "fan</w>": 2362,
    "fan?</w>": 2363,
    "fanc": 2364,
    "fancy</w>": 2365,
    "fantast": 2366,
    "far": 2367,
    "far.</w>": 2368,
    "far</w>": 2369,
    "far?</w>": 2370,
    "fas": 2371,
    "fast</w>": 2372,
    "fav": 2373,
    "favorit": 2374,
    "favorite</w>": 2375,
    "favour": 2376,
    "favourite</w>": 2377,
    "fe": 2378,
    "fe</w>": 2379,
    "featu": 2380,
    "fee": 2381,
    "feel": 2382,
    "feel</w>": 2383,
    "feeling</w>": 2384,
    "feels</w>": 2385,
    "feet</w>": 2386,
    "fel": 2387,
    "fell</w>": 2388,
    "fellow</w>": 2389,
    "felt</w>": 2390,
    "fem": 2391,
    "femal": 2392,
    "female</w>": 2393,
    "fer": 2394,
    "fer</w>": 2395,
    "few</w>": 2396,
    "ff": 2397,
    "ff</w>": 2398,
    "ffy</w>": 2399,
    "fi": 2400,
    "fi</w>": 2401,
    "fic": 2402,
    "fic</w>": 2403,
    "fid": 2404,
    "fied</w>": 2405,
    "fiel": 2406,
    "field</w>": 2407,
    "figh": 2408,
    "fighting</w>": 2409,
    "figu": 2410,
    "figure</w>": 2411,
    "figured</w>": 2412,
    "fil": 2413,
    "film</w>": 2414,
    "film?</w>": 2415,
    "fin": 2416,
    "final</w>": 2417,
    "finally</w>": 2418,
    "find</w>": 2419,
    "finding</w>": 2420,
    "fine.</w>": 2421,
    "fine</w>": 2422,
    "fing": 2423,
    "finish</w>": 2424,
    "finished</w>": 2425,
    "finishing</w>": 2426,
    "finit": 2427,
    "fir": 2428,
    "fire": 2429,
    "fire</w>": 2430,
    "first": 2431,
    "first</w>": 2432,
    "fish</w>": 2433,
    "fit</w>": 2434,
    "fix</w>": 2435,
    "fl": 2436,
    "fla": 2437,
    "flav": 2438,
    "fli": 2439,
    "flo": 2440,
    "floating</w>": 2441,
    "flu": 2442,
    "fly</w>": 2443,
    "fol": 2444,
    "foll": 2445,
    "foo": 2446,
    "food.</w>": 2447,
    "food</w>": 2448,
    "food?</w>": 2449,
    "foot</w>": 2450,
    "footb": 2451,
    "for": 2452,
    "for</w>": 2453,
    "for?</w>": 2454,
    "forget</w>": 2455,
    "forgot</w>": 2456,
    "form</w>": 2457,
    "format": 2458,
    "formated</w>": 2459,
    "fortun": 2460,
    "fortunat": 2461,
    "forward</w>": 2462,
    "found</w>": 2463,
    "four</w>": 2464,
    "fr": 2465,
    "fre": 2466,
    "frea": 2467,
    "free": 2468,
    "free</w>": 2469,
    "fri": 2470,
    "fric": 2471,
    "friday</w>": 2472,
    "frien": 2473,
    "friend": 2474,
    "friend!</w>": 2475,
    "friend,</w>": 2476,
    "friend.</w>": 2477,
    "friend</w>": 2478,
    "friend?</w>": 2479,
    "friendly</w>": 2480,
    "friends!</w>": 2481,
    "friends.</w>": 2482,
    "friends</w>": 2483,
    "friends?</w>": 2484,
    "fro": 2485,
    "from</w>": 2486,
    "from?</w>": 2487,
    "fron": 2488,
    "front</w>": 2489,
    "fru": 2490,
    "fruit</w>": 2491,
    "fruits</w>": 2492,
    "ft</w>": 2493,
    "fu": 2494,
    "fuc": 2495,
    "fuck": 2496,
    "fuck</w>": 2497,
    "fucked</w>": 2498,
    "fucking</w>": 2499,
    "ful": 2500,
    "ful.</w>": 2501,
    "ful</w>": 2502,
    "ful?</w>": 2503,
    "full</w>": 2504,
    "fully</w>": 2505,
    "fun": 2506,
    "fun!</w>": 2507,
    "fun.</w>": 2508,
    "fun</w>": 2509,
    "fun?</w>": 2510,
    "funn": 2511,
    "funny.</w>": 2512,
    "funny</w>": 2513,
    "futu": 2514,
    "future</w>": 2515,
    "fy</w>": 2516,
    "g": 2517,
    "g.</w>": 2518,
    "g</w>": 2519,
    "ga</w>": 2520,
    "gal": 2521,
    "gam": 2522,
    "game": 2523,
    "game!</w>": 2524,
    "game.</w>": 2525,
    "game</w>": 2526,
    "game?</w>": 2527,
    "games,</w>": 2528,
    "games.</w>": 2529,
    "games</w>": 2530,
    "games?</w>": 2531,
    "gar": 2532,
    "gar</w>": 2533,
    "gave</w>": 2534,
    "ge": 2535,
    "ge</w>": 2536,
    "gen": 2537,
    "gend": 2538,
    "gener": 2539,
    "general</w>": 2540,
    "genre</w>": 2541,
    "genre?</w>": 2542,
    "geo": 2543,
    "geograph": 2544,
    "ger": 2545,
    "ger</w>": 2546,
    "german": 2547,
    "get</w>": 2548,
    "gets</w>": 2549,
    "getting</w>": 2550,
    "gg": 2551,
    "gh": 2552,
    "gh</w>": 2553,
    "ght</w>": 2554,
    "gi": 2555,
    "gin": 2556,
    "gin</w>": 2557,
    "gir": 2558,
    "girl": 2559,
    "girl\"</w>": 2560,
    "girl.</w>": 2561,
    "girl</w>": 2562,
    "girlfriend</w>": 2563,
    "girls</w>": 2564,
    "give</w>": 2565,
    "given</w>": 2566,
    "gives</w>": 2567,
    "giving</w>": 2568,
    "gl": 2569,
    "glad</w>": 2570,
    "glas": 2571,
    "glasses.</w>": 2572,
    "glasses</w>": 2573,
    "gle</w>": 2574,
    "glitter</w>": 2575,
    "glo": 2576,
    "globe</w>": 2577,
    "go": 2578,
    "go</w>": 2579,
    "go?</w>": 2580,
    "goal": 2581,
    "goal</w>": 2582,
    "god": 2583,
    "god</w>": 2584,
    "goes</w>": 2585,
    "goin</w>": 2586,
    "going</w>": 2587,
    "going?</w>": 2588,
    "gold</w>": 2589,
    "gonna</w>": 2590,
    "goo": 2591,
    "good!</w>": 2592,
    "good,</w>": 2593,
    "good.</w>": 2594,
    "good</w>": 2595,
    "good?</w>": 2596,
    "got</w>": 2597,
    "gott": 2598,
    "gotta</w>": 2599,
    "gotten</w>": 2600,
    "gr": 2601,
    "gra": 2602,
    "grab</w>": 2603,
    "grad": 2604,
    "gradu": 2605,
    "graph": 2606,
    "gras": 2607,
    "grat": 2608,
    "grav": 2609,
    "gre": 2610,
    "great": 2611,
    "great!</w>": 2612,
    "great,</w>": 2613,
    "great.</w>": 2614,
    "great</w>": 2615,
    "green</w>": 2616,
    "gri": 2617,
    "gro": 2618,
    "groc": 2619,
    "groceries.</w>": 2620,
    "grou": 2621,
    "group</w>": 2622,
    "grow</w>": 2623,
    "gs</w>": 2624,
    "gu": 2625,
    "guar": 2626,
    "gue</w>": 2627,
    "gues": 2628,
    "guess": 2629,
    "guess.</w>": 2630,
    "guess</w>": 2631,
    "guessing</w>": 2632,
    "guests</w>": 2633,
    "guil": 2634,
    "guilty</w>": 2635,
    "guit": 2636,
    "guitar</w>": 2637,
    "gust": 2638,
    "guy": 2639,
    "guy.</w>": 2640,
    "guy</w>": 2641,
    "guys</w>": 2642,
    "guys?</w>": 2643,
    "gy": 2644,
    "gy</w>": 2645,
    "gym</w>": 2646,
    "h": 2647,
    "h!</w>": 2648,
    "h,</w>": 2649,
    "h...</w>": 2650,
    "h.</w>": 2651,
    "h</w>": 2652,
    "h?</w>": 2653,
    "ha": 2654,
    "ha</w>": 2655,
    "had</w>": 2656,
    "haha": 2657,
    "haha!</w>": 2658,
    "haha,</w>": 2659,
    "haha.</w>": 2660,
    "haha</w>": 2661,
    "hahaha": 2662,
    "hahaha</w>": 2663,
    "haik": 2664,
    "haiku": 2665,
    "haiku!</w>": 2666,
    "haiku</w>": 2667,
    "hair": 2668,
    "hair,</w>": 2669,
    "hair.</w>": 2670,
    "hair</w>": 2671,
    "hal": 2672,
    "half</w>": 2673,
    "hand": 2674,
    "hand</w>": 2675,
    "hands</w>": 2676,
    "handsome</w>": 2677,
    "hang": 2678,
    "hanging</w>": 2679,
    "happ": 2680,
    "happen": 2681,
    "happen</w>": 2682,
    "happened</w>": 2683,
    "happened?</w>": 2684,
    "happens</w>": 2685,
    "happin": 2686,
    "happiness</w>": 2687,
    "happy.</w>": 2688,
    "happy</w>": 2689,
    "happy?</w>": 2690,
    "har": 2691,
    "hard": 2692,
    "hard</w>": 2693,
    "has</w>": 2694,
    "hat": 2695,
    "hat</w>": 2696,
    "hate</w>": 2697,
    "hates</w>": 2698,
    "hav": 2699,
    "have.</w>": 2700,
    "have</w>": 2701,
    "have?</w>": 2702,
    "haven": 2703,
    "haven't</w>": 2704,
    "having</w>": 2705,
    "he": 2706,
    "he's</w>": 2707,
    "he</w>": 2708,
    "hea": 2709,
    "head": 2710,
    "head</w>": 2711,
    "heal": 2712,
    "health": 2713,
    "hear": 2714,
    "hear</w>": 2715,
    "heard</w>": 2716,
    "heart</w>": 2717,
    "heavy</w>": 2718,
    "heck</w>": 2719,
    "height</w>": 2720,
    "hel": 2721,
    "hell": 2722,
    "hell</w>": 2723,
    "help": 2724,
    "help</w>": 2725,
    "helped</w>": 2726,
    "her": 2727,
    "her.</w>": 2728,
    "her</w>": 2729,
    "her?</w>": 2730,
    "here": 2731,
    "here!</w>": 2732,
    "here,</w>": 2733,
    "here.</w>": 2734,
    "here</w>": 2735,
    "here?</w>": 2736,
    "hero</w>": 2737,
    "hey</w>": 2738,
    "hh": 2739,
    "hh</w>": 2740,
    "hhh": 2741,
    "hhh</w>": 2742,
    "hi": 2743,
    "hi</w>": 2744,
    "high": 2745,
    "high</w>": 2746,
    "hil": 2747,
    "him.</w>": 2748,
    "him</w>": 2749,
    "hip</w>": 2750,
    "his</w>": 2751,
    "histor": 2752,
    "history.</w>": 2753,
    "history</w>": 2754,
    "hit</w>": 2755,
    "ho": 2756,
    "hob": 2757,
    "hobb": 2758,
    "hobbi": 2759,
    "hobby</w>": 2760,
    "hock": 2761,
    "hold": 2762,
    "hold</w>": 2763,
    "home": 2764,
    "home</w>": 2765,
    "hon": 2766,
    "honest": 2767,
    "honestly</w>": 2768,
    "hoo": 2769,
    "hop": 2770,
    "hope</w>": 2771,
    "hoping</w>": 2772,
    "hor": 2773,
    "horri": 2774,
    "hot.</w>": 2775,
    "hot</w>": 2776,
    "hou": 2777,
    "hour": 2778,
    "hour</w>": 2779,
    "hours</w>": 2780,
    "house": 2781,
    "house</w>": 2782,
    "how": 2783,
    "how's</w>": 2784,
    "how</w>": 2785,
    "hu": 2786,
    "hug": 2787,
    "hug*</w>": 2788,
    "hug</w>": 2789,
    "huge</w>": 2790,
    "hugg": 2791,
    "hugs</w>": 2792,
    "hum": 2793,
    "human": 2794,
    "human</w>": 2795,
    "hun": 2796,
    "hungr": 2797,
    "hur": 2798,
    "hus": 2799,
    "hy": 2800,
    "i": 2801,
    "i'": 2802,
    "i'm</w>": 2803,
    "i've</w>": 2804,
    "i.</w>": 2805,
    "i</w>": 2806,
    "ia.</w>": 2807,
    "ia</w>": 2808,
    "ial</w>": 2809,
    "ian": 2810,
    "ian</w>": 2811,
    "ic": 2812,
    "ic.</w>": 2813,
    "ic</w>": 2814,
    "ic?</w>": 2815,
    "ical</w>": 2816,
    "ically</w>": 2817,
    "ican": 2818,
    "ice!</w>": 2819,
    "ice,</w>": 2820,
    "ice.</w>": 2821,
    "ice</w>": 2822,
    "ich</w>": 2823,
    "ick": 2824,
    "ick</w>": 2825,
    "icon</w>": 2826,
    "ics</w>": 2827,
    "icy</w>": 2828,
    "id": 2829,
    "id.</w>": 2830,
    "id</w>": 2831,
    "ide": 2832,
    "ide</w>": 2833,
    "idea": 2834,
    "idea.</w>": 2835,
    "idea</w>": 2836,
    "ides</w>": 2837,
    "idk</w>": 2838,
    "ids</w>": 2839,
    "ie</w>": 2840,
    "ier</w>": 2841,
    "ies.</w>": 2842,
    "ies</w>": 2843,
    "if</w>": 2844,
    "ig": 2845,
    "igh": 2846,
    "ight</w>": 2847,
    "ii": 2848,
    "ik": 2849,
    "il": 2850,
    "il</w>": 2851,
    "ile</w>": 2852,
    "iled</w>": 2853,
    "ili": 2854,
    "ill": 2855,
    "ill.</w>": 2856,
    "ill</w>": 2857,
    "illa": 2858,
    "illa</w>": 2859,
    "ily</w>": 2860,
    "im": 2861,
    "im</w>": 2862,
    "ima": 2863,
    "imag": 2864,
    "imagin": 2865,
    "imagine</w>": 2866,
    "imal": 2867,
    "ime</w>": 2868,
    "imp": 2869,
    "import": 2870,
    "important</w>": 2871,
    "in": 2872,
    "in!</w>": 2873,
    "in'</w>": 2874,
    "in.</w>": 2875,
    "in</w>": 2876,
    "in?</w>": 2877,
    "inc": 2878,
    "ince</w>": 2879,
    "incl": 2880,
    "inconveni": 2881,
    "inconvenient</w>": 2882,
    "incre": 2883,
    "incredi": 2884,
    "ind": 2885,
    "ind</w>": 2886,
    "ine": 2887,
    "ine</w>": 2888,
    "ineap": 2889,
    "ines</w>": 2890,
    "infor": 2891,
    "ing": 2892,
    "ing!!</w>": 2893,
    "ing!</w>": 2894,
    "ing,</w>": 2895,
    "ing...</w>": 2896,
    "ing.</w>": 2897,
    "ing</w>": 2898,
    "ing?</w>": 2899,
    "inging</w>": 2900,
    "ings.</w>": 2901,
    "ings</w>": 2902,
    "ings?</w>": 2903,
    "ini": 2904,
    "ink</w>": 2905,
    "inn": 2906,
    "inner</w>": 2907,
    "insec": 2908,
    "insecure</w>": 2909,
    "inside</w>": 2910,
    "inst": 2911,
    "inste": 2912,
    "instead": 2913,
    "instead</w>": 2914,
    "int": 2915,
    "inten": 2916,
    "inter": 2917,
    "interest": 2918,
    "interested</w>": 2919,
    "interesting.</w>": 2920,
    "interesting</w>": 2921,
    "internet</w>": 2922,
    "interview</w>": 2923,
    "into</w>": 2924,
    "intro": 2925,
    "introduc": 2926,
    "introduce</w>": 2927,
    "inv": 2928,
    "invalidate</w>": 2929,
    "invalidation</w>": 2930,
    "io": 2931,
    "ion</w>": 2932,
    "ip": 2933,
    "ir": 2934,
    "ir.</w>": 2935,
    "ir</w>": 2936,
    "ire</w>": 2937,
    "ired</w>": 2938,
    "irl</w>": 2939,
    "iron": 2940,
    "is": 2941,
    "is!</w>": 2942,
    "is,</w>": 2943,
    "is.</w>": 2944,
    "is</w>": 2945,
    "is?</w>": 2946,
    "ise.</w>": 2947,
    "ise</w>": 2948,
    "ish": 2949,
    "ish</w>": 2950,
    "ision</w>": 2951,
    "ism</w>": 2952,
    "isn't</w>": 2953,
    "issu": 2954,
    "ist": 2955,
    "ist.</w>": 2956,
    "ist</w>": 2957,
    "it": 2958,
    "it!</w>": 2959,
    "it'll</w>": 2960,
    "it's</w>": 2961,
    "it,</w>": 2962,
    "it.</w>": 2963,
    "it</w>": 2964,
    "it?</w>": 2965,
    "ital": 2966,
    "italic": 2967,
    "itch": 2968,
    "itch</w>": 2969,
    "ite.</w>": 2970,
    "ite</w>": 2971,
    "ited</w>": 2972,
    "item": 2973,
    "iter": 2974,
    "ither.</w>": 2975,
    "ither</w>": 2976,
    "iti": 2977,
    "ities</w>": 2978,
    "iting</w>": 2979,
    "ition</w>": 2980,
    "itish</w>": 2981,
    "its.</w>": 2982,
    "its</w>": 2983,
    "itt": 2984,
    "itting</w>": 2985,
    "itty</w>": 2986,
    "ity!</w>": 2987,
    "ity,</w>": 2988,
    "ity.</w>": 2989,
    "ity</w>": 2990,
    "ity?</w>": 2991,
    "it’s</w>": 2992,
    "ive</w>": 2993,
    "iz": 2994,
    "ize</w>": 2995,
    "ized</w>": 2996,
    "izz": 2997,
    "j": 2998,
    "jam": 2999,
    "jazz</w>": 3000,
    "jec": 3001,
    "ject</w>": 3002,
    "jo": 3003,
    "job": 3004,
    "job.</w>": 3005,
    "job</w>": 3006,
    "job?</w>": 3007,
    "join</w>": 3008,
    "jok": 3009,
    "joke</w>": 3010,
    "jokes</w>": 3011,
    "ju": 3012,
    "jud": 3013,
    "judg": 3014,
    "juice</w>": 3015,
    "just</w>": 3016,
    "k": 3017,
    "k!</w>": 3018,
    "k,</w>": 3019,
    "k.</w>": 3020,
    "k</w>": 3021,
    "k?</w>": 3022,
    "kar": 3023,
    "karma</w>": 3024,
    "ke": 3025,
    "ke.</w>": 3026,
    "ke</w>": 3027,
    "ked</w>": 3028,
    "keep": 3029,
    "keep</w>": 3030,
    "keeping</w>": 3031,
    "ker</w>": 3032,
    "kes</w>": 3033,
    "key": 3034,
    "key</w>": 3035,
    "keybo": 3036,
    "keyboard</w>": 3037,
    "kid": 3038,
    "kid</w>": 3039,
    "kidd": 3040,
    "kidding</w>": 3041,
    "kids</w>": 3042,
    "kill": 3043,
    "kill</w>": 3044,
    "kin": 3045,
    "kin</w>": 3046,
    "kind</w>": 3047,
    "kind?</w>": 3048,
    "kinda</w>": 3049,
    "king,</w>": 3050,
    "king.</w>": 3051,
    "king</w>": 3052,
    "king?</w>": 3053,
    "kis": 3054,
    "kiss</w>": 3055,
    "kitt": 3056,
    "knew</w>": 3057,
    "know": 3058,
    "know,</w>": 3059,
    "know.</w>": 3060,
    "know</w>": 3061,
    "know?</w>": 3062,
    "known</w>": 3063,
    "knows</w>": 3064,
    "ks.</w>": 3065,
    "ks</w>": 3066,
    "ks?</w>": 3067,
    "ky</w>": 3068,
    "l": 3069,
    "l,</w>": 3070,
    "l.</w>": 3071,
    "l</w>": 3072,
    "la": 3073,
    "la</w>": 3074,
    "lad": 3075,
    "lam": 3076,
    "lan": 3077,
    "land": 3078,
    "langu": 3079,
    "languag": 3080,
    "language</w>": 3081,
    "languages</w>": 3082,
    "lar": 3083,
    "lar</w>": 3084,
    "large</w>": 3085,
    "las": 3086,
    "lass": 3087,
    "lasses</w>": 3088,
    "last</w>": 3089,
    "lat": 3090,
    "late</w>": 3091,
    "latel": 3092,
    "lately</w>": 3093,
    "lately?</w>": 3094,
    "later</w>": 3095,
    "lau": 3096,
    "laugh": 3097,
    "laugh</w>": 3098,
    "law": 3099,
    "laz": 3100,
    "lazy</w>": 3101,
    "ld": 3102,
    "ld.</w>": 3103,
    "ld</w>": 3104,
    "le": 3105,
    "le!</w>": 3106,
    "le,</w>": 3107,
    "le.</w>": 3108,
    "le</w>": 3109,
    "le?</w>": 3110,
    "lea": 3111,
    "lean": 3112,
    "lean</w>": 3113,
    "leaning</w>": 3114,
    "lear": 3115,
    "learn</w>": 3116,
    "least</w>": 3117,
    "leav": 3118,
    "leave</w>": 3119,
    "lec": 3120,
    "led</w>": 3121,
    "leep</w>": 3122,
    "lef": 3123,
    "left</w>": 3124,
    "leg": 3125,
    "legs</w>": 3126,
    "les": 3127,
    "les.</w>": 3128,
    "les</w>": 3129,
    "lesbi": 3130,
    "lesbian</w>": 3131,
    "less</w>": 3132,
    "less?</w>": 3133,
    "let's</w>": 3134,
    "let</w>": 3135,
    "lets</w>": 3136,
    "lev": 3137,
    "level</w>": 3138,
    "ley</w>": 3139,
    "li": 3140,
    "li</w>": 3141,
    "lic": 3142,
    "lie!</w>": 3143,
    "lie.</w>": 3144,
    "lie</w>": 3145,
    "lied</w>": 3146,
    "lif": 3147,
    "life,</w>": 3148,
    "life.</w>": 3149,
    "life</w>": 3150,
    "life?</w>": 3151,
    "lifting</w>": 3152,
    "ligh": 3153,
    "light.</w>": 3154,
    "light</w>": 3155,
    "lightly</w>": 3156,
    "lik": 3157,
    "like,</w>": 3158,
    "like.</w>": 3159,
    "like</w>": 3160,
    "like?</w>": 3161,
    "liked</w>": 3162,
    "likes</w>": 3163,
    "lim": 3164,
    "lime</w>": 3165,
    "limit": 3166,
    "limitation</w>": 3167,
    "lin": 3168,
    "line</w>": 3169,
    "ling</w>": 3170,
    "liqu": 3171,
    "list": 3172,
    "list</w>": 3173,
    "listen": 3174,
    "listen</w>": 3175,
    "listened</w>": 3176,
    "listening</w>": 3177,
    "liter": 3178,
    "literally</w>": 3179,
    "litt": 3180,
    "little</w>": 3181,
    "liv": 3182,
    "live</w>": 3183,
    "live?</w>": 3184,
    "lived</w>": 3185,
    "lives</w>": 3186,
    "living</w>": 3187,
    "living?</w>": 3188,
    "ll": 3189,
    "ll.</w>": 3190,
    "ll</w>": 3191,
    "lmao</w>": 3192,
    "lo": 3193,
    "loc": 3194,
    "local</w>": 3195,
    "lock</w>": 3196,
    "log": 3197,
    "lol": 3198,
    "lol!</w>": 3199,
    "lol,</w>": 3200,
    "lol.</w>": 3201,
    "lol</w>": 3202,
    "lon": 3203,
    "lonely.</w>": 3204,
    "lonely</w>": 3205,
    "long": 3206,
    "long.</w>": 3207,
    "long</w>": 3208,
    "longer</w>": 3209,
    "loo": 3210,
    "look</w>": 3211,
    "looking</w>": 3212,
    "looks</w>": 3213,
    "lose</w>": 3214,
    "loso": 3215,
    "lost</w>": 3216,
    "lot.</w>": 3217,
    "lot</w>": 3218,
    "lots</w>": 3219,
    "lov": 3220,
    "love</w>": 3221,
    "loved</w>": 3222,
    "lovely</w>": 3223,
    "loves</w>": 3224,
    "loving</w>": 3225,
    "low</w>": 3226,
    "ls</w>": 3227,
    "lu": 3228,
    "luc": 3229,
    "luck": 3230,
    "luck!</w>": 3231,
    "luck.</w>": 3232,
    "luck</w>": 3233,
    "lucky</w>": 3234,
    "lun": 3235,
    "lunch</w>": 3236,
    "lunch?</w>": 3237,
    "ly": 3238,
    "ly,</w>": 3239,
    "ly.</w>": 3240,
    "ly</w>": 3241,
    "ly?</w>": 3242,
    "lying</w>": 3243,
    "m": 3244,
    "m!</w>": 3245,
    "m,</w>": 3246,
    "m.</w>": 3247,
    "m</w>": 3248,
    "m?</w>": 3249,
    "ma": 3250,
    "ma</w>": 3251,
    "mac": 3252,
    "mach": 3253,
    "machine</w>": 3254,
    "mad": 3255,
    "made</w>": 3256,
    "mag": 3257,
    "magic</w>": 3258,
    "mail": 3259,
    "mail</w>": 3260,
    "main": 3261,
    "main</w>": 3262,
    "maj": 3263,
    "make</w>": 3264,
    "makes</w>": 3265,
    "making</w>": 3266,
    "mal": 3267,
    "male.</w>": 3268,
    "male</w>": 3269,
    "man": 3270,
    "man!</w>": 3271,
    "man,</w>": 3272,
    "man.</w>": 3273,
    "man</w>": 3274,
    "many</w>": 3275,
    "mar": 3276,
    "marri": 3277,
    "married</w>": 3278,
    "marry</w>": 3279,
    "mas": 3280,
    "mas</w>": 3281,
    "massi": 3282,
    "mast": 3283,
    "master</w>": 3284,
    "mat": 3285,
    "mate.</w>": 3286,
    "mate</w>": 3287,
    "math</w>": 3288,
    "matter</w>": 3289,
    "may": 3290,
    "may</w>": 3291,
    "maybe</w>": 3292,
    "me": 3293,
    "me!</w>": 3294,
    "me,</w>": 3295,
    "me.</w>": 3296,
    "me</w>": 3297,
    "me?</w>": 3298,
    "mean": 3299,
    "mean,</w>": 3300,
    "mean</w>": 3301,
    "mean?</w>": 3302,
    "meaning</w>": 3303,
    "means</w>": 3304,
    "meant</w>": 3305,
    "med.</w>": 3306,
    "med</w>": 3307,
    "medi": 3308,
    "media</w>": 3309,
    "meet</w>": 3310,
    "mem": 3311,
    "member</w>": 3312,
    "memes</w>": 3313,
    "memor": 3314,
    "men": 3315,
    "men</w>": 3316,
    "ment": 3317,
    "ment,</w>": 3318,
    "ment.</w>": 3319,
    "ment</w>": 3320,
    "ment?</w>": 3321,
    "mention": 3322,
    "mention</w>": 3323,
    "mentioned</w>": 3324,
    "ments</w>": 3325,
    "mer": 3326,
    "mer</w>": 3327,
    "mes</w>": 3328,
    "mess": 3329,
    "message</w>": 3330,
    "met": 3331,
    "met</w>": 3332,
    "metal</w>": 3333,
    "mi": 3334,
    "mid": 3335,
    "mid</w>": 3336,
    "middle</w>": 3337,
    "might</w>": 3338,
    "mil": 3339,
    "milit": 3340,
    "mill": 3341,
    "millennial</w>": 3342,
    "milli": 3343,
    "min": 3344,
    "mind": 3345,
    "mind.</w>": 3346,
    "mind:</w>": 3347,
    "mind</w>": 3348,
    "mine.</w>": 3349,
    "mine</w>": 3350,
    "minut": 3351,
    "minute</w>": 3352,
    "minutes</w>": 3353,
    "mir": 3354,
    "mis": 3355,
    "miss</w>": 3356,
    "missed</w>": 3357,
    "mist": 3358,
    "mit</w>": 3359,
    "mm": 3360,
    "mm</w>": 3361,
    "mo": 3362,
    "mob": 3363,
    "mobil": 3364,
    "mobile</w>": 3365,
    "mom</w>": 3366,
    "moment</w>": 3367,
    "moments</w>": 3368,
    "mon": 3369,
    "mon</w>": 3370,
    "money</w>": 3371,
    "month</w>": 3372,
    "months</w>": 3373,
    "mor": 3374,
    "more.</w>": 3375,
    "more</w>": 3376,
    "morn": 3377,
    "morning</w>": 3378,
    "morr": 3379,
    "most": 3380,
    "most</w>": 3381,
    "most?</w>": 3382,
    "mostly</w>": 3383,
    "mother</w>": 3384,
    "mou": 3385,
    "mov": 3386,
    "move</w>": 3387,
    "moved</w>": 3388,
    "movi": 3389,
    "movie.</w>": 3390,
    "movie</w>": 3391,
    "movies</w>": 3392,
    "moving</w>": 3393,
    "ms.</w>": 3394,
    "ms</w>": 3395,
    "mu": 3396,
    "much": 3397,
    "much.</w>": 3398,
    "much</w>": 3399,
    "mul": 3400,
    "multi": 3401,
    "mun": 3402,
    "mur": 3403,
    "mus": 3404,
    "music": 3405,
    "music,</w>": 3406,
    "music.</w>": 3407,
    "music</w>": 3408,
    "must</w>": 3409,
    "my": 3410,
    "my</w>": 3411,
    "myself": 3412,
    "myself.</w>": 3413,
    "myself</w>": 3414,
    "n": 3415,
    "n't.</w>": 3416,
    "n't</w>": 3417,
    "n,</w>": 3418,
    "n.</w>": 3419,
    "n</w>": 3420,
    "n?</w>": 3421,
    "na": 3422,
    "na</w>": 3423,
    "nam": 3424,
    "name": 3425,
    "name,</w>": 3426,
    "name.</w>": 3427,
    "name</w>": 3428,
    "named</w>": 3429,
    "names</w>": 3430,
    "natur": 3431,
    "nd</w>": 3432,
    "ne": 3433,
    "ne</w>": 3434,
    "near</w>": 3435,
    "neat</w>": 3436,
    "nec": 3437,
    "necess": 3438,
    "ned</w>": 3439,
    "nee": 3440,
    "need</w>": 3441,
    "needed</w>": 3442,
    "needs</w>": 3443,
    "neigh": 3444,
    "neighbor": 3445,
    "nel": 3446,
    "ner": 3447,
    "nerv": 3448,
    "nes": 3449,
    "ness</w>": 3450,
    "net</w>": 3451,
    "never</w>": 3452,
    "new": 3453,
    "new</w>": 3454,
    "next</w>": 3455,
    "ney</w>": 3456,
    "ni": 3457,
    "nia</w>": 3458,
    "nic": 3459,
    "nice!</w>": 3460,
    "nice,</w>": 3461,
    "nice.</w>": 3462,
    "nice</w>": 3463,
    "nick": 3464,
    "nigh": 3465,
    "night,</w>": 3466,
    "night.</w>": 3467,
    "night</w>": 3468,
    "ning</w>": 3469,
    "nn": 3470,
    "no": 3471,
    "no,</w>": 3472,
    "no.</w>": 3473,
    "no</w>": 3474,
    "nobody</w>": 3475,
    "non": 3476,
    "nor": 3477,
    "norm": 3478,
    "normal</w>": 3479,
    "not": 3480,
    "not,</w>": 3481,
    "not.</w>": 3482,
    "not</w>": 3483,
    "not?</w>": 3484,
    "note": 3485,
    "nothing.</w>": 3486,
    "nothing</w>": 3487,
    "notic": 3488,
    "noticed</w>": 3489,
    "notific": 3490,
    "now": 3491,
    "now!</w>": 3492,
    "now,</w>": 3493,
    "now.</w>": 3494,
    "now</w>": 3495,
    "now?</w>": 3496,
    "ns</w>": 3497,
    "nt</w>": 3498,
    "num": 3499,
    "number": 3500,
    "number</w>": 3501,
    "number?</w>": 3502,
    "numbers</w>": 3503,
    "ny</w>": 3504,
    "n’t</w>": 3505,
    "o": 3506,
    "o!</w>": 3507,
    "o,</w>": 3508,
    "o.</w>": 3509,
    "o</w>": 3510,
    "ob": 3511,
    "obs": 3512,
    "obsessed</w>": 3513,
    "obvi": 3514,
    "oc": 3515,
    "of": 3516,
    "of.</w>": 3517,
    "of</w>": 3518,
    "of?</w>": 3519,
    "off": 3520,
    "off.</w>": 3521,
    "off</w>": 3522,
    "offic": 3523,
    "office</w>": 3524,
    "oft": 3525,
    "often</w>": 3526,
    "oh,</w>": 3527,
    "oh</w>": 3528,
    "ok": 3529,
    "ok</w>": 3530,
    "okay.</w>": 3531,
    "okay</w>": 3532,
    "ol": 3533,
    "ol</w>": 3534,
    "old": 3535,
    "old,</w>": 3536,
    "old</w>": 3537,
    "older</w>": 3538,
    "om": 3539,
    "ombi": 3540,
    "ome": 3541,
    "ome</w>": 3542,
    "omg</w>": 3543,
    "on": 3544,
    "on!</w>": 3545,
    "on,</w>": 3546,
    "on.</w>": 3547,
    "on</w>": 3548,
    "on?</w>": 3549,
    "onc": 3550,
    "once.</w>": 3551,
    "once</w>": 3552,
    "ond": 3553,
    "ond</w>": 3554,
    "one!</w>": 3555,
    "one's</w>": 3556,
    "one,</w>": 3557,
    "one.</w>": 3558,
    "one</w>": 3559,
    "one?</w>": 3560,
    "ones.</w>": 3561,
    "ones</w>": 3562,
    "ong": 3563,
    "ong</w>": 3564,
    "oni": 3565,
    "onlin": 3566,
    "online</w>": 3567,
    "only</w>": 3568,
    "onna</w>": 3569,
    "ons.</w>": 3570,
    "ons</w>": 3571,
    "oo": 3572,
    "oo</w>": 3573,
    "ood": 3574,
    "ood</w>": 3575,
    "ook": 3576,
    "ool": 3577,
    "ool.</w>": 3578,
    "ool</w>": 3579,
    "oom</w>": 3580,
    "oooo": 3581,
    "oop": 3582,
    "oot</w>": 3583,
    "op": 3584,
    "op</w>": 3585,
    "ope.</w>": 3586,
    "ope</w>": 3587,
    "open</w>": 3588,
    "opini": 3589,
    "opinion</w>": 3590,
    "opp": 3591,
    "oppos": 3592,
    "ops</w>": 3593,
    "or": 3594,
    "or,</w>": 3595,
    "or.</w>": 3596,
    "or</w>": 3597,
    "or?</w>": 3598,
    "orange</w>": 3599,
    "ord</w>": 3600,
    "order": 3601,
    "order</w>": 3602,
    "org": 3603,
    "ori": 3604,
    "origin": 3605,
    "original</w>": 3606,
    "orit": 3607,
    "ors</w>": 3608,
    "ort": 3609,
    "ort</w>": 3610,
    "orts</w>": 3611,
    "ortun": 3612,
    "ory</w>": 3613,
    "os</w>": 3614,
    "ot": 3615,
    "ot</w>": 3616,
    "other": 3617,
    "other</w>": 3618,
    "others</w>": 3619,
    "otherwise.</w>": 3620,
    "ou": 3621,
    "oud</w>": 3622,
    "ough": 3623,
    "ough.</w>": 3624,
    "ough</w>": 3625,
    "ought</w>": 3626,
    "ould": 3627,
    "ouldn't</w>": 3628,
    "oun": 3629,
    "ound</w>": 3630,
    "ounds</w>": 3631,
    "ountain</w>": 3632,
    "our": 3633,
    "our</w>": 3634,
    "ous": 3635,
    "ous!</w>": 3636,
    "ous,</w>": 3637,
    "ous.</w>": 3638,
    "ous</w>": 3639,
    "ousl": 3640,
    "ously</w>": 3641,
    "out": 3642,
    "out!</w>": 3643,
    "out,</w>": 3644,
    "out.</w>": 3645,
    "out</w>": 3646,
    "out?</w>": 3647,
    "outside</w>": 3648,
    "over": 3649,
    "over</w>": 3650,
    "ow": 3651,
    "ow!</w>": 3652,
    "ow,</w>": 3653,
    "ow.</w>": 3654,
    "ow</w>": 3655,
    "ow?</w>": 3656,
    "ower</w>": 3657,
    "owing</w>": 3658,
    "own": 3659,
    "own.</w>": 3660,
    "own</w>": 3661,
    "p": 3662,
    "p.</w>": 3663,
    "p</w>": 3664,
    "p?</w>": 3665,
    "pa": 3666,
    "pack": 3667,
    "pain": 3668,
    "pan": 3669,
    "pants</w>": 3670,
    "pap": 3671,
    "paper": 3672,
    "par": 3673,
    "parent": 3674,
    "parents</w>": 3675,
    "parro": 3676,
    "part": 3677,
    "part.</w>": 3678,
    "part</w>": 3679,
    "partic": 3680,
    "partn": 3681,
    "party</w>": 3682,
    "pas": 3683,
    "pass</w>": 3684,
    "passi": 3685,
    "past": 3686,
    "past</w>": 3687,
    "pasta</w>": 3688,
    "pay</w>": 3689,
    "pe": 3690,
    "pe.</w>": 3691,
    "pe</w>": 3692,
    "pean": 3693,
    "peanut</w>": 3694,
    "peas!</w>": 3695,
    "pefully</w>": 3696,
    "pen": 3697,
    "peopl": 3698,
    "people.</w>": 3699,
    "people</w>": 3700,
    "per": 3701,
    "per</w>": 3702,
    "perf": 3703,
    "perfec": 3704,
    "perfect</w>": 3705,
    "peri": 3706,
    "person": 3707,
    "person.</w>": 3708,
    "person</w>": 3709,
    "person?</w>": 3710,
    "personal</w>": 3711,
    "personality</w>": 3712,
    "personally</w>": 3713,
    "pet": 3714,
    "pet</w>": 3715,
    "ph": 3716,
    "phi": 3717,
    "philoso": 3718,
    "philosoph": 3719,
    "pho": 3720,
    "phone.</w>": 3721,
    "phone</w>": 3722,
    "phras": 3723,
    "phys": 3724,
    "physical</w>": 3725,
    "pi": 3726,
    "pian": 3727,
    "pic": 3728,
    "pical</w>": 3729,
    "pick": 3730,
    "pick</w>": 3731,
    "pictu": 3732,
    "picture</w>": 3733,
    "piec": 3734,
    "piece</w>": 3735,
    "pill": 3736,
    "pineapple</w>": 3737,
    "ping</w>": 3738,
    "pizz": 3739,
    "pizza.</w>": 3740,
    "pizza</w>": 3741,
    "pl": 3742,
    "plac": 3743,
    "place.</w>": 3744,
    "place</w>": 3745,
    "places</w>": 3746,
    "plan": 3747,
    "plan</w>": 3748,
    "planning</w>": 3749,
    "plans</w>": 3750,
    "plants</w>": 3751,
    "play": 3752,
    "play</w>": 3753,
    "played</w>": 3754,
    "playing!!</w>": 3755,
    "playing!</w>": 3756,
    "playing</w>": 3757,
    "playing?</w>": 3758,
    "ple</w>": 3759,
    "pleas": 3760,
    "please.</w>": 3761,
    "please</w>": 3762,
    "plet": 3763,
    "plo": 3764,
    "plus</w>": 3765,
    "pm</w>": 3766,
    "po": 3767,
    "poe": 3768,
    "poem": 3769,
    "poin": 3770,
    "point.</w>": 3771,
    "point</w>": 3772,
    "polit": 3773,
    "political</w>": 3774,
    "pool</w>": 3775,
    "pop": 3776,
    "pop</w>": 3777,
    "popular</w>": 3778,
    "por": 3779,
    "pos": 3780,
    "pose</w>": 3781,
    "positi": 3782,
    "positive</w>": 3783,
    "possi": 3784,
    "possibly</w>": 3785,
    "post": 3786,
    "post</w>": 3787,
    "posted</w>": 3788,
    "posting</w>": 3789,
    "posts</w>": 3790,
    "potat": 3791,
    "pow": 3792,
    "power</w>": 3793,
    "pp": 3794,
    "pped</w>": 3795,
    "pper": 3796,
    "pper</w>": 3797,
    "pping</w>": 3798,
    "ppy</w>": 3799,
    "pr": 3800,
    "pre": 3801,
    "predic": 3802,
    "predictive</w>": 3803,
    "prefer": 3804,
    "prefer</w>": 3805,
    "prepar": 3806,
    "pres": 3807,
    "press": 3808,
    "pression</w>": 3809,
    "pretty</w>": 3810,
    "pri": 3811,
    "pro": 3812,
    "probably</w>": 3813,
    "proble": 3814,
    "problem.</w>": 3815,
    "problem</w>": 3816,
    "problems</w>": 3817,
    "produc": 3818,
    "prof": 3819,
    "profile</w>": 3820,
    "promote</w>": 3821,
    "proud</w>": 3822,
    "ps.</w>": 3823,
    "ps</w>": 3824,
    "pse</w>": 3825,
    "psy": 3826,
    "pu": 3827,
    "public": 3828,
    "puff": 3829,
    "pul": 3830,
    "pump": 3831,
    "pun": 3832,
    "pupp": 3833,
    "pur": 3834,
    "purcha": 3835,
    "pure</w>": 3836,
    "purpose</w>": 3837,
    "put</w>": 3838,
    "putting</w>": 3839,
    "q": 3840,
    "qu": 3841,
    "que</w>": 3842,
    "question": 3843,
    "question,</w>": 3844,
    "question</w>": 3845,
    "questions</w>": 3846,
    "qui": 3847,
    "quick": 3848,
    "quit</w>": 3849,
    "quite</w>": 3850,
    "quot": 3851,
    "quote</w>": 3852,
    "r": 3853,
    "r/": 3854,
    "r</w>": 3855,
    "ra": 3856,
    "rac": 3857,
    "raft</w>": 3858,
    "rain": 3859,
    "rais": 3860,
    "ram": 3861,
    "ran": 3862,
    "random": 3863,
    "random</w>": 3864,
    "range</w>": 3865,
    "rant,</w>": 3866,
    "rar": 3867,
    "ras": 3868,
    "rather</w>": 3869,
    "raz": 3870,
    "re": 3871,
    "re!</w>": 3872,
    "re,</w>": 3873,
    "re.</w>": 3874,
    "re</w>": 3875,
    "re?</w>": 3876,
    "rea": 3877,
    "read": 3878,
    "read</w>": 3879,
    "reading</w>": 3880,
    "ready.</w>": 3881,
    "ready</w>": 3882,
    "real": 3883,
    "real</w>": 3884,
    "realiz": 3885,
    "realize</w>": 3886,
    "realized</w>": 3887,
    "reall": 3888,
    "really,</w>": 3889,
    "really.</w>": 3890,
    "really</w>": 3891,
    "reas": 3892,
    "reason": 3893,
    "reason.</w>": 3894,
    "reason</w>": 3895,
    "rec": 3896,
    "recent": 3897,
    "recently</w>": 3898,
    "reception": 3899,
    "receptionist</w>": 3900,
    "reci": 3901,
    "recomm": 3902,
    "recommend": 3903,
    "recommend</w>": 3904,
    "recre": 3905,
    "red": 3906,
    "red.</w>": 3907,
    "red</w>": 3908,
    "redd": 3909,
    "reddit</w>": 3910,
    "ree</w>": 3911,
    "refer": 3912,
    "referred</w>": 3913,
    "regar": 3914,
    "regi": 3915,
    "regre": 3916,
    "regret</w>": 3917,
    "regu": 3918,
    "regular": 3919,
    "regular</w>": 3920,
    "rejec": 3921,
    "rel": 3922,
    "relat": 3923,
    "relationshi": 3924,
    "relationship</w>": 3925,
    "relationships.</w>": 3926,
    "relax": 3927,
    "relax</w>": 3928,
    "releas": 3929,
    "reli": 3930,
    "religi": 3931,
    "religion</w>": 3932,
    "remember</w>": 3933,
    "remind</w>": 3934,
    "remov": 3935,
    "rep": 3936,
    "repl": 3937,
    "replied</w>": 3938,
    "reply</w>": 3939,
    "requ": 3940,
    "requi": 3941,
    "require</w>": 3942,
    "res</w>": 3943,
    "resp": 3944,
    "respon": 3945,
    "respond": 3946,
    "responding</w>": 3947,
    "rest": 3948,
    "rest</w>": 3949,
    "restaur": 3950,
    "resul": 3951,
    "rever": 3952,
    "reverse</w>": 3953,
    "ri": 3954,
    "rice</w>": 3955,
    "ries</w>": 3956,
    "righ": 3957,
    "right": 3958,
    "right!</w>": 3959,
    "right,</w>": 3960,
    "right.</w>": 3961,
    "right</w>": 3962,
    "right?</w>": 3963,
    "ring</w>": 3964,
    "rist": 3965,
    "riv": 3966,
    "rivate</w>": 3967,
    "rn</w>": 3968,
    "ro": 3969,
    "roc": 3970,
    "rock,</w>": 3971,
    "rock.</w>": 3972,
    "rock</w>": 3973,
    "roll": 3974,
    "roll</w>": 3975,
    "roman": 3976,
    "romantic</w>": 3977,
    "ron": 3978,
    "roo": 3979,
    "room</w>": 3980,
    "ror</w>": 3981,
    "rough</w>": 3982,
    "ru": 3983,
    "rul": 3984,
    "rule</w>": 3985,
    "run": 3986,
    "run</w>": 3987,
    "runn": 3988,
    "running</w>": 3989,
    "ry": 3990,
    "ry,</w>": 3991,
    "ry.</w>": 3992,
    "ry</w>": 3993,
    "s": 3994,
    "s!!</w>": 3995,
    "s!</w>": 3996,
    "s\"</w>": 3997,
    "s)</w>": 3998,
    "s,</w>": 3999,
    "s.*</w>": 4000,
    "s...": 4001,
    "s...</w>": 4002,
    "s.</w>": 4003,
    "s/": 4004,
    "s:</w>": 4005,
    "s</w>": 4006,
    "s?</w>": 4007,
    "sa": 4008,
    "sad": 4009,
    "sad</w>": 4010,
    "saf": 4011,
    "safe</w>": 4012,
    "said</w>": 4013,
    "sal": 4014,
    "same,</w>": 4015,
    "same.</w>": 4016,
    "same</w>": 4017,
    "san": 4018,
    "sand": 4019,
    "sandw": 4020,
    "sandwic": 4021,
    "sar": 4022,
    "satis": 4023,
    "sauc": 4024,
    "sav": 4025,
    "save</w>": 4026,
    "saw</w>": 4027,
    "say": 4028,
    "say</w>": 4029,
    "say?</w>": 4030,
    "saying</w>": 4031,
    "says</w>": 4032,
    "sc": 4033,
    "scar": 4034,
    "scared</w>": 4035,
    "sch": 4036,
    "school": 4037,
    "school,</w>": 4038,
    "school.</w>": 4039,
    "school</w>": 4040,
    "school?</w>": 4041,
    "sci": 4042,
    "scre": 4043,
    "screen": 4044,
    "screw": 4045,
    "se": 4046,
    "se!</w>": 4047,
    "se,</w>": 4048,
    "se.</w>": 4049,
    "se</w>": 4050,
    "se?</w>": 4051,
    "sear": 4052,
    "seas": 4053,
    "season</w>": 4054,
    "sec": 4055,
    "secon": 4056,
    "second</w>": 4057,
    "secre": 4058,
    "sed</w>": 4059,
    "see": 4060,
    "see.</w>": 4061,
    "see</w>": 4062,
    "seeing</w>": 4063,
    "seem</w>": 4064,
    "seems</w>": 4065,
    "seen</w>": 4066,
    "sel": 4067,
    "self": 4068,
    "self</w>": 4069,
    "sell</w>": 4070,
    "sen": 4071,
    "sense</w>": 4072,
    "sent": 4073,
    "sentence</w>": 4074,
    "ser": 4075,
    "seri": 4076,
    "serious</w>": 4077,
    "seriously</w>": 4078,
    "serv": 4079,
    "ses</w>": 4080,
    "set</w>": 4081,
    "sex": 4082,
    "sex</w>": 4083,
    "sh": 4084,
    "sh,</w>": 4085,
    "sh.</w>": 4086,
    "sh</w>": 4087,
    "sha": 4088,
    "share</w>": 4089,
    "she's</w>": 4090,
    "she</w>": 4091,
    "shes</w>": 4092,
    "shi": 4093,
    "shif": 4094,
    "shift</w>": 4095,
    "ship</w>": 4096,
    "shir": 4097,
    "shirt</w>": 4098,
    "shit": 4099,
    "shit,</w>": 4100,
    "shit.</w>": 4101,
    "shit</w>": 4102,
    "shitty</w>": 4103,
    "sho": 4104,
    "shoes</w>": 4105,
    "shor": 4106,
    "short.</w>": 4107,
    "short</w>": 4108,
    "shot</w>": 4109,
    "should": 4110,
    "should</w>": 4111,
    "shouldn't</w>": 4112,
    "show": 4113,
    "show.</w>": 4114,
    "show</w>": 4115,
    "shower</w>": 4116,
    "shows</w>": 4117,
    "si": 4118,
    "sic": 4119,
    "sid": 4120,
    "side": 4121,
    "side.</w>": 4122,
    "side</w>": 4123,
    "sig": 4124,
    "sil": 4125,
    "sim": 4126,
    "simil": 4127,
    "similar</w>": 4128,
    "simple</w>": 4129,
    "sin": 4130,
    "since</w>": 4131,
    "sing": 4132,
    "sing</w>": 4133,
    "single</w>": 4134,
    "single?</w>": 4135,
    "sion</w>": 4136,
    "sist": 4137,
    "sit": 4138,
    "sit</w>": 4139,
    "sitting</w>": 4140,
    "situ": 4141,
    "sive</w>": 4142,
    "size</w>": 4143,
    "sk": 4144,
    "skill</w>": 4145,
    "sl": 4146,
    "sleep": 4147,
    "sleep,</w>": 4148,
    "sleep</w>": 4149,
    "sleeping</w>": 4150,
    "slow": 4151,
    "sm": 4152,
    "small</w>": 4153,
    "smar": 4154,
    "sme": 4155,
    "smell</w>": 4156,
    "smil": 4157,
    "smile</w>": 4158,
    "smiling</w>": 4159,
    "smo": 4160,
    "smoo": 4161,
    "sn": 4162,
    "sn't</w>": 4163,
    "sna": 4164,
    "snack</w>": 4165,
    "so": 4166,
    "so,</w>": 4167,
    "so.</w>": 4168,
    "so</w>": 4169,
    "soap": 4170,
    "soap</w>": 4171,
    "soc": 4172,
    "soci": 4173,
    "social</w>": 4174,
    "socks</w>": 4175,
    "sof": 4176,
    "soft</w>": 4177,
    "sol": 4178,
    "soli": 4179,
    "solut": 4180,
    "solutely</w>": 4181,
    "some": 4182,
    "some</w>": 4183,
    "somebody</w>": 4184,
    "someone</w>": 4185,
    "something</w>": 4186,
    "something?</w>": 4187,
    "sometimes</w>": 4188,
    "son": 4189,
    "son</w>": 4190,
    "song": 4191,
    "song.</w>": 4192,
    "song</w>": 4193,
    "song?</w>": 4194,
    "songs</w>": 4195,
    "soon!</w>": 4196,
    "soon</w>": 4197,
    "sor": 4198,
    "sorr": 4199,
    "sorry,</w>": 4200,
    "sorry.</w>": 4201,
    "sorry</w>": 4202,
    "sort</w>": 4203,
    "sou": 4204,
    "soun": 4205,
    "sound</w>": 4206,
    "sounds</w>": 4207,
    "sp": 4208,
    "space</w>": 4209,
    "spea": 4210,
    "speak</w>": 4211,
    "speci": 4212,
    "special</w>": 4213,
    "specially</w>": 4214,
    "specific": 4215,
    "specific</w>": 4216,
    "spend</w>": 4217,
    "spid": 4218,
    "spir": 4219,
    "spo": 4220,
    "sport": 4221,
    "sports</w>": 4222,
    "spre": 4223,
    "spread</w>": 4224,
    "squ": 4225,
    "ss": 4226,
    "ss.</w>": 4227,
    "ss</w>": 4228,
    "st": 4229,
    "st.</w>": 4230,
    "st</w>": 4231,
    "st?</w>": 4232,
    "stal": 4233,
    "stand": 4234,
    "stand</w>": 4235,
    "star": 4236,
    "start</w>": 4237,
    "started</w>": 4238,
    "starting</w>": 4239,
    "starts</w>": 4240,
    "stat": 4241,
    "state</w>": 4242,
    "stay</w>": 4243,
    "ste": 4244,
    "ster</w>": 4245,
    "stic": 4246,
    "stic</w>": 4247,
    "stick</w>": 4248,
    "sticks</w>": 4249,
    "still</w>": 4250,
    "stin": 4251,
    "sto": 4252,
    "stom": 4253,
    "stop</w>": 4254,
    "stor": 4255,
    "store</w>": 4256,
    "stories</w>": 4257,
    "story</w>": 4258,
    "story?</w>": 4259,
    "str": 4260,
    "stra": 4261,
    "strac": 4262,
    "straight</w>": 4263,
    "strang": 4264,
    "strawberry</w>": 4265,
    "stre": 4266,
    "stress": 4267,
    "stress</w>": 4268,
    "strong</w>": 4269,
    "sts</w>": 4270,
    "stu": 4271,
    "stuck</w>": 4272,
    "stud": 4273,
    "study": 4274,
    "study</w>": 4275,
    "studying</w>": 4276,
    "studying?</w>": 4277,
    "stuff": 4278,
    "stuff.</w>": 4279,
    "stuff</w>": 4280,
    "stuff?</w>": 4281,
    "stup": 4282,
    "stupid</w>": 4283,
    "sty": 4284,
    "style</w>": 4285,
    "su": 4286,
    "sub": 4287,
    "sub</w>": 4288,
    "subjec": 4289,
    "subredd": 4290,
    "subreddit</w>": 4291,
    "suc": 4292,
    "succ": 4293,
    "success": 4294,
    "such</w>": 4295,
    "suck</w>": 4296,
    "sucks.</w>": 4297,
    "sucks</w>": 4298,
    "sugar": 4299,
    "sugar.</w>": 4300,
    "sugg": 4301,
    "suggestion": 4302,
    "suic": 4303,
    "sul": 4304,
    "summ": 4305,
    "summer</w>": 4306,
    "sun": 4307,
    "sup": 4308,
    "super": 4309,
    "super</w>": 4310,
    "superpower</w>": 4311,
    "suppos": 4312,
    "supposed</w>": 4313,
    "sur": 4314,
    "sure.</w>": 4315,
    "sure</w>": 4316,
    "surpri": 4317,
    "surprised</w>": 4318,
    "survi": 4319,
    "sushi</w>": 4320,
    "sw": 4321,
    "swe": 4322,
    "swear</w>": 4323,
    "swee": 4324,
    "sweet</w>": 4325,
    "swi": 4326,
    "sy": 4327,
    "t": 4328,
    "t!</w>": 4329,
    "t's</w>": 4330,
    "t,</w>": 4331,
    "t...</w>": 4332,
    "t.</w>": 4333,
    "t:</w>": 4334,
    "t</w>": 4335,
    "t?</w>": 4336,
    "ta": 4337,
    "tack</w>": 4338,
    "tag</w>": 4339,
    "tail": 4340,
    "tain": 4341,
    "tain</w>": 4342,
    "tak": 4343,
    "take</w>": 4344,
    "takes</w>": 4345,
    "taking</w>": 4346,
    "tal": 4347,
    "talk</w>": 4348,
    "talk?</w>": 4349,
    "talking</w>": 4350,
    "tall</w>": 4351,
    "tan": 4352,
    "tar": 4353,
    "tast": 4354,
    "taste</w>": 4355,
    "tastes</w>": 4356,
    "tat": 4357,
    "tato</w>": 4358,
    "tb": 4359,
    "tbh</w>": 4360,
    "te": 4361,
    "te</w>": 4362,
    "tea": 4363,
    "tea</w>": 4364,
    "ted": 4365,
    "ted.</w>": 4366,
    "ted</w>": 4367,
    "teen": 4368,
    "teens</w>": 4369,
    "tel": 4370,
    "tell</w>": 4371,
    "tem": 4372,
    "ten": 4373,
    "ten</w>": 4374,
    "tend</w>": 4375,
    "ter": 4376,
    "ter.</w>": 4377,
    "ter</w>": 4378,
    "ter?</w>": 4379,
    "term</w>": 4380,
    "tern": 4381,
    "terri": 4382,
    "ters</w>": 4383,
    "test</w>": 4384,
    "tex": 4385,
    "text</w>": 4386,
    "th": 4387,
    "th!</w>": 4388,
    "th,</w>": 4389,
    "th.</w>": 4390,
    "th</w>": 4391,
    "th?</w>": 4392,
    "than": 4393,
    "than</w>": 4394,
    "thank": 4395,
    "thank</w>": 4396,
    "thanks!</w>": 4397,
    "thanks</w>": 4398,
    "that": 4399,
    "that!</w>": 4400,
    "that's</w>": 4401,
    "that,</w>": 4402,
    "that.</w>": 4403,
    "that</w>": 4404,
    "that?</w>": 4405,
    "thats</w>": 4406,
    "the": 4407,
    "the</w>": 4408,
    "their</w>": 4409,
    "them": 4410,
    "them,</w>": 4411,
    "them.</w>": 4412,
    "them</w>": 4413,
    "them?</w>": 4414,
    "themsel": 4415,
    "then": 4416,
    "then.</w>": 4417,
    "then</w>": 4418,
    "then?</w>": 4419,
    "ther": 4420,
    "ther!</w>": 4421,
    "ther's</w>": 4422,
    "ther.</w>": 4423,
    "ther</w>": 4424,
    "ther?</w>": 4425,
    "therap": 4426,
    "there!</w>": 4427,
    "there's</w>": 4428,
    "there,</w>": 4429,
    "there.</w>": 4430,
    "there</w>": 4431,
    "there?</w>": 4432,
    "thern</w>": 4433,
    "thes": 4434,
    "these</w>": 4435,
    "they": 4436,
    "they're</w>": 4437,
    "they</w>": 4438,
    "they?</w>": 4439,
    "thi": 4440,
    "thin": 4441,
    "thing": 4442,
    "thing!</w>": 4443,
    "thing,</w>": 4444,
    "thing.</w>": 4445,
    "thing</w>": 4446,
    "thing?</w>": 4447,
    "thingies</w>": 4448,
    "things.</w>": 4449,
    "things</w>": 4450,
    "think.</w>": 4451,
    "think</w>": 4452,
    "thinking</w>": 4453,
    "thir": 4454,
    "third</w>": 4455,
    "this": 4456,
    "this!</w>": 4457,
    "this,</w>": 4458,
    "this.</w>": 4459,
    "this</w>": 4460,
    "this?</w>": 4461,
    "tho": 4462,
    "tho</w>": 4463,
    "those</w>": 4464,
    "thou": 4465,
    "though": 4466,
    "though!</w>": 4467,
    "though,</w>": 4468,
    "though.</w>": 4469,
    "though</w>": 4470,
    "though?</w>": 4471,
    "thought</w>": 4472,
    "thoughts</w>": 4473,
    "thr": 4474,
    "thre": 4475,
    "thread": 4476,
    "thread.</w>": 4477,
    "thread</w>": 4478,
    "three</w>": 4479,
    "through.</w>": 4480,
    "through</w>": 4481,
    "throw</w>": 4482,
    "ths.</w>": 4483,
    "ths</w>": 4484,
    "ti": 4485,
    "ti</w>": 4486,
    "tic": 4487,
    "tic</w>": 4488,
    "tick": 4489,
    "ties</w>": 4490,
    "tific": 4491,
    "til</w>": 4492,
    "till</w>": 4493,
    "tim": 4494,
    "time": 4495,
    "time!</w>": 4496,
    "time,</w>": 4497,
    "time.</w>": 4498,
    "time</w>": 4499,
    "time?</w>": 4500,
    "times,</w>": 4501,
    "times.</w>": 4502,
    "times</w>": 4503,
    "tin": 4504,
    "ting.</w>": 4505,
    "ting</w>": 4506,
    "tiny</w>": 4507,
    "tion": 4508,
    "tion,</w>": 4509,
    "tion.</w>": 4510,
    "tion</w>": 4511,
    "tional</w>": 4512,
    "tions</w>": 4513,
    "tired</w>": 4514,
    "tit": 4515,
    "tiv": 4516,
    "tive</w>": 4517,
    "tly</w>": 4518,
    "to": 4519,
    "to!</w>": 4520,
    "to.</w>": 4521,
    "to</w>": 4522,
    "to?</w>": 4523,
    "toast</w>": 4524,
    "today": 4525,
    "today!</w>": 4526,
    "today.</w>": 4527,
    "today</w>": 4528,
    "today?</w>": 4529,
    "toge": 4530,
    "together</w>": 4531,
    "toil": 4532,
    "toilet</w>": 4533,
    "told</w>": 4534,
    "tomorr": 4535,
    "tomorrow</w>": 4536,
    "ton": 4537,
    "ton</w>": 4538,
    "tonigh": 4539,
    "tonight</w>": 4540,
    "tonight?</w>": 4541,
    "too": 4542,
    "too!</w>": 4543,
    "too,</w>": 4544,
    "too.</w>": 4545,
    "too</w>": 4546,
    "too?</w>": 4547,
    "took</w>": 4548,
    "top": 4549,
    "top</w>": 4550,
    "topic": 4551,
    "topic</w>": 4552,
    "topics.</w>": 4553,
    "topp": 4554,
    "tor": 4555,
    "tos</w>": 4556,
    "tot": 4557,
    "totally</w>": 4558,
    "tou": 4559,
    "touch": 4560,
    "tough</w>": 4561,
    "tow": 4562,
    "towards</w>": 4563,
    "town.</w>": 4564,
    "town</w>": 4565,
    "tr": 4566,
    "tra": 4567,
    "trac": 4568,
    "trad": 4569,
    "traff": 4570,
    "train": 4571,
    "tran": 4572,
    "trav": 4573,
    "travel</w>": 4574,
    "tre": 4575,
    "tread": 4576,
    "treadmill</w>": 4577,
    "treme": 4578,
    "tri": 4579,
    "tried</w>": 4580,
    "trip</w>": 4581,
    "tro": 4582,
    "tru": 4583,
    "true,</w>": 4584,
    "true</w>": 4585,
    "truth.</w>": 4586,
    "truth</w>": 4587,
    "truths</w>": 4588,
    "try</w>": 4589,
    "trying</w>": 4590,
    "ts": 4591,
    "ts,</w>": 4592,
    "ts.</w>": 4593,
    "ts</w>": 4594,
    "ts?</w>": 4595,
    "tt": 4596,
    "tta</w>": 4597,
    "tter</w>": 4598,
    "tting</w>": 4599,
    "tty</w>": 4600,
    "tu": 4601,
    "tur": 4602,
    "ture</w>": 4603,
    "turn</w>": 4604,
    "turned</w>": 4605,
    "turning</w>": 4606,
    "turns</w>": 4607,
    "tv</w>": 4608,
    "tw": 4609,
    "twi": 4610,
    "two": 4611,
    "two</w>": 4612,
    "ty": 4613,
    "ty</w>": 4614,
    "typ": 4615,
    "type</w>": 4616,
    "u": 4617,
    "u/": 4618,
    "u</w>": 4619,
    "ual": 4620,
    "ual</w>": 4621,
    "uc": 4622,
    "uch</w>": 4623,
    "uck": 4624,
    "uck</w>": 4625,
    "ud": 4626,
    "ude</w>": 4627,
    "uding</w>": 4628,
    "ue</w>": 4629,
    "ug": 4630,
    "ught</w>": 4631,
    "ul": 4632,
    "ular": 4633,
    "ular</w>": 4634,
    "ult</w>": 4635,
    "um": 4636,
    "um</w>": 4637,
    "umb</w>": 4638,
    "ump": 4639,
    "ump</w>": 4640,
    "un": 4641,
    "un</w>": 4642,
    "under": 4643,
    "under</w>": 4644,
    "understand</w>": 4645,
    "unemplo": 4646,
    "unfortunat": 4647,
    "unfortunately</w>": 4648,
    "uni": 4649,
    "univers": 4650,
    "university!</w>": 4651,
    "unless</w>": 4652,
    "unpopular</w>": 4653,
    "until</w>": 4654,
    "up": 4655,
    "up!</w>": 4656,
    "up,</w>": 4657,
    "up.</w>": 4658,
    "up</w>": 4659,
    "up?</w>": 4660,
    "uper</w>": 4661,
    "upvot": 4662,
    "upvote</w>": 4663,
    "upvotes</w>": 4664,
    "ur": 4665,
    "ure</w>": 4666,
    "uro": 4667,
    "urr": 4668,
    "urrican": 4669,
    "us": 4670,
    "us!</w>": 4671,
    "us.</w>": 4672,
    "us</w>": 4673,
    "use</w>": 4674,
    "used</w>": 4675,
    "user": 4676,
    "user</w>": 4677,
    "usernam": 4678,
    "username": 4679,
    "username</w>": 4680,
    "username?</w>": 4681,
    "usernames.</w>": 4682,
    "uses</w>": 4683,
    "ush": 4684,
    "ush</w>": 4685,
    "ushi": 4686,
    "ushi</w>": 4687,
    "using</w>": 4688,
    "ussi": 4689,
    "ust": 4690,
    "ust</w>": 4691,
    "usu": 4692,
    "usual</w>": 4693,
    "usually</w>": 4694,
    "ut": 4695,
    "ut</w>": 4696,
    "uts.</w>": 4697,
    "utur": 4698,
    "uty</w>": 4699,
    "uu": 4700,
    "v": 4701,
    "v</w>": 4702,
    "vac": 4703,
    "val": 4704,
    "valid": 4705,
    "validate</w>": 4706,
    "validation.</w>": 4707,
    "validation</w>": 4708,
    "van": 4709,
    "vari": 4710,
    "variety</w>": 4711,
    "ve": 4712,
    "ve!</w>": 4713,
    "ve,</w>": 4714,
    "ve.</w>": 4715,
    "ve</w>": 4716,
    "ved</w>": 4717,
    "veg": 4718,
    "veget": 4719,
    "vel": 4720,
    "vel</w>": 4721,
    "ven</w>": 4722,
    "vent</w>": 4723,
    "ver": 4724,
    "ver,</w>": 4725,
    "ver</w>": 4726,
    "vers": 4727,
    "vers</w>": 4728,
    "version</w>": 4729,
    "very</w>": 4730,
    "ves</w>": 4731,
    "vi": 4732,
    "vic": 4733,
    "vide": 4734,
    "video": 4735,
    "video</w>": 4736,
    "vie": 4737,
    "view</w>": 4738,
    "villa": 4739,
    "ving</w>": 4740,
    "vir": 4741,
    "vis": 4742,
    "visi": 4743,
    "vo": 4744,
    "vodk": 4745,
    "vodka.</w>": 4746,
    "vodka</w>": 4747,
    "vol": 4748,
    "volun": 4749,
    "vot": 4750,
    "w": 4751,
    "w,</w>": 4752,
    "w.</w>": 4753,
    "w</w>": 4754,
    "wa": 4755,
    "wait": 4756,
    "wait</w>": 4757,
    "waiting</w>": 4758,
    "wake</w>": 4759,
    "wal": 4760,
    "walk</w>": 4761,
    "wan": 4762,
    "wanna</w>": 4763,
    "want</w>": 4764,
    "wanted</w>": 4765,
    "wants</w>": 4766,
    "war": 4767,
    "war</w>": 4768,
    "ward": 4769,
    "ward</w>": 4770,
    "warm</w>": 4771,
    "was": 4772,
    "was</w>": 4773,
    "wasn't</w>": 4774,
    "wat": 4775,
    "watch": 4776,
    "watch</w>": 4777,
    "watched</w>": 4778,
    "watching</w>": 4779,
    "water": 4780,
    "water.</w>": 4781,
    "water</w>": 4782,
    "way": 4783,
    "way,</w>": 4784,
    "way.</w>": 4785,
    "way</w>": 4786,
    "ways</w>": 4787,
    "we": 4788,
    "we're</w>": 4789,
    "we</w>": 4790,
    "wea": 4791,
    "wear": 4792,
    "wear</w>": 4793,
    "wearing</w>": 4794,
    "weather</w>": 4795,
    "wed": 4796,
    "wedd": 4797,
    "wedding</w>": 4798,
    "wee": 4799,
    "week": 4800,
    "week,</w>": 4801,
    "week.</w>": 4802,
    "week</w>": 4803,
    "weekend": 4804,
    "weekend</w>": 4805,
    "weekend?</w>": 4806,
    "weeks</w>": 4807,
    "ween</w>": 4808,
    "weir": 4809,
    "weird": 4810,
    "weird</w>": 4811,
    "wel": 4812,
    "welco": 4813,
    "welcome!</w>": 4814,
    "welcome</w>": 4815,
    "well": 4816,
    "well!</w>": 4817,
    "well,</w>": 4818,
    "well.</w>": 4819,
    "well</w>": 4820,
    "went</w>": 4821,
    "were</w>": 4822,
    "we’ve</w>": 4823,
    "wh": 4824,
    "wha": 4825,
    "what": 4826,
    "what's</w>": 4827,
    "what</w>": 4828,
    "what?</w>": 4829,
    "whatever</w>": 4830,
    "whats</w>": 4831,
    "when</w>": 4832,
    "wher": 4833,
    "where</w>": 4834,
    "which</w>": 4835,
    "whil": 4836,
    "while</w>": 4837,
    "white</w>": 4838,
    "who": 4839,
    "who's</w>": 4840,
    "who</w>": 4841,
    "whol": 4842,
    "whole</w>": 4843,
    "why</w>": 4844,
    "why?</w>": 4845,
    "wi": 4846,
    "wif": 4847,
    "wife</w>": 4848,
    "will": 4849,
    "will.</w>": 4850,
    "will</w>": 4851,
    "win": 4852,
    "win</w>": 4853,
    "wine</w>": 4854,
    "winning</w>": 4855,
    "wise.</w>": 4856,
    "wish</w>": 4857,
    "with": 4858,
    "with:</w>": 4859,
    "with</w>": 4860,
    "with?</w>": 4861,
    "within</w>": 4862,
    "without</w>": 4863,
    "wo": 4864,
    "woke</w>": 4865,
    "wom": 4866,
    "woman": 4867,
    "woman's</w>": 4868,
    "woman</w>": 4869,
    "women</w>": 4870,
    "won't</w>": 4871,
    "won</w>": 4872,
    "wond": 4873,
    "wonder": 4874,
    "wonder</w>": 4875,
    "wonderful</w>": 4876,
    "wor": 4877,
    "word": 4878,
    "word.</w>": 4879,
    "word</w>": 4880,
    "words</w>": 4881,
    "work": 4882,
    "work,</w>": 4883,
    "work.</w>": 4884,
    "work</w>": 4885,
    "work?</w>": 4886,
    "worked</w>": 4887,
    "working</w>": 4888,
    "works</w>": 4889,
    "world": 4890,
    "world.</w>": 4891,
    "world</w>": 4892,
    "worry</w>": 4893,
    "worse</w>": 4894,
    "worst</w>": 4895,
    "worth</w>": 4896,
    "would": 4897,
    "would</w>": 4898,
    "wouldn't</w>": 4899,
    "wow</w>": 4900,
    "wr": 4901,
    "writ": 4902,
    "write</w>": 4903,
    "writing</w>": 4904,
    "writt": 4905,
    "wrong</w>": 4906,
    "x": 4907,
    "x.</w>": 4908,
    "x</w>": 4909,
    "xD</w>": 4910,
    "xed</w>": 4911,
    "xi": 4912,
    "xy": 4913,
    "y": 4914,
    "y!</w>": 4915,
    "y\"</w>": 4916,
    "y'": 4917,
    "y'all</w>": 4918,
    "y's</w>": 4919,
    "y)</w>": 4920,
    "y,</w>": 4921,
    "y-": 4922,
    "y.</w>": 4923,
    "y/": 4924,
    "y:</w>": 4925,
    "y</w>": 4926,
    "y?</w>": 4927,
    "ya</w>": 4928,
    "ye": 4929,
    "ye</w>": 4930,
    "yea": 4931,
    "yeah,</w>": 4932,
    "yeah.</w>": 4933,
    "yeah</w>": 4934,
    "year": 4935,
    "year,</w>": 4936,
    "year.</w>": 4937,
    "year</w>": 4938,
    "years!</w>": 4939,
    "years,</w>": 4940,
    "years.</w>": 4941,
    "years</w>": 4942,
    "yed</w>": 4943,
    "yes,</w>": 4944,
    "yes.</w>": 4945,
    "yes</w>": 4946,
    "yester": 4947,
    "yesterday.</w>": 4948,
    "yet.</w>": 4949,
    "yet</w>": 4950,
    "yet?</w>": 4951,
    "ying.</w>": 4952,
    "ying</w>": 4953,
    "yo": 4954,
    "yo</w>": 4955,
    "yoga</w>": 4956,
    "you": 4957,
    "you!</w>": 4958,
    "you'd</w>": 4959,
    "you'll</w>": 4960,
    "you're</w>": 4961,
    "you've</w>": 4962,
    "you,</w>": 4963,
    "you.</w>": 4964,
    "you</w>": 4965,
    "you?</w>": 4966,
    "youn": 4967,
    "young</w>": 4968,
    "your": 4969,
    "your</w>": 4970,
    "yours</w>": 4971,
    "yours?</w>": 4972,
    "yourself": 4973,
    "yourself,</w>": 4974,
    "yourself.</w>": 4975,
    "yourself</w>": 4976,
    "yourself?</w>": 4977,
    "youtu": 4978,
    "ys": 4979,
    "ys</w>": 4980,
    "yy": 4981,
    "yyy": 4982,
    "z": 4983,
    "z</w>": 4984,
    "ze</w>": 4985,
    "zombi": 4986,
    "zombie</w>": 4987,
    "zz": 4988,
    "|": 4989,
    "~": 4990,
    "~~": 4991,
    "~~</w>": 4992,
    "¡": 4993,
    "£": 4994,
    "¬": 4995,
    "¯": 4996,
    "¯</w>": 4997,
    "¯\\\\": 4998,
    "°": 4999,
    "´": 5000,
    "¿": 5001,
    "Á": 5002,
    "Æ": 5003,
    "Ð": 5004,
    "á": 5005,
    "ç": 5006,
    "é": 5007,
    "ë": 5008,
    "ñ": 5009,
    "ü": 5010,
    "ć": 5011,
    "ś": 5012,
    "š": 5013,
    "ʖ": 5014,
    "˘": 5015,
    "˙": 5016,
    "˛": 5017,
    "̯": 5018,
    "̵": 5019,
    "̿": 5020,
    "̿</w>": 5021,
    "́": 5022,
    "͇": 5023,
    "͜": 5024,
    "͟": 5025,
    "͠": 5026,
    "͡": 5027,
    "͡°": 5028,
    "ε": 5029,
    "Д": 5030,
    "з": 5031,
    "ل": 5032,
    "٩": 5033,
    "۶": 5034,
    "ಠ": 5035,
    "ಥ": 5036,
    "ຈ": 5037,
    "༼": 5038,
    "༽": 5039,
    "ლ": 5040,
    "ᐛ": 5041,
    "ᕕ": 5042,
    "ᕗ": 5043,
    "ᴥ": 5044,
    "ᵔ": 5045,
    "​": 5046,
    "‍": 5047,
    "—comment</w>": 5048,
    "‘": 5049,
    "’": 5050,
    "’re</w>": 5051,
    "’s</w>": 5052,
    "’t</w>": 5053,
    "’ve</w>": 5054,
    "“": 5055,
    "”</w>": 5056,
    "…": 5057,
    "‿": 5058,
    "™": 5059,
    "↼": 5060,
    "∀": 5061,
    "─": 5062,
    "━": 5063,
    "┬": 5064,
    "┻": 5065,
    "╯": 5066,
    "□": 5067,
    "▽": 5068,
    "◉": 5069,
    "●": 5070,
    "◔": 5071,
    "◕": 5072,
    "◡": 5073,
    "☎": 5074,
    "☞": 5075,
    "☠": 5076,
    "☺": 5077,
    "♀": 5078,
    "♡": 5079,
    "♥": 5080,
    "⚆": 5081,
    "✌": 5082,
    "✔": 5083,
    "❤": 5084,
    "⬇": 5085,
    "つ": 5086,
    "ツ": 5087,
    "ノ": 5088,
    "ヽ": 5089,
    "不": 5090,
    "你": 5091,
    "太": 5092,
    "好": 5093,
    "我": 5094,
    "汉": 5095,
    "的": 5096,
    "语": 5097,
    "️": 5098,
    "︵": 5099,
    "）": 5100,
    "｀": 5101,
    "ｰ": 5102,
    "ﾉ": 5103,
    "ﾟ": 5104,
    "🅱": 5105,
    "🇦": 5106,
    "🇨": 5107,
    "🇸": 5108,
    "🇺": 5109,
    "🌈": 5110,
    "🌝": 5111,
    "🌮": 5112,
    "🌶": 5113,
    "🍃": 5114,
    "🍄": 5115,
    "🍅": 5116,
    "🍇": 5117,
    "🍋": 5118,
    "🍌": 5119,
    "🍍": 5120,
    "🍎": 5121,
    "🍐": 5122,
    "🍞": 5123,
    "🍦": 5124,
    "🍧": 5125,
    "🍨": 5126,
    "🍰": 5127,
    "🎀": 5128,
    "🎁": 5129,
    "🎂": 5130,
    "🎈": 5131,
    "🎉": 5132,
    "🎊": 5133,
    "🎵🎵": 5134,
    "🎵🎵🎶🎶🎶": 5135,
    "🎶": 5136,
    "🎷": 5137,
    "🎹": 5138,
    "🎺": 5139,
    "🏃": 5140,
    "🏳": 5141,
    "🏻": 5142,
    "🏼": 5143,
    "🏽": 5144,
    "🐕": 5145,
    "🐝": 5146,
    "🐩": 5147,
    "🐶": 5148,
    "👀": 5149,
    "👈": 5150,
    "👉": 5151,
    "👊": 5152,
    "👌": 5153,
    "👍": 5154,
    "👍</w>": 5155,
    "👏": 5156,
    "👐": 5157,
    "💍": 5158,
    "💕": 5159,
    "💖": 5160,
    "💛": 5161,
    "💩": 5162,
    "💸": 5163,
    "📞": 5164,
    "📣": 5165,
    "📲": 5166,
    "🔥": 5167,
    "🕥": 5168,
    "🖒": 5169,
    "😀": 5170,
    "😀😊": 5171,
    "😀😊☺": 5172,
    "😀😊☺🙌": 5173,
    "😀😊☺🙌👍</w>": 5174,
    "😁": 5175,
    "😁</w>": 5176,
    "😂": 5177,
    "😂</w>": 5178,
    "😄": 5179,
    "😅": 5180,
    "😅</w>": 5181,
    "😆": 5182,
    "😉": 5183,
    "😉</w>": 5184,
    "😉😉": 5185,
    "😊": 5186,
    "😊</w>": 5187,
    "😌": 5188,
    "😍": 5189,
    "😎": 5190,
    "😏": 5191,
    "😐": 5192,
    "😑": 5193,
    "😓": 5194,
    "😔": 5195,
    "😘": 5196,
    "😛": 5197,
    "😝": 5198,
    "😞": 5199,
    "😡": 5200,
    "😢": 5201,
    "😣": 5202,
    "😤": 5203,
    "😦": 5204,
    "😧": 5205,
    "😨": 5206,
    "😩": 5207,
    "😫": 5208,
    "😬": 5209,
    "😭": 5210,
    "😮": 5211,
    "😯": 5212,
    "😰": 5213,
    "😳": 5214,
    "😴": 5215,
    "😵": 5216,
    "😶": 5217,
    "😻": 5218,
    "🙁": 5219,
    "🙂": 5220,
    "🙃": 5221,
    "🙄": 5222,
    "🙈": 5223,
    "🙉": 5224,
    "🙊": 5225,
    "🙋": 5226,
    "🙌": 5227,
    "🙏": 5228,
    "🤓": 5229,
    "🤔": 5230,
    "🤗": 5231,
    "🤗</w>": 5232,
    "🤗😇": 5233,
    "🤗😇</w>": 5234,
    "🤠": 5235,
    "🤣": 5236,
    "🤷": 5237,
    "🥐": 5238,
    "🥒": 5239,
    "🥝": 5240,
    "🦆": 5241
  },
  "merges": [
    [
      "e",
      "</w>"
    ],
    [
      "t",
      "</w>"
    ],
    [
      "s",
      "</w>"
    ],
    [
      "t",
      "h"
    ],
    [
      "i",
      "n"
    ],
    [
      "o",
      "u"
    ],
    [
      ".",
      "</w>"
    ],
    [
      "d",
      "</w>"
    ],
    [
      "y",
      "</w>"
    ],
    [
      "a",
      "n"
    ],
    [
      "e",
      "r"
    ],
    [
      "o",
      "</w>"
    ],
    [
      "o",
      "n"
    ],
    [
      "h",
      "a"
    ],
    [
      "y",
      "ou"
    ],
    [
      "?",
      "</w>"
    ],
    [
      "o",
      "r"
    ],
    [
      "in",
      "g"
    ],
    [
      "I",
      "</w>"
    ],
    [
      ",",
      "</w>"
    ],
    [
      "a",
      "</w>"
    ],
    [
      "e",
      "n"
    ],
    [
      "a",
      "l"
    ],
    [
      "a",
      "r"
    ],
    [
      "ing",
      "</w>"
    ],
    [
      "r",
      "e"
    ],
    [
      "you",
      "</w>"
    ],
    [
      "!",
      "</w>"
    ],
    [
      "th",
      "e</w>"
    ],
    [
      "t",
      "o</w>"
    ],
    [
      "l",
      "</w>"
    ],
    [
      "e",
      "s"
    ],
    [
      "i",
      "t"
    ],
    [
      "m",
      "</w>"
    ],
    [
      "a",
      "t"
    ],
    [
      "f",
      "</w>"
    ],
    [
      "o",
      "w"
    ],
    [
      "v",
      "e</w>"
    ],
    [
      "i",
      "s</w>"
    ],
    [
      "m",
      "e</w>"
    ],
    [
      "o",
      "o"
    ],
    [
      "er",
      "</w>"
    ],
    [
      "l",
      "i"
    ],
    [
      "k",
      "</w>"
    ],
    [
      "an",
      "d</w>"
    ],
    [
      "s",
      "t"
    ],
    [
      "m",
      "e"
    ],
    [
      "'",
      "s</w>"
    ],
    [
      "i",
      "t</w>"
    ],
    [
      "i",
      "c"
    ],
    [
      "l",
      "y</w>"
    ],
    [
      "e",
      "d</w>"
    ],
    [
      "u",
      "s"
    ],
    [
      "or",
      "</w>"
    ],
    [
      "a",
      "t</w>"
    ],
    [
      "on",
      "</w>"
    ],
    [
      "I",
      "'"
    ],
    [
      "ha",
      "t</w>"
    ],
    [
      "in",
      "</w>"
    ],
    [
      "e",
      "l"
    ],
    [
      "h",
      "</w>"
    ],
    [
      "a",
      "s"
    ],
    [
      "o",
      "f</w>"
    ],
    [
      "an",
      "</w>"
    ],
    [
      "e",
      "s</w>"
    ],
    [
      "r",
      "</w>"
    ],
    [
      "t",
      "i"
    ],
    [
      "k",
      "e</w>"
    ],
    [
      "r",
      "i"
    ],
    [
      "a",
      "y"
    ],
    [
      "en",
      "</w>"
    ],
    [
      "ow",
      "</w>"
    ],
    [
      "o",
      "t</w>"
    ],
    [
      "a",
      "c"
    ],
    [
      "w",
      "i"
    ],
    [
      "a",
      "s</w>"
    ],
    [
      "m",
      "y</w>"
    ],
    [
      "g",
      "h"
    ],
    [
      "e",
      ".</w>"
    ],
    [
      "p",
      "l"
    ],
    [
      "I'",
      "m</w>"
    ],
    [
      "s",
      "o"
    ],
    [
      "a",
      "b"
    ],
    [
      "f",
      "or</w>"
    ],
    [
      "th",
      "at</w>"
    ],
    [
      "l",
      "o"
    ],
    [
      "a",
      "y</w>"
    ],
    [
      "r",
      "o"
    ],
    [
      "ar",
      "e</w>"
    ],
    [
      "e",
      "v"
    ],
    [
      "'",
      "t</w>"
    ],
    [
      "c",
      "h"
    ],
    [
      "T",
      "h"
    ],
    [
      "you",
      "r</w>"
    ],
    [
      "b",
      "u"
    ],
    [
      "b",
      "e"
    ],
    [
      "th",
      "</w>"
    ],
    [
      "t",
      "'s</w>"
    ],
    [
      "i",
      "r"
    ],
    [
      "u",
      "n"
    ],
    [
      "e",
      "e"
    ],
    [
      ".",
      "."
    ],
    [
      "c",
      "o"
    ],
    [
      "W",
      "hat</w>"
    ],
    [
      "s",
      "h"
    ],
    [
      "ou",
      "t</w>"
    ],
    [
      "i",
      "l"
    ],
    [
      "p",
      "</w>"
    ],
    [
      "ha",
      "ve</w>"
    ],
    [
      "l",
      "d</w>"
    ],
    [
      "w",
      "h"
    ],
    [
      "on",
      "e</w>"
    ],
    [
      "us",
      "t</w>"
    ],
    [
      "t",
      "o"
    ],
    [
      "a",
      "d"
    ],
    [
      "i",
      "d"
    ],
    [
      "li",
      "ke</w>"
    ],
    [
      "r",
      "e</w>"
    ],
    [
      "d",
      "o</w>"
    ],
    [
      "s",
      ".</w>"
    ],
    [
      "b",
      "e</w>"
    ],
    [
      "d",
      "o"
    ],
    [
      ")",
      "</w>"
    ],
    [
      "s",
      "u"
    ],
    [
      "al",
      "ly</w>"
    ],
    [
      "e",
      "t</w>"
    ],
    [
      "e",
      "d"
    ],
    [
      "i",
      "s"
    ],
    [
      "bu",
      "t</w>"
    ],
    [
      "m",
      "o"
    ],
    [
      "l",
      "l</w>"
    ],
    [
      "e",
      "c"
    ],
    [
      "t",
      "t"
    ],
    [
      "wi",
      "th</w>"
    ],
    [
      "Y",
      "ou"
    ],
    [
      "ou",
      "ld</w>"
    ],
    [
      "er",
      "e</w>"
    ],
    [
      "t",
      "r"
    ],
    [
      "n",
      "</w>"
    ],
    [
      "w",
      "as</w>"
    ],
    [
      "l",
      "e"
    ],
    [
      "s",
      "o</w>"
    ],
    [
      "a",
      "m"
    ],
    [
      "th",
      "e"
    ],
    [
      "j",
      "ust</w>"
    ],
    [
      "n",
      "ot</w>"
    ],
    [
      "p",
      "o"
    ],
    [
      "oo",
      "d</w>"
    ],
    [
      "s",
      "t</w>"
    ],
    [
      "u",
      "c"
    ],
    [
      "e",
      "ar"
    ],
    [
      "w",
      "hat</w>"
    ],
    [
      "e",
      "a"
    ],
    [
      "w",
      "or"
    ],
    [
      "ab",
      "out</w>"
    ],
    [
      "ha",
      "t's</w>"
    ],
    [
      "g",
      "u"
    ],
    [
      "th",
      "ing</w>"
    ],
    [
      "a",
      "me</w>"
    ],
    [
      "m",
      "a"
    ],
    [
      "th",
      "is</w>"
    ],
    [
      "e",
      "?</w>"
    ],
    [
      "gh",
      "t</w>"
    ],
    [
      "a",
      "v"
    ],
    [
      "d",
      "i"
    ],
    [
      "al",
      "</w>"
    ],
    [
      "en",
      "t"
    ],
    [
      "g",
      "o"
    ],
    [
      "g",
      "</w>"
    ],
    [
      "p",
      "p"
    ],
    [
      "W",
      "h"
    ],
    [
      "on",
      "'t</w>"
    ],
    [
      "l",
      "e</w>"
    ],
    [
      "e",
      "x"
    ],
    [
      "i",
      "</w>"
    ],
    [
      "d",
      "ay"
    ],
    [
      "ou",
      "n"
    ],
    [
      "p",
      "e"
    ],
    [
      "v",
      "er"
    ],
    [
      "y",
      ".</w>"
    ],
    [
      "ev",
      "er</w>"
    ],
    [
      "so",
      "me"
    ],
    [
      "al",
      "l</w>"
    ],
    [
      "e",
      ",</w>"
    ],
    [
      "h",
      "o"
    ],
    [
      "it",
      "e</w>"
    ],
    [
      "a",
      "g"
    ],
    [
      "co",
      "m"
    ],
    [
      "d",
      "s</w>"
    ],
    [
      "at",
      "i"
    ],
    [
      "k",
      "ing</w>"
    ],
    [
      "q",
      "u"
    ],
    [
      "n",
      "ow</w>"
    ],
    [
      "t",
      "er"
    ],
    [
      "es",
      ".</w>"
    ],
    [
      "You",
      "</w>"
    ],
    [
      "t",
      ".</w>"
    ],
    [
      "s",
      "e</w>"
    ],
    [
      ":",
      ")</w>"
    ],
    [
      "f",
      "f"
    ],
    [
      "u",
      "r"
    ],
    [
      "in",
      "k</w>"
    ],
    [
      "g",
      "ood</w>"
    ],
    [
      "g",
      "et</w>"
    ],
    [
      "..",
      ".</w>"
    ],
    [
      "th",
      "at"
    ],
    [
      "s",
      "e"
    ],
    [
      "en",
      "t</w>"
    ],
    [
      "t",
      "s</w>"
    ],
    [
      "a",
      "w"
    ],
    [
      "el",
      "l</w>"
    ],
    [
      "d",
      "on't</w>"
    ],
    [
      "d",
      "ay</w>"
    ],
    [
      "p",
      "er"
    ],
    [
      "p",
      "re"
    ],
    [
      "m",
      "or"
    ],
    [
      "k",
      "s</w>"
    ],
    [
      "c",
      "an</w>"
    ],
    [
      "c",
      "on"
    ],
    [
      "pl",
      "e</w>"
    ],
    [
      "w",
      "an"
    ],
    [
      "it",
      "'s</w>"
    ],
    [
      "at",
      "e</w>"
    ],
    [
      "'",
      "re</w>"
    ],
    [
      "*",
      "</w>"
    ],
    [
      "s",
      "?</w>"
    ],
    [
      "b",
      "o"
    ],
    [
      "n",
      "e"
    ],
    [
      "lo",
      "ve</w>"
    ],
    [
      "f",
      "or"
    ],
    [
      "m",
      "an"
    ],
    [
      "A",
      "n"
    ],
    [
      "al",
      "l"
    ],
    [
      "f",
      "ro"
    ],
    [
      "a",
      "d</w>"
    ],
    [
      "a",
      "m</w>"
    ],
    [
      "ev",
      "er"
    ],
    [
      "u",
      "p</w>"
    ],
    [
      "f",
      "ri"
    ],
    [
      "s",
      "p"
    ],
    [
      "el",
      "l"
    ],
    [
      "re",
      "ally</w>"
    ],
    [
      "M",
      "y</w>"
    ],
    [
      "f",
      "in"
    ],
    [
      "I",
      "t's</w>"
    ],
    [
      "n",
      "'t</w>"
    ],
    [
      "Th",
      "e</w>"
    ],
    [
      "h",
      "i"
    ],
    [
      "l",
      "as"
    ],
    [
      "e",
      "!</w>"
    ],
    [
      "H",
      "a"
    ],
    [
      "t",
      "a"
    ],
    [
      "w",
      "ould</w>"
    ],
    [
      "so",
      "me</w>"
    ],
    [
      "s",
      ",</w>"
    ],
    [
      "ic",
      "</w>"
    ],
    [
      "s",
      "i"
    ],
    [
      "th",
      "ink</w>"
    ],
    [
      "t",
      "?</w>"
    ],
    [
      "a",
      "me"
    ],
    [
      "th",
      "ou"
    ],
    [
      "H",
      "ow</w>"
    ],
    [
      "i",
      "f</w>"
    ],
    [
      "d",
      ".</w>"
    ],
    [
      "it",
      ".</w>"
    ],
    [
      "\"",
      "</w>"
    ],
    [
      "n",
      "o"
    ],
    [
      "fri",
      "en"
    ],
    [
      "ing",
      ".</w>"
    ],
    [
      "th",
      "er"
    ],
    [
      "fro",
      "m</w>"
    ],
    [
      "n",
      "ow"
    ],
    [
      "j",
      "o"
    ],
    [
      "t",
      "u"
    ],
    [
      "Th",
      "an"
    ],
    [
      "e",
      "m"
    ],
    [
      "an",
      "y"
    ],
    [
      "s",
      "on"
    ],
    [
      "t",
      "al"
    ],
    [
      "ha",
      "ha"
    ],
    [
      "f",
      "av"
    ],
    [
      "g",
      "h</w>"
    ],
    [
      "w",
      "</w>"
    ],
    [
      "I",
      "s</w>"
    ],
    [
      "u",
      "l"
    ],
    [
      "es",
      "t</w>"
    ],
    [
      "y",
      "?</w>"
    ],
    [
      "pe",
      "o"
    ],
    [
      "es",
      "s</w>"
    ],
    [
      "y",
      ",</w>"
    ],
    [
      "l",
      "oo"
    ],
    [
      "g",
      "re"
    ],
    [
      ":",
      "</w>"
    ],
    [
      "us",
      "e</w>"
    ],
    [
      "u",
      "p"
    ],
    [
      "i",
      "d</w>"
    ],
    [
      "A",
      "</w>"
    ],
    [
      "d",
      "r"
    ],
    [
      "g",
      "ot</w>"
    ],
    [
      "k",
      "now</w>"
    ],
    [
      "ic",
      "e</w>"
    ],
    [
      "es",
      "t"
    ],
    [
      "r",
      "a"
    ],
    [
      "ar",
      "</w>"
    ],
    [
      "p",
      "ro"
    ],
    [
      "W",
      "hat's</w>"
    ],
    [
      "o",
      "p"
    ],
    [
      "tt",
      "y</w>"
    ],
    [
      "ing",
      "?</w>"
    ],
    [
      "ti",
      "me</w>"
    ],
    [
      "m",
      "in"
    ],
    [
      "d",
      "e"
    ],
    [
      "h",
      "ow</w>"
    ],
    [
      "th",
      "er</w>"
    ],
    [
      "n",
      "o</w>"
    ],
    [
      "I'",
      "ve</w>"
    ],
    [
      "e",
      "y</w>"
    ],
    [
      "ti",
      "on"
    ],
    [
      "I'",
      "ll</w>"
    ],
    [
      "u",
      "t</w>"
    ],
    [
      "b",
      "r"
    ],
    [
      "ow",
      "n</w>"
    ],
    [
      "peo",
      "ple</w>"
    ],
    [
      "c",
      "a"
    ],
    [
      "c",
      "e</w>"
    ],
    [
      "e",
      "t"
    ],
    [
      "h",
      "e</w>"
    ],
    [
      "il",
      "l</w>"
    ],
    [
      "o",
      "l"
    ],
    [
      "e",
      "y"
    ],
    [
      "u",
      "d"
    ],
    [
      "p",
      "ar"
    ],
    [
      "D",
      "</w>"
    ],
    [
      "k",
      "in"
    ],
    [
      "an",
      "g"
    ],
    [
      "w",
      "at"
    ],
    [
      "w",
      "ay"
    ],
    [
      "T",
      "hat's</w>"
    ],
    [
      "v",
      "i"
    ],
    [
      "s",
      "!</w>"
    ],
    [
      "u",
      "m"
    ],
    [
      "ou",
      "r"
    ],
    [
      "!",
      "!</w>"
    ],
    [
      "or",
      "ite</w>"
    ],
    [
      "u",
      "t"
    ],
    [
      "mor",
      "e</w>"
    ],
    [
      "g",
      "r"
    ],
    [
      "t",
      "oo"
    ],
    [
      "ha",
      "pp"
    ],
    [
      "e",
      "p"
    ],
    [
      "g",
      "ir"
    ],
    [
      "di",
      "d</w>"
    ],
    [
      "to",
      "o</w>"
    ],
    [
      "0",
      "</w>"
    ],
    [
      "w",
      "ee"
    ],
    [
      "wi",
      "ll</w>"
    ],
    [
      "li",
      "f"
    ],
    [
      "uc",
      "h</w>"
    ],
    [
      "an",
      "d"
    ],
    [
      "ti",
      "me"
    ],
    [
      "n",
      "ame</w>"
    ],
    [
      "it",
      "t"
    ],
    [
      "ati",
      "on"
    ],
    [
      "wan",
      "t</w>"
    ],
    [
      "ear",
      "</w>"
    ],
    [
      "be",
      "en</w>"
    ],
    [
      "b",
      "y</w>"
    ],
    [
      "ac",
      "k</w>"
    ],
    [
      "I",
      "t</w>"
    ],
    [
      "b",
      "l"
    ],
    [
      "D",
      "o</w>"
    ],
    [
      "g",
      "o</w>"
    ],
    [
      "n",
      "ever</w>"
    ],
    [
      "wh",
      "en</w>"
    ],
    [
      "ha",
      "s</w>"
    ],
    [
      "e",
      "ly</w>"
    ],
    [
      "s",
      "el"
    ],
    [
      "pre",
      "tty</w>"
    ],
    [
      "r",
      "y</w>"
    ],
    [
      "w",
      "e</w>"
    ],
    [
      "c",
      "h</w>"
    ],
    [
      "com",
      "m"
    ],
    [
      "3",
      "</w>"
    ],
    [
      "k",
      ".</w>"
    ],
    [
      "ha",
      "d</w>"
    ],
    [
      "m",
      "uch</w>"
    ],
    [
      "es",
      ",</w>"
    ],
    [
      "g",
      "i"
    ],
    [
      "o",
      "t"
    ],
    [
      "do",
      "ing</w>"
    ],
    [
      "mo",
      "st</w>"
    ],
    [
      "..",
      "."
    ],
    [
      "k",
      "ed</w>"
    ],
    [
      "ri",
      "ght</w>"
    ],
    [
      "i",
      "ght</w>"
    ],
    [
      "ti",
      "on</w>"
    ],
    [
      "ha",
      "t"
    ],
    [
      "an",
      "y</w>"
    ],
    [
      "e",
      "'s</w>"
    ],
    [
      "f",
      "ee"
    ],
    [
      "the",
      "y</w>"
    ],
    [
      "fav",
      "orite</w>"
    ],
    [
      "in",
      "ter"
    ],
    [
      "some",
      "thing</w>"
    ],
    [
      "h",
      "er"
    ],
    [
      "d",
      "it</w>"
    ],
    [
      "N",
      "o</w>"
    ],
    [
      "f",
      "un"
    ],
    [
      "(",
      "</w>"
    ],
    [
      "N",
      "o"
    ],
    [
      "w",
      "e"
    ],
    [
      "f",
      "ir"
    ],
    [
      "c",
      "an"
    ],
    [
      "ati",
      "on</w>"
    ],
    [
      "ma",
      "ke</w>"
    ],
    [
      "b",
      "or"
    ],
    [
      "oo",
      "l</w>"
    ],
    [
      "tr",
      "y</w>"
    ],
    [
      "-",
      "</w>"
    ],
    [
      "se",
      "e</w>"
    ],
    [
      "l",
      "a"
    ],
    [
      "b",
      "ab"
    ],
    [
      "b",
      "i"
    ],
    [
      "h",
      ",</w>"
    ],
    [
      "go",
      "ing</w>"
    ],
    [
      "fee",
      "l</w>"
    ],
    [
      "tal",
      "k</w>"
    ],
    [
      "o",
      "me"
    ],
    [
      "ha",
      "v"
    ],
    [
      "en",
      "d</w>"
    ],
    [
      "s",
      "ay</w>"
    ],
    [
      "you",
      "?</w>"
    ],
    [
      "m",
      "al"
    ],
    [
      "I",
      "f</w>"
    ],
    [
      "on",
      "ly</w>"
    ],
    [
      "it",
      "?</w>"
    ],
    [
      "O",
      "h</w>"
    ],
    [
      "as",
      "t</w>"
    ],
    [
      "qu",
      "es"
    ],
    [
      "J",
      "ust</w>"
    ],
    [
      "c",
      "ould</w>"
    ],
    [
      "re",
      "ad"
    ],
    [
      "g",
      "e"
    ],
    [
      "you",
      "'re</w>"
    ],
    [
      "l",
      ".</w>"
    ],
    [
      "b",
      "</w>"
    ],
    [
      "er",
      ".</w>"
    ],
    [
      "ever",
      "y"
    ],
    [
      "th",
      "ing"
    ],
    [
      "o",
      "m"
    ],
    [
      "the",
      "m</w>"
    ],
    [
      "pl",
      "ay"
    ],
    [
      "en",
      "d"
    ],
    [
      "i",
      "r</w>"
    ],
    [
      "that",
      "'s</w>"
    ],
    [
      "k",
      "es</w>"
    ],
    [
      "co",
      "l"
    ],
    [
      "t",
      ",</w>"
    ],
    [
      "2",
      "0"
    ],
    [
      "re",
      "c"
    ],
    [
      "n",
      "a</w>"
    ],
    [
      "th",
      "an"
    ],
    [
      "way",
      "s</w>"
    ],
    [
      "th",
      "an</w>"
    ],
    [
      "R",
      "ed"
    ],
    [
      "p",
      "e</w>"
    ],
    [
      ":",
      "(</w>"
    ],
    [
      "o",
      "f"
    ],
    [
      "li",
      "st"
    ],
    [
      "h",
      "e"
    ],
    [
      "f",
      "e"
    ],
    [
      "s",
      "l"
    ],
    [
      "on",
      "g</w>"
    ],
    [
      "id",
      "e"
    ],
    [
      "re",
      "d</w>"
    ],
    [
      "oun",
      "ds</w>"
    ],
    [
      "N",
      "ot</w>"
    ],
    [
      "B",
      "ut</w>"
    ],
    [
      "re",
      "d"
    ],
    [
      "t",
      "ed</w>"
    ],
    [
      "f",
      "i"
    ],
    [
      "ac",
      "tu"
    ],
    [
      "E",
      "</w>"
    ],
    [
      "ha",
      "ir"
    ],
    [
      "L",
      "i"
    ],
    [
      "t",
      "er</w>"
    ],
    [
      "thou",
      "gh"
    ],
    [
      "m",
      "us"
    ],
    [
      "gir",
      "l"
    ],
    [
      "A",
      "l"
    ],
    [
      "ha",
      "r"
    ],
    [
      "ri",
      "gh"
    ],
    [
      "i",
      "z"
    ],
    [
      "st",
      "or"
    ],
    [
      "lo",
      "l</w>"
    ],
    [
      "h",
      "ere</w>"
    ],
    [
      "las",
      "s"
    ],
    [
      "Y",
      "ea"
    ],
    [
      "r",
      "u"
    ],
    [
      "ed",
      ".</w>"
    ],
    [
      "fir",
      "st</w>"
    ],
    [
      "a",
      "st"
    ],
    [
      "t",
      "e"
    ],
    [
      "ver",
      "y</w>"
    ],
    [
      "g",
      "oo"
    ],
    [
      "An",
      "d</w>"
    ],
    [
      "tt",
      "er</w>"
    ],
    [
      "us",
      "er"
    ],
    [
      "p",
      "h"
    ],
    [
      "ic",
      "h</w>"
    ],
    [
      "me",
      ".</w>"
    ],
    [
      "st",
      "ill</w>"
    ],
    [
      "tr",
      "u"
    ],
    [
      "s",
      "on</w>"
    ],
    [
      "in",
      "e</w>"
    ],
    [
      "m",
      ".</w>"
    ],
    [
      "t",
      "ri"
    ],
    [
      "loo",
      "k</w>"
    ],
    [
      "h",
      "er</w>"
    ],
    [
      "bab",
      "ly</w>"
    ],
    [
      "v",
      "er</w>"
    ],
    [
      "ev",
      "en</w>"
    ],
    [
      "b",
      "as"
    ],
    [
      "5",
      "</w>"
    ],
    [
      "g",
      "g"
    ],
    [
      "ic",
      "k"
    ],
    [
      "y",
      "ing</w>"
    ],
    [
      "w",
      "r"
    ],
    [
      "S",
      "o</w>"
    ],
    [
      "L",
      "e"
    ],
    [
      "c",
      "ar"
    ],
    [
      "v",
      "al"
    ],
    [
      "L",
      "o"
    ],
    [
      "pl",
      "ay</w>"
    ],
    [
      "l",
      "d"
    ],
    [
      "sh",
      "e</w>"
    ],
    [
      "to",
      "day"
    ],
    [
      "a",
      "f"
    ],
    [
      "wh",
      "ere</w>"
    ],
    [
      "T",
      "hat</w>"
    ],
    [
      "ha",
      "</w>"
    ],
    [
      "s",
      "ch"
    ],
    [
      "t",
      "w"
    ],
    [
      "y",
      "ear"
    ],
    [
      "st",
      "r"
    ],
    [
      "b",
      "oo"
    ],
    [
      "th",
      "ere</w>"
    ],
    [
      "ou",
      "r</w>"
    ],
    [
      "on",
      "d"
    ],
    [
      "Th",
      "is</w>"
    ],
    [
      "m",
      "ar"
    ],
    [
      "oun",
      "d</w>"
    ],
    [
      "st",
      "ar"
    ],
    [
      "ay",
      "be</w>"
    ],
    [
      "er",
      "s</w>"
    ],
    [
      "ee",
      "p</w>"
    ],
    [
      "w",
      "ay</w>"
    ],
    [
      "A",
      "re</w>"
    ],
    [
      "m",
      "on"
    ],
    [
      "haha",
      "</w>"
    ],
    [
      "ne",
      "w</w>"
    ],
    [
      "k",
      ",</w>"
    ],
    [
      "ad",
      "e</w>"
    ],
    [
      "t",
      ";"
    ],
    [
      "o",
      "ther</w>"
    ],
    [
      "it",
      "s</w>"
    ],
    [
      "es",
      "?</w>"
    ],
    [
      "c",
      "oun"
    ],
    [
      "ca",
      "use</w>"
    ],
    [
      "d",
      "y</w>"
    ],
    [
      "c",
      "i"
    ],
    [
      "me",
      "an"
    ],
    [
      "k",
      "?</w>"
    ],
    [
      "c",
      "re"
    ],
    [
      "ever",
      "y</w>"
    ],
    [
      "wor",
      "k</w>"
    ],
    [
      "2",
      "</w>"
    ],
    [
      "ti",
      "l</w>"
    ],
    [
      "some",
      "one</w>"
    ],
    [
      "il",
      "e</w>"
    ],
    [
      "co",
      "me</w>"
    ],
    [
      "al",
      "ways</w>"
    ],
    [
      "a",
      "p"
    ],
    [
      "ou",
      "gh</w>"
    ],
    [
      "li",
      "v"
    ],
    [
      "po",
      "in"
    ],
    [
      "Wh",
      "y</w>"
    ],
    [
      "b",
      "est</w>"
    ],
    [
      ":",
      "D</w>"
    ],
    [
      "g",
      "ame"
    ],
    [
      "kin",
      "d</w>"
    ],
    [
      "es",
      "s"
    ],
    [
      "s",
      "id"
    ],
    [
      "uc",
      "k</w>"
    ],
    [
      "l",
      "itt"
    ],
    [
      "i",
      "gh"
    ],
    [
      "B",
      "e"
    ],
    [
      "ic",
      "k</w>"
    ],
    [
      "l",
      "ot</w>"
    ],
    [
      "h",
      "u"
    ],
    [
      "d",
      "id"
    ],
    [
      "m",
      "m"
    ],
    [
      "f",
      "ac"
    ],
    [
      "I",
      "n"
    ],
    [
      "u",
      "s</w>"
    ],
    [
      "per",
      "son</w>"
    ],
    [
      "val",
      "id"
    ],
    [
      "in",
      "to</w>"
    ],
    [
      "ver",
      "s"
    ],
    [
      "s",
      "w"
    ],
    [
      "gu",
      "ess</w>"
    ],
    [
      "sh",
      "ould</w>"
    ],
    [
      "inter",
      "est"
    ],
    [
      "n",
      "ame"
    ],
    [
      "ing",
      ",</w>"
    ],
    [
      "Y",
      "es</w>"
    ],
    [
      "w",
      "ell</w>"
    ],
    [
      "do",
      "es</w>"
    ],
    [
      "ta",
      "ke</w>"
    ],
    [
      "a",
      "in"
    ],
    [
      "b",
      "er</w>"
    ],
    [
      "m",
      "an</w>"
    ],
    [
      "G",
      "ood</w>"
    ],
    [
      "wh",
      "o</w>"
    ],
    [
      "t",
      "!</w>"
    ],
    [
      "b",
      "ir"
    ],
    [
      "n",
      "ice</w>"
    ],
    [
      "un",
      "til</w>"
    ],
    [
      "mo",
      "vi"
    ],
    [
      "actu",
      "ally</w>"
    ],
    [
      "tt",
      "ing</w>"
    ],
    [
      "lif",
      "e</w>"
    ],
    [
      "po",
      "s"
    ],
    [
      "s",
      "a"
    ],
    [
      "re",
      "e</w>"
    ],
    [
      "th",
      "o"
    ],
    [
      "Wh",
      "ere</w>"
    ],
    [
      "ho",
      "pe</w>"
    ],
    [
      "Than",
      "k</w>"
    ],
    [
      "su",
      "re</w>"
    ],
    [
      "D",
      "o"
    ],
    [
      "can",
      "'t</w>"
    ],
    [
      "th",
      "en</w>"
    ],
    [
      "st",
      "u"
    ],
    [
      "s",
      "ee"
    ],
    [
      "il",
      "l"
    ],
    [
      "e",
      "as"
    ],
    [
      "wh",
      "y</w>"
    ],
    [
      "gre",
      "at</w>"
    ],
    [
      "be",
      "cause</w>"
    ],
    [
      "d",
      "is"
    ],
    [
      "s",
      "ame</w>"
    ],
    [
      "li",
      "ve</w>"
    ],
    [
      "ab",
      "le</w>"
    ],
    [
      "s",
      "or"
    ],
    [
      "th",
      "r"
    ],
    [
      "o",
      "me</w>"
    ],
    [
      "aw",
      "es"
    ],
    [
      "you",
      "r"
    ],
    [
      "d",
      "?</w>"
    ],
    [
      "f",
      "u"
    ],
    [
      "litt",
      "le</w>"
    ],
    [
      "i",
      "m"
    ],
    [
      "4",
      "</w>"
    ],
    [
      "g",
      "e</w>"
    ],
    [
      "son",
      "g</w>"
    ],
    [
      "S",
      "</w>"
    ],
    [
      "g",
      "s</w>"
    ],
    [
      "1",
      "</w>"
    ],
    [
      "c",
      "oo"
    ],
    [
      "gu",
      "y"
    ],
    [
      "man",
      "y</w>"
    ],
    [
      "Red",
      "dit</w>"
    ],
    [
      "s",
      "h</w>"
    ],
    [
      "mal",
      "e</w>"
    ],
    [
      "wat",
      "ch"
    ],
    [
      "p",
      "u"
    ],
    [
      "s",
      "m"
    ],
    [
      "you",
      "'"
    ],
    [
      "al",
      "so</w>"
    ],
    [
      "ou",
      "ld"
    ],
    [
      "T",
      "</w>"
    ],
    [
      "b",
      "ad</w>"
    ],
    [
      "P",
      "</w>"
    ],
    [
      "a",
      ".</w>"
    ],
    [
      "l",
      "at"
    ],
    [
      "I'",
      "d</w>"
    ],
    [
      "y",
      "!</w>"
    ],
    [
      "be",
      "tter</w>"
    ],
    [
      "on",
      "e.</w>"
    ],
    [
      "sel",
      "f</w>"
    ],
    [
      "n",
      "ing</w>"
    ],
    [
      "that",
      ".</w>"
    ],
    [
      "frien",
      "d</w>"
    ],
    [
      "x",
      "</w>"
    ],
    [
      "f",
      "ul"
    ],
    [
      "ag",
      "e</w>"
    ],
    [
      "o",
      "ld</w>"
    ],
    [
      "Than",
      "k"
    ],
    [
      "1",
      "0"
    ],
    [
      "ne",
      "ed</w>"
    ],
    [
      "h",
      "ear"
    ],
    [
      "as",
      "k</w>"
    ],
    [
      "t",
      "ing</w>"
    ],
    [
      "w",
      "a"
    ],
    [
      "Ha",
      "ve</w>"
    ],
    [
      "Le",
      "t's</w>"
    ],
    [
      "wi",
      "th"
    ],
    [
      "at",
      "ing</w>"
    ],
    [
      "w",
      "ar"
    ],
    [
      "time",
      "s</w>"
    ],
    [
      "bir",
      "th"
    ],
    [
      "en",
      "jo"
    ],
    [
      "s",
      "er"
    ],
    [
      "it",
      "i"
    ],
    [
      "o",
      "ver</w>"
    ],
    [
      "mo",
      "v"
    ],
    [
      "m",
      "ade</w>"
    ],
    [
      "!",
      "!!</w>"
    ],
    [
      "c",
      "or"
    ],
    [
      "it",
      "y</w>"
    ],
    [
      "h",
      "el"
    ],
    [
      "s",
      "ay"
    ],
    [
      "o",
      "k"
    ],
    [
      "l",
      "u"
    ],
    [
      "O",
      "n"
    ],
    [
      "ent",
      "s</w>"
    ],
    [
      "fin",
      "d</w>"
    ],
    [
      "en",
      "'t</w>"
    ],
    [
      "r",
      "/"
    ],
    [
      "w",
      "ell"
    ],
    [
      "ou",
      "s</w>"
    ],
    [
      "frien",
      "d"
    ],
    [
      "g",
      "ame</w>"
    ],
    [
      "any",
      "thing</w>"
    ],
    [
      "per",
      "son"
    ],
    [
      "s",
      "ounds</w>"
    ],
    [
      "pro",
      "bably</w>"
    ],
    [
      "las",
      "t</w>"
    ],
    [
      "H",
      "ey</w>"
    ],
    [
      "it",
      "!</w>"
    ],
    [
      "Than",
      "ks</w>"
    ],
    [
      "now",
      "?</w>"
    ],
    [
      "ex",
      "t</w>"
    ],
    [
      "ed",
      "?</w>"
    ],
    [
      "t",
      "ur"
    ],
    [
      "s",
      "e.</w>"
    ],
    [
      "C",
      "an</w>"
    ],
    [
      "ea",
      "d</w>"
    ],
    [
      "as",
      "su"
    ],
    [
      "v",
      "ot"
    ],
    [
      "a",
      "z"
    ],
    [
      "w",
      "ere</w>"
    ],
    [
      "f",
      "er"
    ],
    [
      "ow",
      "n"
    ],
    [
      "r",
      "an"
    ],
    [
      "en",
      "ce</w>"
    ],
    [
      "C",
      "h"
    ],
    [
      "W",
      "ell</w>"
    ],
    [
      "ec",
      "i"
    ],
    [
      "gi",
      "ve</w>"
    ],
    [
      "G",
      "o"
    ],
    [
      "be",
      "for"
    ],
    [
      "re",
      "ad</w>"
    ],
    [
      "m",
      "at"
    ],
    [
      "m",
      "s</w>"
    ],
    [
      "d",
      "ud"
    ],
    [
      "hair",
      ",</w>"
    ],
    [
      "c",
      "r"
    ],
    [
      "f",
      "uc"
    ],
    [
      "bo",
      "dy</w>"
    ],
    [
      "thou",
      "ght</w>"
    ],
    [
      "o",
      "ff"
    ],
    [
      "h",
      "is</w>"
    ],
    [
      "&",
      "g"
    ],
    [
      "&g",
      "t;"
    ],
    [
      "y",
      "ea"
    ],
    [
      "fun",
      "</w>"
    ],
    [
      "ques",
      "tion"
    ],
    [
      "S",
      "t"
    ],
    [
      "ee",
      "p"
    ],
    [
      "ent",
      "ly</w>"
    ],
    [
      "be",
      "ing</w>"
    ],
    [
      "did",
      "n't</w>"
    ],
    [
      "too",
      ".</w>"
    ],
    [
      "An",
      "y"
    ],
    [
      "op",
      "e</w>"
    ],
    [
      "S",
      "h"
    ],
    [
      "user",
      "name</w>"
    ],
    [
      "i",
      "l</w>"
    ],
    [
      "You",
      "'re</w>"
    ],
    [
      "w",
      "hat's</w>"
    ],
    [
      "h",
      ".</w>"
    ],
    [
      "sel",
      "f"
    ],
    [
      "d",
      "er"
    ],
    [
      "ac",
      "e</w>"
    ],
    [
      "b",
      "ack</w>"
    ],
    [
      "comm",
      "ent</w>"
    ],
    [
      "ques",
      "tion</w>"
    ],
    [
      "com",
      "p"
    ],
    [
      "?",
      "?</w>"
    ],
    [
      "an",
      "sw"
    ],
    [
      "li",
      "c"
    ],
    [
      "you",
      "!</w>"
    ],
    [
      "pl",
      "an"
    ],
    [
      "day",
      "s</w>"
    ],
    [
      "tw",
      "o</w>"
    ],
    [
      "you",
      ".</w>"
    ],
    [
      "lo",
      "v"
    ],
    [
      "su",
      "c"
    ],
    [
      "br",
      "own</w>"
    ],
    [
      "thing",
      "s</w>"
    ],
    [
      "m",
      "?</w>"
    ],
    [
      "M",
      "o"
    ],
    [
      "th",
      "in"
    ],
    [
      "it",
      ",</w>"
    ],
    [
      "now",
      ".</w>"
    ],
    [
      "y",
      "ear</w>"
    ],
    [
      "m",
      "y"
    ],
    [
      "the",
      "ir</w>"
    ],
    [
      "ur",
      "r"
    ],
    [
      "sh",
      "i"
    ],
    [
      "]",
      "</w>"
    ],
    [
      "d",
      ",</w>"
    ],
    [
      "a",
      "u"
    ],
    [
      "20",
      "'"
    ],
    [
      "t",
      "y</w>"
    ],
    [
      "s",
      "ec"
    ],
    [
      "Do",
      "es</w>"
    ],
    [
      "poin",
      "t</w>"
    ],
    [
      "v",
      "ide"
    ],
    [
      "y",
      "et</w>"
    ],
    [
      "di",
      "ff"
    ],
    [
      "en",
      "c"
    ],
    [
      ".",
      ".</w>"
    ],
    [
      "ing",
      "!</w>"
    ],
    [
      "C",
      "an"
    ],
    [
      "su",
      "b"
    ],
    [
      "red",
      "dit</w>"
    ],
    [
      "i",
      "st"
    ],
    [
      "wh",
      "ile</w>"
    ],
    [
      "B",
      "r"
    ],
    [
      "d",
      "es"
    ],
    [
      "sch",
      "ool</w>"
    ],
    [
      "lass",
      "es</w>"
    ],
    [
      "ma",
      "kes</w>"
    ],
    [
      "d",
      "er</w>"
    ],
    [
      "day",
      ".</w>"
    ],
    [
      "list",
      "en"
    ],
    [
      "l",
      "l"
    ],
    [
      "b",
      "ro"
    ],
    [
      "p",
      "ic"
    ],
    [
      "*",
      "*"
    ],
    [
      "’",
      "s</w>"
    ],
    [
      "es",
      "!</w>"
    ],
    [
      "thou",
      "gh</w>"
    ],
    [
      "c",
      "lo"
    ],
    [
      "frien",
      "ds</w>"
    ],
    [
      "er",
      ",</w>"
    ],
    [
      "N",
      "ic"
    ],
    [
      "a",
      "in</w>"
    ],
    [
      "mus",
      "ic</w>"
    ],
    [
      "re",
      "fer"
    ],
    [
      "es",
      "e</w>"
    ],
    [
      "D",
      "on't</w>"
    ],
    [
      "re",
      "a"
    ],
    [
      "tho",
      "se</w>"
    ],
    [
      "ab",
      "ou"
    ],
    [
      "aw",
      "</w>"
    ],
    [
      "h",
      "ou"
    ],
    [
      ";",
      ")</w>"
    ],
    [
      "ec",
      "t</w>"
    ],
    [
      "I",
      "n</w>"
    ],
    [
      "H",
      "e"
    ],
    [
      "A",
      "w"
    ],
    [
      "a",
      "ke</w>"
    ],
    [
      "l",
      "ess</w>"
    ],
    [
      "Ha",
      "ha</w>"
    ],
    [
      "W",
      "ell"
    ],
    [
      "S",
      "u"
    ],
    [
      "H",
      "ow"
    ],
    [
      "it",
      "ing</w>"
    ],
    [
      "O",
      "</w>"
    ],
    [
      "fin",
      "it"
    ],
    [
      "u",
      "</w>"
    ],
    [
      "T",
      "o"
    ],
    [
      "b",
      "le"
    ],
    [
      "s",
      "s</w>"
    ],
    [
      "of",
      "f</w>"
    ],
    [
      "8",
      "</w>"
    ],
    [
      "p",
      "r"
    ],
    [
      "me",
      "an</w>"
    ],
    [
      "l",
      "on"
    ],
    [
      "U",
      "n"
    ],
    [
      "ey",
      "es.</w>"
    ],
    [
      "a",
      "a"
    ],
    [
      "is",
      "h</w>"
    ],
    [
      "d",
      "on"
    ],
    [
      "f",
      "t</w>"
    ],
    [
      "n",
      "ic"
    ],
    [
      "S",
      "ome"
    ],
    [
      "wh",
      "ich</w>"
    ],
    [
      "C",
      "on"
    ],
    [
      "re",
      "al"
    ],
    [
      "e",
      "at</w>"
    ],
    [
      "g",
      "en"
    ],
    [
      "happ",
      "en"
    ],
    [
      "d",
      "ing</w>"
    ],
    [
      "Yea",
      "h</w>"
    ],
    [
      "on",
      ".</w>"
    ],
    [
      "i",
      "es</w>"
    ],
    [
      "af",
      "ter</w>"
    ],
    [
      "ge",
      "tting</w>"
    ],
    [
      "n",
      "ext</w>"
    ],
    [
      "P",
      "ro"
    ],
    [
      "b",
      "er"
    ],
    [
      "a",
      "pp"
    ],
    [
      "diff",
      "er"
    ],
    [
      "ex",
      "c"
    ],
    [
      "M",
      "aybe</w>"
    ],
    [
      "guy",
      "s</w>"
    ],
    [
      "s",
      "s"
    ],
    [
      "o",
      "c"
    ],
    [
      "le",
      "ast</w>"
    ],
    [
      "do",
      "es"
    ],
    [
      "con",
      "vers"
    ],
    [
      "iz",
      "z"
    ],
    [
      "year",
      "s</w>"
    ],
    [
      "ang",
      "e</w>"
    ],
    [
      "f",
      "am"
    ],
    [
      "happ",
      "y</w>"
    ],
    [
      "fav",
      "our"
    ],
    [
      "l",
      "ong</w>"
    ],
    [
      "than",
      "k</w>"
    ],
    [
      "sh",
      "ow"
    ],
    [
      "h",
      "our"
    ],
    [
      "l",
      "es</w>"
    ],
    [
      "Y",
      "</w>"
    ],
    [
      "f",
      "l"
    ],
    [
      "fu",
      "l</w>"
    ],
    [
      "in",
      "n"
    ],
    [
      "ould",
      "n't</w>"
    ],
    [
      "i",
      "s.</w>"
    ],
    [
      "el",
      "se</w>"
    ],
    [
      "d",
      "one</w>"
    ],
    [
      "c",
      "at"
    ],
    [
      "P",
      "o"
    ],
    [
      "ch",
      "ec"
    ],
    [
      "7",
      "</w>"
    ],
    [
      "I",
      "’"
    ],
    [
      "G",
      "re"
    ],
    [
      "su",
      "p"
    ],
    [
      "us",
      "u"
    ],
    [
      "fe",
      "w</w>"
    ],
    [
      "on",
      "na</w>"
    ],
    [
      "t",
      "ell</w>"
    ],
    [
      "wat",
      "ch</w>"
    ],
    [
      "h",
      "h"
    ],
    [
      "st",
      "ud"
    ],
    [
      "I",
      "N"
    ],
    [
      "c",
      "u"
    ],
    [
      "hat",
      "e</w>"
    ],
    [
      "wi",
      "sh</w>"
    ],
    [
      "th",
      "ing.</w>"
    ],
    [
      "k",
      "now"
    ],
    [
      "in",
      "d</w>"
    ],
    [
      "ac",
      "k"
    ],
    [
      "ou",
      "gh"
    ],
    [
      "hear",
      "d</w>"
    ],
    [
      "po",
      "st</w>"
    ],
    [
      "An",
      "y</w>"
    ],
    [
      "dr",
      "in"
    ],
    [
      "uc",
      "k"
    ],
    [
      "wan",
      "na</w>"
    ],
    [
      "goo",
      "d.</w>"
    ],
    [
      "an",
      "c"
    ],
    [
      "read",
      "y</w>"
    ],
    [
      "f",
      "e</w>"
    ],
    [
      "f",
      "a"
    ],
    [
      "t",
      "ly</w>"
    ],
    [
      "o",
      "ther"
    ],
    [
      "gr",
      "at"
    ],
    [
      "p",
      "i"
    ],
    [
      "po",
      "st"
    ],
    [
      "ro",
      "c"
    ],
    [
      "P",
      "l"
    ],
    [
      "con",
      "t"
    ],
    [
      "vide",
      "o</w>"
    ],
    [
      "oo",
      "l"
    ],
    [
      "d",
      "a</w>"
    ],
    [
      "n",
      "i"
    ],
    [
      "though",
      ".</w>"
    ],
    [
      "2",
      "0</w>"
    ],
    [
      "awes",
      "ome"
    ],
    [
      "u",
      "/"
    ],
    [
      "en",
      "?</w>"
    ],
    [
      "does",
      "n't</w>"
    ],
    [
      "list",
      "en</w>"
    ],
    [
      "n",
      "ight</w>"
    ],
    [
      "b",
      "it</w>"
    ],
    [
      "Well",
      ",</w>"
    ],
    [
      "day",
      "?</w>"
    ],
    [
      "i",
      "ly</w>"
    ],
    [
      "H",
      "i"
    ],
    [
      "Q",
      "u"
    ],
    [
      "any",
      "one</w>"
    ],
    [
      "ar",
      "k</w>"
    ],
    [
      "gir",
      "l</w>"
    ],
    [
      "d",
      "re"
    ],
    [
      "m",
      "en"
    ],
    [
      "pl",
      "eas"
    ],
    [
      "n",
      "um"
    ],
    [
      "9",
      "9"
    ],
    [
      "s",
      "ha"
    ],
    [
      "assu",
      "me</w>"
    ],
    [
      "ou",
      "t"
    ],
    [
      "c",
      "as"
    ],
    [
      "i",
      "'"
    ],
    [
      "jo",
      "b</w>"
    ],
    [
      "li",
      "k"
    ],
    [
      "an",
      "t</w>"
    ],
    [
      "N",
      "e"
    ],
    [
      "e",
      "l</w>"
    ],
    [
      "bi",
      "g</w>"
    ],
    [
      "ch",
      "e"
    ],
    [
      "th",
      "is"
    ],
    [
      "g",
      "in"
    ],
    [
      "bas",
      "ed</w>"
    ],
    [
      "loo",
      "king</w>"
    ],
    [
      "hav",
      "ing</w>"
    ],
    [
      "g",
      "l"
    ],
    [
      "enjo",
      "y</w>"
    ],
    [
      "sid",
      "e</w>"
    ],
    [
      "H",
      "e</w>"
    ],
    [
      "re",
      "mov"
    ],
    [
      "m",
      "ent</w>"
    ],
    [
      "mus",
      "ic"
    ],
    [
      "to",
      "day</w>"
    ],
    [
      "O",
      "O"
    ],
    [
      "today",
      "?</w>"
    ],
    [
      "s",
      "ing"
    ],
    [
      "hi",
      "m</w>"
    ],
    [
      "befor",
      "e</w>"
    ],
    [
      "n",
      "a"
    ],
    [
      "finit",
      "ely</w>"
    ],
    [
      "al",
      "i"
    ],
    [
      "P",
      "re"
    ],
    [
      "g",
      "onna</w>"
    ],
    [
      "c",
      "ha"
    ],
    [
      "m",
      "aybe</w>"
    ],
    [
      "m",
      "is"
    ],
    [
      "m",
      "ent"
    ],
    [
      "hi",
      "gh</w>"
    ],
    [
      "t",
      "y"
    ],
    [
      "fe",
      "el"
    ],
    [
      "wh",
      "o"
    ],
    [
      "r",
      "un"
    ],
    [
      "w",
      "as"
    ],
    [
      "sa",
      "id</w>"
    ],
    [
      "Y",
      "es.</w>"
    ],
    [
      "favour",
      "ite</w>"
    ],
    [
      "c",
      "las"
    ],
    [
      "S",
      "ounds</w>"
    ],
    [
      "ch",
      "o"
    ],
    [
      "s",
      "k"
    ],
    [
      "ed",
      "]</w>"
    ],
    [
      "Wh",
      "ich</w>"
    ],
    [
      "girl",
      "\"</w>"
    ],
    [
      "sp",
      "eci"
    ],
    [
      "t",
      "ic"
    ],
    [
      "p",
      "izz"
    ],
    [
      "6",
      "</w>"
    ],
    [
      "E",
      "n"
    ],
    [
      "ar",
      "i"
    ],
    [
      "refer",
      "red</w>"
    ],
    [
      "/",
      "</w>"
    ],
    [
      "too",
      "!</w>"
    ],
    [
      "on",
      "s</w>"
    ],
    [
      "we",
      "ir"
    ],
    [
      "in",
      "i"
    ],
    [
      "p",
      "s</w>"
    ],
    [
      "hel",
      "p</w>"
    ],
    [
      "A",
      "M"
    ],
    [
      "en",
      ".</w>"
    ],
    [
      "s",
      "in"
    ],
    [
      "D",
      "id</w>"
    ],
    [
      "d",
      "ic"
    ],
    [
      "ti",
      "m"
    ],
    [
      "\"",
      "girl\"</w>"
    ],
    [
      "wee",
      "k"
    ],
    [
      "than",
      "ks</w>"
    ],
    [
      "thr",
      "ough</w>"
    ],
    [
      "gre",
      "at"
    ],
    [
      "r",
      "oo"
    ],
    [
      "me",
      ",</w>"
    ],
    [
      "on",
      "e?</w>"
    ],
    [
      "t",
      "e</w>"
    ],
    [
      "P",
      "e"
    ],
    [
      "m",
      "er"
    ],
    [
      "co",
      "ff"
    ],
    [
      "st",
      "e"
    ],
    [
      ".",
      "*</w>"
    ],
    [
      "'",
      "ll</w>"
    ],
    [
      "lo",
      "l.</w>"
    ],
    [
      "hav",
      "en't</w>"
    ],
    [
      "T",
      "o</w>"
    ],
    [
      "[",
      "remov"
    ],
    [
      "[remov",
      "ed]</w>"
    ],
    [
      "dr",
      "ink</w>"
    ],
    [
      ";",
      "</w>"
    ],
    [
      "m",
      "ight</w>"
    ],
    [
      "up",
      "vot"
    ],
    [
      "ho",
      "me</w>"
    ],
    [
      "my",
      "self</w>"
    ],
    [
      "T",
      "H"
    ],
    [
      "b",
      "ad"
    ],
    [
      "y",
      "e"
    ],
    [
      "W",
      "e</w>"
    ],
    [
      "T",
      "ell</w>"
    ],
    [
      "c",
      "ool</w>"
    ],
    [
      "sh",
      "it</w>"
    ],
    [
      "f",
      "oo"
    ],
    [
      "every",
      "thing</w>"
    ],
    [
      "h",
      "and"
    ],
    [
      "se",
      "en</w>"
    ],
    [
      "f",
      "ru"
    ],
    [
      "h",
      "on"
    ],
    [
      "N",
      "ever</w>"
    ],
    [
      "as",
      "ked</w>"
    ],
    [
      "every",
      "one</w>"
    ],
    [
      "i",
      "m</w>"
    ],
    [
      "re",
      "l"
    ],
    [
      "...",
      ".</w>"
    ],
    [
      "or",
      "t"
    ],
    [
      "so",
      "l"
    ],
    [
      "w",
      "o"
    ],
    [
      "f",
      "ar</w>"
    ],
    [
      "col",
      "le"
    ],
    [
      "C",
      "om"
    ],
    [
      "t",
      "end</w>"
    ],
    [
      "i",
      "k"
    ],
    [
      "o",
      ",</w>"
    ],
    [
      "H",
      "el"
    ],
    [
      "E",
      "x"
    ],
    [
      "Lo",
      "l</w>"
    ],
    [
      "righ",
      "t?</w>"
    ],
    [
      "me",
      "!</w>"
    ],
    [
      "as",
      "s</w>"
    ],
    [
      "watch",
      "ing</w>"
    ],
    [
      "g",
      "am"
    ],
    [
      "c",
      "ri"
    ],
    [
      "stu",
      "ff"
    ],
    [
      "M",
      "ar"
    ],
    [
      "y",
      "es</w>"
    ],
    [
      "th",
      "s</w>"
    ],
    [
      "pp",
      "y</w>"
    ],
    [
      "Wh",
      "o</w>"
    ],
    [
      "is",
      "t</w>"
    ],
    [
      "t",
      "on"
    ],
    [
      "ri",
      "v"
    ],
    [
      "er",
      "?</w>"
    ],
    [
      "wee",
      "k</w>"
    ],
    [
      "I",
      "m</w>"
    ],
    [
      "O",
      "U"
    ],
    [
      "or",
      "t</w>"
    ],
    [
      "ac",
      "h"
    ],
    [
      "stor",
      "y</w>"
    ],
    [
      "w",
      "in"
    ],
    [
      "I’",
      "m</w>"
    ],
    [
      "l",
      "it"
    ],
    [
      "all",
      "y.</w>"
    ],
    [
      "an",
      "i"
    ],
    [
      "wor",
      "ld</w>"
    ],
    [
      "am",
      "p"
    ],
    [
      "Lo",
      "ve</w>"
    ],
    [
      "B",
      "l"
    ],
    [
      "bor",
      "n</w>"
    ],
    [
      "e",
      "e</w>"
    ],
    [
      "e",
      "i"
    ],
    [
      "ed",
      ",</w>"
    ],
    [
      "d",
      "!</w>"
    ],
    [
      "sl",
      "eep"
    ],
    [
      "pl",
      "ace</w>"
    ],
    [
      "a",
      "?</w>"
    ],
    [
      "me",
      "m"
    ],
    [
      "your",
      "self"
    ],
    [
      "L",
      "</w>"
    ],
    [
      "g",
      ".</w>"
    ],
    [
      "har",
      "d</w>"
    ],
    [
      "e",
      "g"
    ],
    [
      "differ",
      "ent</w>"
    ],
    [
      "li",
      "e</w>"
    ],
    [
      "’",
      "t</w>"
    ],
    [
      "red",
      "d"
    ],
    [
      "m",
      "u"
    ],
    [
      "d",
      "own</w>"
    ],
    [
      "re",
      ".</w>"
    ],
    [
      "con",
      "f"
    ],
    [
      "S",
      "p"
    ],
    [
      "gu",
      "y</w>"
    ],
    [
      "tr",
      "ying</w>"
    ],
    [
      "c",
      "urr"
    ],
    [
      "*",
      "*</w>"
    ],
    [
      "m",
      "il"
    ],
    [
      "h",
      "ear</w>"
    ],
    [
      "fac",
      "t</w>"
    ],
    [
      "F",
      "ri"
    ],
    [
      "min",
      "ut"
    ],
    [
      "to",
      "?</w>"
    ],
    [
      "M",
      "e</w>"
    ],
    [
      "you",
      ",</w>"
    ],
    [
      "as",
      "on</w>"
    ],
    [
      "man",
      ".</w>"
    ],
    [
      "Th",
      "ey</w>"
    ],
    [
      "f",
      "f</w>"
    ],
    [
      "en",
      ",</w>"
    ],
    [
      "valid",
      "ate</w>"
    ],
    [
      "o",
      "ver"
    ],
    [
      "sh",
      "ow</w>"
    ],
    [
      "T",
      "r"
    ],
    [
      "s",
      "wee"
    ],
    [
      "is",
      "n't</w>"
    ],
    [
      "f",
      "ood</w>"
    ],
    [
      "b",
      "ar"
    ],
    [
      "a",
      "k"
    ],
    [
      "A",
      "t</w>"
    ],
    [
      "G",
      "o</w>"
    ],
    [
      "ch",
      "ick"
    ],
    [
      "'",
      "</w>"
    ],
    [
      "un",
      "i"
    ],
    [
      "Pre",
      "tty</w>"
    ],
    [
      "A",
      "r"
    ],
    [
      "l",
      "es"
    ],
    [
      "for",
      "t"
    ],
    [
      "su",
      "r"
    ],
    [
      "z",
      "</w>"
    ],
    [
      "R",
      "e"
    ],
    [
      "W",
      "as</w>"
    ],
    [
      "us",
      "ed</w>"
    ],
    [
      "qu",
      "ot"
    ],
    [
      "interest",
      "ing</w>"
    ],
    [
      "Thank",
      "s!</w>"
    ],
    [
      "h",
      "ead</w>"
    ],
    [
      "Yea",
      "h,</w>"
    ],
    [
      "at",
      "t"
    ],
    [
      "up",
      ".</w>"
    ],
    [
      "c",
      "el"
    ],
    [
      "G",
      "</w>"
    ],
    [
      "en",
      "ti"
    ],
    [
      "Wh",
      "en</w>"
    ],
    [
      "20'",
      "s.</w>"
    ],
    [
      "at",
      "ed</w>"
    ],
    [
      "on",
      "?</w>"
    ],
    [
      "on",
      "d</w>"
    ],
    [
      "pro",
      "ble"
    ],
    [
      "W",
      "e"
    ],
    [
      "ad",
      "i"
    ],
    [
      "ha",
      "l"
    ],
    [
      "day",
      "!</w>"
    ],
    [
      "d",
      "own"
    ],
    [
      "l",
      "an"
    ],
    [
      "&gt;",
      "</w>"
    ],
    [
      "valid",
      "ation</w>"
    ],
    [
      "You",
      "r</w>"
    ],
    [
      "ic",
      "al</w>"
    ],
    [
      "b",
      "rea"
    ],
    [
      "ch",
      ".</w>"
    ],
    [
      "min",
      "d</w>"
    ],
    [
      "he",
      "ad"
    ],
    [
      "op",
      "ini"
    ],
    [
      "v",
      "en</w>"
    ],
    [
      "re",
      "p"
    ],
    [
      "E",
      "R"
    ],
    [
      "Pro",
      "bably</w>"
    ],
    [
      "en",
      "s</w>"
    ],
    [
      "tri",
      "ed</w>"
    ],
    [
      "i",
      "sh"
    ],
    [
      "de",
      "finitely</w>"
    ],
    [
      "d",
      "am"
    ],
    [
      "play",
      "ing</w>"
    ],
    [
      "b",
      "le</w>"
    ],
    [
      "ar",
      "ound</w>"
    ],
    [
      "yea",
      "h</w>"
    ],
    [
      "th",
      ".</w>"
    ],
    [
      "N",
      "ow</w>"
    ],
    [
      "star",
      "t</w>"
    ],
    [
      "am",
      "az"
    ],
    [
      "d",
      "ec"
    ],
    [
      "the",
      "m.</w>"
    ],
    [
      "N",
      "a"
    ],
    [
      "par",
      "t</w>"
    ],
    [
      "^",
      "^"
    ],
    [
      "m",
      ",</w>"
    ],
    [
      "c",
      "ut"
    ],
    [
      "o",
      "h</w>"
    ],
    [
      "i",
      "ve</w>"
    ],
    [
      "ta",
      "st"
    ],
    [
      "th",
      "ing?</w>"
    ],
    [
      "k",
      "id"
    ],
    [
      "F",
      "av"
    ],
    [
      "no",
      "thing</w>"
    ],
    [
      "mor",
      "r"
    ],
    [
      "ic",
      "s</w>"
    ],
    [
      "le",
      "as"
    ],
    [
      "comp",
      "li"
    ],
    [
      "be",
      "li"
    ],
    [
      "S",
      "ame</w>"
    ],
    [
      "question",
      "s</w>"
    ],
    [
      "n",
      "ee"
    ],
    [
      "B",
      "o"
    ],
    [
      "N",
      "ope</w>"
    ],
    [
      "un",
      "der"
    ],
    [
      "kin",
      "da</w>"
    ],
    [
      "e",
      "...</w>"
    ],
    [
      "the",
      "y"
    ],
    [
      "ar",
      "y</w>"
    ],
    [
      "Con",
      "grat"
    ],
    [
      "D",
      "e"
    ],
    [
      "on",
      "e!</w>"
    ],
    [
      "c",
      "our"
    ],
    [
      "c",
      "all"
    ],
    [
      "g",
      "ar"
    ],
    [
      "W",
      "or"
    ],
    [
      "!",
      "!"
    ],
    [
      "an",
      ".</w>"
    ],
    [
      "O",
      "r</w>"
    ],
    [
      "w",
      "hat"
    ],
    [
      "How",
      "'s</w>"
    ],
    [
      "?",
      "!</w>"
    ],
    [
      "time",
      ".</w>"
    ],
    [
      "Red",
      "d"
    ],
    [
      "ac",
      "h</w>"
    ],
    [
      "po",
      "p"
    ],
    [
      "awes",
      "ome</w>"
    ],
    [
      "W",
      "hat"
    ],
    [
      "al",
      "bu"
    ],
    [
      "haha",
      ".</w>"
    ],
    [
      "me",
      "et</w>"
    ],
    [
      "S",
      "he</w>"
    ],
    [
      "jo",
      "b"
    ],
    [
      "birth",
      "day</w>"
    ],
    [
      "es",
      "s.</w>"
    ],
    [
      "wan",
      "ted</w>"
    ],
    [
      "..",
      ".."
    ],
    [
      "Hel",
      "lo"
    ],
    [
      "usu",
      "ally</w>"
    ],
    [
      "Th",
      "ere</w>"
    ],
    [
      "er",
      "e's</w>"
    ],
    [
      "a",
      "use</w>"
    ],
    [
      "ch",
      "il"
    ],
    [
      "L",
      "O"
    ],
    [
      "sor",
      "ry</w>"
    ],
    [
      "Any",
      "one</w>"
    ],
    [
      "ac",
      "c"
    ],
    [
      "f",
      "em"
    ],
    [
      "O",
      "N"
    ],
    [
      "E",
      "E"
    ],
    [
      "al",
      "ready</w>"
    ],
    [
      "g",
      "er</w>"
    ],
    [
      "bu",
      "r"
    ],
    [
      "ell",
      "o</w>"
    ],
    [
      "M",
      "e"
    ],
    [
      "f",
      "r"
    ],
    [
      "me",
      "s</w>"
    ],
    [
      "W",
      "ha"
    ],
    [
      "A",
      "N"
    ],
    [
      "S",
      "or"
    ],
    [
      "user",
      "name"
    ],
    [
      "c",
      "er"
    ],
    [
      "Ha",
      "ppy</w>"
    ],
    [
      "M",
      "</w>"
    ],
    [
      "M",
      "on"
    ],
    [
      "9",
      "</w>"
    ],
    [
      "ser",
      "i"
    ],
    [
      "stu",
      "ff</w>"
    ],
    [
      "to",
      "morr"
    ],
    [
      "u",
      "e</w>"
    ],
    [
      "game",
      "s</w>"
    ],
    [
      "A",
      "mer"
    ],
    [
      "Amer",
      "ic"
    ],
    [
      "all",
      "y,</w>"
    ],
    [
      "war",
      "d</w>"
    ],
    [
      "pos",
      "iti"
    ],
    [
      "W",
      "ould</w>"
    ],
    [
      "k",
      "s.</w>"
    ],
    [
      "b",
      "ed</w>"
    ],
    [
      "w",
      "ent</w>"
    ],
    [
      "ou",
      "s"
    ],
    [
      "ha",
      "ir</w>"
    ],
    [
      "On",
      "e</w>"
    ],
    [
      "la",
      "u"
    ],
    [
      "answ",
      "er</w>"
    ],
    [
      "p",
      "ri"
    ],
    [
      "re",
      "al</w>"
    ],
    [
      "l",
      "in"
    ],
    [
      "u",
      "al</w>"
    ],
    [
      "ch",
      "ang"
    ],
    [
      "with",
      "out</w>"
    ],
    [
      "an",
      "s</w>"
    ],
    [
      "v",
      "o"
    ],
    [
      "to",
      "p</w>"
    ],
    [
      "li",
      "gh"
    ],
    [
      "well",
      ".</w>"
    ],
    [
      "o",
      "p</w>"
    ],
    [
      "k",
      "eep</w>"
    ],
    [
      "c",
      "all</w>"
    ],
    [
      "ent",
      ".</w>"
    ],
    [
      "M",
      "a"
    ],
    [
      "you'",
      "ve</w>"
    ],
    [
      "o",
      "b"
    ],
    [
      "'",
      "d</w>"
    ],
    [
      "n",
      "y</w>"
    ],
    [
      "sl",
      "eep</w>"
    ],
    [
      "l",
      "ate</w>"
    ],
    [
      "bu",
      "y</w>"
    ],
    [
      "w",
      "ond"
    ],
    [
      "n",
      "igh"
    ],
    [
      ".",
      "\"</w>"
    ],
    [
      "hou",
      "se</w>"
    ],
    [
      "it",
      "ed</w>"
    ],
    [
      "qu",
      "ite</w>"
    ],
    [
      "g",
      "er"
    ],
    [
      "f",
      "ic"
    ],
    [
      "an",
      "other</w>"
    ],
    [
      "le",
      "ar"
    ],
    [
      "p",
      "ut</w>"
    ],
    [
      "au",
      "ti"
    ],
    [
      "gre",
      "en</w>"
    ],
    [
      "wor",
      "ds</w>"
    ],
    [
      "c",
      "ar</w>"
    ],
    [
      "curr",
      "ently</w>"
    ],
    [
      "that",
      "?</w>"
    ],
    [
      "&",
      "l"
    ],
    [
      "&l",
      "t;"
    ],
    [
      "O",
      "P"
    ],
    [
      "en",
      "ough</w>"
    ],
    [
      "'",
      "ve</w>"
    ],
    [
      "e",
      "br"
    ],
    [
      "par",
      "t"
    ],
    [
      "d",
      "inn"
    ],
    [
      "N",
      "ame</w>"
    ],
    [
      "sin",
      "ce</w>"
    ],
    [
      "Aw",
      "es"
    ],
    [
      "fuc",
      "king</w>"
    ],
    [
      ":",
      "P</w>"
    ],
    [
      "f",
      "an</w>"
    ],
    [
      "bo",
      "th</w>"
    ],
    [
      "tal",
      "king</w>"
    ],
    [
      "a",
      ",</w>"
    ],
    [
      "1",
      "0</w>"
    ],
    [
      "tru",
      "e</w>"
    ],
    [
      "A",
      "s"
    ],
    [
      "l",
      "uck</w>"
    ],
    [
      "righ",
      "t.</w>"
    ],
    [
      "listen",
      "ing</w>"
    ],
    [
      "ma",
      "g"
    ],
    [
      "ful",
      "ly</w>"
    ],
    [
      "ide",
      "a</w>"
    ],
    [
      "W",
      "i"
    ],
    [
      "L",
      "ate</w>"
    ],
    [
      "f",
      "er</w>"
    ],
    [
      ":",
      "/</w>"
    ],
    [
      "ma",
      "king</w>"
    ],
    [
      "c",
      "har"
    ],
    [
      "B",
      "ec"
    ],
    [
      "Bec",
      "ause</w>"
    ],
    [
      "who",
      "le</w>"
    ],
    [
      "per",
      "f"
    ],
    [
      "wor",
      "d</w>"
    ],
    [
      "th",
      "ese</w>"
    ],
    [
      "peo",
      "pl"
    ],
    [
      "D",
      "am"
    ],
    [
      "ar",
      "d</w>"
    ],
    [
      "U",
      "S"
    ],
    [
      "A",
      "c"
    ],
    [
      "don",
      "t</w>"
    ],
    [
      "they",
      "'re</w>"
    ],
    [
      "h",
      "ot</w>"
    ],
    [
      "see",
      "ms</w>"
    ],
    [
      "ra",
      "in"
    ],
    [
      "n",
      "et</w>"
    ],
    [
      "el",
      "y.</w>"
    ],
    [
      "ti",
      "v"
    ],
    [
      "Li",
      "ke</w>"
    ],
    [
      "f",
      "ar"
    ],
    [
      "ow",
      ",</w>"
    ],
    [
      "C",
      "o"
    ],
    [
      "F",
      "or</w>"
    ],
    [
      "😂",
      "</w>"
    ],
    [
      "p",
      "a"
    ],
    [
      "abou",
      "t?</w>"
    ],
    [
      "i'",
      "m</w>"
    ],
    [
      "O",
      "h,</w>"
    ],
    [
      "b",
      "el"
    ],
    [
      "b",
      "ac"
    ],
    [
      "1",
      ".</w>"
    ],
    [
      "f",
      "li"
    ],
    [
      "be",
      "auti"
    ],
    [
      "t",
      "en</w>"
    ],
    [
      "hour",
      "s</w>"
    ],
    [
      "ation",
      "shi"
    ],
    [
      "man",
      ",</w>"
    ],
    [
      "men",
      "tion</w>"
    ],
    [
      "Br",
      "own</w>"
    ],
    [
      "on",
      "ce</w>"
    ],
    [
      "fin",
      "ish"
    ],
    [
      "s",
      "ing</w>"
    ],
    [
      "No",
      ",</w>"
    ],
    [
      "bl",
      "ack</w>"
    ],
    [
      "thin",
      "king</w>"
    ],
    [
      "d",
      "e</w>"
    ],
    [
      "es",
      "tion"
    ],
    [
      "d",
      "ed</w>"
    ],
    [
      "2",
      ".</w>"
    ],
    [
      "e",
      "ve</w>"
    ],
    [
      "do",
      "m</w>"
    ],
    [
      "t",
      "or"
    ],
    [
      "Fav",
      "orite</w>"
    ],
    [
      "ag",
      "ain"
    ],
    [
      "in",
      "t"
    ],
    [
      "ey",
      "es,</w>"
    ],
    [
      "A",
      "A"
    ],
    [
      "y",
      "a</w>"
    ],
    [
      "/",
      "u/"
    ],
    [
      "A",
      "u"
    ],
    [
      "f",
      "re"
    ],
    [
      "c",
      "l"
    ],
    [
      "f",
      "ound</w>"
    ],
    [
      "her",
      "e.</w>"
    ],
    [
      "th",
      "is.</w>"
    ],
    [
      "l",
      "uck"
    ],
    [
      "tt",
      "a</w>"
    ],
    [
      "ay",
      ".</w>"
    ],
    [
      "s",
      "aw</w>"
    ],
    [
      "mar",
      "ri"
    ],
    [
      "wat",
      "er</w>"
    ],
    [
      "a",
      "ve</w>"
    ],
    [
      "l",
      "y.</w>"
    ],
    [
      "n",
      "or"
    ],
    [
      "per",
      "i"
    ],
    [
      "fort",
      "un"
    ],
    [
      "ho",
      "b"
    ],
    [
      "col",
      "ate</w>"
    ],
    [
      "h",
      "um"
    ],
    [
      "sh",
      "o"
    ],
    [
      "chec",
      "k</w>"
    ],
    [
      "sm",
      "il"
    ],
    [
      "some",
      "times</w>"
    ],
    [
      "ther",
      ".</w>"
    ],
    [
      "ep",
      "tion"
    ],
    [
      "dr",
      "un"
    ],
    [
      "do",
      "g</w>"
    ],
    [
      "an",
      "t"
    ],
    [
      "ti",
      "ll</w>"
    ],
    [
      "l",
      "et</w>"
    ],
    [
      "al",
      "s</w>"
    ],
    [
      "ra",
      "z"
    ],
    [
      "ing",
      "s</w>"
    ],
    [
      "as",
      "si"
    ],
    [
      "H",
      "o"
    ],
    [
      "di",
      "e</w>"
    ],
    [
      "In",
      "ter"
    ],
    [
      "As",
      "k</w>"
    ],
    [
      "pizz",
      "a</w>"
    ],
    [
      "t",
      "b"
    ],
    [
      "n",
      "ed</w>"
    ],
    [
      "f",
      "il"
    ],
    [
      "her",
      "e,</w>"
    ],
    [
      "d",
      "at"
    ],
    [
      "fem",
      "al"
    ],
    [
      "sing",
      "le</w>"
    ],
    [
      "s",
      "ound</w>"
    ],
    [
      "es",
      "ter"
    ],
    [
      "loo",
      "ks</w>"
    ],
    [
      "num",
      "ber</w>"
    ],
    [
      "’",
      "ve</w>"
    ],
    [
      "for",
      "ward</w>"
    ],
    [
      "tur",
      "n</w>"
    ],
    [
      "sp",
      "ea"
    ],
    [
      "ation",
      "s</w>"
    ],
    [
      "coo",
      "l"
    ],
    [
      "ul",
      "ar</w>"
    ],
    [
      "un",
      "</w>"
    ],
    [
      "mo",
      "st"
    ],
    [
      "you'",
      "ll</w>"
    ],
    [
      "itt",
      "ing</w>"
    ],
    [
      "ough",
      ".</w>"
    ],
    [
      "ex",
      "p"
    ],
    [
      "ation",
      ".</w>"
    ],
    [
      "do",
      "?</w>"
    ],
    [
      "c",
      "ame</w>"
    ],
    [
      "movi",
      "e</w>"
    ],
    [
      "see",
      "m</w>"
    ],
    [
      "Nic",
      "e!</w>"
    ],
    [
      "T",
      "I"
    ],
    [
      "E",
      "ar"
    ],
    [
      "ond",
      "e</w>"
    ],
    [
      "ha",
      "ik"
    ],
    [
      "us",
      "er</w>"
    ],
    [
      "h",
      "ow"
    ],
    [
      "inter",
      "net</w>"
    ],
    [
      "er",
      "ed</w>"
    ],
    [
      "wor",
      "th</w>"
    ],
    [
      "wr",
      "ite</w>"
    ],
    [
      "sch",
      "ool"
    ],
    [
      "s",
      "ou"
    ],
    [
      "ac",
      "coun"
    ],
    [
      "p",
      "ow"
    ],
    [
      "cel",
      "ebr"
    ],
    [
      "Y",
      "e"
    ],
    [
      "G",
      "ive</w>"
    ],
    [
      "pre",
      "fer</w>"
    ],
    [
      "ic",
      "ally</w>"
    ],
    [
      "an",
      "ds</w>"
    ],
    [
      "&",
      "amp"
    ],
    [
      "me",
      "?</w>"
    ],
    [
      "m",
      "ay</w>"
    ],
    [
      "ra",
      "ther</w>"
    ],
    [
      "in",
      "d"
    ],
    [
      "fortun",
      "at"
    ],
    [
      "?",
      "??</w>"
    ],
    [
      "s",
      "ad</w>"
    ],
    [
      "boo",
      "k</w>"
    ],
    [
      "go",
      "ing?</w>"
    ],
    [
      "fam",
      "ily</w>"
    ],
    [
      "j",
      "ec"
    ],
    [
      "mem",
      "ber</w>"
    ],
    [
      "st",
      "ay</w>"
    ],
    [
      "Ha",
      "ha"
    ],
    [
      "v",
      "is"
    ],
    [
      "Y",
      "es,</w>"
    ],
    [
      "C",
      "</w>"
    ],
    [
      "No",
      ".</w>"
    ],
    [
      "0",
      "0"
    ],
    [
      "play",
      "ed</w>"
    ],
    [
      "lit",
      "er"
    ],
    [
      "on",
      "es</w>"
    ],
    [
      "sup",
      "er</w>"
    ],
    [
      "m",
      "i"
    ],
    [
      "com",
      "pl"
    ],
    [
      "th",
      "ree</w>"
    ],
    [
      "be",
      "tt"
    ],
    [
      "bor",
      "ed</w>"
    ],
    [
      "w",
      "ha"
    ],
    [
      "al",
      "most</w>"
    ],
    [
      "convers",
      "ation</w>"
    ],
    [
      "Al",
      "so</w>"
    ],
    [
      "Y",
      "OU"
    ],
    [
      "A",
      "ll</w>"
    ],
    [
      "lif",
      "e.</w>"
    ],
    [
      "H",
      "ope</w>"
    ],
    [
      "colle",
      "ge</w>"
    ],
    [
      "P",
      "leas"
    ],
    [
      "c",
      "k"
    ],
    [
      "today",
      ".</w>"
    ],
    [
      "ou",
      "t.</w>"
    ],
    [
      "h",
      "or"
    ],
    [
      "coo",
      "l.</w>"
    ],
    [
      "M",
      "id</w>"
    ],
    [
      "G",
      "lasses</w>"
    ],
    [
      "👍",
      "</w>"
    ],
    [
      "G",
      "ot</w>"
    ],
    [
      "W",
      "at"
    ],
    [
      "k",
      "!</w>"
    ],
    [
      "ex",
      "peri"
    ],
    [
      "ph",
      "one</w>"
    ],
    [
      "beli",
      "eve</w>"
    ],
    [
      "ea",
      "p"
    ],
    [
      "c",
      "ou"
    ],
    [
      "aw",
      "ay</w>"
    ],
    [
      "do",
      "ing?</w>"
    ],
    [
      "st",
      "re"
    ],
    [
      "s",
      "ed</w>"
    ],
    [
      "ti",
      "ve</w>"
    ],
    [
      "son",
      "gs</w>"
    ],
    [
      "No",
      "pe"
    ],
    [
      "st",
      "and</w>"
    ],
    [
      "j",
      "u"
    ],
    [
      "hair",
      ".</w>"
    ],
    [
      "g",
      "lasses</w>"
    ],
    [
      "wi",
      "se.</w>"
    ],
    [
      "re",
      "sp"
    ],
    [
      "real",
      "iz"
    ],
    [
      "ag",
      "ain</w>"
    ],
    [
      "al",
      ".</w>"
    ],
    [
      "ep",
      "i"
    ],
    [
      "epi",
      "so"
    ],
    [
      "coun",
      "try</w>"
    ],
    [
      "mean",
      "s</w>"
    ],
    [
      "us",
      "h"
    ],
    [
      "l",
      "ine</w>"
    ],
    [
      "H",
      "A"
    ],
    [
      "le",
      "g"
    ],
    [
      "ne",
      "w"
    ],
    [
      "sec",
      "ond</w>"
    ],
    [
      "Y",
      "ep"
    ],
    [
      "c",
      "lass"
    ],
    [
      "day",
      ",</w>"
    ],
    [
      "call",
      "ed</w>"
    ],
    [
      "T",
      "ru"
    ],
    [
      "re",
      "comm"
    ],
    [
      "G",
      "et</w>"
    ],
    [
      "G",
      "u"
    ],
    [
      "Some",
      "times</w>"
    ],
    [
      "O",
      "P</w>"
    ],
    [
      "ch",
      "ing</w>"
    ],
    [
      "ation",
      "?</w>"
    ],
    [
      "3",
      "0"
    ],
    [
      "son",
      "g"
    ],
    [
      "read",
      "ing</w>"
    ],
    [
      "su",
      "mm"
    ],
    [
      "h",
      "our</w>"
    ],
    [
      "E",
      "ver"
    ],
    [
      "l",
      "ar"
    ],
    [
      "su",
      "per"
    ],
    [
      "Sor",
      "ry</w>"
    ],
    [
      "ch",
      "an"
    ],
    [
      "On",
      "ly</w>"
    ],
    [
      "er",
      "i"
    ],
    [
      "v",
      "ing</w>"
    ],
    [
      "your",
      "self</w>"
    ],
    [
      "g",
      "in</w>"
    ],
    [
      "p",
      ".</w>"
    ],
    [
      "H",
      "ello</w>"
    ],
    [
      "watch",
      "ed</w>"
    ],
    [
      "pre",
      "s"
    ],
    [
      "C",
      "ar"
    ],
    [
      "w",
      "el"
    ],
    [
      "W",
      "a"
    ],
    [
      "ex",
      "ac"
    ],
    [
      "rep",
      "ly</w>"
    ],
    [
      "albu",
      "m</w>"
    ],
    [
      "1",
      "2"
    ],
    [
      "o",
      ".</w>"
    ],
    [
      "lan",
      "gu"
    ],
    [
      "You",
      "?</w>"
    ],
    [
      "n",
      "ec"
    ],
    [
      "m",
      "ust</w>"
    ],
    [
      "l",
      "y"
    ],
    [
      "H",
      "u"
    ],
    [
      "de",
      "li"
    ],
    [
      "e",
      "gg"
    ],
    [
      "we",
      "’ve</w>"
    ],
    [
      "lo",
      "l"
    ],
    [
      "st",
      "er</w>"
    ],
    [
      "He",
      "y,</w>"
    ],
    [
      "n",
      ".</w>"
    ],
    [
      "sh",
      "ir"
    ],
    [
      "w",
      "om"
    ],
    [
      "to",
      "t"
    ],
    [
      "it",
      "ch"
    ],
    [
      "L",
      "oo"
    ],
    [
      "😀",
      "😊"
    ],
    [
      "fin",
      "e</w>"
    ],
    [
      "Th",
      "en</w>"
    ],
    [
      "k",
      "e"
    ],
    [
      "tr",
      "a"
    ],
    [
      "s",
      "n"
    ],
    [
      "l",
      "y,</w>"
    ],
    [
      "ear",
      "ly</w>"
    ],
    [
      "rel",
      "ationshi"
    ],
    [
      "go",
      "es</w>"
    ],
    [
      "s",
      "en"
    ],
    [
      "hal",
      "f</w>"
    ],
    [
      "H",
      "i</w>"
    ],
    [
      "you",
      "n"
    ],
    [
      "p",
      "ur"
    ],
    [
      "chick",
      "en</w>"
    ],
    [
      "w",
      "ouldn't</w>"
    ],
    [
      "E",
      "ven</w>"
    ],
    [
      "other",
      "wise.</w>"
    ],
    [
      "d",
      "riv"
    ],
    [
      "wi",
      "fe</w>"
    ],
    [
      "e",
      "f"
    ],
    [
      "I",
      "ts</w>"
    ],
    [
      "A",
      "s</w>"
    ],
    [
      "finish",
      "ed</w>"
    ],
    [
      "u",
      "re</w>"
    ],
    [
      "sh",
      "e's</w>"
    ],
    [
      "h",
      "?</w>"
    ],
    [
      "w",
      "ear"
    ],
    [
      "lo",
      "c"
    ],
    [
      "Ever",
      "y"
    ],
    [
      "liv",
      "e?</w>"
    ],
    [
      "up",
      "?</w>"
    ],
    [
      "fro",
      "m?</w>"
    ],
    [
      "li",
      "st</w>"
    ],
    [
      "1",
      "5</w>"
    ],
    [
      "p",
      "ay</w>"
    ],
    [
      "er",
      "!</w>"
    ],
    [
      "ar",
      "gu"
    ],
    [
      "e",
      "ating</w>"
    ],
    [
      "T",
      "ry</w>"
    ],
    [
      "liv",
      "ing</w>"
    ],
    [
      "Awes",
      "ome"
    ],
    [
      "so",
      "ci"
    ],
    [
      "ic",
      "e.</w>"
    ],
    [
      "b",
      "us"
    ],
    [
      "sor",
      "r"
    ],
    [
      "do",
      ".</w>"
    ],
    [
      "er",
      "y</w>"
    ],
    [
      "lo",
      "g"
    ],
    [
      "girl",
      "friend</w>"
    ],
    [
      "es",
      "si"
    ],
    [
      "w",
      "ed"
    ],
    [
      "re",
      ",</w>"
    ],
    [
      "ok",
      "ay</w>"
    ],
    [
      "A",
      "R"
    ],
    [
      "R",
      "I"
    ],
    [
      "L",
      "ol"
    ],
    [
      "pleas",
      "e</w>"
    ],
    [
      "t",
      "re"
    ],
    [
      "coff",
      "ee</w>"
    ],
    [
      "b",
      "a"
    ],
    [
      "wr",
      "ong</w>"
    ],
    [
      "p",
      "en"
    ],
    [
      "all",
      ".</w>"
    ],
    [
      "😀😊",
      "☺"
    ],
    [
      "wor",
      "k.</w>"
    ],
    [
      "E",
      "S"
    ],
    [
      "awesome",
      "!</w>"
    ],
    [
      "wor",
      "st</w>"
    ],
    [
      "ag",
      "ree</w>"
    ],
    [
      "S",
      "ome</w>"
    ],
    [
      "f",
      "ree</w>"
    ],
    [
      "vi",
      "e"
    ],
    [
      "do",
      "g"
    ],
    [
      "D",
      "r"
    ],
    [
      "tru",
      "th</w>"
    ],
    [
      "des",
      "cri"
    ],
    [
      "t",
      "ic</w>"
    ],
    [
      "&lt;",
      "3</w>"
    ],
    [
      "d",
      "ark</w>"
    ],
    [
      "ow",
      ".</w>"
    ],
    [
      "er",
      "s.</w>"
    ],
    [
      "righ",
      "t,</w>"
    ],
    [
      "re",
      "la"
    ],
    [
      "drun",
      "k</w>"
    ],
    [
      "p",
      "ast"
    ],
    [
      "wan",
      "ts</w>"
    ],
    [
      "sol",
      "ut"
    ],
    [
      "le",
      "t's</w>"
    ],
    [
      "dam",
      "n</w>"
    ],
    [
      "p",
      "m</w>"
    ],
    [
      "W",
      "ow</w>"
    ],
    [
      "3",
      ".</w>"
    ],
    [
      "su",
      "ch</w>"
    ],
    [
      "t",
      "em"
    ],
    [
      "te",
      "a</w>"
    ],
    [
      "frien",
      "d.</w>"
    ],
    [
      "that",
      ",</w>"
    ],
    [
      "ou",
      "ght</w>"
    ],
    [
      "pl",
      "ac"
    ],
    [
      "f",
      "uck</w>"
    ],
    [
      "on",
      "e,</w>"
    ],
    [
      "en",
      "g"
    ],
    [
      "positi",
      "ve</w>"
    ],
    [
      "Li",
      "fe</w>"
    ],
    [
      "k",
      "ey</w>"
    ],
    [
      "rec",
      "eption"
    ],
    [
      "w",
      "al"
    ],
    [
      "s",
      "car"
    ],
    [
      "th",
      "o</w>"
    ],
    [
      "ep",
      "t</w>"
    ],
    [
      "i",
      "me</w>"
    ],
    [
      "s",
      "c"
    ],
    [
      "ay",
      "ing</w>"
    ],
    [
      "o",
      "k</w>"
    ],
    [
      "O",
      "k"
    ],
    [
      "M",
      "an"
    ],
    [
      "av",
      "ing</w>"
    ],
    [
      "l",
      "un"
    ],
    [
      "ess",
      "ed</w>"
    ],
    [
      "mon",
      "ey</w>"
    ],
    [
      "a",
      "go"
    ],
    [
      "Bl",
      "ack</w>"
    ],
    [
      "hi",
      "gh"
    ],
    [
      "d",
      "uc"
    ],
    [
      "lif",
      "e?</w>"
    ],
    [
      "P",
      "ick</w>"
    ],
    [
      "er",
      "e"
    ],
    [
      "Ear",
      "ly</w>"
    ],
    [
      "20'",
      "s,</w>"
    ],
    [
      "b",
      "ri"
    ],
    [
      "h",
      "oo"
    ],
    [
      ")",
      ".</w>"
    ],
    [
      "sm",
      "all</w>"
    ],
    [
      "weir",
      "d</w>"
    ],
    [
      "s",
      "ci"
    ],
    [
      "th",
      "?</w>"
    ],
    [
      "lov",
      "ed</w>"
    ],
    [
      "be",
      "come</w>"
    ],
    [
      "at",
      "ur"
    ],
    [
      "tu",
      "re</w>"
    ],
    [
      "was",
      "n't</w>"
    ],
    [
      "w",
      "on't</w>"
    ],
    [
      "sp",
      "end</w>"
    ],
    [
      "y",
      "y"
    ],
    [
      "G",
      "r"
    ],
    [
      "min",
      "d"
    ],
    [
      "re",
      "s</w>"
    ],
    [
      "say",
      "s</w>"
    ],
    [
      "1",
      "1"
    ],
    [
      "bl",
      "onde</w>"
    ],
    [
      "10",
      "1</w>"
    ],
    [
      "Th",
      "ey"
    ],
    [
      "ac",
      "compli"
    ],
    [
      "feel",
      "ing</w>"
    ],
    [
      "ay",
      ",</w>"
    ],
    [
      "z",
      "e</w>"
    ],
    [
      "su",
      "gg"
    ],
    [
      "J",
      "o"
    ],
    [
      "ic",
      ".</w>"
    ],
    [
      "game",
      "?</w>"
    ],
    [
      "pop",
      "ular</w>"
    ],
    [
      "con",
      "sid"
    ],
    [
      "c",
      "and"
    ],
    [
      "i",
      "e</w>"
    ],
    [
      "ec",
      "tr"
    ],
    [
      "am",
      ".</w>"
    ],
    [
      "R",
      "</w>"
    ],
    [
      "p",
      "s.</w>"
    ],
    [
      "b",
      "and</w>"
    ],
    [
      "Inter",
      "est"
    ],
    [
      "al",
      "one</w>"
    ],
    [
      "th",
      "!</w>"
    ],
    [
      "gen",
      "er"
    ],
    [
      "mo",
      "ve</w>"
    ],
    [
      "K",
      "</w>"
    ],
    [
      "you'",
      "d</w>"
    ],
    [
      "f",
      "lo"
    ],
    [
      "b",
      "es</w>"
    ],
    [
      "m",
      "en</w>"
    ],
    [
      "hu",
      "g"
    ],
    [
      "B",
      "i"
    ],
    [
      "s",
      "y"
    ],
    [
      "Wh",
      "y?</w>"
    ],
    [
      "lik",
      "e?</w>"
    ],
    [
      "an",
      "a</w>"
    ],
    [
      "S",
      "till</w>"
    ],
    [
      "as",
      "king</w>"
    ],
    [
      "f",
      "ast</w>"
    ],
    [
      "char",
      "ac"
    ],
    [
      "d",
      "a"
    ],
    [
      "us",
      "si"
    ],
    [
      "c",
      "at</w>"
    ],
    [
      "H",
      "al"
    ],
    [
      "w",
      "ear</w>"
    ],
    [
      "d",
      "el"
    ],
    [
      "interest",
      "ing.</w>"
    ],
    [
      "in",
      "v"
    ],
    [
      "d",
      "le</w>"
    ],
    [
      "W",
      "ee"
    ],
    [
      "ame",
      ".</w>"
    ],
    [
      "qu",
      "i"
    ],
    [
      "to",
      ".</w>"
    ],
    [
      "Pe",
      "o"
    ],
    [
      "Peo",
      "ple</w>"
    ],
    [
      "2",
      "5"
    ],
    [
      "k",
      "ey"
    ],
    [
      "G",
      "ast"
    ],
    [
      "suc",
      "ks</w>"
    ],
    [
      "st",
      "up"
    ],
    [
      "at",
      "tri"
    ],
    [
      "attri",
      "bu"
    ],
    [
      "attribu",
      "te</w>"
    ],
    [
      "s",
      "ex"
    ],
    [
      "aw",
      "ber"
    ],
    [
      "exc",
      "ited</w>"
    ],
    [
      "A",
      "b"
    ],
    [
      "s",
      "it"
    ],
    [
      "ther",
      "e's</w>"
    ],
    [
      "es",
      "p"
    ],
    [
      "ch",
      "ange</w>"
    ],
    [
      "3",
      "0</w>"
    ],
    [
      "c",
      "lu"
    ],
    [
      "M",
      "ine</w>"
    ],
    [
      "fi",
      "gu"
    ],
    [
      "ad",
      "dic"
    ],
    [
      "sh",
      "ort</w>"
    ],
    [
      "le",
      "ft</w>"
    ],
    [
      "ous",
      "ly</w>"
    ],
    [
      "Na",
      "h</w>"
    ],
    [
      "y",
      "ed</w>"
    ],
    [
      "perf",
      "ect</w>"
    ],
    [
      "username",
      "?</w>"
    ],
    [
      "/",
      "r/"
    ],
    [
      "pp",
      "ed</w>"
    ],
    [
      "ag",
      "re"
    ],
    [
      "le",
      "?</w>"
    ],
    [
      "ther",
      "e.</w>"
    ],
    [
      "that",
      "s</w>"
    ],
    [
      "ful",
      ".</w>"
    ],
    [
      "y",
      "s"
    ],
    [
      "1",
      "99"
    ],
    [
      "uni",
      "vers"
    ],
    [
      "n",
      "er"
    ],
    [
      "clas",
      "s</w>"
    ],
    [
      "😀😊☺",
      "🙌"
    ],
    [
      "mu",
      "ch.</w>"
    ],
    [
      "e",
      "mo"
    ],
    [
      "me",
      "di"
    ],
    [
      "P",
      "h"
    ],
    [
      "wor",
      "king</w>"
    ],
    [
      "A",
      "m</w>"
    ],
    [
      "p",
      "ing</w>"
    ],
    [
      "M",
      "or"
    ],
    [
      "ay",
      "!</w>"
    ],
    [
      "ell",
      "ow</w>"
    ],
    [
      "week",
      "end"
    ],
    [
      "he",
      "al"
    ],
    [
      "o",
      "o</w>"
    ],
    [
      "all",
      "ow"
    ],
    [
      "1",
      "7</w>"
    ],
    [
      "l",
      "e.</w>"
    ],
    [
      "s",
      "al"
    ],
    [
      "v",
      "ari"
    ],
    [
      "us",
      "ing</w>"
    ],
    [
      "liv",
      "es</w>"
    ],
    [
      "under",
      "stand</w>"
    ],
    [
      "minut",
      "es</w>"
    ],
    [
      "ey",
      "es</w>"
    ],
    [
      "re",
      "ason</w>"
    ],
    [
      "clo",
      "se</w>"
    ],
    [
      "be",
      "h"
    ],
    [
      "dud",
      "e.</w>"
    ],
    [
      "s",
      "po"
    ],
    [
      "They",
      "'re</w>"
    ],
    [
      "goo",
      "d!</w>"
    ],
    [
      "haha",
      "ha</w>"
    ],
    [
      "Ha",
      "haha</w>"
    ],
    [
      "G",
      "oo"
    ],
    [
      "se",
      "ason</w>"
    ],
    [
      "er",
      "s"
    ],
    [
      "p",
      "an"
    ],
    [
      "in",
      "eap"
    ],
    [
      "ex",
      "am"
    ],
    [
      "n",
      ",</w>"
    ],
    [
      "R",
      "o"
    ],
    [
      "hi",
      "stor"
    ],
    [
      "bo",
      "x"
    ],
    [
      "Wha",
      "ts</w>"
    ],
    [
      "bu",
      "d"
    ],
    [
      "\"",
      ".</w>"
    ],
    [
      "A",
      "S"
    ],
    [
      "dud",
      "e</w>"
    ],
    [
      "lo",
      "st</w>"
    ],
    [
      "ea",
      "th</w>"
    ],
    [
      "t",
      "in"
    ],
    [
      "bl",
      "ue</w>"
    ],
    [
      "lass",
      "es.</w>"
    ],
    [
      "hon",
      "est"
    ],
    [
      "I",
      "t"
    ],
    [
      "s",
      "ent"
    ],
    [
      "liter",
      "ally</w>"
    ],
    [
      "No",
      "thing</w>"
    ],
    [
      "u",
      "st"
    ],
    [
      "gl",
      "ad</w>"
    ],
    [
      "Th",
      "ere's</w>"
    ],
    [
      "str",
      "ang"
    ],
    [
      "us",
      "es</w>"
    ],
    [
      "wha",
      "t?</w>"
    ],
    [
      "eci",
      "ally</w>"
    ],
    [
      "to",
      "ge"
    ],
    [
      "cas",
      "ual</w>"
    ],
    [
      "g",
      "ra"
    ],
    [
      "aa",
      "aa"
    ],
    [
      "S",
      "tr"
    ],
    [
      "ud",
      "e</w>"
    ],
    [
      "swee",
      "t</w>"
    ],
    [
      "h",
      "e's</w>"
    ],
    [
      "wr",
      "it"
    ],
    [
      "wr",
      "iting</w>"
    ],
    [
      "ri",
      "st"
    ],
    [
      "wa",
      "it</w>"
    ],
    [
      "happ",
      "in"
    ],
    [
      "L",
      "L"
    ],
    [
      "b",
      "es"
    ],
    [
      "Can",
      "'t</w>"
    ],
    [
      "T",
      "V"
    ],
    [
      "for",
      "get</w>"
    ],
    [
      "H",
      "</w>"
    ],
    [
      "the",
      "m"
    ],
    [
      "1",
      "9"
    ],
    [
      "m",
      "ents</w>"
    ],
    [
      "e",
      ":</w>"
    ],
    [
      "movi",
      "es</w>"
    ],
    [
      "f",
      "an"
    ],
    [
      "d",
      "s.</w>"
    ],
    [
      "st",
      "uck</w>"
    ],
    [
      "T",
      "ex"
    ],
    [
      "i",
      "li"
    ],
    [
      "c",
      "</w>"
    ],
    [
      "We",
      "'re</w>"
    ],
    [
      "min",
      "e</w>"
    ],
    [
      "or",
      "it"
    ],
    [
      "or",
      "i"
    ],
    [
      "😀😊☺🙌",
      "👍</w>"
    ],
    [
      "goo",
      "d,</w>"
    ],
    [
      "lau",
      "gh"
    ],
    [
      "k",
      "ing?</w>"
    ],
    [
      "b",
      "s</w>"
    ],
    [
      "n",
      "am"
    ],
    [
      "ea",
      ".</w>"
    ],
    [
      "W",
      "an"
    ],
    [
      "li",
      "m"
    ],
    [
      "be",
      "t"
    ],
    [
      "beauti",
      "ful</w>"
    ],
    [
      "sha",
      "re</w>"
    ],
    [
      "C",
      "ol"
    ],
    [
      "su",
      "b</w>"
    ],
    [
      "v",
      "e.</w>"
    ],
    [
      "fuc",
      "ked</w>"
    ],
    [
      "so",
      ",</w>"
    ],
    [
      "ge",
      "ts</w>"
    ],
    [
      "IN",
      "G</w>"
    ],
    [
      "st",
      "op</w>"
    ],
    [
      "wear",
      "ing</w>"
    ],
    [
      "ou",
      "s.</w>"
    ],
    [
      "tal",
      "k?</w>"
    ],
    [
      "u",
      "al"
    ],
    [
      "on",
      ",</w>"
    ],
    [
      "G",
      "er"
    ],
    [
      "in",
      "st"
    ],
    [
      "wor",
      "ks</w>"
    ],
    [
      "ar",
      "en't</w>"
    ],
    [
      "tot",
      "ally</w>"
    ],
    [
      "🤗",
      "</w>"
    ],
    [
      "A",
      "n</w>"
    ],
    [
      "beh",
      "ind</w>"
    ],
    [
      "listen",
      "ed</w>"
    ],
    [
      "P",
      "r"
    ],
    [
      "u",
      "m</w>"
    ],
    [
      "than",
      "k"
    ],
    [
      "do",
      "gs</w>"
    ],
    [
      "com",
      "ing</w>"
    ],
    [
      "cor",
      "rec"
    ],
    [
      "ta",
      "in"
    ],
    [
      "m",
      "id"
    ],
    [
      "c",
      "hat</w>"
    ],
    [
      "upvot",
      "e</w>"
    ],
    [
      "v",
      "es</w>"
    ],
    [
      "this",
      "?</w>"
    ],
    [
      "nee",
      "ds</w>"
    ],
    [
      "ad",
      "or"
    ],
    [
      "d",
      "an"
    ],
    [
      "me",
      "t</w>"
    ],
    [
      "li",
      "ked</w>"
    ],
    [
      "V",
      "ery</w>"
    ],
    [
      "dr",
      "aw"
    ],
    [
      "sup",
      "pos"
    ],
    [
      "star",
      "ted</w>"
    ],
    [
      "1",
      "8</w>"
    ],
    [
      "L",
      "L</w>"
    ],
    [
      "il",
      "la"
    ],
    [
      "go",
      "tta</w>"
    ],
    [
      "D",
      "an"
    ],
    [
      "H",
      "ar"
    ],
    [
      "way",
      ".</w>"
    ],
    [
      "s",
      "cre"
    ],
    [
      "bo",
      "y"
    ],
    [
      "si",
      "m"
    ],
    [
      "at",
      "s</w>"
    ],
    [
      "re",
      "member</w>"
    ],
    [
      "N",
      "ice</w>"
    ],
    [
      "pos",
      "si"
    ],
    [
      "s",
      "es</w>"
    ],
    [
      "ran",
      "dom</w>"
    ],
    [
      "Be",
      "gin</w>"
    ],
    [
      "bas",
      "ically</w>"
    ],
    [
      "b",
      "an"
    ],
    [
      "ho",
      "me"
    ],
    [
      "ag",
      "e.</w>"
    ],
    [
      "co",
      "ld</w>"
    ],
    [
      "time",
      "!</w>"
    ],
    [
      "D",
      "on"
    ],
    [
      "in",
      "?</w>"
    ],
    [
      "ton",
      "igh"
    ],
    [
      "esp",
      "ecially</w>"
    ],
    [
      "C",
      "ho"
    ],
    [
      "ineap",
      "ple</w>"
    ],
    [
      "fortunat",
      "ely</w>"
    ],
    [
      "re",
      "?</w>"
    ],
    [
      "ad",
      "v"
    ],
    [
      "sur",
      "pri"
    ],
    [
      "of",
      "ten</w>"
    ],
    [
      "YOU",
      "</w>"
    ],
    [
      "S",
      "o"
    ],
    [
      "no",
      "t"
    ],
    [
      "mean",
      "t</w>"
    ],
    [
      "tr",
      "ac"
    ],
    [
      "person",
      ".</w>"
    ],
    [
      "ye",
      "t.</w>"
    ],
    [
      "R",
      "E"
    ],
    [
      "g",
      "y"
    ],
    [
      "l",
      "eep</w>"
    ],
    [
      "f",
      "el"
    ],
    [
      "p",
      "ast</w>"
    ],
    [
      "mis",
      "s</w>"
    ],
    [
      "cut",
      "e</w>"
    ],
    [
      "t",
      "s.</w>"
    ],
    [
      "mon",
      "ths</w>"
    ],
    [
      "jo",
      "k"
    ],
    [
      "re",
      "as"
    ],
    [
      "stud",
      "y"
    ],
    [
      "Can",
      "ad"
    ],
    [
      "2",
      "5</w>"
    ],
    [
      "th",
      "en?</w>"
    ],
    [
      "opini",
      "on</w>"
    ],
    [
      "bab",
      "y</w>"
    ],
    [
      "Thank",
      "s,</w>"
    ],
    [
      "ma",
      "o</w>"
    ],
    [
      "i",
      "g"
    ],
    [
      "wo",
      "ke</w>"
    ],
    [
      "Al",
      "ways</w>"
    ],
    [
      "i",
      "an</w>"
    ],
    [
      "m",
      "a</w>"
    ],
    [
      "F",
      "r"
    ],
    [
      "s",
      "ad"
    ],
    [
      "H",
      "mm"
    ],
    [
      "bor",
      "ing</w>"
    ],
    [
      "v",
      "e"
    ],
    [
      "ati",
      "ve</w>"
    ],
    [
      "Gre",
      "en</w>"
    ],
    [
      "pe",
      "fully</w>"
    ],
    [
      "amaz",
      "ing</w>"
    ],
    [
      "out",
      "side</w>"
    ],
    [
      "k",
      "ill</w>"
    ],
    [
      "Th",
      "e"
    ],
    [
      "Wee",
      "k"
    ],
    [
      "b",
      "ers</w>"
    ],
    [
      "a",
      "!</w>"
    ],
    [
      "s",
      "il"
    ],
    [
      "time",
      "?</w>"
    ],
    [
      "che",
      "es"
    ],
    [
      "or",
      "y</w>"
    ],
    [
      "fin",
      "ally</w>"
    ],
    [
      "ea",
      "v"
    ],
    [
      "R",
      "em"
    ],
    [
      "st",
      "ate</w>"
    ],
    [
      "s",
      ")</w>"
    ],
    [
      "haik",
      "u"
    ],
    [
      "g",
      "lo"
    ],
    [
      "fl",
      "av"
    ],
    [
      "_",
      "_"
    ],
    [
      "o",
      "s</w>"
    ],
    [
      "b",
      "at"
    ],
    [
      "b",
      "and"
    ],
    [
      "awber",
      "ry</w>"
    ],
    [
      "it",
      "y.</w>"
    ],
    [
      "all",
      "?</w>"
    ],
    [
      "wh",
      "y?</w>"
    ],
    [
      "h",
      "!</w>"
    ],
    [
      "h",
      "ell</w>"
    ],
    [
      "experi",
      "enc"
    ],
    [
      "know",
      "n</w>"
    ],
    [
      "s",
      "...</w>"
    ],
    [
      "ta",
      "king</w>"
    ],
    [
      "le",
      "an"
    ],
    [
      "C",
      "K"
    ],
    [
      "pl",
      "an</w>"
    ],
    [
      "me",
      "mor"
    ],
    [
      "Co",
      "ke</w>"
    ],
    [
      "plan",
      "s</w>"
    ],
    [
      "B",
      "lu"
    ],
    [
      "lat",
      "er</w>"
    ],
    [
      "To",
      "o</w>"
    ],
    [
      "be",
      "?</w>"
    ],
    [
      "T",
      "w"
    ],
    [
      "b",
      "ar</w>"
    ],
    [
      "Wan",
      "na</w>"
    ],
    [
      "et",
      "y</w>"
    ],
    [
      "tim",
      "es.</w>"
    ],
    [
      "Th",
      "read</w>"
    ],
    [
      "dud",
      "e,</w>"
    ],
    [
      "s",
      "e?</w>"
    ],
    [
      "d",
      "ri"
    ],
    [
      "it",
      "y!</w>"
    ],
    [
      "b",
      "ly</w>"
    ],
    [
      "G",
      "l"
    ],
    [
      "F",
      "</w>"
    ],
    [
      "ever",
      ".</w>"
    ],
    [
      "sleep",
      "ing</w>"
    ],
    [
      "n",
      "s</w>"
    ],
    [
      "!",
      "!!!</w>"
    ],
    [
      "a",
      "p</w>"
    ],
    [
      "f",
      "y</w>"
    ],
    [
      "h",
      "ands</w>"
    ],
    [
      "N",
      "or"
    ],
    [
      "m",
      "ill"
    ],
    [
      "ter",
      ".</w>"
    ],
    [
      "O",
      "n</w>"
    ],
    [
      "accompli",
      "sh"
    ],
    [
      "ey",
      "!</w>"
    ],
    [
      "thing",
      ",</w>"
    ],
    [
      "op",
      "en</w>"
    ],
    [
      "si",
      "on</w>"
    ],
    [
      "Ne",
      "w</w>"
    ],
    [
      "'",
      "t.</w>"
    ],
    [
      "so",
      "c"
    ],
    [
      "ch",
      "oo"
    ],
    [
      "p",
      "or"
    ],
    [
      "me",
      "d</w>"
    ],
    [
      "E",
      "N"
    ],
    [
      "c",
      "are</w>"
    ],
    [
      "we",
      "en</w>"
    ],
    [
      "wor",
      "k?</w>"
    ],
    [
      "nor",
      "m"
    ],
    [
      "ch",
      "?</w>"
    ],
    [
      "k",
      "ing.</w>"
    ],
    [
      "Ch",
      "rist"
    ],
    [
      "rec",
      "ently</w>"
    ],
    [
      "Can",
      "adi"
    ],
    [
      "en",
      "ds</w>"
    ],
    [
      "re",
      "st</w>"
    ],
    [
      "h",
      "y"
    ],
    [
      "yourself",
      "?</w>"
    ],
    [
      "N",
      "O"
    ],
    [
      "rec",
      "i"
    ],
    [
      "M",
      "E</w>"
    ],
    [
      "end",
      "ed</w>"
    ],
    [
      "Be",
      "tter</w>"
    ],
    [
      "up",
      ",</w>"
    ],
    [
      "jo",
      "ke</w>"
    ],
    [
      "Qu",
      "estion"
    ],
    [
      "te",
      "en"
    ],
    [
      "C",
      "ool"
    ],
    [
      "marri",
      "ed</w>"
    ],
    [
      "1",
      "6</w>"
    ],
    [
      "d",
      "k"
    ],
    [
      "em",
      "ent</w>"
    ],
    [
      "end",
      "ing</w>"
    ],
    [
      "ab",
      "</w>"
    ],
    [
      "fac",
      "e</w>"
    ],
    [
      "e",
      "\"</w>"
    ],
    [
      "d",
      "ead</w>"
    ],
    [
      "*",
      "I</w>"
    ],
    [
      "that",
      "!</w>"
    ],
    [
      "l",
      "l.</w>"
    ],
    [
      "bor",
      "ed,</w>"
    ],
    [
      "great",
      "!</w>"
    ],
    [
      "pi",
      "ec"
    ],
    [
      "solut",
      "ely</w>"
    ],
    [
      "all",
      "y?</w>"
    ],
    [
      "e",
      "m</w>"
    ],
    [
      "in",
      ".</w>"
    ],
    [
      "too",
      ",</w>"
    ],
    [
      "now",
      ",</w>"
    ],
    [
      "cou",
      "ple</w>"
    ],
    [
      "bet",
      "ween</w>"
    ],
    [
      "spea",
      "k</w>"
    ],
    [
      "br",
      "ow"
    ],
    [
      "in",
      "c"
    ],
    [
      "say",
      "?</w>"
    ],
    [
      "gr",
      "ou"
    ],
    [
      "oo",
      "k"
    ],
    [
      "um",
      "p"
    ],
    [
      "pre",
      "ss"
    ],
    [
      "dre",
      "am</w>"
    ],
    [
      "sub",
      "redd"
    ],
    [
      "Pleas",
      "e</w>"
    ],
    [
      "T",
      "e"
    ],
    [
      "enti",
      "re</w>"
    ],
    [
      "S",
      "ou"
    ],
    [
      "x",
      "D</w>"
    ],
    [
      "b",
      "ack"
    ],
    [
      "langu",
      "ag"
    ],
    [
      "k",
      "eep"
    ],
    [
      "i",
      "i"
    ],
    [
      "O",
      "f</w>"
    ],
    [
      "f",
      "ly</w>"
    ],
    [
      "r",
      "y"
    ],
    [
      "how",
      "'s</w>"
    ],
    [
      "pl",
      "o"
    ],
    [
      "\\",
      "\\"
    ],
    [
      "Ye",
      "p</w>"
    ],
    [
      "al",
      "?</w>"
    ],
    [
      "ag",
      "o</w>"
    ],
    [
      "om",
      "bi"
    ],
    [
      "b",
      "e.</w>"
    ],
    [
      "suc",
      "c"
    ],
    [
      "su",
      "l"
    ],
    [
      "deli",
      "ci"
    ],
    [
      "ca",
      "kes</w>"
    ],
    [
      "ed",
      "!</w>"
    ],
    [
      "D",
      "i"
    ],
    [
      "f",
      "ic</w>"
    ],
    [
      "Wi",
      "th</w>"
    ],
    [
      "s",
      "and"
    ],
    [
      "ter",
      "ri"
    ],
    [
      "sent",
      "ence</w>"
    ],
    [
      "Gre",
      "at</w>"
    ],
    [
      "A",
      "f"
    ],
    [
      "on",
      "!</w>"
    ],
    [
      "my",
      "self"
    ],
    [
      "%",
      "</w>"
    ],
    [
      "bo",
      "x</w>"
    ],
    [
      "itt",
      "y</w>"
    ],
    [
      "S",
      "ad"
    ],
    [
      "H",
      "ell</w>"
    ],
    [
      "Au",
      "str"
    ],
    [
      "Austr",
      "ali"
    ],
    [
      "l",
      "ev"
    ],
    [
      "at",
      "u"
    ],
    [
      "Cho",
      "colate</w>"
    ],
    [
      "re",
      "li"
    ],
    [
      "ther",
      "e?</w>"
    ],
    [
      "dre",
      "am"
    ],
    [
      "thr",
      "ough.</w>"
    ],
    [
      "W",
      "ow,</w>"
    ],
    [
      "do",
      ",</w>"
    ],
    [
      "!",
      "?</w>"
    ],
    [
      "tomorr",
      "ow</w>"
    ],
    [
      "f",
      "ol"
    ],
    [
      "fel",
      "t</w>"
    ],
    [
      "4",
      ".</w>"
    ],
    [
      "e",
      "en</w>"
    ],
    [
      "recomm",
      "end</w>"
    ],
    [
      "par",
      "ents</w>"
    ],
    [
      "har",
      "d"
    ],
    [
      "cu",
      "ri"
    ],
    [
      "femal",
      "e</w>"
    ],
    [
      "any",
      "body</w>"
    ],
    [
      "M",
      "id"
    ],
    [
      "awesome",
      ".</w>"
    ],
    [
      "t",
      "at"
    ],
    [
      "y",
      "ester"
    ],
    [
      "e",
      "ff"
    ],
    [
      "A",
      "w</w>"
    ],
    [
      "mal",
      "e.</w>"
    ],
    [
      "study",
      "ing?</w>"
    ],
    [
      "interest",
      "ed</w>"
    ],
    [
      "B",
      "or"
    ],
    [
      "re",
      "ally.</w>"
    ],
    [
      "P",
      "ol"
    ],
    [
      "ho",
      "ld</w>"
    ],
    [
      "dinn",
      "er</w>"
    ],
    [
      "🎶",
      "🎶"
    ],
    [
      "egg",
      "s</w>"
    ],
    [
      "ty",
      "p"
    ],
    [
      "re",
      "gu"
    ],
    [
      "T",
      "ake</w>"
    ],
    [
      "si",
      "st"
    ],
    [
      "say",
      "ing</w>"
    ],
    [
      "M",
      "O"
    ],
    [
      "for",
      "?</w>"
    ],
    [
      "wh",
      "il"
    ],
    [
      "k",
      "is"
    ],
    [
      "exac",
      "tly</w>"
    ],
    [
      "S",
      "o,</w>"
    ],
    [
      "sp",
      "ir"
    ],
    [
      "ser",
      "v"
    ],
    [
      "del",
      "et"
    ],
    [
      "run",
      "</w>"
    ],
    [
      "k",
      "s?</w>"
    ],
    [
      "wond",
      "er"
    ],
    [
      "sor",
      "t</w>"
    ],
    [
      "ty",
      "pe</w>"
    ],
    [
      "exp",
      "ec"
    ],
    [
      "nic",
      "e!</w>"
    ],
    [
      "stuff",
      ".</w>"
    ],
    [
      "tur",
      "ned</w>"
    ],
    [
      "ar",
      "ds</w>"
    ],
    [
      "rela",
      "x"
    ],
    [
      "wor",
      "k,</w>"
    ],
    [
      "Po",
      "st</w>"
    ],
    [
      "ee",
      "l</w>"
    ],
    [
      "h",
      "un"
    ],
    [
      "d",
      "eath</w>"
    ],
    [
      "i",
      "es.</w>"
    ],
    [
      "z",
      "ombi"
    ],
    [
      "ph",
      "one.</w>"
    ],
    [
      "ing",
      "!!</w>"
    ],
    [
      "haiku",
      "!</w>"
    ],
    [
      "assu",
      "m"
    ],
    [
      "pp",
      "er</w>"
    ],
    [
      "fun",
      "ny</w>"
    ],
    [
      "+",
      "</w>"
    ],
    [
      "fru",
      "it</w>"
    ],
    [
      "oo",
      "oo"
    ],
    [
      "d",
      "ate</w>"
    ],
    [
      "re",
      "gre"
    ],
    [
      "”",
      "</w>"
    ],
    [
      "is",
      "e</w>"
    ],
    [
      "en",
      "ing</w>"
    ],
    [
      "a",
      "ff"
    ],
    [
      "en",
      "i"
    ],
    [
      "an",
      "no"
    ],
    [
      "on",
      "c"
    ],
    [
      "or",
      "s</w>"
    ],
    [
      "s",
      "af"
    ],
    [
      "str",
      "ong</w>"
    ],
    [
      "girl",
      "s</w>"
    ],
    [
      "up",
      "!</w>"
    ],
    [
      "hu",
      "man"
    ],
    [
      "D",
      "ark</w>"
    ],
    [
      "m",
      "m</w>"
    ],
    [
      "happen",
      "ed</w>"
    ],
    [
      "con",
      "v"
    ],
    [
      "compl",
      "et"
    ],
    [
      "P",
      "an"
    ],
    [
      "of",
      "?</w>"
    ],
    [
      "at",
      "e.</w>"
    ],
    [
      "c",
      "al"
    ],
    [
      "un",
      "der</w>"
    ],
    [
      "re",
      "st"
    ],
    [
[...]
