{
  "vocab": {
    " ": 0,
    "/": 1,
    "/10</w>": 2,
    "/4</w>": 3,
    "/</w>": 4,
    "/been</w>": 5,
    "/r/": 6,
    "/s</w>": 7,
    "/u/": 8,
    "0": 9,
    "000</w>": 10,
    "00</w>": 11,
    "0</w>": 12,
    "0s</w>": 13,
    "1": 14,
    "10": 15,
    "10/10</w>": 16,
    "100</w>": 17,
    "101</w>": 18,
    "10</w>": 19,
    "11": 20,
    "11/": 21,
    "11</w>": 22,
    "11th</w>": 23,
    "12": 24,
    "12/": 25,
    "120</w>": 26,
    "12</w>": 27,
    "12am</w>": 28,
    "12th</w>": 29,
    "13": 30,
    "13</w>": 31,
    "13th</w>": 32,
    "14</w>": 33,
    "15</w>": 34,
    "16</w>": 35,
    "17": 36,
    "17</w>": 37,
    "18": 38,
    "18</w>": 39,
    "19": 40,
    "199": 41,
    "1998</w>": 42,
    "19</w>": 43,
    "1</w>": 44,
    "2": 45,
    "20": 46,
    "200": 47,
    "2017</w>": 48,
    "20</w>": 49,
    "20s</w>": 50,
    "21": 51,
    "21</w>": 52,
    "22</w>": 53,
    "23</w>": 54,
    "24</w>": 55,
    "25": 56,
    "25</w>": 57,
    "25th</w>": 58,
    "26</w>": 59,
    "27": 60,
    "28": 61,
    "28</w>": 62,
    "2</w>": 63,
    "2am</w>": 64,
    "2nd</w>": 65,
    "2pm</w>": 66,
    "3": 67,
    "30": 68,
    "30</w>": 69,
    "31</w>": 70,
    "33</w>": 71,
    "34</w>": 72,
    "35</w>": 73,
    "3</w>": 74,
    "3r": 75,
    "3rd</w>": 76,
    "4": 77,
    "40</w>": 78,
    "42</w>": 79,
    "45</w>": 80,
    "47</w>": 81,
    "4</w>": 82,
    "4th</w>": 83,
    "5": 84,
    "50</w>": 85,
    "59</w>": 86,
    "5</w>": 87,
    "6": 88,
    "600</w>": 89,
    "60</w>": 90,
    "66": 91,
    "6</w>": 92,
    "7": 93,
    "7</w>": 94,
    "7th</w>": 95,
    "8": 96,
    "88</w>": 97,
    "8</w>": 98,
    "9": 99,
    "90</w>": 100,
    "90s</w>": 101,
    "99": 102,
    "9999": 103,
    "99</w>": 104,
    "9</w>": 105,
    "</w>": 106,
    "<unk>": 107,
    "_": 108,
    "_/</w>": 109,
    "_</w>": 110,
    "__": 111,
    "__</w>": 112,
    "____</w>": 113,
    "a": 114,
    "a</w>": 115,
    "aa": 116,
    "aaa": 117,
    "aaaa": 118,
    "aaaaaaaa": 119,
    "ab": 120,
    "ab</w>": 121,
    "abe": 122,
    "abilities</w>": 123,
    "ability</w>": 124,
    "able</w>": 125,
    "ables</w>": 126,
    "ably</w>": 127,
    "about</w>": 128,
    "abouts</w>": 129,
    "above</w>": 130,
    "absolute</w>": 131,
    "absolutely</w>": 132,
    "ac": 133,
    "ac</w>": 134,
    "acc": 135,
    "accent</w>": 136,
    "accents</w>": 137,
    "accep": 138,
    "accepted</w>": 139,
    "accomplish": 140,
    "accomplish</w>": 141,
    "accomplished/been</w>": 142,
    "accor": 143,
    "according</w>": 144,
    "accoun": 145,
    "account</w>": 146,
    "accounting</w>": 147,
    "accurate</w>": 148,
    "ace</w>": 149,
    "aces</w>": 150,
    "ach": 151,
    "ach</w>": 152,
    "ached</w>": 153,
    "acher</w>": 154,
    "aches</w>": 155,
    "achi": 156,
    "achiev": 157,
    "achievements</w>": 158,
    "ack": 159,
    "ack</w>": 160,
    "acks</w>": 161,
    "acoustic</w>": 162,
    "across</w>": 163,
    "acting</w>": 164,
    "active</w>": 165,
    "activity</w>": 166,
    "actual</w>": 167,
    "actually</w>": 168,
    "acy</w>": 169,
    "ad": 170,
    "ad</w>": 171,
    "ada</w>": 172,
    "add</w>": 173,
    "added</w>": 174,
    "addic": 175,
    "addicted</w>": 176,
    "addicting</w>": 177,
    "addiction</w>": 178,
    "addy</w>": 179,
    "ade</w>": 180,
    "adi": 181,
    "ading</w>": 182,
    "admit</w>": 183,
    "ado": 184,
    "adop": 185,
    "ador": 186,
    "adorable</w>": 187,
    "ads</w>": 188,
    "adu": 189,
    "adult</w>": 190,
    "adven": 191,
    "adventure</w>": 192,
    "adverti": 193,
    "advice</w>": 194,
    "aes": 195,
    "af": 196,
    "af</w>": 197,
    "aff": 198,
    "afraid</w>": 199,
    "africa</w>": 200,
    "african</w>": 201,
    "after": 202,
    "after</w>": 203,
    "afterwards</w>": 204,
    "ag": 205,
    "again</w>": 206,
    "against</w>": 207,
    "age": 208,
    "age</w>": 209,
    "aged</w>": 210,
    "ager</w>": 211,
    "ages</w>": 212,
    "agging</w>": 213,
    "aging</w>": 214,
    "ago</w>": 215,
    "agre": 216,
    "agree</w>": 217,
    "ah</w>": 218,
    "aha</w>": 219,
    "ahead</w>": 220,
    "ahh</w>": 221,
    "ahhh</w>": 222,
    "ai</w>": 223,
    "ail": 224,
    "ain": 225,
    "ain</w>": 226,
    "air": 227,
    "air</w>": 228,
    "aka</w>": 229,
    "ake</w>": 230,
    "al": 231,
    "al</w>": 232,
    "ala</w>": 233,
    "album</w>": 234,
    "albums</w>": 235,
    "alcoho": 236,
    "alcohol</w>": 237,
    "ald</w>": 238,
    "alge": 239,
    "algebra</w>": 240,
    "ali": 241,
    "alien</w>": 242,
    "aling</w>": 243,
    "alism</w>": 244,
    "alive</w>": 245,
    "all": 246,
    "all</w>": 247,
    "allow</w>": 248,
    "allowed</w>": 249,
    "ally</w>": 250,
    "almost</w>": 251,
    "alone</w>": 252,
    "along</w>": 253,
    "alous</w>": 254,
    "alphabets</w>": 255,
    "already</w>": 256,
    "alright</w>": 257,
    "als</w>": 258,
    "also</w>": 259,
    "alt</w>": 260,
    "altern": 261,
    "alternative</w>": 262,
    "although</w>": 263,
    "always</w>": 264,
    "am": 265,
    "am</w>": 266,
    "ama": 267,
    "ama</w>": 268,
    "amazing</w>": 269,
    "ambi": 270,
    "ame</w>": 271,
    "amer": 272,
    "america</w>": 273,
    "american</w>": 274,
    "americans</w>": 275,
    "ames</w>": 276,
    "amn</w>": 277,
    "amount</w>": 278,
    "amp": 279,
    "amp</w>": 280,
    "ams</w>": 281,
    "an": 282,
    "an</w>": 283,
    "ana</w>": 284,
    "anal": 285,
    "ance</w>": 286,
    "and": 287,
    "and</w>": 288,
    "ands</w>": 289,
    "ane</w>": 290,
    "ang": 291,
    "ange": 292,
    "angel</w>": 293,
    "anger</w>": 294,
    "angry</w>": 295,
    "ani": 296,
    "anim": 297,
    "animal</w>": 298,
    "animals</w>": 299,
    "anime</w>": 300,
    "ank</w>": 301,
    "anno": 302,
    "annoying</w>": 303,
    "ano</w>": 304,
    "another</w>": 305,
    "ans": 306,
    "ans</w>": 307,
    "answ": 308,
    "answer</w>": 309,
    "answers</w>": 310,
    "ant": 311,
    "ant</w>": 312,
    "ante": 313,
    "antly</w>": 314,
    "anxi": 315,
    "anxiety</w>": 316,
    "anxious</w>": 317,
    "any": 318,
    "any</w>": 319,
    "anybody</w>": 320,
    "anymore</w>": 321,
    "anyone</w>": 322,
    "anything</w>": 323,
    "anyway</w>": 324,
    "anyways</w>": 325,
    "anywhere</w>": 326,
    "ap": 327,
    "ap</w>": 328,
    "apartment</w>": 329,
    "apo": 330,
    "apolo": 331,
    "apologi": 332,
    "apologize</w>": 333,
    "app": 334,
    "app</w>": 335,
    "apparently</w>": 336,
    "appe": 337,
    "appear</w>": 338,
    "appeared</w>": 339,
    "appears</w>": 340,
    "apple</w>": 341,
    "apples</w>": 342,
    "applic": 343,
    "appreci": 344,
    "appreciate</w>": 345,
    "ar": 346,
    "ar</w>": 347,
    "arc": 348,
    "arch": 349,
    "arctic</w>": 350,
    "ard</w>": 351,
    "ards</w>": 352,
    "are": 353,
    "are</w>": 354,
    "area</w>": 355,
    "aren</w>": 356,
    "arent</w>": 357,
    "argu": 358,
    "argue</w>": 359,
    "ari": 360,
    "ari</w>": 361,
    "aring</w>": 362,
    "ark</w>": 363,
    "arm": 364,
    "arm</w>": 365,
    "arms</w>": 366,
    "army</w>": 367,
    "around</w>": 368,
    "arr": 369,
    "arrested</w>": 370,
    "arri": 371,
    "ars</w>": 372,
    "art": 373,
    "art</w>": 374,
    "arted</w>": 375,
    "arti": 376,
    "artist</w>": 377,
    "artists</w>": 378,
    "ary</w>": 379,
    "as": 380,
    "as</w>": 381,
    "ase</w>": 382,
    "ased</w>": 383,
    "ash</w>": 384,
    "ashing</w>": 385,
    "asia</w>": 386,
    "asian</w>": 387,
    "ask": 388,
    "ask</w>": 389,
    "asked</w>": 390,
    "asking</w>": 391,
    "asleep</w>": 392,
    "ason</w>": 393,
    "ass</w>": 394,
    "assho": 395,
    "associ": 396,
    "assu": 397,
    "assume</w>": 398,
    "assuming</w>": 399,
    "assump": 400,
    "assumptions</w>": 401,
    "ast</w>": 402,
    "aster</w>": 403,
    "aswell</w>": 404,
    "at": 405,
    "at</w>": 406,
    "ata</w>": 407,
    "atar</w>": 408,
    "ate": 409,
    "ate</w>": 410,
    "ated</w>": 411,
    "ately</w>": 412,
    "ater</w>": 413,
    "ates</w>": 414,
    "ath": 415,
    "ati": 416,
    "atic</w>": 417,
    "ating</w>": 418,
    "ation": 419,
    "ation</w>": 420,
    "ational</w>": 421,
    "ations</w>": 422,
    "ative</w>": 423,
    "atleast</w>": 424,
    "atm</w>": 425,
    "ator</w>": 426,
    "atory</w>": 427,
    "ats</w>": 428,
    "attemp": 429,
    "atten": 430,
    "attention</w>": 431,
    "attrac": 432,
    "attractive</w>": 433,
    "attribute</w>": 434,
    "atu": 435,
    "ature</w>": 436,
    "au": 437,
    "augu": 438,
    "australi": 439,
    "australia</w>": 440,
    "australian</w>": 441,
    "auth": 442,
    "auti": 443,
    "autom": 444,
    "autumn</w>": 445,
    "av": 446,
    "available</w>": 447,
    "average</w>": 448,
    "avo": 449,
    "aw": 450,
    "aw</w>": 451,
    "awake</w>": 452,
    "award</w>": 453,
    "away</w>": 454,
    "awesome</w>": 455,
    "awful</w>": 456,
    "awkward</w>": 457,
    "awn</w>": 458,
    "aww</w>": 459,
    "ay": 460,
    "ay</w>": 461,
    "aye</w>": 462,
    "ayed</w>": 463,
    "ayers</w>": 464,
    "aying</w>": 465,
    "ays</w>": 466,
    "ayyy</w>": 467,
    "az": 468,
    "b": 469,
    "b</w>": 470,
    "ba": 471,
    "ba</w>": 472,
    "bab": 473,
    "baby</w>": 474,
    "bac": 475,
    "back": 476,
    "back</w>": 477,
    "bacon</w>": 478,
    "bad": 479,
    "bad</w>": 480,
    "bag</w>": 481,
    "bage</w>": 482,
    "baked</w>": 483,
    "bal": 484,
    "bald</w>": 485,
    "ball": 486,
    "ball</w>": 487,
    "balls</w>": 488,
    "ban": 489,
    "banana</w>": 490,
    "band": 491,
    "band</w>": 492,
    "bands</w>": 493,
    "bar": 494,
    "bar</w>": 495,
    "barefoot</w>": 496,
    "bars</w>": 497,
    "bas": 498,
    "base</w>": 499,
    "based</w>": 500,
    "basement</w>": 501,
    "basic</w>": 502,
    "basically</w>": 503,
    "basis</w>": 504,
    "bass</w>": 505,
    "bat": 506,
    "bate</w>": 507,
    "bathroom</w>": 508,
    "bating</w>": 509,
    "batman</w>": 510,
    "batt": 511,
    "battle": 512,
    "battlefield</w>": 513,
    "bb": 514,
    "bby</w>": 515,
    "bc</w>": 516,
    "bday</w>": 517,
    "be": 518,
    "be</w>": 519,
    "beach</w>": 520,
    "bean</w>": 521,
    "beans</w>": 522,
    "bear</w>": 523,
    "bears</w>": 524,
    "beat": 525,
    "beat</w>": 526,
    "beatles</w>": 527,
    "beauti": 528,
    "beautiful</w>": 529,
    "became</w>": 530,
    "because</w>": 531,
    "become</w>": 532,
    "bed</w>": 533,
    "been</w>": 534,
    "beer</w>": 535,
    "beers</w>": 536,
    "bees</w>": 537,
    "before</w>": 538,
    "begin": 539,
    "begin</w>": 540,
    "beginning</w>": 541,
    "behind</w>": 542,
    "being</w>": 543,
    "bel": 544,
    "beli": 545,
    "belie": 546,
    "believe</w>": 547,
    "bell</w>": 548,
    "belly</w>": 549,
    "below</w>": 550,
    "ben": 551,
    "ben</w>": 552,
    "benef": 553,
    "benefits</w>": 554,
    "ber": 555,
    "ber</w>": 556,
    "berries</w>": 557,
    "berry</w>": 558,
    "bers</w>": 559,
    "bes</w>": 560,
    "besides</w>": 561,
    "best": 562,
    "best</w>": 563,
    "bet</w>": 564,
    "better</w>": 565,
    "between</w>": 566,
    "beverage</w>": 567,
    "bi": 568,
    "big": 569,
    "big</w>": 570,
    "bigger</w>": 571,
    "biggest</w>": 572,
    "bike</w>": 573,
    "bill</w>": 574,
    "bin": 575,
    "binge</w>": 576,
    "binging</w>": 577,
    "bio": 578,
    "bir": 579,
    "bird</w>": 580,
    "birth": 581,
    "birthday</w>": 582,
    "bit": 583,
    "bit</w>": 584,
    "bitch</w>": 585,
    "bite</w>": 586,
    "bizarre</w>": 587,
    "bl": 588,
    "bla": 589,
    "black": 590,
    "black</w>": 591,
    "ble</w>": 592,
    "bless</w>": 593,
    "blessed</w>": 594,
    "blin": 595,
    "blon": 596,
    "blonde</w>": 597,
    "bloo": 598,
    "blood</w>": 599,
    "bloody</w>": 600,
    "blow</w>": 601,
    "blue</w>": 602,
    "bly</w>": 603,
    "bo": 604,
    "bo</w>": 605,
    "board</w>": 606,
    "boat</w>": 607,
    "bob</w>": 608,
    "bobs</w>": 609,
    "body</w>": 610,
    "bomb</w>": 611,
    "bon": 612,
    "boo": 613,
    "boogaloo</w>": 614,
    "book</w>": 615,
    "books</w>": 616,
    "booze</w>": 617,
    "bor": 618,
    "bored</w>": 619,
    "boring</w>": 620,
    "bork</w>": 621,
    "born</w>": 622,
    "boss</w>": 623,
    "bot</w>": 624,
    "both</w>": 625,
    "bots</w>": 626,
    "bottle</w>": 627,
    "bottom</w>": 628,
    "bought</w>": 629,
    "bout</w>": 630,
    "bow": 631,
    "bowl</w>": 632,
    "box": 633,
    "box</w>": 634,
    "boxer</w>": 635,
    "boxers</w>": 636,
    "boy": 637,
    "boy</w>": 638,
    "boyfriend</w>": 639,
    "boys</w>": 640,
    "br": 641,
    "bra": 642,
    "bra</w>": 643,
    "brag</w>": 644,
    "brain</w>": 645,
    "brand</w>": 646,
    "braz": 647,
    "brazil</w>": 648,
    "bre": 649,
    "brea": 650,
    "bread</w>": 651,
    "break</w>": 652,
    "breakfast</w>": 653,
    "breaking</w>": 654,
    "breed</w>": 655,
    "bri": 656,
    "brian</w>": 657,
    "bride</w>": 658,
    "brief": 659,
    "briefs</w>": 660,
    "bright</w>": 661,
    "bring</w>": 662,
    "brings</w>": 663,
    "british</w>": 664,
    "bro": 665,
    "bro</w>": 666,
    "broccoli</w>": 667,
    "broke</w>": 668,
    "broken</w>": 669,
    "brooklyn</w>": 670,
    "brother</w>": 671,
    "brothers</w>": 672,
    "brow": 673,
    "brown": 674,
    "brown</w>": 675,
    "browse</w>": 676,
    "browsing</w>": 677,
    "bru": 678,
    "brutal</w>": 679,
    "bs</w>": 680,
    "bt": 681,
    "btw</w>": 682,
    "bu": 683,
    "bu</w>": 684,
    "bucket</w>": 685,
    "bud": 686,
    "bud</w>": 687,
    "buddy</w>": 688,
    "bugs</w>": 689,
    "buil": 690,
    "bull": 691,
    "bull</w>": 692,
    "bumm": 693,
    "bummed</w>": 694,
    "bun": 695,
    "buns</w>": 696,
    "bur": 697,
    "burger</w>": 698,
    "burgers</w>": 699,
    "burn</w>": 700,
    "bus</w>": 701,
    "business</w>": 702,
    "busy</w>": 703,
    "but</w>": 704,
    "butt</w>": 705,
    "butter": 706,
    "butter</w>": 707,
    "buy</w>": 708,
    "by</w>": 709,
    "c": 710,
    "c</w>": 711,
    "ca": 712,
    "ca</w>": 713,
    "cab": 714,
    "cabinet</w>": 715,
    "cake</w>": 716,
    "cakes</w>": 717,
    "cal": 718,
    "calamari</w>": 719,
    "cali": 720,
    "california</w>": 721,
    "call": 722,
    "call</w>": 723,
    "called</w>": 724,
    "calling</w>": 725,
    "cam": 726,
    "came</w>": 727,
    "camping</w>": 728,
    "can": 729,
    "can</w>": 730,
    "canada</w>": 731,
    "canadi": 732,
    "canadian</w>": 733,
    "canc": 734,
    "cancer</w>": 735,
    "candy</w>": 736,
    "cannot</w>": 737,
    "cant</w>": 738,
    "cap": 739,
    "car": 740,
    "car</w>": 741,
    "caramel</w>": 742,
    "card</w>": 743,
    "cards</w>": 744,
    "care": 745,
    "care</w>": 746,
    "career</w>": 747,
    "careful</w>": 748,
    "cares</w>": 749,
    "carry</w>": 750,
    "cars</w>": 751,
    "carto": 752,
    "cas": 753,
    "case</w>": 754,
    "casu": 755,
    "casual</w>": 756,
    "cat": 757,
    "cat</w>": 758,
    "catch</w>": 759,
    "category</w>": 760,
    "cats</w>": 761,
    "caught</w>": 762,
    "cause</w>": 763,
    "cave</w>": 764,
    "cc</w>": 765,
    "ce": 766,
    "ce</w>": 767,
    "ced</w>": 768,
    "cel": 769,
    "cele": 770,
    "celebr": 771,
    "celebrate</w>": 772,
    "celebrating</w>": 773,
    "celest": 774,
    "cen": 775,
    "centu": 776,
    "cer": 777,
    "cereal</w>": 778,
    "certainly</w>": 779,
    "ces</w>": 780,
    "ch": 781,
    "ch</w>": 782,
    "cha": 783,
    "cha</w>": 784,
    "chain</w>": 785,
    "challen": 786,
    "challeng": 787,
    "challenge</w>": 788,
    "chan": 789,
    "chance</w>": 790,
    "change</w>": 791,
    "changed</w>": 792,
    "changes</w>": 793,
    "channel</w>": 794,
    "char": 795,
    "charac": 796,
    "character</w>": 797,
    "chat</w>": 798,
    "chatting</w>": 799,
    "che": 800,
    "chea": 801,
    "chec": 802,
    "check</w>": 803,
    "checked</w>": 804,
    "checking</w>": 805,
    "checks</w>": 806,
    "ched</w>": 807,
    "chee": 808,
    "cheek</w>": 809,
    "cheers</w>": 810,
    "chees": 811,
    "cheese</w>": 812,
    "cheetos</w>": 813,
    "chem": 814,
    "chen</w>": 815,
    "cher": 816,
    "chi": 817,
    "chick</w>": 818,
    "chicken</w>": 819,
    "chickens</w>": 820,
    "chickpeas</w>": 821,
    "chil": 822,
    "child</w>": 823,
    "childish</w>": 824,
    "children</w>": 825,
    "chill": 826,
    "chill</w>": 827,
    "chilling</w>": 828,
    "chin": 829,
    "chin</w>": 830,
    "chinese</w>": 831,
    "ching</w>": 832,
    "chips</w>": 833,
    "cho": 834,
    "chocol": 835,
    "chocolate</w>": 836,
    "choice</w>": 837,
    "chole": 838,
    "cholesterol</w>": 839,
    "choo": 840,
    "choose</w>": 841,
    "christ": 842,
    "christ</w>": 843,
    "christmas</w>": 844,
    "chu": 845,
    "chy</w>": 846,
    "ci": 847,
    "cin": 848,
    "cious</w>": 849,
    "cir": 850,
    "circles</w>": 851,
    "city</w>": 852,
    "civics</w>": 853,
    "ck": 854,
    "ck</w>": 855,
    "cket</w>": 856,
    "cl": 857,
    "cla": 858,
    "claim</w>": 859,
    "clas": 860,
    "class": 861,
    "class</w>": 862,
    "classes</w>": 863,
    "classic</w>": 864,
    "classics</w>": 865,
    "cle": 866,
    "cle</w>": 867,
    "clean</w>": 868,
    "cleaning</w>": 869,
    "clearly</w>": 870,
    "cles</w>": 871,
    "cli": 872,
    "clo": 873,
    "clock</w>": 874,
    "close</w>": 875,
    "closer</w>": 876,
    "closest</w>": 877,
    "clothes</w>": 878,
    "clu": 879,
    "club</w>": 880,
    "clue</w>": 881,
    "co": 882,
    "co</w>": 883,
    "coast</w>": 884,
    "cock": 885,
    "cock</w>": 886,
    "cocon": 887,
    "coconut</w>": 888,
    "coffe": 889,
    "coffee</w>": 890,
    "coinc": 891,
    "coincidence</w>": 892,
    "coke</w>": 893,
    "col": 894,
    "cola</w>": 895,
    "cold</w>": 896,
    "collec": 897,
    "college</w>": 898,
    "color</w>": 899,
    "com": 900,
    "comb": 901,
    "combination</w>": 902,
    "come": 903,
    "come</w>": 904,
    "comedy</w>": 905,
    "comes</w>": 906,
    "comfor": 907,
    "comfortable</w>": 908,
    "comfy</w>": 909,
    "comic</w>": 910,
    "comics</w>": 911,
    "coming</w>": 912,
    "comm": 913,
    "commen": 914,
    "comment</w>": 915,
    "comments</w>": 916,
    "common</w>": 917,
    "commun": 918,
    "communic": 919,
    "communications</w>": 920,
    "community</w>": 921,
    "comp": 922,
    "company</w>": 923,
    "compe": 924,
    "compl": 925,
    "complaining</w>": 926,
    "comple": 927,
    "complete</w>": 928,
    "completely</w>": 929,
    "compli": 930,
    "compliment</w>": 931,
    "compliments</w>": 932,
    "computer</w>": 933,
    "computers</w>": 934,
    "con": 935,
    "con</w>": 936,
    "concer": 937,
    "concerned</w>": 938,
    "concert</w>": 939,
    "condolences</w>": 940,
    "cone</w>": 941,
    "conf": 942,
    "confessions</w>": 943,
    "confidence</w>": 944,
    "confident</w>": 945,
    "confir": 946,
    "confirm</w>": 947,
    "confused</w>": 948,
    "congrats</w>": 949,
    "congratulations</w>": 950,
    "connec": 951,
    "connected</w>": 952,
    "connection</w>": 953,
    "consid": 954,
    "consider</w>": 955,
    "considered</w>": 956,
    "conspiracy</w>": 957,
    "const": 958,
    "consu": 959,
    "contac": 960,
    "contacts</w>": 961,
    "content</w>": 962,
    "context</w>": 963,
    "contin": 964,
    "contro": 965,
    "control</w>": 966,
    "conven": 967,
    "convenient</w>": 968,
    "convers": 969,
    "conversation": 970,
    "conversation</w>": 971,
    "conversations</w>": 972,
    "convince</w>": 973,
    "convos</w>": 974,
    "coo": 975,
    "cook</w>": 976,
    "cookies</w>": 977,
    "cooking</w>": 978,
    "cool</w>": 979,
    "coolest</w>": 980,
    "cop</w>": 981,
    "cor": 982,
    "corn": 983,
    "corn</w>": 984,
    "corner</w>": 985,
    "correc": 986,
    "correct</w>": 987,
    "correctly</w>": 988,
    "corresponding</w>": 989,
    "cost</w>": 990,
    "costume</w>": 991,
    "cou": 992,
    "could</w>": 993,
    "couldn</w>": 994,
    "coun": 995,
    "count</w>": 996,
    "countries</w>": 997,
    "country</w>": 998,
    "couple</w>": 999,
    "cour": 1000,
    "course</w>": 1001,
    "cousin</w>": 1002,
    "cover</w>": 1003,
    "cow": 1004,
    "cr": 1005,
    "cra": 1006,
    "crack": 1007,
    "crap</w>": 1008,
    "craving</w>": 1009,
    "crazy</w>": 1010,
    "cre": 1011,
    "cream": 1012,
    "cream</w>": 1013,
    "creamed</w>": 1014,
    "creat": 1015,
    "create</w>": 1016,
    "creative</w>": 1017,
    "cred": 1018,
    "creep": 1019,
    "creepy</w>": 1020,
    "cri": 1021,
    "crime</w>": 1022,
    "cro": 1023,
    "cross</w>": 1024,
    "cru": 1025,
    "crun": 1026,
    "crunchy</w>": 1027,
    "crush</w>": 1028,
    "cry</w>": 1029,
    "css</w>": 1030,
    "cu": 1031,
    "cube</w>": 1032,
    "cul": 1033,
    "cup": 1034,
    "cup</w>": 1035,
    "cups</w>": 1036,
    "cur": 1037,
    "curate</w>": 1038,
    "curi": 1039,
    "curiosity</w>": 1040,
    "curious</w>": 1041,
    "curly</w>": 1042,
    "current</w>": 1043,
    "currently</w>": 1044,
    "cus</w>": 1045,
    "custom": 1046,
    "cut</w>": 1047,
    "cute</w>": 1048,
    "cuz</w>": 1049,
    "cy": 1050,
    "cy</w>": 1051,
    "cycle</w>": 1052,
    "cz": 1053,
    "czech</w>": 1054,
    "d": 1055,
    "d/": 1056,
    "d</w>": 1057,
    "da": 1058,
    "da</w>": 1059,
    "dad</w>": 1060,
    "dae</w>": 1061,
    "daily</w>": 1062,
    "dam": 1063,
    "dam</w>": 1064,
    "damn</w>": 1065,
    "dan": 1066,
    "dance</w>": 1067,
    "dancer</w>": 1068,
    "dang</w>": 1069,
    "danger": 1070,
    "dangerous</w>": 1071,
    "danish</w>": 1072,
    "dar": 1073,
    "dare</w>": 1074,
    "dark</w>": 1075,
    "darn</w>": 1076,
    "data</w>": 1077,
    "date</w>": 1078,
    "dating</w>": 1079,
    "david</w>": 1080,
    "day": 1081,
    "day</w>": 1082,
    "days</w>": 1083,
    "dc</w>": 1084,
    "dd": 1085,
    "de": 1086,
    "de</w>": 1087,
    "dea": 1088,
    "dead</w>": 1089,
    "deal</w>": 1090,
    "dealing</w>": 1091,
    "dear</w>": 1092,
    "death</w>": 1093,
    "debate</w>": 1094,
    "dec": 1095,
    "dec</w>": 1096,
    "decade</w>": 1097,
    "decent</w>": 1098,
    "decid": 1099,
    "decided</w>": 1100,
    "ded</w>": 1101,
    "dee": 1102,
    "deep</w>": 1103,
    "defin": 1104,
    "definitely</w>": 1105,
    "degree</w>": 1106,
    "degrees</w>": 1107,
    "del": 1108,
    "delayed</w>": 1109,
    "delete</w>": 1110,
    "deleted</w>": 1111,
    "deli": 1112,
    "delicious</w>": 1113,
    "demon</w>": 1114,
    "den": 1115,
    "den</w>": 1116,
    "denmark</w>": 1117,
    "dep": 1118,
    "department</w>": 1119,
    "depend": 1120,
    "depends</w>": 1121,
    "depressed</w>": 1122,
    "depressing</w>": 1123,
    "depression</w>": 1124,
    "der": 1125,
    "der</w>": 1126,
    "dered</w>": 1127,
    "ders</w>": 1128,
    "des": 1129,
    "des</w>": 1130,
    "descri": 1131,
    "describe</w>": 1132,
    "describes</w>": 1133,
    "deser": 1134,
    "deserve</w>": 1135,
    "desk</w>": 1136,
    "desktop</w>": 1137,
    "dessert</w>": 1138,
    "dest": 1139,
    "dest</w>": 1140,
    "dev": 1141,
    "devel": 1142,
    "develop": 1143,
    "devil</w>": 1144,
    "dge</w>": 1145,
    "di": 1146,
    "di</w>": 1147,
    "dic": 1148,
    "dick</w>": 1149,
    "did</w>": 1150,
    "didn</w>": 1151,
    "die</w>": 1152,
    "died</w>": 1153,
    "dies</w>": 1154,
    "diet</w>": 1155,
    "diffe": 1156,
    "difference</w>": 1157,
    "different</w>": 1158,
    "difficult</w>": 1159,
    "dig</w>": 1160,
    "din": 1161,
    "ding</w>": 1162,
    "dinner</w>": 1163,
    "dir": 1164,
    "direc": 1165,
    "dirty</w>": 1166,
    "dis": 1167,
    "disa": 1168,
    "disagree</w>": 1169,
    "disap": 1170,
    "disapp": 1171,
    "disappoin": 1172,
    "disappoint</w>": 1173,
    "disappointed</w>": 1174,
    "disc": 1175,
    "discipline</w>": 1176,
    "disco": 1177,
    "discovered</w>": 1178,
    "discus": 1179,
    "disgu": 1180,
    "disgusting</w>": 1181,
    "dish</w>": 1182,
    "dishes</w>": 1183,
    "dislike</w>": 1184,
    "disney</w>": 1185,
    "dit": 1186,
    "dition</w>": 1187,
    "diving</w>": 1188,
    "dle</w>": 1189,
    "dles</w>": 1190,
    "dless</w>": 1191,
    "dly</w>": 1192,
    "dme</w>": 1193,
    "dn</w>": 1194,
    "dnd</w>": 1195,
    "dness</w>": 1196,
    "dnt</w>": 1197,
    "do": 1198,
    "do</w>": 1199,
    "doctor</w>": 1200,
    "doctors</w>": 1201,
    "does": 1202,
    "does</w>": 1203,
    "doesn</w>": 1204,
    "dog": 1205,
    "dog</w>": 1206,
    "dogs</w>": 1207,
    "doin</w>": 1208,
    "doing</w>": 1209,
    "dollars</w>": 1210,
    "dom": 1211,
    "dom</w>": 1212,
    "domin": 1213,
    "don": 1214,
    "don</w>": 1215,
    "donald</w>": 1216,
    "done</w>": 1217,
    "dont</w>": 1218,
    "doo": 1219,
    "doodle</w>": 1220,
    "door": 1221,
    "door</w>": 1222,
    "dope</w>": 1223,
    "dor": 1224,
    "dos</w>": 1225,
    "dou": 1226,
    "doub": 1227,
    "doubt</w>": 1228,
    "down": 1229,
    "down</w>": 1230,
    "downvo": 1231,
    "downvoted</w>": 1232,
    "downvotes</w>": 1233,
    "dr": 1234,
    "dr</w>": 1235,
    "drag": 1236,
    "drank</w>": 1237,
    "draw": 1238,
    "draw</w>": 1239,
    "drawing</w>": 1240,
    "dre": 1241,
    "dream": 1242,
    "dream</w>": 1243,
    "dreams</w>": 1244,
    "dress</w>": 1245,
    "dressing</w>": 1246,
    "dri": 1247,
    "drin": 1248,
    "drink</w>": 1249,
    "drinking</w>": 1250,
    "drinks</w>": 1251,
    "drive</w>": 1252,
    "driver</w>": 1253,
    "driving</w>": 1254,
    "dro": 1255,
    "dru": 1256,
    "drugs</w>": 1257,
    "drums</w>": 1258,
    "drunk</w>": 1259,
    "dry</w>": 1260,
    "ds</w>": 1261,
    "du": 1262,
    "duck</w>": 1263,
    "ducks</w>": 1264,
    "dude</w>": 1265,
    "dudes</w>": 1266,
    "due</w>": 1267,
    "dum": 1268,
    "dumb</w>": 1269,
    "dun": 1270,
    "dunno</w>": 1271,
    "during</w>": 1272,
    "duty</w>": 1273,
    "dv": 1274,
    "dw": 1275,
    "dy": 1276,
    "dy</w>": 1277,
    "dyed</w>": 1278,
    "dying</w>": 1279,
    "e": 1280,
    "e/": 1281,
    "e</w>": 1282,
    "ea": 1283,
    "each</w>": 1284,
    "ead</w>": 1285,
    "eagle</w>": 1286,
    "eak</w>": 1287,
    "eal</w>": 1288,
    "ear": 1289,
    "ear</w>": 1290,
    "earlier</w>": 1291,
    "early</w>": 1292,
    "earth</w>": 1293,
    "eas": 1294,
    "easier</w>": 1295,
    "east</w>": 1296,
    "easy</w>": 1297,
    "eat": 1298,
    "eat</w>": 1299,
    "eating</w>": 1300,
    "eav": 1301,
    "ec": 1302,
    "eci": 1303,
    "ecially</w>": 1304,
    "eclipse</w>": 1305,
    "econ": 1306,
    "ect</w>": 1307,
    "ed": 1308,
    "ed</w>": 1309,
    "edi": 1310,
    "edit</w>": 1311,
    "educ": 1312,
    "ee": 1313,
    "ee</w>": 1314,
    "eee": 1315,
    "eee</w>": 1316,
    "eeee": 1317,
    "eel</w>": 1318,
    "eep</w>": 1319,
    "ef": 1320,
    "ef</w>": 1321,
    "effec": 1322,
    "effect</w>": 1323,
    "effort</w>": 1324,
    "eful</w>": 1325,
    "eg": 1326,
    "egg</w>": 1327,
    "eggs</w>": 1328,
    "eh</w>": 1329,
    "ei": 1330,
    "either</w>": 1331,
    "el": 1332,
    "el</w>": 1333,
    "ele": 1334,
    "elec": 1335,
    "electr": 1336,
    "electric</w>": 1337,
    "eless</w>": 1338,
    "elicit</w>": 1339,
    "ell": 1340,
    "ell</w>": 1341,
    "ella</w>": 1342,
    "elling</w>": 1343,
    "ello</w>": 1344,
    "ells</w>": 1345,
    "els</w>": 1346,
    "else</w>": 1347,
    "elt</w>": 1348,
    "ely</w>": 1349,
    "em": 1350,
    "em</w>": 1351,
    "email</w>": 1352,
    "emails</w>": 1353,
    "ement</w>": 1354,
    "emo": 1355,
    "emo</w>": 1356,
    "emoj": 1357,
    "emoji</w>": 1358,
    "emp": 1359,
    "emplo": 1360,
    "empty</w>": 1361,
    "en": 1362,
    "en</w>": 1363,
    "ence</w>": 1364,
    "ences</w>": 1365,
    "end": 1366,
    "end</w>": 1367,
    "endangered</w>": 1368,
    "ended</w>": 1369,
    "ending</w>": 1370,
    "ends</w>": 1371,
    "energy</w>": 1372,
    "engine": 1373,
    "england</w>": 1374,
    "engli": 1375,
    "english</w>": 1376,
    "enjo": 1377,
    "enjoy</w>": 1378,
    "enjoyed</w>": 1379,
    "enjoying</w>": 1380,
    "enough</w>": 1381,
    "ens</w>": 1382,
    "ense</w>": 1383,
    "ensive</w>": 1384,
    "ent</w>": 1385,
    "enter": 1386,
    "enterta": 1387,
    "entertaining</w>": 1388,
    "enti": 1389,
    "entire</w>": 1390,
    "ently</w>": 1391,
    "ents</w>": 1392,
    "enty</w>": 1393,
    "envel": 1394,
    "ep": 1395,
    "ep</w>": 1396,
    "episo": 1397,
    "episode</w>": 1398,
    "episodes</w>": 1399,
    "ept</w>": 1400,
    "eption": 1401,
    "eption</w>": 1402,
    "equ": 1403,
    "equally</w>": 1404,
    "er": 1405,
    "er</w>": 1406,
    "erc": 1407,
    "erci": 1408,
    "ere</w>": 1409,
    "ered</w>": 1410,
    "ergy</w>": 1411,
    "ering</w>": 1412,
    "ers</w>": 1413,
    "es": 1414,
    "es/": 1415,
    "es</w>": 1416,
    "escape</w>": 1417,
    "esday</w>": 1418,
    "ese</w>": 1419,
    "esh</w>": 1420,
    "esis</w>": 1421,
    "esome</w>": 1422,
    "especially</w>": 1423,
    "ess": 1424,
    "ess</w>": 1425,
    "essed</w>": 1426,
    "essi": 1427,
    "essing</w>": 1428,
    "ession</w>": 1429,
    "essions</w>": 1430,
    "est": 1431,
    "est</w>": 1432,
    "ester": 1433,
    "ester</w>": 1434,
    "et": 1435,
    "et</w>": 1436,
    "etc</w>": 1437,
    "eth": 1438,
    "ets</w>": 1439,
    "ett": 1440,
    "ety</w>": 1441,
    "eu": 1442,
    "euro": 1443,
    "europe</w>": 1444,
    "european</w>": 1445,
    "ev": 1446,
    "ev</w>": 1447,
    "even": 1448,
    "even</w>": 1449,
    "evening</w>": 1450,
    "eventually</w>": 1451,
    "ever": 1452,
    "ever</w>": 1453,
    "every": 1454,
    "every</w>": 1455,
    "everybody</w>": 1456,
    "everyday</w>": 1457,
    "everyone</w>": 1458,
    "everything</w>": 1459,
    "everywhere</w>": 1460,
    "evil</w>": 1461,
    "ew": 1462,
    "ew</w>": 1463,
    "ex": 1464,
    "ex</w>": 1465,
    "exact</w>": 1466,
    "exactly</w>": 1467,
    "exam": 1468,
    "exam</w>": 1469,
    "example</w>": 1470,
    "exc": 1471,
    "excellent</w>": 1472,
    "except</w>": 1473,
    "excited</w>": 1474,
    "exciting</w>": 1475,
    "exercise</w>": 1476,
    "exhau": 1477,
    "exhausted</w>": 1478,
    "exi": 1479,
    "exist</w>": 1480,
    "exotic</w>": 1481,
    "exp": 1482,
    "expec": 1483,
    "expect</w>": 1484,
    "expected</w>": 1485,
    "expecting</w>": 1486,
    "expensive</w>": 1487,
    "exper": 1488,
    "experien": 1489,
    "experience</w>": 1490,
    "experienced</w>": 1491,
    "expl": 1492,
    "explain</w>": 1493,
    "extra</w>": 1494,
    "extremely</w>": 1495,
    "ey": 1496,
    "ey</w>": 1497,
    "eye</w>": 1498,
    "eyes</w>": 1499,
    "f": 1500,
    "f</w>": 1501,
    "fa": 1502,
    "fac": 1503,
    "face</w>": 1504,
    "facebook</w>": 1505,
    "faces</w>": 1506,
    "fact</w>": 1507,
    "facts</w>": 1508,
    "failed</w>": 1509,
    "fair</w>": 1510,
    "fairly</w>": 1511,
    "faith</w>": 1512,
    "fake</w>": 1513,
    "fal": 1514,
    "fall": 1515,
    "fall</w>": 1516,
    "falling</w>": 1517,
    "fallout</w>": 1518,
    "fam": 1519,
    "fam</w>": 1520,
    "famili": 1521,
    "familiarized</w>": 1522,
    "family</w>": 1523,
    "famous</w>": 1524,
    "fan": 1525,
    "fan</w>": 1526,
    "fancy</w>": 1527,
    "fanta</w>": 1528,
    "fantast": 1529,
    "fantastic</w>": 1530,
    "far</w>": 1531,
    "fas": 1532,
    "fascin": 1533,
    "fascinating</w>": 1534,
    "fast</w>": 1535,
    "fat</w>": 1536,
    "father</w>": 1537,
    "fault</w>": 1538,
    "fav": 1539,
    "favor": 1540,
    "favor</w>": 1541,
    "favorite</w>": 1542,
    "favorites</w>": 1543,
    "favou": 1544,
    "favourite</w>": 1545,
    "fe": 1546,
    "fe</w>": 1547,
    "fear</w>": 1548,
    "fears</w>": 1549,
    "featu": 1550,
    "fedor": 1551,
    "feel": 1552,
    "feel</w>": 1553,
    "feeling</w>": 1554,
    "feels</w>": 1555,
    "feet</w>": 1556,
    "fell</w>": 1557,
    "fellow</w>": 1558,
    "felt</w>": 1559,
    "female</w>": 1560,
    "fer</w>": 1561,
    "ference</w>": 1562,
    "ferences</w>": 1563,
    "few</w>": 1564,
    "ff": 1565,
    "ff</w>": 1566,
    "ffe": 1567,
    "ffy</w>": 1568,
    "fi": 1569,
    "fi</w>": 1570,
    "fic": 1571,
    "fic</w>": 1572,
    "fiction</w>": 1573,
    "fid": 1574,
    "fidget</w>": 1575,
    "fied</w>": 1576,
    "fiel": 1577,
    "field</w>": 1578,
    "fif": 1579,
    "figh": 1580,
    "fight</w>": 1581,
    "fighting</w>": 1582,
    "figu": 1583,
    "figure</w>": 1584,
    "figured</w>": 1585,
    "fil": 1586,
    "file</w>": 1587,
    "fili": 1588,
    "fill": 1589,
    "fill</w>": 1590,
    "filled</w>": 1591,
    "film</w>": 1592,
    "fin": 1593,
    "final</w>": 1594,
    "finally</w>": 1595,
    "find</w>": 1596,
    "finding</w>": 1597,
    "fine</w>": 1598,
    "finger</w>": 1599,
    "fingers</w>": 1600,
    "finish</w>": 1601,
    "finished</w>": 1602,
    "finishing</w>": 1603,
    "fir": 1604,
    "fire": 1605,
    "fire</w>": 1606,
    "firef": 1607,
    "first</w>": 1608,
    "fish</w>": 1609,
    "fit</w>": 1610,
    "five</w>": 1611,
    "fix</w>": 1612,
    "fl": 1613,
    "fla": 1614,
    "flair</w>": 1615,
    "flas": 1616,
    "flat</w>": 1617,
    "flav": 1618,
    "flavor</w>": 1619,
    "fli": 1620,
    "flipped</w>": 1621,
    "flo": 1622,
    "floating</w>": 1623,
    "floo": 1624,
    "floor</w>": 1625,
    "florida</w>": 1626,
    "flower</w>": 1627,
    "flu": 1628,
    "fluffy</w>": 1629,
    "fly</w>": 1630,
    "flying</w>": 1631,
    "fo": 1632,
    "focus</w>": 1633,
    "fol": 1634,
    "folks</w>": 1635,
    "foll": 1636,
    "fon": 1637,
    "fonts</w>": 1638,
    "foo": 1639,
    "food</w>": 1640,
    "fool</w>": 1641,
    "foot</w>": 1642,
    "football</w>": 1643,
    "for": 1644,
    "for</w>": 1645,
    "force</w>": 1646,
    "fore": 1647,
    "fore</w>": 1648,
    "foreign</w>": 1649,
    "forever</w>": 1650,
    "forget</w>": 1651,
    "forgot</w>": 1652,
    "form": 1653,
    "form</w>": 1654,
    "formated</w>": 1655,
    "fortun": 1656,
    "forward</w>": 1657,
    "found</w>": 1658,
    "four</w>": 1659,
    "fr": 1660,
    "fran": 1661,
    "france</w>": 1662,
    "fre": 1663,
    "frea": 1664,
    "freak</w>": 1665,
    "free": 1666,
    "free</w>": 1667,
    "freedom</w>": 1668,
    "french</w>": 1669,
    "frequently</w>": 1670,
    "fri": 1671,
    "friday</w>": 1672,
    "fried</w>": 1673,
    "friend</w>": 1674,
    "friendly</w>": 1675,
    "friends</w>": 1676,
    "friendship</w>": 1677,
    "fries</w>": 1678,
    "fro": 1679,
    "from</w>": 1680,
    "fron": 1681,
    "front</w>": 1682,
    "frozen</w>": 1683,
    "fru": 1684,
    "fruit</w>": 1685,
    "fruits</w>": 1686,
    "frustrating</w>": 1687,
    "fs</w>": 1688,
    "ft": 1689,
    "ft</w>": 1690,
    "fting</w>": 1691,
    "fu": 1692,
    "fuc": 1693,
    "fuck": 1694,
    "fuck</w>": 1695,
    "fucked</w>": 1696,
    "fucking</w>": 1697,
    "fuel</w>": 1698,
    "ful</w>": 1699,
    "full</w>": 1700,
    "fully</w>": 1701,
    "fun": 1702,
    "fun</w>": 1703,
    "func": 1704,
    "funny</w>": 1705,
    "futurama</w>": 1706,
    "future</w>": 1707,
    "fy</w>": 1708,
    "fying</w>": 1709,
    "g": 1710,
    "g</w>": 1711,
    "ga": 1712,
    "ga</w>": 1713,
    "gal": 1714,
    "gal</w>": 1715,
    "gam": 1716,
    "game</w>": 1717,
    "gamer</w>": 1718,
    "games</w>": 1719,
    "gaming</w>": 1720,
    "gar": 1721,
    "gare": 1722,
    "gary</w>": 1723,
    "gas</w>": 1724,
    "gasp</w>": 1725,
    "gastoff</w>": 1726,
    "gaston</w>": 1727,
    "gave</w>": 1728,
    "gay</w>": 1729,
    "ge": 1730,
    "ge</w>": 1731,
    "gen": 1732,
    "gen</w>": 1733,
    "gender</w>": 1734,
    "gener": 1735,
    "general</w>": 1736,
    "genre</w>": 1737,
    "genu": 1738,
    "genuinely</w>": 1739,
    "geo": 1740,
    "geography</w>": 1741,
    "ger": 1742,
    "ger</w>": 1743,
    "german</w>": 1744,
    "germany</w>": 1745,
    "gers</w>": 1746,
    "gest</w>": 1747,
    "get</w>": 1748,
    "gets</w>": 1749,
    "getting</w>": 1750,
    "gf</w>": 1751,
    "gg": 1752,
    "gging</w>": 1753,
    "ggle</w>": 1754,
    "gh": 1755,
    "gh</w>": 1756,
    "ghett": 1757,
    "ght</w>": 1758,
    "ghts</w>": 1759,
    "ghty</w>": 1760,
    "gi": 1761,
    "giant</w>": 1762,
    "gic</w>": 1763,
    "gies</w>": 1764,
    "gin": 1765,
    "gin</w>": 1766,
    "ging</w>": 1767,
    "gious</w>": 1768,
    "gir": 1769,
    "girl</w>": 1770,
    "girlfriend</w>": 1771,
    "girlfriends</w>": 1772,
    "girls</w>": 1773,
    "give</w>": 1774,
    "given</w>": 1775,
    "gives</w>": 1776,
    "giving</w>": 1777,
    "gl": 1778,
    "glad</w>": 1779,
    "glas": 1780,
    "glass</w>": 1781,
    "glasses</w>": 1782,
    "gle</w>": 1783,
    "gli": 1784,
    "glitter</w>": 1785,
    "glo": 1786,
    "globe</w>": 1787,
    "glove</w>": 1788,
    "gly</w>": 1789,
    "go": 1790,
    "go</w>": 1791,
    "goal</w>": 1792,
    "goals</w>": 1793,
    "god</w>": 1794,
    "goes</w>": 1795,
    "goin</w>": 1796,
    "going</w>": 1797,
    "gol": 1798,
    "gold</w>": 1799,
    "golden</w>": 1800,
    "gon": 1801,
    "gone</w>": 1802,
    "gonna</w>": 1803,
    "goo": 1804,
    "good</w>": 1805,
    "google</w>": 1806,
    "goose": 1807,
    "goosebumps</w>": 1808,
    "gor": 1809,
    "gorillaz</w>": 1810,
    "gos</w>": 1811,
    "gosh</w>": 1812,
    "got</w>": 1813,
    "goth": 1814,
    "gott": 1815,
    "gotta</w>": 1816,
    "gotten</w>": 1817,
    "gr": 1818,
    "gra": 1819,
    "grab</w>": 1820,
    "grad</w>": 1821,
    "grade</w>": 1822,
    "gradu": 1823,
    "graduated</w>": 1824,
    "gram": 1825,
    "gram</w>": 1826,
    "grammar</w>": 1827,
    "gran": 1828,
    "grand": 1829,
    "graph": 1830,
    "graphy</w>": 1831,
    "grasp</w>": 1832,
    "gravy</w>": 1833,
    "gray</w>": 1834,
    "gre": 1835,
    "great": 1836,
    "great</w>": 1837,
    "greatest</w>": 1838,
    "gree": 1839,
    "green</w>": 1840,
    "grew</w>": 1841,
    "grey": 1842,
    "grey</w>": 1843,
    "gri": 1844,
    "grime</w>": 1845,
    "gro": 1846,
    "grocer": 1847,
    "groceries</w>": 1848,
    "gross</w>": 1849,
    "group</w>": 1850,
    "groups</w>": 1851,
    "grow</w>": 1852,
    "grown</w>": 1853,
    "gs</w>": 1854,
    "gt</w>": 1855,
    "gu": 1856,
    "guar": 1857,
    "gue</w>": 1858,
    "gues</w>": 1859,
    "guess</w>": 1860,
    "guessing</w>": 1861,
    "guests</w>": 1862,
    "guil": 1863,
    "guilty</w>": 1864,
    "guit": 1865,
    "guitar</w>": 1866,
    "gummy</w>": 1867,
    "gun</w>": 1868,
    "guns</w>": 1869,
    "guy</w>": 1870,
    "guys</w>": 1871,
    "gy": 1872,
    "gy</w>": 1873,
    "gym</w>": 1874,
    "h": 1875,
    "h</w>": 1876,
    "ha": 1877,
    "ha</w>": 1878,
    "habit</w>": 1879,
    "had</w>": 1880,
    "hah</w>": 1881,
    "haha": 1882,
    "haha</w>": 1883,
    "hahah</w>": 1884,
    "hahaha</w>": 1885,
    "hahahaha</w>": 1886,
    "haik": 1887,
    "haiku</w>": 1888,
    "haikus</w>": 1889,
    "hair": 1890,
    "hair</w>": 1891,
    "hairy</w>": 1892,
    "hal": 1893,
    "hal</w>": 1894,
    "half": 1895,
    "half</w>": 1896,
    "hall": 1897,
    "halloween</w>": 1898,
    "halo</w>": 1899,
    "ham</w>": 1900,
    "han": 1901,
    "hand": 1902,
    "hand</w>": 1903,
    "handle</w>": 1904,
    "hands</w>": 1905,
    "handsome</w>": 1906,
    "handwriting</w>": 1907,
    "hanging</w>": 1908,
    "happ": 1909,
    "happen</w>": 1910,
    "happened</w>": 1911,
    "happening</w>": 1912,
    "happens</w>": 1913,
    "happiness</w>": 1914,
    "happy</w>": 1915,
    "har": 1916,
    "hard": 1917,
    "hard</w>": 1918,
    "harder</w>": 1919,
    "hardware</w>": 1920,
    "harry</w>": 1921,
    "has</w>": 1922,
    "hasn</w>": 1923,
    "hat</w>": 1924,
    "hate</w>": 1925,
    "hates</w>": 1926,
    "have</w>": 1927,
    "haven</w>": 1928,
    "having</w>": 1929,
    "hawa": 1930,
    "haz": 1931,
    "he": 1932,
    "he</w>": 1933,
    "hea": 1934,
    "head": 1935,
    "head</w>": 1936,
    "headed</w>": 1937,
    "heading</w>": 1938,
    "headphones</w>": 1939,
    "heads</w>": 1940,
    "heal": 1941,
    "health</w>": 1942,
    "healthy</w>": 1943,
    "hear</w>": 1944,
    "heard</w>": 1945,
    "heart</w>": 1946,
    "heat</w>": 1947,
    "heaven</w>": 1948,
    "heavi": 1949,
    "heavier</w>": 1950,
    "heavy</w>": 1951,
    "hec": 1952,
    "heck</w>": 1953,
    "heh</w>": 1954,
    "hehe</w>": 1955,
    "height</w>": 1956,
    "hel": 1957,
    "hell</w>": 1958,
    "hello</w>": 1959,
    "help": 1960,
    "help</w>": 1961,
    "helped</w>": 1962,
    "helps</w>": 1963,
    "her": 1964,
    "her</w>": 1965,
    "here": 1966,
    "here</w>": 1967,
    "hero</w>": 1968,
    "hes</w>": 1969,
    "hey</w>": 1970,
    "hh": 1971,
    "hh</w>": 1972,
    "hhh</w>": 1973,
    "hhhh": 1974,
    "hhhh</w>": 1975,
    "hi": 1976,
    "hi</w>": 1977,
    "high": 1978,
    "high</w>": 1979,
    "higher</w>": 1980,
    "highest</w>": 1981,
    "highly</w>": 1982,
    "highschool</w>": 1983,
    "hiking</w>": 1984,
    "hil": 1985,
    "hilarious</w>": 1986,
    "him</w>": 1987,
    "hin": 1988,
    "hing</w>": 1989,
    "hint</w>": 1990,
    "hip</w>": 1991,
    "hips</w>": 1992,
    "hired</w>": 1993,
    "his</w>": 1994,
    "history</w>": 1995,
    "hit": 1996,
    "hit</w>": 1997,
    "hitler</w>": 1998,
    "hm</w>": 1999,
    "hmm</w>": 2000,
    "hmmm</w>": 2001,
    "ho": 2002,
    "hob": 2003,
    "hobbi": 2004,
    "hobbies</w>": 2005,
    "hobby</w>": 2006,
    "hockey</w>": 2007,
    "hog</w>": 2008,
    "hol": 2009,
    "hold</w>": 2010,
    "holding</w>": 2011,
    "holi": 2012,
    "holiday</w>": 2013,
    "holy</w>": 2014,
    "hom": 2015,
    "home": 2016,
    "home</w>": 2017,
    "homeless</w>": 2018,
    "homework</w>": 2019,
    "hon": 2020,
    "honest": 2021,
    "honest</w>": 2022,
    "honestly</w>": 2023,
    "honey</w>": 2024,
    "hoo": 2025,
    "hoo</w>": 2026,
    "hood</w>": 2027,
    "hooked</w>": 2028,
    "hop": 2029,
    "hop</w>": 2030,
    "hope": 2031,
    "hope</w>": 2032,
    "hopefully</w>": 2033,
    "hoping</w>": 2034,
    "hor": 2035,
    "horri": 2036,
    "horrible</w>": 2037,
    "horror</w>": 2038,
    "horse</w>": 2039,
    "hot": 2040,
    "hot</w>": 2041,
    "hotel</w>": 2042,
    "hou": 2043,
    "hour</w>": 2044,
    "hours</w>": 2045,
    "house": 2046,
    "house</w>": 2047,
    "household</w>": 2048,
    "how": 2049,
    "how</w>": 2050,
    "however</w>": 2051,
    "hu": 2052,
    "huff": 2053,
    "huffle": 2054,
    "hufflepuff</w>": 2055,
    "hug</w>": 2056,
    "huge</w>": 2057,
    "hugg": 2058,
    "hugs</w>": 2059,
    "huh</w>": 2060,
    "hum": 2061,
    "human</w>": 2062,
    "humans</w>": 2063,
    "humor</w>": 2064,
    "hun": 2065,
    "hungry</w>": 2066,
    "hunter</w>": 2067,
    "hur": 2068,
    "hurricane</w>": 2069,
    "hurt</w>": 2070,
    "hus": 2071,
    "husband</w>": 2072,
    "hy": 2073,
    "hyp": 2074,
    "hyped</w>": 2075,
    "i": 2076,
    "i</w>": 2077,
    "ia</w>": 2078,
    "ial</w>": 2079,
    "ian</w>": 2080,
    "ib": 2081,
    "ic": 2082,
    "ic</w>": 2083,
    "ical</w>": 2084,
    "ically</w>": 2085,
    "ice</w>": 2086,
    "ices</w>": 2087,
    "ich</w>": 2088,
    "ick": 2089,
    "ick</w>": 2090,
    "icked</w>": 2091,
    "icks</w>": 2092,
    "ico</w>": 2093,
    "icon</w>": 2094,
    "ics</w>": 2095,
    "icy</w>": 2096,
    "id": 2097,
    "id</w>": 2098,
    "ida</w>": 2099,
    "ide": 2100,
    "ide</w>": 2101,
    "idea</w>": 2102,
    "ideal</w>": 2103,
    "ideas</w>": 2104,
    "idence</w>": 2105,
    "idi": 2106,
    "idk</w>": 2107,
    "ids</w>": 2108,
    "ie</w>": 2109,
    "ien": 2110,
    "ience</w>": 2111,
    "ier</w>": 2112,
    "ies</w>": 2113,
    "if</w>": 2114,
    "ig": 2115,
    "igh": 2116,
    "ight</w>": 2117,
    "ign</w>": 2118,
    "ii": 2119,
    "iii</w>": 2120,
    "ik": 2121,
    "il": 2122,
    "il</w>": 2123,
    "ila</w>": 2124,
    "ild</w>": 2125,
    "ile</w>": 2126,
    "iled</w>": 2127,
    "iles</w>": 2128,
    "ili": 2129,
    "ilian</w>": 2130,
    "iling</w>": 2131,
    "ill": 2132,
    "ill</w>": 2133,
    "illa</w>": 2134,
    "illen": 2135,
    "ills</w>": 2136,
    "ily</w>": 2137,
    "im": 2138,
    "im</w>": 2139,
    "ima": 2140,
    "imag": 2141,
    "imagin": 2142,
    "imagine</w>": 2143,
    "imo</w>": 2144,
    "impor": 2145,
    "important</w>": 2146,
    "impres": 2147,
    "in": 2148,
    "in</w>": 2149,
    "ina</w>": 2150,
    "ination</w>": 2151,
    "inb": 2152,
    "inbox</w>": 2153,
    "inc": 2154,
    "inclu": 2155,
    "including</w>": 2156,
    "inconvenient</w>": 2157,
    "incre": 2158,
    "incredi": 2159,
    "incredible</w>": 2160,
    "indeed</w>": 2161,
    "indi": 2162,
    "india</w>": 2163,
    "ine</w>": 2164,
    "ined</w>": 2165,
    "iner</w>": 2166,
    "ines</w>": 2167,
    "iness</w>": 2168,
    "inev": 2169,
    "inf": 2170,
    "infin": 2171,
    "ing": 2172,
    "ing</w>": 2173,
    "inging</w>": 2174,
    "ings</w>": 2175,
    "ini</w>": 2176,
    "ining</w>": 2177,
    "ink</w>": 2178,
    "innoc": 2179,
    "ins": 2180,
    "ins</w>": 2181,
    "insecure</w>": 2182,
    "inside</w>": 2183,
    "insp": 2184,
    "inspired</w>": 2185,
    "inst": 2186,
    "instantly</w>": 2187,
    "instead</w>": 2188,
    "instru": 2189,
    "insu": 2190,
    "int": 2191,
    "int</w>": 2192,
    "inte": 2193,
    "inten": 2194,
    "intended</w>": 2195,
    "inter": 2196,
    "interest": 2197,
    "interest</w>": 2198,
    "interested</w>": 2199,
    "interesting</w>": 2200,
    "intern": 2201,
    "internet</w>": 2202,
    "interview</w>": 2203,
    "into</w>": 2204,
    "intrigu": 2205,
    "intro": 2206,
    "introduc": 2207,
    "introduce</w>": 2208,
    "inv": 2209,
    "invalidate</w>": 2210,
    "invalidation</w>": 2211,
    "invest": 2212,
    "invisi": 2213,
    "invol": 2214,
    "iny</w>": 2215,
    "io</w>": 2216,
    "ion": 2217,
    "ion</w>": 2218,
    "ions</w>": 2219,
    "ior</w>": 2220,
    "ip": 2221,
    "iphone</w>": 2222,
    "ir": 2223,
    "ir</w>": 2224,
    "ire</w>": 2225,
    "ired</w>": 2226,
    "ireland</w>": 2227,
    "irish</w>": 2228,
    "irl</w>": 2229,
    "iro": 2230,
    "iron": 2231,
    "iron</w>": 2232,
    "ironic</w>": 2233,
    "is": 2234,
    "is</w>": 2235,
    "ise</w>": 2236,
    "ised</w>": 2237,
    "ises</w>": 2238,
    "ish": 2239,
    "ish</w>": 2240,
    "ision</w>": 2241,
    "island</w>": 2242,
    "ism</w>": 2243,
    "isn</w>": 2244,
    "isnt</w>": 2245,
    "iso": 2246,
    "ison</w>": 2247,
    "issue</w>": 2248,
    "issues</w>": 2249,
    "ist</w>": 2250,
    "it": 2251,
    "it</w>": 2252,
    "itable</w>": 2253,
    "ital": 2254,
    "itali": 2255,
    "italics</w>": 2256,
    "ite</w>": 2257,
    "ited</w>": 2258,
    "itely</w>": 2259,
    "item</w>": 2260,
    "ites</w>": 2261,
    "ith</w>": 2262,
    "ities</w>": 2263,
    "iting</w>": 2264,
    "ito</w>": 2265,
    "its</w>": 2266,
    "itself</w>": 2267,
    "itting</w>": 2268,
    "ity</w>": 2269,
    "ive</w>": 2270,
    "j": 2271,
    "j</w>": 2272,
    "ja": 2273,
    "ja</w>": 2274,
    "jack</w>": 2275,
    "jam": 2276,
    "japan</w>": 2277,
    "japanese</w>": 2278,
    "jazz</w>": 2279,
    "je": 2280,
    "jeans</w>": 2281,
    "jec": 2282,
    "jects</w>": 2283,
    "jer": 2284,
    "jerry</w>": 2285,
    "jesus</w>": 2286,
    "jet</w>": 2287,
    "ji": 2288,
    "jim": 2289,
    "jir": 2290,
    "jk</w>": 2291,
    "jo": 2292,
    "job</w>": 2293,
    "jobs</w>": 2294,
    "joh": 2295,
    "john": 2296,
    "john</w>": 2297,
    "join</w>": 2298,
    "joint</w>": 2299,
    "joke</w>": 2300,
    "jokes</w>": 2301,
    "jor": 2302,
    "jord": 2303,
    "jour": 2304,
    "joy</w>": 2305,
    "ju": 2306,
    "jud": 2307,
    "juice</w>": 2308,
    "july</w>": 2309,
    "junior</w>": 2310,
    "just": 2311,
    "just</w>": 2312,
    "k": 2313,
    "k/": 2314,
    "k</w>": 2315,
    "ka</w>": 2316,
    "kanye</w>": 2317,
    "kar": 2318,
    "karma</w>": 2319,
    "ke": 2320,
    "ke</w>": 2321,
    "ked</w>": 2322,
    "kee": 2323,
    "keep</w>": 2324,
    "keeping</w>": 2325,
    "keeps</w>": 2326,
    "ken": 2327,
    "ken</w>": 2328,
    "kept</w>": 2329,
    "ker</w>": 2330,
    "kers</w>": 2331,
    "kes</w>": 2332,
    "ket</w>": 2333,
    "ketchup</w>": 2334,
    "kets</w>": 2335,
    "key": 2336,
    "key</w>": 2337,
    "keyboard</w>": 2338,
    "keys</w>": 2339,
    "ki": 2340,
    "ki</w>": 2341,
    "kid": 2342,
    "kid</w>": 2343,
    "kidding</w>": 2344,
    "kids</w>": 2345,
    "kie</w>": 2346,
    "kies</w>": 2347,
    "kill": 2348,
    "kill</w>": 2349,
    "killed</w>": 2350,
    "killer</w>": 2351,
    "killers</w>": 2352,
    "killing</w>": 2353,
    "kin": 2354,
    "kin</w>": 2355,
    "kind</w>": 2356,
    "kinda</w>": 2357,
    "kinds</w>": 2358,
    "king": 2359,
    "king</w>": 2360,
    "kins</w>": 2361,
    "kis": 2362,
    "kiss</w>": 2363,
    "kit": 2364,
    "kitchen</w>": 2365,
    "kitt": 2366,
    "kitten</w>": 2367,
    "kittens</w>": 2368,
    "kitty</w>": 2369,
    "kiw": 2370,
    "kn": 2371,
    "knew</w>": 2372,
    "kni": 2373,
    "knife</w>": 2374,
    "kno": 2375,
    "knock</w>": 2376,
    "know</w>": 2377,
    "knowing</w>": 2378,
    "known</w>": 2379,
    "knows</w>": 2380,
    "kore": 2381,
    "ks</w>": 2382,
    "ku": 2383,
    "kward</w>": 2384,
    "ky</w>": 2385,
    "l": 2386,
    "l4": 2387,
    "l</w>": 2388,
    "la": 2389,
    "la</w>": 2390,
    "lab": 2391,
    "labor</w>": 2392,
    "lad": 2393,
    "ladies</w>": 2394,
    "lady</w>": 2395,
    "laid</w>": 2396,
    "lake</w>": 2397,
    "lam": 2398,
    "lame</w>": 2399,
    "lamination</w>": 2400,
    "lan": 2401,
    "land</w>": 2402,
    "lands</w>": 2403,
    "language</w>": 2404,
    "languages</w>": 2405,
    "lap</w>": 2406,
    "laptop</w>": 2407,
    "lar": 2408,
    "lar</w>": 2409,
    "large</w>": 2410,
    "larly</w>": 2411,
    "las": 2412,
    "las</w>": 2413,
    "last</w>": 2414,
    "lat": 2415,
    "late</w>": 2416,
    "lately</w>": 2417,
    "later</w>": 2418,
    "latin</w>": 2419,
    "lau": 2420,
    "laugh": 2421,
    "laugh</w>": 2422,
    "laughing</w>": 2423,
    "law": 2424,
    "law</w>": 2425,
    "lazy</w>": 2426,
    "lbs</w>": 2427,
    "ld</w>": 2428,
    "le": 2429,
    "le</w>": 2430,
    "lea": 2431,
    "league</w>": 2432,
    "leaning</w>": 2433,
    "lear": 2434,
    "learn</w>": 2435,
    "learned</w>": 2436,
    "learning</w>": 2437,
    "least</w>": 2438,
    "leave</w>": 2439,
    "leaves</w>": 2440,
    "leaving</w>": 2441,
    "lec": 2442,
    "led</w>": 2443,
    "left</w>": 2444,
    "leg": 2445,
    "legal</w>": 2446,
    "legit</w>": 2447,
    "legs</w>": 2448,
    "lemon": 2449,
    "lemon</w>": 2450,
    "len": 2451,
    "ler</w>": 2452,
    "les": 2453,
    "les</w>": 2454,
    "lesbian</w>": 2455,
    "less": 2456,
    "less</w>": 2457,
    "lest</w>": 2458,
    "let</w>": 2459,
    "lets</w>": 2460,
    "lev": 2461,
    "level</w>": 2462,
    "ley</w>": 2463,
    "li": 2464,
    "lic": 2465,
    "lic</w>": 2466,
    "lie": 2467,
    "lie</w>": 2468,
    "lied</w>": 2469,
    "lier</w>": 2470,
    "lies</w>": 2471,
    "lieutenant</w>": 2472,
    "life</w>": 2473,
    "lifting</w>": 2474,
    "ligh": 2475,
    "light</w>": 2476,
    "lightly</w>": 2477,
    "lightning</w>": 2478,
    "like</w>": 2479,
    "liked</w>": 2480,
    "likely</w>": 2481,
    "likes</w>": 2482,
    "lil</w>": 2483,
    "lim": 2484,
    "lime</w>": 2485,
    "limitation</w>": 2486,
    "lin": 2487,
    "lin</w>": 2488,
    "line</w>": 2489,
    "lines</w>": 2490,
    "ling</w>": 2491,
    "linkin</w>": 2492,
    "lion</w>": 2493,
    "liqu": 2494,
    "liquor</w>": 2495,
    "list": 2496,
    "list</w>": 2497,
    "listen": 2498,
    "listen</w>": 2499,
    "listened</w>": 2500,
    "listening</w>": 2501,
    "literal</w>": 2502,
    "literally</w>": 2503,
    "literature</w>": 2504,
    "little</w>": 2505,
    "lity</w>": 2506,
    "live</w>": 2507,
    "lived</w>": 2508,
    "lives</w>": 2509,
    "living</w>": 2510,
    "ll": 2511,
    "ll</w>": 2512,
    "lls</w>": 2513,
    "lly</w>": 2514,
    "lmao</w>": 2515,
    "lo": 2516,
    "lo</w>": 2517,
    "loc": 2518,
    "local</w>": 2519,
    "location</w>": 2520,
    "lock</w>": 2521,
    "locked</w>": 2522,
    "log": 2523,
    "log</w>": 2524,
    "logy</w>": 2525,
    "lol</w>": 2526,
    "lon": 2527,
    "london</w>": 2528,
    "lonely</w>": 2529,
    "long": 2530,
    "long</w>": 2531,
    "longer</w>": 2532,
    "longest</w>": 2533,
    "loo": 2534,
    "look</w>": 2535,
    "looked</w>": 2536,
    "looking</w>": 2537,
    "looks</w>": 2538,
    "lord</w>": 2539,
    "los": 2540,
    "los</w>": 2541,
    "lose</w>": 2542,
    "loser</w>": 2543,
    "loss</w>": 2544,
    "lost</w>": 2545,
    "lot</w>": 2546,
    "lots</w>": 2547,
    "loud</w>": 2548,
    "love</w>": 2549,
    "loved</w>": 2550,
    "lovely</w>": 2551,
    "loves</w>": 2552,
    "loving</w>": 2553,
    "low</w>": 2554,
    "ls</w>": 2555,
    "lsd</w>": 2556,
    "lt</w>": 2557,
    "lts</w>": 2558,
    "lu": 2559,
    "luc": 2560,
    "luck</w>": 2561,
    "luckily</w>": 2562,
    "lucky</w>": 2563,
    "lun": 2564,
    "lunch</w>": 2565,
    "ly": 2566,
    "ly</w>": 2567,
    "lying</w>": 2568,
    "m": 2569,
    "m</w>": 2570,
    "ma": 2571,
    "ma</w>": 2572,
    "mac": 2573,
    "mach": 2574,
    "machine</w>": 2575,
    "mad": 2576,
    "mad</w>": 2577,
    "made</w>": 2578,
    "mag": 2579,
    "magic</w>": 2580,
    "maiden</w>": 2581,
    "mail</w>": 2582,
    "mailed</w>": 2583,
    "main</w>": 2584,
    "mainly</w>": 2585,
    "maj": 2586,
    "major</w>": 2587,
    "make</w>": 2588,
    "makes</w>": 2589,
    "making</w>": 2590,
    "mal": 2591,
    "mal</w>": 2592,
    "male</w>": 2593,
    "males</w>": 2594,
    "man": 2595,
    "man</w>": 2596,
    "managed</w>": 2597,
    "mand": 2598,
    "manga</w>": 2599,
    "manual</w>": 2600,
    "many</w>": 2601,
    "mar": 2602,
    "mar</w>": 2603,
    "marath": 2604,
    "march</w>": 2605,
    "marching</w>": 2606,
    "margare": 2607,
    "mark</w>": 2608,
    "marriage</w>": 2609,
    "married</w>": 2610,
    "marry</w>": 2611,
    "mart</w>": 2612,
    "marvel</w>": 2613,
    "mary</w>": 2614,
    "mas": 2615,
    "mas</w>": 2616,
    "mask</w>": 2617,
    "mass": 2618,
    "mass</w>": 2619,
    "massachusetts</w>": 2620,
    "massive</w>": 2621,
    "master</w>": 2622,
    "mastur": 2623,
    "mat": 2624,
    "mate</w>": 2625,
    "mater": 2626,
    "mates</w>": 2627,
    "math</w>": 2628,
    "mathemat": 2629,
    "maths</w>": 2630,
    "matt</w>": 2631,
    "matter</w>": 2632,
    "may": 2633,
    "may</w>": 2634,
    "maybe</w>": 2635,
    "mb": 2636,
    "mber</w>": 2637,
    "mbers</w>": 2638,
    "mble": 2639,
    "mbo</w>": 2640,
    "mc": 2641,
    "mcdonald</w>": 2642,
    "me": 2643,
    "me</w>": 2644,
    "meal</w>": 2645,
    "mean</w>": 2646,
    "meaning</w>": 2647,
    "means</w>": 2648,
    "meant</w>": 2649,
    "meat</w>": 2650,
    "med</w>": 2651,
    "medi": 2652,
    "media</w>": 2653,
    "mee": 2654,
    "meet</w>": 2655,
    "meeting</w>": 2656,
    "meh</w>": 2657,
    "mel": 2658,
    "mem": 2659,
    "member</w>": 2660,
    "meme</w>": 2661,
    "memes</w>": 2662,
    "memor": 2663,
    "memorable</w>": 2664,
    "memories</w>": 2665,
    "memory</w>": 2666,
    "men": 2667,
    "men</w>": 2668,
    "ment</w>": 2669,
    "mental</w>": 2670,
    "mentally</w>": 2671,
    "mentary</w>": 2672,
    "mention</w>": 2673,
    "mentioned</w>": 2674,
    "ments</w>": 2675,
    "meow</w>": 2676,
    "mer": 2677,
    "mes": 2678,
    "mes</w>": 2679,
    "mess": 2680,
    "mess</w>": 2681,
    "message</w>": 2682,
    "met</w>": 2683,
    "metal": 2684,
    "metal</w>": 2685,
    "meth": 2686,
    "metho": 2687,
    "method</w>": 2688,
    "mex": 2689,
    "mexico</w>": 2690,
    "mi": 2691,
    "mi</w>": 2692,
    "mic": 2693,
    "mid": 2694,
    "mid</w>": 2695,
    "middle</w>": 2696,
    "midnight</w>": 2697,
    "midwest</w>": 2698,
    "might</w>": 2699,
    "mil": 2700,
    "mili": 2701,
    "military</w>": 2702,
    "milk</w>": 2703,
    "mill</w>": 2704,
    "millen": 2705,
    "millenni": 2706,
    "millennial</w>": 2707,
    "million</w>": 2708,
    "min": 2709,
    "mind</w>": 2710,
    "mine</w>": 2711,
    "minecraft</w>": 2712,
    "ming</w>": 2713,
    "mini": 2714,
    "mini</w>": 2715,
    "mints</w>": 2716,
    "minu": 2717,
    "minus</w>": 2718,
    "minute</w>": 2719,
    "minutes</w>": 2720,
    "mir": 2721,
    "mirror</w>": 2722,
    "mis": 2723,
    "miss</w>": 2724,
    "missed</w>": 2725,
    "mist": 2726,
    "mistake</w>": 2727,
    "mit": 2728,
    "mit</w>": 2729,
    "mite</w>": 2730,
    "mix</w>": 2731,
    "mixed</w>": 2732,
    "mm": 2733,
    "mm</w>": 2734,
    "mma</w>": 2735,
    "mme</w>": 2736,
    "mmies</w>": 2737,
    "mming</w>": 2738,
    "mmm</w>": 2739,
    "mmmm</w>": 2740,
    "mmy</w>": 2741,
    "mo": 2742,
    "mo</w>": 2743,
    "mobile</w>": 2744,
    "model</w>": 2745,
    "moder": 2746,
    "mom": 2747,
    "mom</w>": 2748,
    "moment</w>": 2749,
    "moments</w>": 2750,
    "mon": 2751,
    "mon</w>": 2752,
    "monday</w>": 2753,
    "money</w>": 2754,
    "monkey</w>": 2755,
    "monkeys</w>": 2756,
    "monster</w>": 2757,
    "month</w>": 2758,
    "months</w>": 2759,
    "mood</w>": 2760,
    "moon": 2761,
    "moon</w>": 2762,
    "moonbase</w>": 2763,
    "mor": 2764,
    "more</w>": 2765,
    "morning</w>": 2766,
    "morty</w>": 2767,
    "most</w>": 2768,
    "mostly</w>": 2769,
    "mother</w>": 2770,
    "motion</w>": 2771,
    "motor": 2772,
    "moun": 2773,
    "mountain</w>": 2774,
    "mouse</w>": 2775,
    "mouth</w>": 2776,
    "move</w>": 2777,
    "moved</w>": 2778,
    "movi": 2779,
    "movie</w>": 2780,
    "movies</w>": 2781,
    "moving</w>": 2782,
    "mp": 2783,
    "mp</w>": 2784,
    "mph</w>": 2785,
    "mple</w>": 2786,
    "mps</w>": 2787,
    "mr</w>": 2788,
    "ms</w>": 2789,
    "mu": 2790,
    "muc": 2791,
    "much</w>": 2792,
    "mug</w>": 2793,
    "mul": 2794,
    "multi": 2795,
    "multiple</w>": 2796,
    "mur": 2797,
    "murakami</w>": 2798,
    "mus": 2799,
    "music": 2800,
    "music</w>": 2801,
    "musical</w>": 2802,
    "must</w>": 2803,
    "my": 2804,
    "my</w>": 2805,
    "myself</w>": 2806,
    "n": 2807,
    "n</w>": 2808,
    "na": 2809,
    "na</w>": 2810,
    "nah</w>": 2811,
    "nail</w>": 2812,
    "nails</w>": 2813,
    "naked</w>": 2814,
    "nam": 2815,
    "name</w>": 2816,
    "named</w>": 2817,
    "names</w>": 2818,
    "nana</w>": 2819,
    "nap</w>": 2820,
    "nas": 2821,
    "natur": 2822,
    "natural</w>": 2823,
    "naughty</w>": 2824,
    "navy</w>": 2825,
    "nd</w>": 2826,
    "ne": 2827,
    "ne</w>": 2828,
    "near": 2829,
    "near</w>": 2830,
    "neat</w>": 2831,
    "nec": 2832,
    "necess": 2833,
    "necessary</w>": 2834,
    "neck</w>": 2835,
    "ned</w>": 2836,
    "nee": 2837,
    "nee</w>": 2838,
    "need</w>": 2839,
    "needed</w>": 2840,
    "needs</w>": 2841,
    "neighb": 2842,
    "neighbor": 2843,
    "neither</w>": 2844,
    "nel</w>": 2845,
    "ner": 2846,
    "ner</w>": 2847,
    "nerd</w>": 2848,
    "nervous</w>": 2849,
    "ness</w>": 2850,
    "net": 2851,
    "netflix</w>": 2852,
    "netherlands</w>": 2853,
    "neu": 2854,
    "neutral</w>": 2855,
    "never</w>": 2856,
    "new": 2857,
    "new</w>": 2858,
    "newest</w>": 2859,
    "news</w>": 2860,
    "next</w>": 2861,
    "ney</w>": 2862,
    "ni": 2863,
    "nia</w>": 2864,
    "nic": 2865,
    "nice</w>": 2866,
    "nicest</w>": 2867,
    "nick": 2868,
    "nific": 2869,
    "nigh": 2870,
    "night": 2871,
    "night</w>": 2872,
    "nights</w>": 2873,
    "nine</w>": 2874,
    "ning</w>": 2875,
    "nit": 2876,
    "nn": 2877,
    "no": 2878,
    "no</w>": 2879,
    "nobody</w>": 2880,
    "noise</w>": 2881,
    "non</w>": 2882,
    "none</w>": 2883,
    "nooo</w>": 2884,
    "nope</w>": 2885,
    "nor": 2886,
    "nor</w>": 2887,
    "normal</w>": 2888,
    "normally</w>": 2889,
    "north</w>": 2890,
    "not</w>": 2891,
    "note</w>": 2892,
    "notebook</w>": 2893,
    "nothing</w>": 2894,
    "notic": 2895,
    "notice</w>": 2896,
    "noticed</w>": 2897,
    "notific": 2898,
    "notification</w>": 2899,
    "november</w>": 2900,
    "now": 2901,
    "now</w>": 2902,
    "nowhere</w>": 2903,
    "ns</w>": 2904,
    "nt</w>": 2905,
    "nu": 2906,
    "number</w>": 2907,
    "numbers</w>": 2908,
    "ny</w>": 2909,
    "nz</w>": 2910,
    "o": 2911,
    "o</w>": 2912,
    "ob": 2913,
    "obama</w>": 2914,
    "object</w>": 2915,
    "obs": 2916,
    "obsessed</w>": 2917,
    "obvi": 2918,
    "obviously</w>": 2919,
    "oc": 2920,
    "occas": 2921,
    "oce": 2922,
    "october</w>": 2923,
    "od": 2924,
    "od</w>": 2925,
    "odd</w>": 2926,
    "oes</w>": 2927,
    "of": 2928,
    "of</w>": 2929,
    "off": 2930,
    "off</w>": 2931,
    "offic": 2932,
    "office</w>": 2933,
    "officer</w>": 2934,
    "often</w>": 2935,
    "oh</w>": 2936,
    "ohhh</w>": 2937,
    "ohio</w>": 2938,
    "ok": 2939,
    "ok</w>": 2940,
    "okay</w>": 2941,
    "ol": 2942,
    "ol</w>": 2943,
    "old</w>": 2944,
    "older</w>": 2945,
    "om": 2946,
    "ome": 2947,
    "omg</w>": 2948,
    "omy</w>": 2949,
    "on": 2950,
    "on</w>": 2951,
    "ona</w>": 2952,
    "once</w>": 2953,
    "ond</w>": 2954,
    "one</w>": 2955,
    "oned</w>": 2956,
    "ones</w>": 2957,
    "ong</w>": 2958,
    "oni": 2959,
    "onics</w>": 2960,
    "oning</w>": 2961,
    "online</w>": 2962,
    "only</w>": 2963,
    "ons</w>": 2964,
    "onto</w>": 2965,
    "oo": 2966,
    "oo</w>": 2967,
    "ood</w>": 2968,
    "ooh</w>": 2969,
    "ook": 2970,
    "ool</w>": 2971,
    "oom</w>": 2972,
    "oon</w>": 2973,
    "ooo</w>": 2974,
    "oooh</w>": 2975,
    "oooo": 2976,
    "oooo</w>": 2977,
    "ooooo</w>": 2978,
    "oop</w>": 2979,
    "oops</w>": 2980,
    "oot</w>": 2981,
    "op": 2982,
    "op</w>": 2983,
    "ope</w>": 2984,
    "open": 2985,
    "open</w>": 2986,
    "opens</w>": 2987,
    "oper": 2988,
    "opin": 2989,
    "opinion</w>": 2990,
    "opinions</w>": 2991,
    "opp": 2992,
    "opportun": 2993,
    "opportunity</w>": 2994,
    "oppos": 2995,
    "opposite</w>": 2996,
    "ops</w>": 2997,
    "option</w>": 2998,
    "or": 2999,
    "or</w>": 3000,
    "oran": 3001,
    "orange</w>": 3002,
    "orch": 3003,
    "orchest": 3004,
    "ord</w>": 3005,
    "order</w>": 3006,
    "ordered</w>": 3007,
    "ore": 3008,
    "ore</w>": 3009,
    "org": 3010,
    "organ": 3011,
    "ori": 3012,
    "origin": 3013,
    "original</w>": 3014,
    "orist</w>": 3015,
    "ority</w>": 3016,
    "orn</w>": 3017,
    "orr": 3018,
    "orrow</w>": 3019,
    "ors</w>": 3020,
    "ort</w>": 3021,
    "ory</w>": 3022,
    "os": 3023,
    "os</w>": 3024,
    "ot</w>": 3025,
    "other</w>": 3026,
    "others</w>": 3027,
    "otherwise</w>": 3028,
    "otic</w>": 3029,
    "ots</w>": 3030,
    "ou": 3031,
    "ouch</w>": 3032,
    "oud</w>": 3033,
    "ough</w>": 3034,
    "ought</w>": 3035,
    "oul": 3036,
    "oul</w>": 3037,
    "ould</w>": 3038,
    "oun": 3039,
    "ound</w>": 3040,
    "ounded</w>": 3041,
    "our": 3042,
    "our</w>": 3043,
    "oured</w>": 3044,
    "ours</w>": 3045,
    "ourselves</w>": 3046,
    "ous": 3047,
    "ous</w>": 3048,
    "ously</w>": 3049,
    "out": 3050,
    "out</w>": 3051,
    "outlet</w>": 3052,
    "outs</w>": 3053,
    "outside</w>": 3054,
    "ove</w>": 3055,
    "over": 3056,
    "over</w>": 3057,
    "overall</w>": 3058,
    "overwhel": 3059,
    "ow": 3060,
    "ow</w>": 3061,
    "owed</w>": 3062,
    "ower</w>": 3063,
    "owing</w>": 3064,
    "owl</w>": 3065,
    "own": 3066,
    "own</w>": 3067,
    "owned</w>": 3068,
    "ows</w>": 3069,
    "p": 3070,
    "p</w>": 3071,
    "pa": 3072,
    "pa</w>": 3073,
    "pack": 3074,
    "pack</w>": 3075,
    "page</w>": 3076,
    "paging</w>": 3077,
    "pain": 3078,
    "pain</w>": 3079,
    "paint</w>": 3080,
    "painting</w>": 3081,
    "pair</w>": 3082,
    "pajamas</w>": 3083,
    "pal</w>": 3084,
    "pan": 3085,
    "pancakes</w>": 3086,
    "panda</w>": 3087,
    "panic</w>": 3088,
    "pants</w>": 3089,
    "paper</w>": 3090,
    "par": 3091,
    "paranoid</w>": 3092,
    "paren": 3093,
    "parents</w>": 3094,
    "park</w>": 3095,
    "parking</w>": 3096,
    "parrot</w>": 3097,
    "part": 3098,
    "part</w>": 3099,
    "partic": 3100,
    "particu": 3101,
    "particular</w>": 3102,
    "partner</w>": 3103,
    "party</w>": 3104,
    "pas": 3105,
    "pass</w>": 3106,
    "passi": 3107,
    "passion": 3108,
    "passion</w>": 3109,
    "past": 3110,
    "past</w>": 3111,
    "pasta</w>": 3112,
    "pathetic</w>": 3113,
    "pay</w>": 3114,
    "paying</w>": 3115,
    "pays</w>": 3116,
    "pc</w>": 3117,
    "pe": 3118,
    "pe</w>": 3119,
    "pea": 3120,
    "peace</w>": 3121,
    "peanut</w>": 3122,
    "peanuts</w>": 3123,
    "peas</w>": 3124,
    "pen": 3125,
    "pengu": 3126,
    "penis</w>": 3127,
    "peo": 3128,
    "people</w>": 3129,
    "pepp": 3130,
    "pepper": 3131,
    "pepper</w>": 3132,
    "peppermints</w>": 3133,
    "pepsi</w>": 3134,
    "per": 3135,
    "per</w>": 3136,
    "perf": 3137,
    "perfec": 3138,
    "perfect</w>": 3139,
    "perfectly</w>": 3140,
    "perfor": 3141,
    "person": 3142,
    "person</w>": 3143,
    "personal</w>": 3144,
    "personality</w>": 3145,
    "personally</w>": 3146,
    "persons</w>": 3147,
    "pet": 3148,
    "pet</w>": 3149,
    "pets</w>": 3150,
    "ph": 3151,
    "pha": 3152,
    "phi": 3153,
    "philosop": 3154,
    "philosoph": 3155,
    "pho": 3156,
    "phone</w>": 3157,
    "phones</w>": 3158,
    "photos</w>": 3159,
    "phr": 3160,
    "phrase</w>": 3161,
    "phys": 3162,
    "physical</w>": 3163,
    "pi": 3164,
    "piano</w>": 3165,
    "pic": 3166,
    "pick": 3167,
    "pick</w>": 3168,
    "pickle</w>": 3169,
    "pickles</w>": 3170,
    "picture</w>": 3171,
    "pictures</w>": 3172,
    "pid</w>": 3173,
    "pie</w>": 3174,
    "piece</w>": 3175,
    "pieces</w>": 3176,
    "piercings</w>": 3177,
    "pills</w>": 3178,
    "pin": 3179,
    "pinea": 3180,
    "pineapple</w>": 3181,
    "ping</w>": 3182,
    "pink</w>": 3183,
    "pis": 3184,
    "pit": 3185,
    "pizz": 3186,
    "pizza</w>": 3187,
    "pl": 3188,
    "pla": 3189,
    "place</w>": 3190,
    "places</w>": 3191,
    "plain</w>": 3192,
    "plan": 3193,
    "plan</w>": 3194,
    "plane</w>": 3195,
    "planet</w>": 3196,
    "planned</w>": 3197,
    "planning</w>": 3198,
    "plans</w>": 3199,
    "plants</w>": 3200,
    "plastic</w>": 3201,
    "plate</w>": 3202,
    "play": 3203,
    "play</w>": 3204,
    "played</w>": 3205,
    "player</w>": 3206,
    "playing</w>": 3207,
    "plays</w>": 3208,
    "ple</w>": 3209,
    "pleas": 3210,
    "pleasant</w>": 3211,
    "please</w>": 3212,
    "pleasure</w>": 3213,
    "plenty</w>": 3214,
    "ples</w>": 3215,
    "plo": 3216,
    "plot</w>": 3217,
    "pls</w>": 3218,
    "plus</w>": 3219,
    "pm</w>": 3220,
    "po": 3221,
    "poc": 3222,
    "poe": 3223,
    "poems</w>": 3224,
    "poetry</w>": 3225,
    "poin": 3226,
    "point</w>": 3227,
    "points</w>": 3228,
    "pointy</w>": 3229,
    "poke": 3230,
    "pokemon</w>": 3231,
    "poland</w>": 3232,
    "poli": 3233,
    "political</w>": 3234,
    "politics</w>": 3235,
    "poo": 3236,
    "pool</w>": 3237,
    "poor</w>": 3238,
    "pop": 3239,
    "pop</w>": 3240,
    "popcorn</w>": 3241,
    "popu": 3242,
    "popular</w>": 3243,
    "por": 3244,
    "pork</w>": 3245,
    "porn</w>": 3246,
    "portu": 3247,
    "pos": 3248,
    "posi": 3249,
    "position</w>": 3250,
    "positive</w>": 3251,
    "possible</w>": 3252,
    "possibly</w>": 3253,
    "post": 3254,
    "post</w>": 3255,
    "posted</w>": 3256,
    "posting</w>": 3257,
    "posts</w>": 3258,
    "potato</w>": 3259,
    "potter</w>": 3260,
    "pow": 3261,
    "power</w>": 3262,
    "powers</w>": 3263,
    "pp": 3264,
    "pped</w>": 3265,
    "pping</w>": 3266,
    "pple</w>": 3267,
    "pr": 3268,
    "pr</w>": 3269,
    "prac": 3270,
    "practice</w>": 3271,
    "pre": 3272,
    "predic": 3273,
    "predictive</w>": 3274,
    "prefer</w>": 3275,
    "prepa": 3276,
    "prepare</w>": 3277,
    "pres": 3278,
    "present</w>": 3279,
    "press</w>": 3280,
    "pretty</w>": 3281,
    "pri": 3282,
    "prin": 3283,
    "princess</w>": 3284,
    "pringles</w>": 3285,
    "priv": 3286,
    "private</w>": 3287,
    "pro": 3288,
    "pro</w>": 3289,
    "probably</w>": 3290,
    "proble": 3291,
    "problem</w>": 3292,
    "problems</w>": 3293,
    "procra": 3294,
    "procrastin": 3295,
    "produc": 3296,
    "prof": 3297,
    "profile</w>": 3298,
    "project</w>": 3299,
    "prom": 3300,
    "promise</w>": 3301,
    "promote</w>": 3302,
    "pron": 3303,
    "pronoun": 3304,
    "proo": 3305,
    "proper</w>": 3306,
    "prote": 3307,
    "proud</w>": 3308,
    "prove</w>": 3309,
    "ps": 3310,
    "ps4</w>": 3311,
    "ps</w>": 3312,
    "pse</w>": 3313,
    "psy": 3314,
    "psych": 3315,
    "pt</w>": 3316,
    "pu": 3317,
    "pub": 3318,
    "public</w>": 3319,
    "puff</w>": 3320,
    "puke</w>": 3321,
    "pull": 3322,
    "pulled</w>": 3323,
    "pump": 3324,
    "pumped</w>": 3325,
    "pumpkins</w>": 3326,
    "pupp": 3327,
    "puppies</w>": 3328,
    "puppy</w>": 3329,
    "pur": 3330,
    "purcha": 3331,
    "purchase</w>": 3332,
    "pure</w>": 3333,
    "purpo": 3334,
    "purpose</w>": 3335,
    "put</w>": 3336,
    "putting</w>": 3337,
    "py": 3338,
    "py</w>": 3339,
    "q": 3340,
    "q</w>": 3341,
    "qu": 3342,
    "quali": 3343,
    "quality</w>": 3344,
    "que</w>": 3345,
    "queen</w>": 3346,
    "quest": 3347,
    "question</w>": 3348,
    "questions</w>": 3349,
    "qui": 3350,
    "quick": 3351,
    "quick</w>": 3352,
    "quickly</w>": 3353,
    "quit</w>": 3354,
    "quite</w>": 3355,
    "quo": 3356,
    "quote</w>": 3357,
    "quoted</w>": 3358,
    "quotes</w>": 3359,
    "r": 3360,
    "r/": 3361,
    "r/casual": 3362,
    "r/casualconversation</w>": 3363,
    "r</w>": 3364,
    "ra": 3365,
    "ra</w>": 3366,
    "rac": 3367,
    "rad": 3368,
    "radi": 3369,
    "radio</w>": 3370,
    "raft</w>": 3371,
    "rain</w>": 3372,
    "rainb": 3373,
    "rainbow</w>": 3374,
    "raining</w>": 3375,
    "rains</w>": 3376,
    "rais": 3377,
    "raise</w>": 3378,
    "rak": 3379,
    "ram": 3380,
    "ran": 3381,
    "ranch</w>": 3382,
    "random": 3383,
    "random</w>": 3384,
    "randomly</w>": 3385,
    "range</w>": 3386,
    "rant</w>": 3387,
    "rap</w>": 3388,
    "rare</w>": 3389,
    "rarely</w>": 3390,
    "rat": 3391,
    "rather</w>": 3392,
    "raw</w>": 3393,
    "raz": 3394,
    "re": 3395,
    "re</w>": 3396,
    "read": 3397,
    "read</w>": 3398,
    "reading</w>": 3399,
    "reads</w>": 3400,
    "ready</w>": 3401,
    "real": 3402,
    "real</w>": 3403,
    "reali": 3404,
    "realise</w>": 3405,
    "reality</w>": 3406,
    "realize</w>": 3407,
    "realized</w>": 3408,
    "really</w>": 3409,
    "reas": 3410,
    "reason": 3411,
    "reason</w>": 3412,
    "rec": 3413,
    "recently</w>": 3414,
    "reception": 3415,
    "receptionist</w>": 3416,
    "reci": 3417,
    "recomm": 3418,
    "recommend": 3419,
    "recommend</w>": 3420,
    "recommendations</w>": 3421,
    "recre": 3422,
    "recreational</w>": 3423,
    "red": 3424,
    "red</w>": 3425,
    "redd": 3426,
    "reddit": 3427,
    "reddit</w>": 3428,
    "redditor</w>": 3429,
    "redditors</w>": 3430,
    "reddits</w>": 3431,
    "ree</w>": 3432,
    "ref": 3433,
    "refer": 3434,
    "reference</w>": 3435,
    "referred</w>": 3436,
    "regar": 3437,
    "regardless</w>": 3438,
    "region</w>": 3439,
    "regre": 3440,
    "regret</w>": 3441,
    "regu": 3442,
    "regular</w>": 3443,
    "rejec": 3444,
    "rejected</w>": 3445,
    "rel": 3446,
    "rela": 3447,
    "relat": 3448,
    "relate</w>": 3449,
    "related</w>": 3450,
    "relationship</w>": 3451,
    "relationships</w>": 3452,
    "relax</w>": 3453,
    "relaxing</w>": 3454,
    "rele": 3455,
    "released</w>": 3456,
    "relevant</w>": 3457,
    "reli": 3458,
    "religion</w>": 3459,
    "rely</w>": 3460,
    "reme": 3461,
    "remember</w>": 3462,
    "remin": 3463,
    "remind</w>": 3464,
    "remindme</w>": 3465,
    "removed</w>": 3466,
    "ren": 3467,
    "rence</w>": 3468,
    "rences</w>": 3469,
    "rent</w>": 3470,
    "rently</w>": 3471,
    "rep": 3472,
    "repe": 3473,
    "repl": 3474,
    "replied</w>": 3475,
    "reply</w>": 3476,
    "republic</w>": 3477,
    "requ": 3478,
    "requi": 3479,
    "require</w>": 3480,
    "requirements</w>": 3481,
    "res</w>": 3482,
    "resp": 3483,
    "respon": 3484,
    "respond</w>": 3485,
    "responding</w>": 3486,
    "response</w>": 3487,
    "rest": 3488,
    "rest</w>": 3489,
    "restau": 3490,
    "restaurant</w>": 3491,
    "resu": 3492,
    "result</w>": 3493,
    "results</w>": 3494,
    "retail</w>": 3495,
    "return</w>": 3496,
    "reverse</w>": 3497,
    "ri": 3498,
    "ric": 3499,
    "rice</w>": 3500,
    "rick</w>": 3501,
    "ridd": 3502,
    "riddles</w>": 3503,
    "ride</w>": 3504,
    "ries</w>": 3505,
    "right</w>": 3506,
    "ring</w>": 3507,
    "rip</w>": 3508,
    "rite</w>": 3509,
    "rity</w>": 3510,
    "river</w>": 3511,
    "rn</w>": 3512,
    "ro": 3513,
    "roach</w>": 3514,
    "road</w>": 3515,
    "roc": 3516,
    "rock</w>": 3517,
    "rocks</w>": 3518,
    "role</w>": 3519,
    "roll</w>": 3520,
    "roman": 3521,
    "romantic</w>": 3522,
    "rong</w>": 3523,
    "roo": 3524,
    "roof</w>": 3525,
    "room</w>": 3526,
    "rooms</w>": 3527,
    "ror</w>": 3528,
    "roses</w>": 3529,
    "ross</w>": 3530,
    "rot</w>": 3531,
    "rough</w>": 3532,
    "round</w>": 3533,
    "rr": 3534,
    "rs</w>": 3535,
    "ru": 3536,
    "ru</w>": 3537,
    "rude</w>": 3538,
    "rule</w>": 3539,
    "rules</w>": 3540,
    "rum</w>": 3541,
    "run": 3542,
    "run</w>": 3543,
    "running</w>": 3544,
    "rus": 3545,
    "russi": 3546,
    "russian</w>": 3547,
    "ry": 3548,
    "ry/": 3549,
    "ry</w>": 3550,
    "rying</w>": 3551,
    "s": 3552,
    "s/": 3553,
    "s</w>": 3554,
    "sa": 3555,
    "sa</w>": 3556,
    "sad": 3557,
    "sad</w>": 3558,
    "sadly</w>": 3559,
    "safe</w>": 3560,
    "said</w>": 3561,
    "sal": 3562,
    "salad</w>": 3563,
    "salty</w>": 3564,
    "sam": 3565,
    "same</w>": 3566,
    "san": 3567,
    "sand": 3568,
    "sandwich</w>": 3569,
    "sandwiches</w>": 3570,
    "sar": 3571,
    "sarca": 3572,
    "sarcastic</w>": 3573,
    "sat": 3574,
    "sat</w>": 3575,
    "satis": 3576,
    "satisfied</w>": 3577,
    "satur": 3578,
    "saturday</w>": 3579,
    "sau": 3580,
    "sauce</w>": 3581,
    "saul</w>": 3582,
    "save</w>": 3583,
    "saved</w>": 3584,
    "saving</w>": 3585,
    "saw</w>": 3586,
    "say</w>": 3587,
    "saying</w>": 3588,
    "says</w>": 3589,
    "sc": 3590,
    "sca": 3591,
    "scand": 3592,
    "scared</w>": 3593,
    "scary</w>": 3594,
    "scen": 3595,
    "sch": 3596,
    "sche": 3597,
    "schoo": 3598,
    "school</w>": 3599,
    "sci": 3600,
    "sci</w>": 3601,
    "science</w>": 3602,
    "scienti": 3603,
    "sco": 3604,
    "score</w>": 3605,
    "scot": 3606,
    "scrat": 3607,
    "scre": 3608,
    "screen": 3609,
    "screenshot</w>": 3610,
    "screw": 3611,
    "screwed</w>": 3612,
    "scri": 3613,
    "scru": 3614,
    "scrubs</w>": 3615,
    "se": 3616,
    "se</w>": 3617,
    "sear": 3618,
    "search</w>": 3619,
    "seas": 3620,
    "season</w>": 3621,
    "seasons</w>": 3622,
    "sec": 3623,
    "secon": 3624,
    "second</w>": 3625,
    "seconds</w>": 3626,
    "secre": 3627,
    "secrets</w>": 3628,
    "sed</w>": 3629,
    "see": 3630,
    "see</w>": 3631,
    "seeing</w>": 3632,
    "seeking</w>": 3633,
    "seem</w>": 3634,
    "seemed</w>": 3635,
    "seems</w>": 3636,
    "seen</w>": 3637,
    "sel": 3638,
    "self</w>": 3639,
    "sell</w>": 3640,
    "selling</w>": 3641,
    "sely</w>": 3642,
    "sen": 3643,
    "send</w>": 3644,
    "sense</w>": 3645,
    "sensi": 3646,
    "sent</w>": 3647,
    "sentence</w>": 3648,
    "sep": 3649,
    "september</w>": 3650,
    "sequ": 3651,
    "ser": 3652,
    "ser</w>": 3653,
    "seri": 3654,
    "series</w>": 3655,
    "serious</w>": 3656,
    "seriously</w>": 3657,
    "sert</w>": 3658,
    "service</w>": 3659,
    "ses</w>": 3660,
    "set</w>": 3661,
    "setting</w>": 3662,
    "several</w>": 3663,
    "sex</w>": 3664,
    "sexy</w>": 3665,
    "sh": 3666,
    "sh</w>": 3667,
    "sha": 3668,
    "shake</w>": 3669,
    "shall</w>": 3670,
    "shame</w>": 3671,
    "shar": 3672,
    "share</w>": 3673,
    "sharing</w>": 3674,
    "shark</w>": 3675,
    "she": 3676,
    "she</w>": 3677,
    "shed</w>": 3678,
    "sherlock</w>": 3679,
    "shes</w>": 3680,
    "shi": 3681,
    "shi</w>": 3682,
    "shift</w>": 3683,
    "shing</w>": 3684,
    "ship</w>": 3685,
    "shir": 3686,
    "shirt</w>": 3687,
    "shit": 3688,
    "shit</w>": 3689,
    "shits</w>": 3690,
    "shitting</w>": 3691,
    "shitty</w>": 3692,
    "shman</w>": 3693,
    "sho": 3694,
    "shoes</w>": 3695,
    "shoo": 3696,
    "shoot</w>": 3697,
    "shooting</w>": 3698,
    "shop</w>": 3699,
    "shopping</w>": 3700,
    "shor": 3701,
    "short</w>": 3702,
    "shot</w>": 3703,
    "should</w>": 3704,
    "shouldn</w>": 3705,
    "show</w>": 3706,
    "shower</w>": 3707,
    "shows</w>": 3708,
    "shrooms</w>": 3709,
    "shru": 3710,
    "shy</w>": 3711,
    "si": 3712,
    "sic": 3713,
    "sick</w>": 3714,
    "sid": 3715,
    "side": 3716,
    "side</w>": 3717,
    "sides</w>": 3718,
    "sig": 3719,
    "sign</w>": 3720,
    "signific": 3721,
    "sil": 3722,
    "silent</w>": 3723,
    "silicon</w>": 3724,
    "silly</w>": 3725,
    "simil": 3726,
    "similar</w>": 3727,
    "simp": 3728,
    "simple</w>": 3729,
    "sims</w>": 3730,
    "sin": 3731,
    "sin</w>": 3732,
    "since</w>": 3733,
    "sing</w>": 3734,
    "singer</w>": 3735,
    "single</w>": 3736,
    "singly</w>": 3737,
    "sins</w>": 3738,
    "sion</w>": 3739,
    "sir</w>": 3740,
    "sist": 3741,
    "sister</w>": 3742,
    "sit": 3743,
    "sit</w>": 3744,
    "site</w>": 3745,
    "sitting</w>": 3746,
    "situ": 3747,
    "situation</w>": 3748,
    "sive</w>": 3749,
    "six</w>": 3750,
    "size</w>": 3751,
    "sk": 3752,
    "sketch": 3753,
    "skill</w>": 3754,
    "skin</w>": 3755,
    "sky</w>": 3756,
    "sl": 3757,
    "sle": 3758,
    "slee": 3759,
    "sleep</w>": 3760,
    "sleeping</w>": 3761,
    "sleepy</w>": 3762,
    "sli": 3763,
    "slightly</w>": 3764,
    "slow": 3765,
    "slow</w>": 3766,
    "slowly</w>": 3767,
    "slu": 3768,
    "sm": 3769,
    "sm</w>": 3770,
    "small</w>": 3771,
    "smart</w>": 3772,
    "smash</w>": 3773,
    "smell</w>": 3774,
    "smi": 3775,
    "smile</w>": 3776,
    "smiling</w>": 3777,
    "smiths</w>": 3778,
    "smo": 3779,
    "smoke</w>": 3780,
    "smoking</w>": 3781,
    "smoo": 3782,
    "smooth</w>": 3783,
    "sn": 3784,
    "sn</w>": 3785,
    "sna": 3786,
    "snack</w>": 3787,
    "snail</w>": 3788,
    "snake</w>": 3789,
    "snow": 3790,
    "snow</w>": 3791,
    "so": 3792,
    "so</w>": 3793,
    "soap</w>": 3794,
    "soccer</w>": 3795,
    "soci": 3796,
    "social</w>": 3797,
    "socks</w>": 3798,
    "soda</w>": 3799,
    "sof": 3800,
    "soft</w>": 3801,
    "sol": 3802,
    "soldier</w>": 3803,
    "sole</w>": 3804,
    "soli": 3805,
    "solid</w>": 3806,
    "solo</w>": 3807,
    "solu": 3808,
    "solution</w>": 3809,
    "some": 3810,
    "some</w>": 3811,
    "somebody</w>": 3812,
    "someday</w>": 3813,
    "somehow</w>": 3814,
    "someone</w>": 3815,
    "something</w>": 3816,
    "sometimes</w>": 3817,
    "somewhere</w>": 3818,
    "son": 3819,
    "son</w>": 3820,
    "song</w>": 3821,
    "songs</w>": 3822,
    "soon</w>": 3823,
    "sor": 3824,
    "sorry</w>": 3825,
    "sort</w>": 3826,
    "sou": 3827,
    "soul</w>": 3828,
    "souls</w>": 3829,
    "soun": 3830,
    "sound</w>": 3831,
    "sounds</w>": 3832,
    "soup</w>": 3833,
    "sour": 3834,
    "source</w>": 3835,
    "south</w>": 3836,
    "southern</w>": 3837,
    "sp": 3838,
    "space</w>": 3839,
    "spaghetti</w>": 3840,
    "spanish</w>": 3841,
    "spe": 3842,
    "spea": 3843,
    "speak</w>": 3844,
    "spec": 3845,
    "speci": 3846,
    "special</w>": 3847,
    "species</w>": 3848,
    "specific</w>": 3849,
    "specifically</w>": 3850,
    "speed</w>": 3851,
    "spelling</w>": 3852,
    "spend</w>": 3853,
    "spending</w>": 3854,
    "spent</w>": 3855,
    "spf</w>": 3856,
    "spicy</w>": 3857,
    "spid": 3858,
    "spider</w>": 3859,
    "spiders</w>": 3860,
    "spin": 3861,
    "spinner</w>": 3862,
    "spinning</w>": 3863,
    "spir": 3864,
    "spiri": 3865,
    "spiritualism</w>": 3866,
    "spl": 3867,
    "spo": 3868,
    "spoon</w>": 3869,
    "spor": 3870,
    "sports</w>": 3871,
    "spot</w>": 3872,
    "spotify</w>": 3873,
    "spr": 3874,
    "spre": 3875,
    "spread</w>": 3876,
    "spring</w>": 3877,
    "spy</w>": 3878,
    "squ": 3879,
    "square</w>": 3880,
    "squid</w>": 3881,
    "ss": 3882,
    "ss</w>": 3883,
    "ssed</w>": 3884,
    "sses</w>": 3885,
    "ssful</w>": 3886,
    "ssing</w>": 3887,
    "st": 3888,
    "st</w>": 3889,
    "sta": 3890,
    "sta</w>": 3891,
    "stac": 3892,
    "stage</w>": 3893,
    "stair": 3894,
    "stairway</w>": 3895,
    "stal": 3896,
    "stan": 3897,
    "stand</w>": 3898,
    "standing</w>": 3899,
    "star": 3900,
    "star</w>": 3901,
    "stard</w>": 3902,
    "start</w>": 3903,
    "started</w>": 3904,
    "starting</w>": 3905,
    "starts</w>": 3906,
    "stat": 3907,
    "state</w>": 3908,
    "states</w>": 3909,
    "station</w>": 3910,
    "stay</w>": 3911,
    "staying</w>": 3912,
    "ste": 3913,
    "ste</w>": 3914,
    "steak</w>": 3915,
    "steal</w>": 3916,
    "stealth</w>": 3917,
    "steam</w>": 3918,
    "sted</w>": 3919,
    "steel</w>": 3920,
    "stein</w>": 3921,
    "stem</w>": 3922,
    "step</w>": 3923,
    "ster": 3924,
    "ster</w>": 3925,
    "stere": 3926,
    "stereo": 3927,
    "sters</w>": 3928,
    "steve</w>": 3929,
    "stic</w>": 3930,
    "stick</w>": 3931,
    "sticks</w>": 3932,
    "still</w>": 3933,
    "stin": 3934,
    "sting</w>": 3935,
    "stle</w>": 3936,
    "stly</w>": 3937,
    "sto": 3938,
    "stom": 3939,
    "ston</w>": 3940,
    "stone</w>": 3941,
    "stones</w>": 3942,
    "stop</w>": 3943,
    "stopped</w>": 3944,
    "stopping</w>": 3945,
    "stor": 3946,
    "store</w>": 3947,
    "stores</w>": 3948,
    "stories</w>": 3949,
    "story": 3950,
    "story</w>": 3951,
    "str": 3952,
    "strac": 3953,
    "stract</w>": 3954,
    "straight</w>": 3955,
    "stran": 3956,
    "strange</w>": 3957,
    "stranger</w>": 3958,
    "strangers</w>": 3959,
    "straw": 3960,
    "strawberry</w>": 3961,
    "stre": 3962,
    "stress</w>": 3963,
    "stressful</w>": 3964,
    "stri": 3965,
    "stro": 3966,
    "strong</w>": 3967,
    "stru": 3968,
    "sts</w>": 3969,
    "stu": 3970,
    "stuck</w>": 3971,
    "stud": 3972,
    "student</w>": 3973,
    "students</w>": 3974,
    "studies</w>": 3975,
    "study</w>": 3976,
    "studying</w>": 3977,
    "stuff": 3978,
    "stuff</w>": 3979,
    "stuffed</w>": 3980,
    "stupid</w>": 3981,
    "stur": 3982,
    "sty": 3983,
    "sty</w>": 3984,
    "style</w>": 3985,
    "su": 3986,
    "sub": 3987,
    "sub</w>": 3988,
    "subject</w>": 3989,
    "subjects</w>": 3990,
    "submit</w>": 3991,
    "subreddit</w>": 3992,
    "subreddits</w>": 3993,
    "subs</w>": 3994,
    "suc": 3995,
    "success": 3996,
    "success</w>": 3997,
    "successful</w>": 3998,
    "succulents</w>": 3999,
    "such</w>": 4000,
    "suck</w>": 4001,
    "sucks</w>": 4002,
    "sudd": 4003,
    "suff": 4004,
    "sugar</w>": 4005,
    "suggest": 4006,
    "suggest</w>": 4007,
    "suggestion</w>": 4008,
    "suggestions</w>": 4009,
    "suic": 4010,
    "summ": 4011,
    "summer</w>": 4012,
    "sun": 4013,
    "sun</w>": 4014,
    "sunday</w>": 4015,
    "sunny</w>": 4016,
    "sup</w>": 4017,
    "super": 4018,
    "super</w>": 4019,
    "superhero</w>": 4020,
    "superpower</w>": 4021,
    "supp": 4022,
    "suppo": 4023,
    "suppose</w>": 4024,
    "supposed</w>": 4025,
    "sur": 4026,
    "sure</w>": 4027,
    "surgery</w>": 4028,
    "surpri": 4029,
    "surprise</w>": 4030,
    "surprised</w>": 4031,
    "survi": 4032,
    "survive</w>": 4033,
    "sus</w>": 4034,
    "sushi</w>": 4035,
    "swe": 4036,
    "swear</w>": 4037,
    "sweden</w>": 4038,
    "swee": 4039,
    "sweet</w>": 4040,
    "sweetened</w>": 4041,
    "swi": 4042,
    "swim</w>": 4043,
    "swimming</w>": 4044,
    "sword</w>": 4045,
    "sy": 4046,
    "sy</w>": 4047,
    "system</w>": 4048,
    "t": 4049,
    "t</w>": 4050,
    "ta": 4051,
    "ta</w>": 4052,
    "table</w>": 4053,
    "tac": 4054,
    "tack</w>": 4055,
    "taco</w>": 4056,
    "tacos</w>": 4057,
    "tad</w>": 4058,
    "tag</w>": 4059,
    "tail</w>": 4060,
    "tails</w>": 4061,
    "tain</w>": 4062,
    "take": 4063,
    "take</w>": 4064,
    "taken</w>": 4065,
    "takes</w>": 4066,
    "taking</w>": 4067,
    "tal": 4068,
    "tal</w>": 4069,
    "talent</w>": 4070,
    "talk</w>": 4071,
    "talking</w>": 4072,
    "tall</w>": 4073,
    "tally</w>": 4074,
    "tan": 4075,
    "tar": 4076,
    "target</w>": 4077,
    "tary</w>": 4078,
    "tast": 4079,
    "taste</w>": 4080,
    "tastes</w>": 4081,
    "tat": 4082,
    "tation</w>": 4083,
    "tattoo": 4084,
    "tattoos</w>": 4085,
    "taught</w>": 4086,
    "tb": 4087,
    "tball</w>": 4088,
    "tbh</w>": 4089,
    "tch": 4090,
    "tch</w>": 4091,
    "tched</w>": 4092,
    "te": 4093,
    "te</w>": 4094,
    "tea</w>": 4095,
    "teach</w>": 4096,
    "team</w>": 4097,
    "tebook</w>": 4098,
    "tec": 4099,
    "tech": 4100,
    "tech</w>": 4101,
    "technically</w>": 4102,
    "tective</w>": 4103,
    "ted</w>": 4104,
    "tee": 4105,
    "teen": 4106,
    "teen</w>": 4107,
    "teenager</w>": 4108,
    "teens</w>": 4109,
    "teeth</w>": 4110,
    "tel": 4111,
    "tell": 4112,
    "tell</w>": 4113,
    "telling</w>": 4114,
    "tells</w>": 4115,
    "tely</w>": 4116,
    "tem": 4117,
    "temp": 4118,
    "temper": 4119,
    "ten": 4120,
    "ten</w>": 4121,
    "tend</w>": 4122,
    "tened</w>": 4123,
    "tenn": 4124,
    "tent</w>": 4125,
    "tequila</w>": 4126,
    "ter": 4127,
    "ter</w>": 4128,
    "tered</w>": 4129,
    "term</w>": 4130,
    "tern": 4131,
    "terri": 4132,
    "terrible</w>": 4133,
    "ters</w>": 4134,
    "tes</w>": 4135,
    "test</w>": 4136,
    "tex": 4137,
    "texas</w>": 4138,
    "text</w>": 4139,
    "tf": 4140,
    "tf2</w>": 4141,
    "th": 4142,
    "th</w>": 4143,
    "than": 4144,
    "than</w>": 4145,
    "thank": 4146,
    "thank</w>": 4147,
    "thanks</w>": 4148,
    "thanksgiving</w>": 4149,
    "that</w>": 4150,
    "thats</w>": 4151,
    "the": 4152,
    "the</w>": 4153,
    "their</w>": 4154,
    "them</w>": 4155,
    "theme</w>": 4156,
    "themselves</w>": 4157,
    "then</w>": 4158,
    "theorist</w>": 4159,
    "theory</w>": 4160,
    "ther": 4161,
    "ther</w>": 4162,
    "therapy</w>": 4163,
    "there</w>": 4164,
    "thering</w>": 4165,
    "thern</w>": 4166,
    "thers</w>": 4167,
    "these</w>": 4168,
    "thetic</w>": 4169,
    "they</w>": 4170,
    "thi": 4171,
    "thin": 4172,
    "thin</w>": 4173,
    "thing</w>": 4174,
    "thingies</w>": 4175,
    "things</w>": 4176,
    "think</w>": 4177,
    "thinking</w>": 4178,
    "third</w>": 4179,
    "this</w>": 4180,
    "tho": 4181,
    "tho</w>": 4182,
    "those</w>": 4183,
    "thou": 4184,
    "though</w>": 4185,
    "thought</w>": 4186,
    "thoughts</w>": 4187,
    "thr": 4188,
    "thre": 4189,
    "thread</w>": 4190,
    "three</w>": 4191,
    "through</w>": 4192,
    "throw</w>": 4193,
    "ths</w>": 4194,
    "thu": 4195,
    "thursday</w>": 4196,
    "thus</w>": 4197,
    "thx</w>": 4198,
    "thy</w>": 4199,
    "ti": 4200,
    "ti</w>": 4201,
    "tial</w>": 4202,
    "tially</w>": 4203,
    "tic": 4204,
    "tic</w>": 4205,
    "tically</w>": 4206,
    "tick": 4207,
    "ties</w>": 4208,
    "tific": 4209,
    "til</w>": 4210,
    "till</w>": 4211,
    "time</w>": 4212,
    "times</w>": 4213,
    "tin": 4214,
    "tin</w>": 4215,
    "ting</w>": 4216,
    "tings</w>": 4217,
    "tiny</w>": 4218,
    "tion": 4219,
    "tion</w>": 4220,
    "tional</w>": 4221,
    "tions</w>": 4222,
    "tious</w>": 4223,
    "tips</w>": 4224,
    "tired</w>": 4225,
    "tish</w>": 4226,
    "title</w>": 4227,
    "titu": 4228,
    "tiv": 4229,
    "tive</w>": 4230,
    "tively</w>": 4231,
    "tivity</w>": 4232,
    "tle</w>": 4233,
    "tly</w>": 4234,
    "to": 4235,
    "to</w>": 4236,
    "toast</w>": 4237,
    "today</w>": 4238,
    "together</w>": 4239,
    "toilet</w>": 4240,
    "told</w>": 4241,
    "tom": 4242,
    "tom</w>": 4243,
    "tomorrow</w>": 4244,
    "ton": 4245,
    "ton</w>": 4246,
    "tonight</w>": 4247,
    "too": 4248,
    "too</w>": 4249,
    "took</w>": 4250,
    "tool</w>": 4251,
    "top": 4252,
    "top</w>": 4253,
    "topic</w>": 4254,
    "topics</w>": 4255,
    "topp": 4256,
    "topping</w>": 4257,
    "toppings</w>": 4258,
    "tor": 4259,
    "tor</w>": 4260,
    "tors</w>": 4261,
    "tory</w>": 4262,
    "tos</w>": 4263,
    "total</w>": 4264,
    "totally</w>": 4265,
    "tou": 4266,
    "touch": 4267,
    "touch</w>": 4268,
    "tough</w>": 4269,
    "tour</w>": 4270,
    "tow": 4271,
    "towards</w>": 4272,
    "town</w>": 4273,
    "tr": 4274,
    "tra": 4275,
    "trac": 4276,
    "trade</w>": 4277,
    "traf": 4278,
    "traffic</w>": 4279,
    "trail</w>": 4280,
    "train</w>": 4281,
    "training</w>": 4282,
    "traits</w>": 4283,
    "tral</w>": 4284,
    "tran": 4285,
    "trans": 4286,
    "transl": 4287,
    "trash</w>": 4288,
    "trav": 4289,
    "travel</w>": 4290,
    "tre": 4291,
    "treadmill</w>": 4292,
    "treat</w>": 4293,
    "tren": 4294,
    "tri": 4295,
    "tried</w>": 4296,
    "tries</w>": 4297,
    "trip</w>": 4298,
    "tro": 4299,
    "tru": 4300,
    "true</w>": 4301,
    "truly</w>": 4302,
    "trump</w>": 4303,
    "trust</w>": 4304,
    "truth</w>": 4305,
    "truths</w>": 4306,
    "try</w>": 4307,
    "trying</w>": 4308,
    "ts": 4309,
    "ts</w>": 4310,
    "tt": 4311,
    "tt</w>": 4312,
    "tta</w>": 4313,
    "tte</w>": 4314,
    "tter": 4315,
    "tter</w>": 4316,
    "tting</w>": 4317,
    "ttle</w>": 4318,
    "tty</w>": 4319,
    "tu": 4320,
    "tual</w>": 4321,
    "tually</w>": 4322,
    "tum": 4323,
    "tun": 4324,
    "tur": 4325,
    "ture</w>": 4326,
    "tures</w>": 4327,
    "turkey</w>": 4328,
    "turn</w>": 4329,
    "turned</w>": 4330,
    "turning</w>": 4331,
    "turns</w>": 4332,
    "tv</w>": 4333,
    "tw": 4334,
    "twi": 4335,
    "twice</w>": 4336,
    "twilight</w>": 4337,
    "twist</w>": 4338,
    "two</w>": 4339,
    "ty": 4340,
    "ty</w>": 4341,
    "typ": 4342,
    "type</w>": 4343,
    "types</w>": 4344,
    "typical</w>": 4345,
    "typing</w>": 4346,
    "typo</w>": 4347,
    "u": 4348,
    "u/": 4349,
    "u/waterguy12</w>": 4350,
    "u</w>": 4351,
    "ual</w>": 4352,
    "uc": 4353,
    "uce</w>": 4354,
    "uck": 4355,
    "uck</w>": 4356,
    "ue</w>": 4357,
    "ues</w>": 4358,
    "ugh</w>": 4359,
    "ugly</w>": 4360,
    "uh</w>": 4361,
    "uk</w>": 4362,
    "ul": 4363,
    "um</w>": 4364,
    "ummm</w>": 4365,
    "un": 4366,
    "un</w>": 4367,
    "unch</w>": 4368,
    "uncle</w>": 4369,
    "under": 4370,
    "under</w>": 4371,
    "undergrad</w>": 4372,
    "understand</w>": 4373,
    "unemplo": 4374,
    "unemployed</w>": 4375,
    "unfortun": 4376,
    "unfortunately</w>": 4377,
    "unhealthy</w>": 4378,
    "uni": 4379,
    "uni</w>": 4380,
    "unique</w>": 4381,
    "unite</w>": 4382,
    "univers": 4383,
    "universe</w>": 4384,
    "university</w>": 4385,
    "unk</w>": 4386,
    "unknown</w>": 4387,
    "unless</w>": 4388,
    "unpopular</w>": 4389,
    "uns</w>": 4390,
    "unsweetened</w>": 4391,
    "unt</w>": 4392,
    "until</w>": 4393,
    "unusual</w>": 4394,
    "up": 4395,
    "up</w>": 4396,
    "update</w>": 4397,
    "uplifting</w>": 4398,
    "upstate</w>": 4399,
    "upvo": 4400,
    "upvote</w>": 4401,
    "upvoted</w>": 4402,
    "upvotes</w>": 4403,
    "ur": 4404,
    "ur</w>": 4405,
    "ure</w>": 4406,
    "us": 4407,
    "us</w>": 4408,
    "usa</w>": 4409,
    "use</w>": 4410,
    "used</w>": 4411,
    "useful</w>": 4412,
    "useless</w>": 4413,
    "user": 4414,
    "user</w>": 4415,
    "username</w>": 4416,
    "usernames</w>": 4417,
    "uses</w>": 4418,
    "ush</w>": 4419,
    "using</w>": 4420,
    "ussi": 4421,
    "usu": 4422,
    "usual</w>": 4423,
    "usually</w>": 4424,
    "ut</w>": 4425,
    "uten": 4426,
    "uts</w>": 4427,
    "uu": 4428,
    "uuu": 4429,
    "v": 4430,
    "v</w>": 4431,
    "va</w>": 4432,
    "vable</w>": 4433,
    "vac": 4434,
    "vagina</w>": 4435,
    "val": 4436,
    "val</w>": 4437,
    "valid": 4438,
    "validate</w>": 4439,
    "validation</w>": 4440,
    "valley</w>": 4441,
    "value</w>": 4442,
    "van": 4443,
    "vancouver</w>": 4444,
    "vanilla</w>": 4445,
    "vari": 4446,
    "varieties</w>": 4447,
    "variety</w>": 4448,
    "ve": 4449,
    "ve</w>": 4450,
    "ved</w>": 4451,
    "vegas</w>": 4452,
    "vege": 4453,
    "vegetable</w>": 4454,
    "vel": 4455,
    "vely</w>": 4456,
    "ven": 4457,
    "ven</w>": 4458,
    "vent</w>": 4459,
    "ver": 4460,
    "ver</w>": 4461,
    "verage</w>": 4462,
    "vered</w>": 4463,
    "vering</w>": 4464,
    "vers": 4465,
    "vers</w>": 4466,
    "verse</w>": 4467,
    "version</w>": 4468,
    "vert</w>": 4469,
    "very</w>": 4470,
    "ves</w>": 4471,
    "vi": 4472,
    "via</w>": 4473,
    "vibes</w>": 4474,
    "vic": 4475,
    "vice</w>": 4476,
    "victim</w>": 4477,
    "vid": 4478,
    "video": 4479,
    "video</w>": 4480,
    "videos</w>": 4481,
    "vie</w>": 4482,
    "view</w>": 4483,
    "villa": 4484,
    "villain</w>": 4485,
    "vin": 4486,
    "vince</w>": 4487,
    "ving</w>": 4488,
    "viol": 4489,
    "vir": 4490,
    "vis": 4491,
    "visi": 4492,
    "visit</w>": 4493,
    "vit": 4494,
    "vity</w>": 4495,
    "vo": 4496,
    "voc": 4497,
    "vodka</w>": 4498,
    "voice</w>": 4499,
    "vol": 4500,
    "volu": 4501,
    "volun": 4502,
    "volunte": 4503,
    "volunteering</w>": 4504,
    "vote</w>": 4505,
    "vs</w>": 4506,
    "vy</w>": 4507,
    "w": 4508,
    "w</w>": 4509,
    "wa": 4510,
    "waff": 4511,
    "waffles</w>": 4512,
    "wait</w>": 4513,
    "waiting</w>": 4514,
    "wake</w>": 4515,
    "wal": 4516,
    "walk</w>": 4517,
    "walking</w>": 4518,
    "wall</w>": 4519,
    "walmart</w>": 4520,
    "wan": 4521,
    "wanna</w>": 4522,
    "want</w>": 4523,
    "wanted</w>": 4524,
    "wanting</w>": 4525,
    "wants</w>": 4526,
    "war": 4527,
    "war</w>": 4528,
    "ward</w>": 4529,
    "wards</w>": 4530,
    "warm</w>": 4531,
    "warning</w>": 4532,
    "wars</w>": 4533,
    "was": 4534,
    "was</w>": 4535,
    "wash</w>": 4536,
    "wasn</w>": 4537,
    "waste</w>": 4538,
    "wat": 4539,
    "watch": 4540,
    "watch</w>": 4541,
    "watched</w>": 4542,
    "watching</w>": 4543,
    "water": 4544,
    "water</w>": 4545,
    "way</w>": 4546,
    "ways</w>": 4547,
    "wbu</w>": 4548,
    "we": 4549,
    "we</w>": 4550,
    "wea": 4551,
    "wear</w>": 4552,
    "wearing</w>": 4553,
    "wears</w>": 4554,
    "weather</w>": 4555,
    "wedd": 4556,
    "wedding</w>": 4557,
    "wedn": 4558,
    "wednesday</w>": 4559,
    "wee": 4560,
    "weed</w>": 4561,
    "week": 4562,
    "week</w>": 4563,
    "weekend</w>": 4564,
    "weekly</w>": 4565,
    "weeks</w>": 4566,
    "weight</w>": 4567,
    "weir": 4568,
    "weird</w>": 4569,
    "weirdest</w>": 4570,
    "wel": 4571,
    "welcome</w>": 4572,
    "well</w>": 4573,
    "went</w>": 4574,
    "were": 4575,
    "were</w>": 4576,
    "west</w>": 4577,
    "wet</w>": 4578,
    "wh": 4579,
    "wha": 4580,
    "what": 4581,
    "what</w>": 4582,
    "whatcha</w>": 4583,
    "whatever</w>": 4584,
    "whats</w>": 4585,
    "whe": 4586,
    "whel": 4587,
    "when</w>": 4588,
    "whenever</w>": 4589,
    "where": 4590,
    "where</w>": 4591,
    "whi": 4592,
    "which</w>": 4593,
    "while</w>": 4594,
    "whip</w>": 4595,
    "whis": 4596,
    "whiskey</w>": 4597,
    "white</w>": 4598,
    "who": 4599,
    "who</w>": 4600,
    "whoa</w>": 4601,
    "whol": 4602,
    "whole</w>": 4603,
    "whoops</w>": 4604,
    "why</w>": 4605,
    "wi": 4606,
    "wife</w>": 4607,
    "wifi</w>": 4608,
    "wigg": 4609,
    "wil": 4610,
    "wild</w>": 4611,
    "will</w>": 4612,
    "win": 4613,
    "win</w>": 4614,
    "wind": 4615,
    "window</w>": 4616,
    "winds</w>": 4617,
    "wine</w>": 4618,
    "wing</w>": 4619,
    "wings</w>": 4620,
    "winning</w>": 4621,
    "winter</w>": 4622,
    "wires</w>": 4623,
    "wise</w>": 4624,
    "wish</w>": 4625,
    "witcher</w>": 4626,
    "with": 4627,
    "with</w>": 4628,
    "within</w>": 4629,
    "without</w>": 4630,
    "witnessed</w>": 4631,
    "wo": 4632,
    "woah</w>": 4633,
    "woke</w>": 4634,
    "wol": 4635,
    "wom": 4636,
    "woman</w>": 4637,
    "women</w>": 4638,
    "won": 4639,
    "won</w>": 4640,
    "wonder": 4641,
    "wonder</w>": 4642,
    "wonderful</w>": 4643,
    "wondering</w>": 4644,
    "woo": 4645,
    "woohoo</w>": 4646,
    "wor": 4647,
    "word</w>": 4648,
    "words</w>": 4649,
    "work</w>": 4650,
    "worked</w>": 4651,
    "working</w>": 4652,
    "works</w>": 4653,
    "world</w>": 4654,
    "worries</w>": 4655,
    "worry</w>": 4656,
    "worse</w>": 4657,
    "worst</w>": 4658,
    "worth</w>": 4659,
    "would</w>": 4660,
    "wouldn</w>": 4661,
    "wow</w>": 4662,
    "wri": 4663,
    "write</w>": 4664,
    "writer</w>": 4665,
    "writing</w>": 4666,
    "writt": 4667,
    "written</w>": 4668,
    "wrong</w>": 4669,
    "wtf</w>": 4670,
    "x": 4671,
    "x</w>": 4672,
    "xbox</w>": 4673,
    "xd</w>": 4674,
    "xed</w>": 4675,
    "xi": 4676,
    "xx</w>": 4677,
    "xy": 4678,
    "xy</w>": 4679,
    "y": 4680,
    "y/": 4681,
    "y12</w>": 4682,
    "y</w>": 4683,
    "ya</w>": 4684,
    "yay</w>": 4685,
    "ye": 4686,
    "ye</w>": 4687,
    "yea": 4688,
    "yea</w>": 4689,
    "yeah</w>": 4690,
    "year</w>": 4691,
    "years</w>": 4692,
    "yed</w>": 4693,
    "yellow</w>": 4694,
    "yep</w>": 4695,
    "yer</w>": 4696,
    "yes</w>": 4697,
    "yesterday</w>": 4698,
    "yet</w>": 4699,
    "ying</w>": 4700,
    "yment</w>": 4701,
    "yo": 4702,
    "yo</w>": 4703,
    "yoga</w>": 4704,
    "york</w>": 4705,
    "you": 4706,
    "you</w>": 4707,
    "youn": 4708,
    "young</w>": 4709,
    "younger</w>": 4710,
    "your": 4711,
    "your</w>": 4712,
    "youre</w>": 4713,
    "yours</w>": 4714,
    "yourself</w>": 4715,
    "youtu": 4716,
    "youtube</w>": 4717,
    "youtubers</w>": 4718,
    "yp": 4719,
    "ypse</w>": 4720,
    "ys": 4721,
    "ys</w>": 4722,
    "yu": 4723,
    "yum</w>": 4724,
    "yup</w>": 4725,
    "yy": 4726,
    "yy</w>": 4727,
    "yyy</w>": 4728,
    "yyyy</w>": 4729,
    "z": 4730,
    "z</w>": 4731,
    "zar": 4732,
    "ze": 4733,
    "ze</w>": 4734,
    "zeal": 4735,
    "zed</w>": 4736,
    "zen</w>": 4737,
    "zer</w>": 4738,
    "zero</w>": 4739,
    "zing</w>": 4740,
    "zombie</w>": 4741,
    "zombies</w>": 4742,
    "zone</w>": 4743,
    "zoo": 4744,
    "zootopia</w>": 4745,
    "zy</w>": 4746,
    "zz": 4747,
    "zz</w>": 4748,
    "æ": 4749,
    "ð": 4750,
    "ʖ</w>": 4751,
    "ε": 4752,
    "д": 4753,
    "з": 4754,
    "ل": 4755,
    "٩": 4756,
    "۶": 4757,
    "ಠ": 4758,
    "ಠ_ಠ": 4759,
    "ಥ": 4760,
    "ಥ</w>": 4761,
    "ຈ": 4762,
    "ლ</w>": 4763,
    "ᐛ": 4764,
    "ᕕ": 4765,
    "ᕗ": 4766,
    "ᴥ": 4767,
    "ᵔ": 4768,
    "つ": 4769,
    "ツ</w>": 4770,
    "ノ": 4771,
    "ヽ": 4772,
    "不": 4773,
    "你": 4774,
    "太": 4775,
    "好": 4776,
    "我": 4777,
    "汉": 4778,
    "的": 4779,
    "语": 4780,
    "ｰ": 4781,
    "ﾉ": 4782,
    "ﾟ": 4783
  },
  "merges": [
    [
      "e",
      "</w>"
    ],
    [
      "t",
      "</w>"
    ],
    [
      "s",
      "</w>"
    ],
    [
      "t",
      "h"
    ],
    [
      "d",
      "</w>"
    ],
    [
      "y",
      "</w>"
    ],
    [
      "i",
      "n"
    ],
    [
      "o",
      "u"
    ],
    [
      "a",
      "n"
    ],
    [
      "o",
      "</w>"
    ],
    [
      "i",
      "</w>"
    ],
    [
      "r",
      "</w>"
    ],
    [
      "o",
      "n"
    ],
    [
      "y",
      "ou"
    ],
    [
      "h",
      "a"
    ],
    [
      "g",
      "</w>"
    ],
    [
      "a",
      "</w>"
    ],
    [
      "r",
      "e"
    ],
    [
      "in",
      "g</w>"
    ],
    [
      "you",
      "</w>"
    ],
    [
      "l",
      "</w>"
    ],
    [
      "e",
      "n"
    ],
    [
      "i",
      "t</w>"
    ],
    [
      "e",
      "r"
    ],
    [
      "a",
      "l"
    ],
    [
      "th",
      "e</w>"
    ],
    [
      "m",
      "</w>"
    ],
    [
      "a",
      "r"
    ],
    [
      "m",
      "e</w>"
    ],
    [
      "t",
      "o</w>"
    ],
    [
      "e",
      "r</w>"
    ],
    [
      "i",
      "s</w>"
    ],
    [
      "k",
      "</w>"
    ],
    [
      "on",
      "</w>"
    ],
    [
      "a",
      "t</w>"
    ],
    [
      "f",
      "</w>"
    ],
    [
      "o",
      "r"
    ],
    [
      "s",
      "t"
    ],
    [
      "l",
      "i"
    ],
    [
      "e",
      "s</w>"
    ],
    [
      "v",
      "e</w>"
    ],
    [
      "o",
      "w"
    ],
    [
      "an",
      "d</w>"
    ],
    [
      "h",
      "</w>"
    ],
    [
      "l",
      "y</w>"
    ],
    [
      "s",
      "t</w>"
    ],
    [
      "e",
      "d</w>"
    ],
    [
      "o",
      "o"
    ],
    [
      "a",
      "t"
    ],
    [
      "w",
      "ha"
    ],
    [
      "i",
      "c"
    ],
    [
      "o",
      "r</w>"
    ],
    [
      "an",
      "</w>"
    ],
    [
      "wha",
      "t</w>"
    ],
    [
      "in",
      "</w>"
    ],
    [
      "th",
      "at</w>"
    ],
    [
      "ow",
      "</w>"
    ],
    [
      "o",
      "f</w>"
    ],
    [
      "a",
      "y</w>"
    ],
    [
      "e",
      "l"
    ],
    [
      "r",
      "i"
    ],
    [
      "en",
      "</w>"
    ],
    [
      "m",
      "y</w>"
    ],
    [
      "k",
      "e</w>"
    ],
    [
      "o",
      "t</w>"
    ],
    [
      "p",
      "</w>"
    ],
    [
      "a",
      "s"
    ],
    [
      "w",
      "h"
    ],
    [
      "o",
      "m"
    ],
    [
      "t",
      "i"
    ],
    [
      "b",
      "e"
    ],
    [
      "w",
      "i"
    ],
    [
      "n",
      "</w>"
    ],
    [
      "a",
      "c"
    ],
    [
      "a",
      "s</w>"
    ],
    [
      "b",
      "u"
    ],
    [
      "ar",
      "e</w>"
    ],
    [
      "p",
      "l"
    ],
    [
      "th",
      "</w>"
    ],
    [
      "l",
      "o"
    ],
    [
      "on",
      "e</w>"
    ],
    [
      "f",
      "or</w>"
    ],
    [
      "i",
      "t"
    ],
    [
      "a",
      "b"
    ],
    [
      "e",
      "v"
    ],
    [
      "d",
      "o</w>"
    ],
    [
      "e",
      "s"
    ],
    [
      "ou",
      "t</w>"
    ],
    [
      "s",
      "h"
    ],
    [
      "you",
      "r</w>"
    ],
    [
      "c",
      "h"
    ],
    [
      "e",
      "t</w>"
    ],
    [
      "r",
      "o"
    ],
    [
      "ha",
      "ve</w>"
    ],
    [
      "l",
      "d</w>"
    ],
    [
      "e",
      "a"
    ],
    [
      "s",
      "u"
    ],
    [
      "m",
      "a"
    ],
    [
      "er",
      "e</w>"
    ],
    [
      "t",
      "o"
    ],
    [
      "l",
      "l</w>"
    ],
    [
      "g",
      "h"
    ],
    [
      "d",
      "i"
    ],
    [
      "li",
      "ke</w>"
    ],
    [
      "s",
      "e</w>"
    ],
    [
      "e",
      "e"
    ],
    [
      "al",
      "ly</w>"
    ],
    [
      "j",
      "u"
    ],
    [
      "s",
      "o</w>"
    ],
    [
      "bu",
      "t</w>"
    ],
    [
      "b",
      "e</w>"
    ],
    [
      "i",
      "r"
    ],
    [
      "t",
      "t"
    ],
    [
      "n",
      "ot</w>"
    ],
    [
      "u",
      "n"
    ],
    [
      "ju",
      "st</w>"
    ],
    [
      "r",
      "e</w>"
    ],
    [
      "d",
      "ay</w>"
    ],
    [
      "gh",
      "t</w>"
    ],
    [
      "th",
      "is</w>"
    ],
    [
      "oo",
      "d</w>"
    ],
    [
      "l",
      "e</w>"
    ],
    [
      "t",
      "r"
    ],
    [
      "a",
      "me</w>"
    ],
    [
      "d",
      "o"
    ],
    [
      "th",
      "e"
    ],
    [
      "wi",
      "th</w>"
    ],
    [
      "o",
      "me</w>"
    ],
    [
      "n",
      "ow</w>"
    ],
    [
      "th",
      "ing</w>"
    ],
    [
      "m",
      "o"
    ],
    [
      "w",
      "as</w>"
    ],
    [
      "a",
      "m"
    ],
    [
      "ou",
      "ld</w>"
    ],
    [
      "p",
      "o"
    ],
    [
      "i",
      "d"
    ],
    [
      "e",
      "c"
    ],
    [
      "g",
      "ood</w>"
    ],
    [
      "h",
      "ow</w>"
    ],
    [
      "ab",
      "out</w>"
    ],
    [
      "c",
      "an</w>"
    ],
    [
      "u",
      "c"
    ],
    [
      "w",
      "or"
    ],
    [
      "g",
      "u"
    ],
    [
      "d",
      "s</w>"
    ],
    [
      "a",
      "y"
    ],
    [
      "t",
      "s</w>"
    ],
    [
      "el",
      "l</w>"
    ],
    [
      "u",
      "s"
    ],
    [
      "k",
      "s</w>"
    ],
    [
      "n",
      "o</w>"
    ],
    [
      "al",
      "l</w>"
    ],
    [
      "f",
      "a"
    ],
    [
      "a",
      "l</w>"
    ],
    [
      "i",
      "on</w>"
    ],
    [
      "n",
      "e"
    ],
    [
      "om",
      "e"
    ],
    [
      "k",
      "ing</w>"
    ],
    [
      "th",
      "in"
    ],
    [
      "p",
      "e"
    ],
    [
      "g",
      "o"
    ],
    [
      "c",
      "om"
    ],
    [
      "m",
      "e"
    ],
    [
      "d",
      "on</w>"
    ],
    [
      "s",
      "ome"
    ],
    [
      "t",
      "e"
    ],
    [
      "q",
      "u"
    ],
    [
      "g",
      "h</w>"
    ],
    [
      "a",
      "w"
    ],
    [
      "at",
      "e</w>"
    ],
    [
      "ev",
      "er</w>"
    ],
    [
      "i",
      "f</w>"
    ],
    [
      "p",
      "p"
    ],
    [
      "s",
      "e"
    ],
    [
      "ou",
      "n"
    ],
    [
      "y",
      "es</w>"
    ],
    [
      "a",
      "d"
    ],
    [
      "u",
      "p</w>"
    ],
    [
      "b",
      "o"
    ],
    [
      "c",
      "o"
    ],
    [
      "a",
      "g"
    ],
    [
      "ha",
      "ha"
    ],
    [
      "l",
      "e"
    ],
    [
      "ic",
      "e</w>"
    ],
    [
      "g",
      "et</w>"
    ],
    [
      "th",
      "an"
    ],
    [
      "i",
      "s"
    ],
    [
      "en",
      "t</w>"
    ],
    [
      "p",
      "re"
    ],
    [
      "a",
      "d</w>"
    ],
    [
      "c",
      "on"
    ],
    [
      "t",
      "u"
    ],
    [
      "ic",
      "</w>"
    ],
    [
      "to",
      "o</w>"
    ],
    [
      "lo",
      "ve</w>"
    ],
    [
      "0",
      "</w>"
    ],
    [
      "a",
      "m</w>"
    ],
    [
      "o",
      "p"
    ],
    [
      "pl",
      "e</w>"
    ],
    [
      "c",
      "a"
    ],
    [
      "t",
      "e</w>"
    ],
    [
      "i",
      "l"
    ],
    [
      "v",
      "er"
    ],
    [
      "or",
      "e</w>"
    ],
    [
      "f",
      "e"
    ],
    [
      "s",
      "p"
    ],
    [
      "w",
      "an"
    ],
    [
      "ti",
      "me</w>"
    ],
    [
      "h",
      "e"
    ],
    [
      "f",
      "ri"
    ],
    [
      "re",
      "ally</w>"
    ],
    [
      "f",
      "u"
    ],
    [
      "an",
      "y</w>"
    ],
    [
      "es",
      "s</w>"
    ],
    [
      "f",
      "in"
    ],
    [
      "p",
      "er"
    ],
    [
      "l",
      "a"
    ],
    [
      "en",
      "d</w>"
    ],
    [
      "ou",
      "gh</w>"
    ],
    [
      "an",
      "y"
    ],
    [
      "w",
      "ould</w>"
    ],
    [
      "it",
      "e</w>"
    ],
    [
      "re",
      "d</w>"
    ],
    [
      "e",
      "x"
    ],
    [
      "b",
      "r"
    ],
    [
      "s",
      "ome</w>"
    ],
    [
      "f",
      "ro"
    ],
    [
      "ri",
      "ght</w>"
    ],
    [
      "w",
      "e</w>"
    ],
    [
      "t",
      "a"
    ],
    [
      "w",
      "ell</w>"
    ],
    [
      "d",
      "d"
    ],
    [
      "fro",
      "m</w>"
    ],
    [
      "e",
      "st"
    ],
    [
      "thin",
      "k</w>"
    ],
    [
      "h",
      "i"
    ],
    [
      "w",
      "</w>"
    ],
    [
      "g",
      "s</w>"
    ],
    [
      "ev",
      "er"
    ],
    [
      "fa",
      "v"
    ],
    [
      "g",
      "re"
    ],
    [
      "ay",
      "s</w>"
    ],
    [
      "on",
      "g</w>"
    ],
    [
      "y",
      "ea"
    ],
    [
      "th",
      "er</w>"
    ],
    [
      "s",
      "i"
    ],
    [
      "n",
      "ame</w>"
    ],
    [
      "c",
      "e</w>"
    ],
    [
      "lo",
      "l</w>"
    ],
    [
      "d",
      "e"
    ],
    [
      "g",
      "ot</w>"
    ],
    [
      "j",
      "o"
    ],
    [
      "d",
      "e</w>"
    ],
    [
      "the",
      "y</w>"
    ],
    [
      "m",
      "in"
    ],
    [
      "oo",
      "l</w>"
    ],
    [
      "k",
      "now</w>"
    ],
    [
      "ow",
      "n</w>"
    ],
    [
      "i",
      "r</w>"
    ],
    [
      "pe",
      "o"
    ],
    [
      "h",
      "e</w>"
    ],
    [
      "p",
      "ro"
    ],
    [
      "peo",
      "ple</w>"
    ],
    [
      "th",
      "ere</w>"
    ],
    [
      "p",
      "u"
    ],
    [
      "l",
      "oo"
    ],
    [
      "c",
      "u"
    ],
    [
      "d",
      "r"
    ],
    [
      "f",
      "e</w>"
    ],
    [
      "t",
      "al"
    ],
    [
      "h",
      "ere</w>"
    ],
    [
      "di",
      "d</w>"
    ],
    [
      "g",
      "o</w>"
    ],
    [
      "c",
      "h</w>"
    ],
    [
      "w",
      "e"
    ],
    [
      "m",
      "an</w>"
    ],
    [
      "wh",
      "y</w>"
    ],
    [
      "o",
      "h</w>"
    ],
    [
      "g",
      "r"
    ],
    [
      "er",
      "s</w>"
    ],
    [
      "i",
      "ll</w>"
    ],
    [
      "s",
      "o"
    ],
    [
      "at",
      "ion</w>"
    ],
    [
      "u",
      "se</w>"
    ],
    [
      "3",
      "</w>"
    ],
    [
      "wh",
      "ere</w>"
    ],
    [
      "haha",
      "</w>"
    ],
    [
      "re",
      "dd"
    ],
    [
      "n",
      "ever</w>"
    ],
    [
      "ha",
      "pp"
    ],
    [
      "m",
      "ore</w>"
    ],
    [
      "ac",
      "k</w>"
    ],
    [
      "b",
      "l"
    ],
    [
      "w",
      "at"
    ],
    [
      "wh",
      "en</w>"
    ],
    [
      "tt",
      "y</w>"
    ],
    [
      "than",
      "ks</w>"
    ],
    [
      "pre",
      "tty</w>"
    ],
    [
      "b",
      "</w>"
    ],
    [
      "n",
      "o"
    ],
    [
      "v",
      "i"
    ],
    [
      "wi",
      "ll</w>"
    ],
    [
      "n",
      "ice</w>"
    ],
    [
      "op",
      "e</w>"
    ],
    [
      "b",
      "y</w>"
    ],
    [
      "the",
      "m</w>"
    ],
    [
      "re",
      "n"
    ],
    [
      "m",
      "uc"
    ],
    [
      "k",
      "in"
    ],
    [
      "on",
      "s</w>"
    ],
    [
      "fav",
      "or"
    ],
    [
      "redd",
      "it</w>"
    ],
    [
      "muc",
      "h</w>"
    ],
    [
      "g",
      "e"
    ],
    [
      "tr",
      "y</w>"
    ],
    [
      "i",
      "d</w>"
    ],
    [
      "r",
      "a"
    ],
    [
      "r",
      "y</w>"
    ],
    [
      "be",
      "en</w>"
    ],
    [
      "do",
      "ing</w>"
    ],
    [
      "i",
      "ght</w>"
    ],
    [
      "h",
      "o"
    ],
    [
      "go",
      "ing</w>"
    ],
    [
      "g",
      "e</w>"
    ],
    [
      "favor",
      "ite</w>"
    ],
    [
      "t",
      "er</w>"
    ],
    [
      "li",
      "fe</w>"
    ],
    [
      "g",
      "i"
    ],
    [
      "mo",
      "st</w>"
    ],
    [
      "f",
      "or"
    ],
    [
      "l",
      "as"
    ],
    [
      "com",
      "m"
    ],
    [
      "wan",
      "t</w>"
    ],
    [
      "t",
      "er"
    ],
    [
      "b",
      "i"
    ],
    [
      "g",
      "ir"
    ],
    [
      "s",
      "el"
    ],
    [
      "1",
      "</w>"
    ],
    [
      "sh",
      "e</w>"
    ],
    [
      "t",
      "ed</w>"
    ],
    [
      "e",
      "ly</w>"
    ],
    [
      "st",
      "u"
    ],
    [
      "some",
      "thing</w>"
    ],
    [
      "h",
      "u"
    ],
    [
      "v",
      "ing</w>"
    ],
    [
      "tal",
      "k</w>"
    ],
    [
      "ha",
      "d</w>"
    ],
    [
      "p",
      "ar"
    ],
    [
      "t",
      "y</w>"
    ],
    [
      "2",
      "</w>"
    ],
    [
      "s",
      "ay</w>"
    ],
    [
      "yea",
      "h</w>"
    ],
    [
      "ha",
      "s</w>"
    ],
    [
      "to",
      "day</w>"
    ],
    [
      "5",
      "</w>"
    ],
    [
      "m",
      "al"
    ],
    [
      "f",
      "f</w>"
    ],
    [
      "wor",
      "k</w>"
    ],
    [
      "k",
      "ed</w>"
    ],
    [
      "per",
      "s"
    ],
    [
      "f",
      "ir"
    ],
    [
      "t",
      "ing</w>"
    ],
    [
      "th",
      "en</w>"
    ],
    [
      "do",
      "es</w>"
    ],
    [
      "qu",
      "est"
    ],
    [
      "th",
      "ough</w>"
    ],
    [
      "on",
      "ly</w>"
    ],
    [
      "se",
      "e</w>"
    ],
    [
      "tt",
      "er</w>"
    ],
    [
      "el",
      "l"
    ],
    [
      "ee",
      "l</w>"
    ],
    [
      "ma",
      "ke</w>"
    ],
    [
      "s",
      "oun"
    ],
    [
      "tr",
      "u"
    ],
    [
      "s",
      "ame</w>"
    ],
    [
      "sel",
      "f</w>"
    ],
    [
      "h",
      "ea"
    ],
    [
      "y",
      "e"
    ],
    [
      "ever",
      "y"
    ],
    [
      "t",
      "ly</w>"
    ],
    [
      "w",
      "ee"
    ],
    [
      "r",
      "u"
    ],
    [
      "c",
      "ould</w>"
    ],
    [
      "d",
      "u"
    ],
    [
      "f",
      "eel</w>"
    ],
    [
      "wh",
      "o</w>"
    ],
    [
      "pro",
      "b"
    ],
    [
      "gre",
      "at</w>"
    ],
    [
      "ar",
      "d</w>"
    ],
    [
      "s",
      "a"
    ],
    [
      "x",
      "</w>"
    ],
    [
      "uc",
      "k</w>"
    ],
    [
      "p",
      "a"
    ],
    [
      "d",
      "y</w>"
    ],
    [
      "m",
      "ar"
    ],
    [
      "w",
      "ay</w>"
    ],
    [
      "d",
      "n</w>"
    ],
    [
      "f",
      "i"
    ],
    [
      "l",
      "et</w>"
    ],
    [
      "k",
      "es</w>"
    ],
    [
      "v",
      "er</w>"
    ],
    [
      "h",
      "ou"
    ],
    [
      "ar",
      "s</w>"
    ],
    [
      "g",
      "ame</w>"
    ],
    [
      "m",
      "on"
    ],
    [
      "co",
      "l"
    ],
    [
      "id",
      "e"
    ],
    [
      "v",
      "o"
    ],
    [
      "than",
      "k</w>"
    ],
    [
      "fri",
      "end</w>"
    ],
    [
      "m",
      "es</w>"
    ],
    [
      "ha",
      "ir</w>"
    ],
    [
      "y",
      "ing</w>"
    ],
    [
      "su",
      "re</w>"
    ],
    [
      "h",
      "er</w>"
    ],
    [
      "st",
      "ill</w>"
    ],
    [
      "w",
      "ays</w>"
    ],
    [
      "ev",
      "en</w>"
    ],
    [
      "m",
      "b"
    ],
    [
      "ca",
      "use</w>"
    ],
    [
      "mal",
      "e</w>"
    ],
    [
      "a",
      "f"
    ],
    [
      "fir",
      "st</w>"
    ],
    [
      "u",
      "s</w>"
    ],
    [
      "ha",
      "r"
    ],
    [
      "tu",
      "ally</w>"
    ],
    [
      "4",
      "</w>"
    ],
    [
      "2",
      "0</w>"
    ],
    [
      "it",
      "s</w>"
    ],
    [
      "re",
      "c"
    ],
    [
      "he",
      "y</w>"
    ],
    [
      "at",
      "i"
    ],
    [
      "s",
      "h</w>"
    ],
    [
      "in",
      "e</w>"
    ],
    [
      "n",
      "a</w>"
    ],
    [
      "pl",
      "ay</w>"
    ],
    [
      "gu",
      "ess</w>"
    ],
    [
      "be",
      "st</w>"
    ],
    [
      "w",
      "a"
    ],
    [
      "s",
      "c"
    ],
    [
      "re",
      "st"
    ],
    [
      "m",
      "us"
    ],
    [
      "pers",
      "on</w>"
    ],
    [
      "ne",
      "w</w>"
    ],
    [
      "it",
      "y</w>"
    ],
    [
      "en",
      "ds</w>"
    ],
    [
      "ver",
      "y</w>"
    ],
    [
      "th",
      "an</w>"
    ],
    [
      "al",
      "so</w>"
    ],
    [
      "li",
      "st"
    ],
    [
      "p",
      "h"
    ],
    [
      "ti",
      "on</w>"
    ],
    [
      "ee",
      "p</w>"
    ],
    [
      "ac",
      "tually</w>"
    ],
    [
      "b",
      "ad</w>"
    ],
    [
      "pl",
      "ay"
    ],
    [
      "al",
      "ways</w>"
    ],
    [
      "li",
      "ve</w>"
    ],
    [
      "be",
      "tter</w>"
    ],
    [
      "ma",
      "y"
    ],
    [
      "gir",
      "l</w>"
    ],
    [
      "v",
      "ed</w>"
    ],
    [
      "l",
      "u"
    ],
    [
      "es",
      "ome</w>"
    ],
    [
      "p",
      "i"
    ],
    [
      "soun",
      "ds</w>"
    ],
    [
      "s",
      "or"
    ],
    [
      "s",
      "es</w>"
    ],
    [
      "ag",
      "e</w>"
    ],
    [
      "r",
      "an"
    ],
    [
      "be",
      "cause</w>"
    ],
    [
      "d",
      "ing</w>"
    ],
    [
      "as",
      "k</w>"
    ],
    [
      "c",
      "ome</w>"
    ],
    [
      "ic",
      "h</w>"
    ],
    [
      "happ",
      "y</w>"
    ],
    [
      "may",
      "be</w>"
    ],
    [
      "c",
      "ool</w>"
    ],
    [
      "k",
      "e"
    ],
    [
      "in",
      "te"
    ],
    [
      "loo",
      "k</w>"
    ],
    [
      "ou",
      "s</w>"
    ],
    [
      "some",
      "one</w>"
    ],
    [
      "s",
      "ong</w>"
    ],
    [
      "t",
      "w"
    ],
    [
      "fu",
      "n</w>"
    ],
    [
      "o",
      "ther</w>"
    ],
    [
      "p",
      "s</w>"
    ],
    [
      "or",
      "y</w>"
    ],
    [
      "h",
      "ope</w>"
    ],
    [
      "ab",
      "ly</w>"
    ],
    [
      "aw",
      "esome</w>"
    ],
    [
      "kin",
      "d</w>"
    ],
    [
      "re",
      "e</w>"
    ],
    [
      "s",
      "ch"
    ],
    [
      "an",
      "s</w>"
    ],
    [
      "t",
      "ri"
    ],
    [
      "any",
      "thing</w>"
    ],
    [
      "ic",
      "k</w>"
    ],
    [
      "f",
      "fe"
    ],
    [
      "s",
      "m"
    ],
    [
      "us",
      "er"
    ],
    [
      "v",
      "al"
    ],
    [
      "b",
      "as"
    ],
    [
      "re",
      "ad"
    ],
    [
      "b",
      "oo"
    ],
    [
      "ac",
      "e</w>"
    ],
    [
      "m",
      "s</w>"
    ],
    [
      "e",
      "yes</w>"
    ],
    [
      "prob",
      "ably</w>"
    ],
    [
      "ti",
      "mes</w>"
    ],
    [
      "inte",
      "rest"
    ],
    [
      "l",
      "ot</w>"
    ],
    [
      "n",
      "ing</w>"
    ],
    [
      "a",
      "u"
    ],
    [
      "d",
      "er</w>"
    ],
    [
      "ever",
      "y</w>"
    ],
    [
      "sh",
      "ould</w>"
    ],
    [
      "s",
      "l"
    ],
    [
      "e",
      "as"
    ],
    [
      "ab",
      "le</w>"
    ],
    [
      "a",
      "r</w>"
    ],
    [
      "ta",
      "ke</w>"
    ],
    [
      "l",
      "ea"
    ],
    [
      "dr",
      "in"
    ],
    [
      "f",
      "f"
    ],
    [
      "ti",
      "l</w>"
    ],
    [
      "st",
      "ar"
    ],
    [
      "quest",
      "ion</w>"
    ],
    [
      "b",
      "ir"
    ],
    [
      "c",
      "an"
    ],
    [
      "i",
      "le</w>"
    ],
    [
      "c",
      "</w>"
    ],
    [
      "n",
      "a"
    ],
    [
      "b",
      "ack</w>"
    ],
    [
      "mus",
      "ic</w>"
    ],
    [
      "at",
      "s</w>"
    ],
    [
      "fri",
      "ends</w>"
    ],
    [
      "i",
      "es</w>"
    ],
    [
      "l",
      "es</w>"
    ],
    [
      "am",
      "es</w>"
    ],
    [
      "s",
      "id"
    ],
    [
      "wh",
      "ich</w>"
    ],
    [
      "mo",
      "vi"
    ],
    [
      "any",
      "one</w>"
    ],
    [
      "m",
      "m"
    ],
    [
      "sch",
      "ool</w>"
    ],
    [
      "al",
      "i"
    ],
    [
      "mb",
      "er</w>"
    ],
    [
      "s",
      "in"
    ],
    [
      "c",
      "oun"
    ],
    [
      "y",
      "et</w>"
    ],
    [
      "ha",
      "</w>"
    ],
    [
      "e",
      "p"
    ],
    [
      "m",
      "any</w>"
    ],
    [
      "t",
      "ell</w>"
    ],
    [
      "a",
      "in</w>"
    ],
    [
      "po",
      "in"
    ],
    [
      "gi",
      "ve</w>"
    ],
    [
      "ou",
      "ght</w>"
    ],
    [
      "user",
      "name</w>"
    ],
    [
      "aw",
      "</w>"
    ],
    [
      "br",
      "own</w>"
    ],
    [
      "c",
      "ou"
    ],
    [
      "b",
      "or"
    ],
    [
      "o",
      "ld</w>"
    ],
    [
      "in",
      "to</w>"
    ],
    [
      "you",
      "r"
    ],
    [
      "re",
      "ad</w>"
    ],
    [
      "ic",
      "k"
    ],
    [
      "at",
      "ing</w>"
    ],
    [
      "tt",
      "ing</w>"
    ],
    [
      "fu",
      "l</w>"
    ],
    [
      "ri",
      "te</w>"
    ],
    [
      "c",
      "re"
    ],
    [
      "un",
      "til</w>"
    ],
    [
      "o",
      "p</w>"
    ],
    [
      "ch",
      "an"
    ],
    [
      "tt",
      "le</w>"
    ],
    [
      "ver",
      "s"
    ],
    [
      "y",
      "s</w>"
    ],
    [
      "val",
      "id"
    ],
    [
      "i",
      "m</w>"
    ],
    [
      "tw",
      "o</w>"
    ],
    [
      "sor",
      "ry</w>"
    ],
    [
      "yea",
      "r</w>"
    ],
    [
      "s",
      "ed</w>"
    ],
    [
      "al",
      "l"
    ],
    [
      "m",
      "en"
    ],
    [
      "interest",
      "ing</w>"
    ],
    [
      "o",
      "ver</w>"
    ],
    [
      "th",
      "r"
    ],
    [
      "g",
      "las"
    ],
    [
      "wat",
      "ch"
    ],
    [
      "comm",
      "ent</w>"
    ],
    [
      "u",
      "</w>"
    ],
    [
      "ne",
      "ed</w>"
    ],
    [
      "an",
      "d"
    ],
    [
      "s",
      "ee"
    ],
    [
      "c",
      "k</w>"
    ],
    [
      "a",
      "a"
    ],
    [
      "p",
      "r"
    ],
    [
      "i",
      "l</w>"
    ],
    [
      "li",
      "ttle</w>"
    ],
    [
      "di",
      "dn</w>"
    ],
    [
      "c",
      "ha"
    ],
    [
      "oun",
      "d</w>"
    ],
    [
      "th",
      "o"
    ],
    [
      "me",
      "an</w>"
    ],
    [
      "bir",
      "th"
    ],
    [
      "la",
      "st</w>"
    ],
    [
      "il",
      "l"
    ],
    [
      "thin",
      "gs</w>"
    ],
    [
      "c",
      "las"
    ],
    [
      "du",
      "de</w>"
    ],
    [
      "be",
      "ing</w>"
    ],
    [
      "fin",
      "d</w>"
    ],
    [
      "d",
      "ays</w>"
    ],
    [
      "l",
      "ate</w>"
    ],
    [
      "en",
      "jo"
    ],
    [
      "ma",
      "de</w>"
    ],
    [
      "z",
      "z"
    ],
    [
      "st",
      "r"
    ],
    [
      "st",
      "ory</w>"
    ],
    [
      "sh",
      "it</w>"
    ],
    [
      "m",
      "u"
    ],
    [
      "f",
      "t</w>"
    ],
    [
      "ou",
      "r</w>"
    ],
    [
      "tu",
      "r"
    ],
    [
      "o",
      "ff</w>"
    ],
    [
      "s",
      "er"
    ],
    [
      "an",
      "s"
    ],
    [
      "8",
      "</w>"
    ],
    [
      "birth",
      "day</w>"
    ],
    [
      "6",
      "</w>"
    ],
    [
      "s",
      "s</w>"
    ],
    [
      "v",
      "e"
    ],
    [
      "l",
      "l"
    ],
    [
      "n",
      "i"
    ],
    [
      "v",
      "en</w>"
    ],
    [
      "n",
      "ope</w>"
    ],
    [
      "f",
      "ac"
    ],
    [
      "es",
      "e</w>"
    ],
    [
      "jo",
      "b</w>"
    ],
    [
      "ye",
      "ars</w>"
    ],
    [
      "u",
      "p"
    ],
    [
      "ec",
      "t</w>"
    ],
    [
      "h",
      "el"
    ],
    [
      "l",
      "at"
    ],
    [
      "en",
      "ce</w>"
    ],
    [
      "ch",
      "e"
    ],
    [
      "wh",
      "ile</w>"
    ],
    [
      "th",
      "ought</w>"
    ],
    [
      "po",
      "st</w>"
    ],
    [
      "i",
      "ons</w>"
    ],
    [
      "x",
      "t</w>"
    ],
    [
      "w",
      "ere</w>"
    ],
    [
      "an",
      "t</w>"
    ],
    [
      "g",
      "en"
    ],
    [
      "tho",
      "se</w>"
    ],
    [
      "d",
      "es"
    ],
    [
      "n",
      "ight</w>"
    ],
    [
      "pl",
      "eas"
    ],
    [
      "glas",
      "ses</w>"
    ],
    [
      "l",
      "ong</w>"
    ],
    [
      "no",
      "thing</w>"
    ],
    [
      "c",
      "or"
    ],
    [
      "g",
      "er</w>"
    ],
    [
      "bo",
      "dy</w>"
    ],
    [
      "h",
      "is</w>"
    ],
    [
      "c",
      "i"
    ],
    [
      "r",
      "/"
    ],
    [
      "af",
      "ter</w>"
    ],
    [
      "play",
      "ing</w>"
    ],
    [
      "cu",
      "r"
    ],
    [
      "t",
      "es</w>"
    ],
    [
      "ell",
      "o</w>"
    ],
    [
      "poin",
      "t</w>"
    ],
    [
      "gu",
      "ys</w>"
    ],
    [
      "ch",
      "o"
    ],
    [
      "en",
      "d"
    ],
    [
      "7",
      "</w>"
    ],
    [
      "ic",
      "s</w>"
    ],
    [
      "f",
      "uc"
    ],
    [
      "e",
      "ar"
    ],
    [
      "d",
      "re"
    ],
    [
      "l",
      "ess</w>"
    ],
    [
      "min",
      "d</w>"
    ],
    [
      "m",
      "ent</w>"
    ],
    [
      "a",
      "p"
    ],
    [
      "stu",
      "ff</w>"
    ],
    [
      "c",
      "lo"
    ],
    [
      "d",
      "one</w>"
    ],
    [
      "f",
      "ore</w>"
    ],
    [
      "d",
      "er"
    ],
    [
      "ma",
      "kes</w>"
    ],
    [
      "as",
      "su"
    ],
    [
      "su",
      "b"
    ],
    [
      "an",
      "i"
    ],
    [
      "every",
      "one</w>"
    ],
    [
      "s",
      "ec"
    ],
    [
      "some",
      "times</w>"
    ],
    [
      "the",
      "ir</w>"
    ],
    [
      "be",
      "fore</w>"
    ],
    [
      "en",
      "s</w>"
    ],
    [
      "o",
      "k"
    ],
    [
      "wan",
      "na</w>"
    ],
    [
      "v",
      "ide"
    ],
    [
      "wee",
      "k</w>"
    ],
    [
      "your",
      "self</w>"
    ],
    [
      "h",
      "ello</w>"
    ],
    [
      "g",
      "t</w>"
    ],
    [
      "ans",
      "w"
    ],
    [
      "g",
      "ames</w>"
    ],
    [
      "li",
      "e</w>"
    ],
    [
      "sh",
      "i"
    ],
    [
      "m",
      "y"
    ],
    [
      "v",
      "es</w>"
    ],
    [
      "9",
      "</w>"
    ],
    [
      "hi",
      "m</w>"
    ],
    [
      "m",
      "or"
    ],
    [
      "ea",
      "r</w>"
    ],
    [
      "/",
      "</w>"
    ],
    [
      "i",
      "ly</w>"
    ],
    [
      "l",
      "t</w>"
    ],
    [
      "s",
      "ha"
    ],
    [
      "gu",
      "y</w>"
    ],
    [
      "wi",
      "sh</w>"
    ],
    [
      "fa",
      "r</w>"
    ],
    [
      "con",
      "vers"
    ],
    [
      "sid",
      "e</w>"
    ],
    [
      "n",
      "er</w>"
    ],
    [
      "b",
      "it</w>"
    ],
    [
      "sh",
      "ow</w>"
    ],
    [
      "enjo",
      "y</w>"
    ],
    [
      "i",
      "m"
    ],
    [
      "n",
      "u"
    ],
    [
      "el",
      "se</w>"
    ],
    [
      "ti",
      "ve</w>"
    ],
    [
      "f",
      "ood</w>"
    ],
    [
      "w",
      "ow</w>"
    ],
    [
      "list",
      "en"
    ],
    [
      "ex",
      "c"
    ],
    [
      "n",
      "y</w>"
    ],
    [
      "ok",
      "ay</w>"
    ],
    [
      "every",
      "thing</w>"
    ],
    [
      "re",
      "a"
    ],
    [
      "d",
      "am"
    ],
    [
      "h",
      "ome</w>"
    ],
    [
      "re",
      "f"
    ],
    [
      "drin",
      "k</w>"
    ],
    [
      "ge",
      "tting</w>"
    ],
    [
      "h",
      "i</w>"
    ],
    [
      "ne",
      "xt</w>"
    ],
    [
      "c",
      "as"
    ],
    [
      "l",
      "uck</w>"
    ],
    [
      "g",
      "le</w>"
    ],
    [
      "wat",
      "ch</w>"
    ],
    [
      "ec",
      "i"
    ],
    [
      "bo",
      "red</w>"
    ],
    [
      "as",
      "on</w>"
    ],
    [
      "r",
      "s</w>"
    ],
    [
      "read",
      "y</w>"
    ],
    [
      "pleas",
      "e</w>"
    ],
    [
      "thr",
      "ough</w>"
    ],
    [
      "wor",
      "ld</w>"
    ],
    [
      "ha",
      "ven</w>"
    ],
    [
      "bi",
      "g</w>"
    ],
    [
      "y",
      "p"
    ],
    [
      "fav",
      "ou"
    ],
    [
      "s",
      "ing</w>"
    ],
    [
      "lea",
      "st</w>"
    ],
    [
      "ren",
      "t</w>"
    ],
    [
      "my",
      "self</w>"
    ],
    [
      "e",
      "at</w>"
    ],
    [
      "mo",
      "ved</w>"
    ],
    [
      "list",
      "en</w>"
    ],
    [
      "d",
      "own</w>"
    ],
    [
      "o",
      "k</w>"
    ],
    [
      "d",
      "an"
    ],
    [
      "su",
      "c"
    ],
    [
      "ha",
      "ving</w>"
    ],
    [
      "b",
      "le</w>"
    ],
    [
      "he",
      "ard</w>"
    ],
    [
      "p",
      "er</w>"
    ],
    [
      "gir",
      "l"
    ],
    [
      "vide",
      "o</w>"
    ],
    [
      "movi",
      "e</w>"
    ],
    [
      "d",
      "a</w>"
    ],
    [
      "di",
      "ffe"
    ],
    [
      "u",
      "su"
    ],
    [
      "do",
      "es"
    ],
    [
      "f",
      "am"
    ],
    [
      "ch",
      "ec"
    ],
    [
      "loo",
      "king</w>"
    ],
    [
      "watch",
      "ing</w>"
    ],
    [
      "g",
      "l"
    ],
    [
      "tru",
      "e</w>"
    ],
    [
      "ha",
      "te</w>"
    ],
    [
      "c",
      "r"
    ],
    [
      "de",
      "fin"
    ],
    [
      "min",
      "e</w>"
    ],
    [
      "does",
      "n</w>"
    ],
    [
      "th",
      "er"
    ],
    [
      "ic",
      "ally</w>"
    ],
    [
      "favou",
      "rite</w>"
    ],
    [
      "l",
      "dn</w>"
    ],
    [
      "in",
      "ter"
    ],
    [
      "tru",
      "th</w>"
    ],
    [
      "f",
      "o"
    ],
    [
      "com",
      "p"
    ],
    [
      "bl",
      "ack</w>"
    ],
    [
      "1",
      "0"
    ],
    [
      "hea",
      "d</w>"
    ],
    [
      "a",
      "re"
    ],
    [
      "hi",
      "gh</w>"
    ],
    [
      "it",
      "ely</w>"
    ],
    [
      "hel",
      "p</w>"
    ],
    [
      "quest",
      "ions</w>"
    ],
    [
      "c",
      "ar"
    ],
    [
      "st",
      "er</w>"
    ],
    [
      "s",
      "we"
    ],
    [
      "el",
      "e"
    ],
    [
      "di",
      "s"
    ],
    [
      "fe",
      "w</w>"
    ],
    [
      "convers",
      "ation</w>"
    ],
    [
      "ha",
      "l"
    ],
    [
      "wee",
      "k"
    ],
    [
      "s",
      "en"
    ],
    [
      "h",
      "on"
    ],
    [
      "defin",
      "itely</w>"
    ],
    [
      "dam",
      "n</w>"
    ],
    [
      "ar",
      "y</w>"
    ],
    [
      "g",
      "on"
    ],
    [
      "at",
      "u"
    ],
    [
      "th",
      "s</w>"
    ],
    [
      "is",
      "h</w>"
    ],
    [
      "haha",
      "ha</w>"
    ],
    [
      "f",
      "an</w>"
    ],
    [
      "l",
      "on"
    ],
    [
      "en",
      "ts</w>"
    ],
    [
      "h",
      "h"
    ],
    [
      "answ",
      "er</w>"
    ],
    [
      "tr",
      "a"
    ],
    [
      "pl",
      "ace</w>"
    ],
    [
      "gre",
      "en</w>"
    ],
    [
      "is",
      "n</w>"
    ],
    [
      "at",
      "ed</w>"
    ],
    [
      "on",
      "ce</w>"
    ],
    [
      "m",
      "ight</w>"
    ],
    [
      "bo",
      "th</w>"
    ],
    [
      "sl",
      "eep</w>"
    ],
    [
      "1",
      "0</w>"
    ],
    [
      "ti",
      "on"
    ],
    [
      "pi",
      "zz"
    ],
    [
      "d",
      "ea"
    ],
    [
      "e",
      "y</w>"
    ],
    [
      "m",
      "i"
    ],
    [
      "m",
      "an"
    ],
    [
      "en",
      "ough</w>"
    ],
    [
      "wi",
      "th"
    ],
    [
      "e",
      "d"
    ],
    [
      "t",
      "om"
    ],
    [
      "re",
      "s</w>"
    ],
    [
      "gon",
      "na</w>"
    ],
    [
      "ar",
      "i"
    ],
    [
      "fe",
      "el"
    ],
    [
      "sa",
      "id</w>"
    ],
    [
      "as",
      "s</w>"
    ],
    [
      "re",
      "al</w>"
    ],
    [
      "w",
      "om"
    ],
    [
      "h",
      "ot</w>"
    ],
    [
      "par",
      "t</w>"
    ],
    [
      "ic",
      "al</w>"
    ],
    [
      "b",
      "rea"
    ],
    [
      "b",
      "ro"
    ],
    [
      "pizz",
      "a</w>"
    ],
    [
      "d",
      "ar"
    ],
    [
      "ph",
      "one</w>"
    ],
    [
      "m",
      "p"
    ],
    [
      "assu",
      "me</w>"
    ],
    [
      "t",
      "en</w>"
    ],
    [
      "wor",
      "d</w>"
    ],
    [
      "d",
      "ri"
    ],
    [
      "la",
      "r</w>"
    ],
    [
      "b",
      "a"
    ],
    [
      "ir",
      "d</w>"
    ],
    [
      "se",
      "en</w>"
    ],
    [
      "co",
      "ffe"
    ],
    [
      "i",
      "ther</w>"
    ],
    [
      "ide",
      "a</w>"
    ],
    [
      "d",
      "on"
    ],
    [
      "wh",
      "o"
    ],
    [
      "e",
      "st</w>"
    ],
    [
      "ch",
      "ick"
    ],
    [
      "st",
      "e"
    ],
    [
      "con",
      "gr"
    ],
    [
      "ag",
      "ain</w>"
    ],
    [
      "r",
      "oo"
    ],
    [
      "es",
      "s"
    ],
    [
      "har",
      "d</w>"
    ],
    [
      "coffe",
      "e</w>"
    ],
    [
      "t",
      "yp"
    ],
    [
      "tr",
      "ying</w>"
    ],
    [
      "col",
      "le"
    ],
    [
      "colle",
      "ge</w>"
    ],
    [
      "g",
      "er"
    ],
    [
      "u",
      "/"
    ],
    [
      "ati",
      "on"
    ],
    [
      "d",
      "in"
    ],
    [
      "m",
      "id</w>"
    ],
    [
      "valid",
      "ation</w>"
    ],
    [
      "hou",
      "se</w>"
    ],
    [
      "t",
      "in"
    ],
    [
      "i",
      "st</w>"
    ],
    [
      "g",
      "g"
    ],
    [
      "wat",
      "er</w>"
    ],
    [
      "s",
      "ou"
    ],
    [
      "f",
      "uck</w>"
    ],
    [
      "bas",
      "ed</w>"
    ],
    [
      "ref",
      "er"
    ],
    [
      "f",
      "ru"
    ],
    [
      "ati",
      "ons</w>"
    ],
    [
      "d",
      "ec"
    ],
    [
      "m",
      "is"
    ],
    [
      "fac",
      "t</w>"
    ],
    [
      "on",
      "d</w>"
    ],
    [
      "z",
      "ing</w>"
    ],
    [
      "al",
      "right</w>"
    ],
    [
      "d",
      "ic"
    ],
    [
      "z",
      "e</w>"
    ],
    [
      "w",
      "in"
    ],
    [
      "ye",
      "p</w>"
    ],
    [
      "wor",
      "ds</w>"
    ],
    [
      "ren",
      "tly</w>"
    ],
    [
      "or",
      "r"
    ],
    [
      "it",
      "ing</w>"
    ],
    [
      "ac",
      "h</w>"
    ],
    [
      "fin",
      "e</w>"
    ],
    [
      "y",
      "a</w>"
    ],
    [
      "pl",
      "an"
    ],
    [
      "l",
      "ine</w>"
    ],
    [
      "boo",
      "k</w>"
    ],
    [
      "re",
      "moved</w>"
    ],
    [
      "us",
      "ed</w>"
    ],
    [
      "ou",
      "t"
    ],
    [
      "up",
      "vo"
    ],
    [
      "p",
      "ri"
    ],
    [
      "w",
      "ri"
    ],
    [
      "to",
      "p</w>"
    ],
    [
      "z",
      "</w>"
    ],
    [
      "bor",
      "n</w>"
    ],
    [
      "d",
      "ed</w>"
    ],
    [
      "b",
      "ed</w>"
    ],
    [
      "or",
      "t</w>"
    ],
    [
      "ear",
      "ly</w>"
    ],
    [
      "hou",
      "rs</w>"
    ],
    [
      "refer",
      "red</w>"
    ],
    [
      "do",
      "g</w>"
    ],
    [
      "hea",
      "r</w>"
    ],
    [
      "wa",
      "it</w>"
    ],
    [
      "su",
      "r"
    ],
    [
      "w",
      "as"
    ],
    [
      "re",
      "p"
    ],
    [
      "s",
      "k"
    ],
    [
      "th",
      "read</w>"
    ],
    [
      "diffe",
      "rent</w>"
    ],
    [
      "m",
      "at"
    ],
    [
      "on",
      "es</w>"
    ],
    [
      "it",
      "ed</w>"
    ],
    [
      "o",
      "b"
    ],
    [
      "clas",
      "s</w>"
    ],
    [
      "ca",
      "r</w>"
    ],
    [
      "as",
      "ked</w>"
    ],
    [
      "v",
      "</w>"
    ],
    [
      "u",
      "e</w>"
    ],
    [
      "an",
      "ds</w>"
    ],
    [
      "usu",
      "ally</w>"
    ],
    [
      "p",
      "m</w>"
    ],
    [
      "star",
      "t</w>"
    ],
    [
      "n",
      "or"
    ],
    [
      "c",
      "ri"
    ],
    [
      "re",
      "l"
    ],
    [
      "bu",
      "r"
    ],
    [
      "aw",
      "ay</w>"
    ],
    [
      "a",
      "ma"
    ],
    [
      "am",
      "a</w>"
    ],
    [
      "k",
      "eep</w>"
    ],
    [
      "t",
      "end</w>"
    ],
    [
      "g",
      "a"
    ],
    [
      "al",
      "ready</w>"
    ],
    [
      "h",
      "ell</w>"
    ],
    [
      "g",
      "in"
    ],
    [
      "hal",
      "f</w>"
    ],
    [
      "c",
      "oo"
    ],
    [
      "t",
      "ic</w>"
    ],
    [
      "e",
      "g"
    ],
    [
      "stu",
      "d"
    ],
    [
      "ow",
      "s</w>"
    ],
    [
      "li",
      "c"
    ],
    [
      "f",
      "un"
    ],
    [
      "t",
      "en"
    ],
    [
      "dar",
      "k</w>"
    ],
    [
      "tu",
      "re</w>"
    ],
    [
      "n",
      "ed</w>"
    ],
    [
      "o",
      "ff"
    ],
    [
      "f",
      "l"
    ],
    [
      "tri",
      "ed</w>"
    ],
    [
      "listen",
      "ing</w>"
    ],
    [
      "2",
      "0"
    ],
    [
      "fuc",
      "king</w>"
    ],
    [
      "an",
      "other</w>"
    ],
    [
      "al",
      "s</w>"
    ],
    [
      "ar",
      "ound</w>"
    ],
    [
      "k",
      "n"
    ],
    [
      "week",
      "end</w>"
    ],
    [
      "ou",
      "s"
    ],
    [
      "kin",
      "da</w>"
    ],
    [
      "min",
      "u"
    ],
    [
      "ro",
      "ck</w>"
    ],
    [
      "c",
      "at</w>"
    ],
    [
      "c",
      "lu"
    ],
    [
      "t",
      "un"
    ],
    [
      "s",
      "ad</w>"
    ],
    [
      "cur",
      "rently</w>"
    ],
    [
      "p",
      "an"
    ],
    [
      "l",
      "ly</w>"
    ],
    [
      "en",
      "tly</w>"
    ],
    [
      "am",
      "er"
    ],
    [
      "tal",
      "king</w>"
    ],
    [
      "coun",
      "try</w>"
    ],
    [
      "p",
      "ing</w>"
    ],
    [
      "in",
      "g"
    ],
    [
      "ou",
      "ldn</w>"
    ],
    [
      "li",
      "e"
    ],
    [
      "di",
      "e</w>"
    ],
    [
      "swe",
      "et</w>"
    ],
    [
      "fam",
      "ily</w>"
    ],
    [
      "_",
      "</w>"
    ],
    [
      "a",
      "pp"
    ],
    [
      "9",
      "9"
    ],
    [
      "w",
      "ard</w>"
    ],
    [
      "thin",
      "king</w>"
    ],
    [
      "o",
      "l"
    ],
    [
      "cho",
      "col"
    ],
    [
      "f",
      "ree</w>"
    ],
    [
      "w",
      "ent</w>"
    ],
    [
      "po",
      "st"
    ],
    [
      "t",
      "al</w>"
    ],
    [
      "na",
      "h</w>"
    ],
    [
      "nu",
      "mber</w>"
    ],
    [
      "valid",
      "ate</w>"
    ],
    [
      "prob",
      "le"
    ],
    [
      "b",
      "ri"
    ],
    [
      "r",
      "ong</w>"
    ],
    [
      "s",
      "on"
    ],
    [
      "b",
      "and</w>"
    ],
    [
      "w",
      "ar"
    ],
    [
      "t",
      "on"
    ],
    [
      "wan",
      "ted</w>"
    ],
    [
      "op",
      "in"
    ],
    [
      "te",
      "a</w>"
    ],
    [
      "ta",
      "st"
    ],
    [
      "amer",
      "ic"
    ],
    [
      "t",
      "ic"
    ],
    [
      "wha",
      "t"
    ],
    [
      "we",
      "ird</w>"
    ],
    [
      "ac",
      "k"
    ],
    [
      "3",
      "0</w>"
    ],
    [
      "au",
      "ti"
    ],
    [
      "me",
      "et</w>"
    ],
    [
      "go",
      "d</w>"
    ],
    [
      "qu",
      "o"
    ],
    [
      "li",
      "ter"
    ],
    [
      "p",
      "or"
    ],
    [
      "qu",
      "ite</w>"
    ],
    [
      "pre",
      "s"
    ],
    [
      "m",
      "ay</w>"
    ],
    [
      "mon",
      "ey</w>"
    ],
    [
      "ag",
      "o</w>"
    ],
    [
      "movi",
      "es</w>"
    ],
    [
      "w",
      "rong</w>"
    ],
    [
      "comp",
      "li"
    ],
    [
      "ea",
      "k</w>"
    ],
    [
      "un",
      "der"
    ],
    [
      "al",
      "bu"
    ],
    [
      "orr",
      "ow</w>"
    ],
    [
      "clo",
      "se</w>"
    ],
    [
      "see",
      "ms</w>"
    ],
    [
      "pu",
      "t</w>"
    ],
    [
      "ag",
      "ree</w>"
    ],
    [
      "ama",
      "zing</w>"
    ],
    [
      "ma",
      "l</w>"
    ],
    [
      "cou",
      "r"
    ],
    [
      "ma",
      "g"
    ],
    [
      "go",
      "tt"
    ],
    [
      "li",
      "st</w>"
    ],
    [
      "con",
      "f"
    ],
    [
      "loo",
      "ks</w>"
    ],
    [
      "ke",
      "y</w>"
    ],
    [
      "e",
      "ither</w>"
    ],
    [
      "ma",
      "king</w>"
    ],
    [
      "th",
      "o</w>"
    ],
    [
      "th",
      "ree</w>"
    ],
    [
      "chocol",
      "ate</w>"
    ],
    [
      "a",
      "h</w>"
    ],
    [
      "sh",
      "ort</w>"
    ],
    [
      "bl",
      "ue</w>"
    ],
    [
      "o",
      "f"
    ],
    [
      "th",
      "ese</w>"
    ],
    [
      "al",
      "most</w>"
    ],
    [
      "w",
      "on"
    ],
    [
      "with",
      "out</w>"
    ],
    [
      "tom",
      "orrow</w>"
    ],
    [
      "c",
      "all"
    ],
    [
      "c",
      "all</w>"
    ],
    [
      "din",
      "ner</w>"
    ],
    [
      "chick",
      "en</w>"
    ],
    [
      "re",
      "ali"
    ],
    [
      "b",
      "s</w>"
    ],
    [
      "me",
      "ans</w>"
    ],
    [
      "e",
      "l</w>"
    ],
    [
      "per",
      "f"
    ],
    [
      "t",
      "ro"
    ],
    [
      "read",
      "ing</w>"
    ],
    [
      "ow",
      "er</w>"
    ],
    [
      "sin",
      "gle</w>"
    ],
    [
      "un",
      "k</w>"
    ],
    [
      "ar",
      "t</w>"
    ],
    [
      "i",
      "k"
    ],
    [
      "po",
      "si"
    ],
    [
      "f",
      "er</w>"
    ],
    [
      "be",
      "auti"
    ],
    [
      "l",
      "un"
    ],
    [
      "k",
      "id"
    ],
    [
      "w",
      "on</w>"
    ],
    [
      "ac",
      "h"
    ],
    [
      "1",
      "5</w>"
    ],
    [
      "do",
      "gs</w>"
    ],
    [
      "sin",
      "ce</w>"
    ],
    [
      "hou",
      "r</w>"
    ],
    [
      "0",
      "0</w>"
    ],
    [
      "cas",
      "u"
    ],
    [
      "hi",
      "story</w>"
    ],
    [
      "play",
      "ed</w>"
    ],
    [
      "b",
      "er"
    ],
    [
      "un",
      "i"
    ],
    [
      "congr",
      "ats</w>"
    ],
    [
      "cu",
      "te</w>"
    ],
    [
      "b",
      "el"
    ],
    [
      "la",
      "u"
    ],
    [
      "feel",
      "ing</w>"
    ],
    [
      "inter",
      "n"
    ],
    [
      "cha",
      "t</w>"
    ],
    [
      "c",
      "ra"
    ],
    [
      "i",
      "ence</w>"
    ],
    [
      "p",
      "e</w>"
    ],
    [
      "fu",
      "lly</w>"
    ],
    [
      "pers",
      "on"
    ],
    [
      "ad",
      "e</w>"
    ],
    [
      "m",
      "om"
    ],
    [
      "p",
      "ic"
    ],
    [
      "suc",
      "ks</w>"
    ],
    [
      "am",
      "p</w>"
    ],
    [
      "te",
      "ly</w>"
    ],
    [
      "n",
      "ee"
    ],
    [
      "bu",
      "y</w>"
    ],
    [
      "ch",
      "i"
    ],
    [
      "chec",
      "k</w>"
    ],
    [
      "h",
      "and"
    ],
    [
      "m",
      "il"
    ],
    [
      "l",
      "an"
    ],
    [
      "wi",
      "fe</w>"
    ],
    [
      "li",
      "ving</w>"
    ],
    [
      "be",
      "lie"
    ],
    [
      "c",
      "har"
    ],
    [
      "gl",
      "ad</w>"
    ],
    [
      "sec",
      "ond</w>"
    ],
    [
      "su",
      "ch</w>"
    ],
    [
      "ex",
      "ac"
    ],
    [
      "f",
      "li"
    ],
    [
      "of",
      "ten</w>"
    ],
    [
      "su",
      "mm"
    ],
    [
      "beauti",
      "ful</w>"
    ],
    [
      "le",
      "ft</w>"
    ],
    [
      "t",
      "b"
    ],
    [
      "p",
      "s"
    ],
    [
      "ha",
      "ik"
    ],
    [
      "su",
      "per</w>"
    ],
    [
      "ay",
      "ing</w>"
    ],
    [
      "w",
      "rite</w>"
    ],
    [
      "m",
      "m</w>"
    ],
    [
      "b",
      "ab"
    ],
    [
      "w",
      "al"
    ],
    [
      "p",
      "in"
    ],
    [
      "i",
      "sh"
    ],
    [
      "c",
      "er"
    ],
    [
      "le",
      "ar"
    ],
    [
      "d",
      "ate</w>"
    ],
    [
      "coun",
      "t</w>"
    ],
    [
      "ous",
      "ly</w>"
    ],
    [
      "en",
      "ti"
    ],
    [
      "in",
      "gs</w>"
    ],
    [
      "re",
      "me"
    ],
    [
      "fa",
      "st</w>"
    ],
    [
      "or",
      "s</w>"
    ],
    [
      "at",
      "ely</w>"
    ],
    [
      "happ",
      "en"
    ],
    [
      "rep",
      "ly</w>"
    ],
    [
      "wom",
      "an</w>"
    ],
    [
      "g",
      "li"
    ],
    [
      "ser",
      "i"
    ],
    [
      "albu",
      "m</w>"
    ],
    [
      "v",
      "is"
    ],
    [
      "m",
      "ate</w>"
    ],
    [
      "in",
      "st"
    ],
    [
      "don",
      "t</w>"
    ],
    [
      "f",
      "an"
    ],
    [
      "re",
      "min"
    ],
    [
      "fin",
      "ish"
    ],
    [
      "intern",
      "et</w>"
    ],
    [
      "t",
      "ally</w>"
    ],
    [
      "sp",
      "eci"
    ],
    [
      "com",
      "pl"
    ],
    [
      "who",
      "le</w>"
    ],
    [
      "chan",
      "ge</w>"
    ],
    [
      "ho",
      "b"
    ],
    [
      "o",
      "c"
    ],
    [
      "n",
      "ames</w>"
    ],
    [
      "su",
      "per"
    ],
    [
      "c",
      "ame</w>"
    ],
    [
      "s",
      "aw</w>"
    ],
    [
      "soun",
      "d</w>"
    ],
    [
      "g",
      "in</w>"
    ],
    [
      "po",
      "s"
    ],
    [
      "se",
      "ason</w>"
    ],
    [
      "d",
      "a"
    ],
    [
      "st",
      "ran"
    ],
    [
      "belie",
      "ve</w>"
    ],
    [
      "do",
      "m</w>"
    ],
    [
      "girl",
      "friend</w>"
    ],
    [
      "mu",
      "st</w>"
    ],
    [
      "dr",
      "unk</w>"
    ],
    [
      "an",
      "a</w>"
    ],
    [
      "or",
      "i"
    ],
    [
      "as",
      "king</w>"
    ],
    [
      "o",
      "ver"
    ],
    [
      "f",
      "ound</w>"
    ],
    [
      "c",
      "ele"
    ],
    [
      "son",
      "gs</w>"
    ],
    [
      "k",
      "a</w>"
    ],
    [
      "men",
      "tion</w>"
    ],
    [
      "bl",
      "on"
    ],
    [
      "wi",
      "se</w>"
    ],
    [
      "tur",
      "n</w>"
    ],
    [
      "m",
      "a</w>"
    ],
    [
      "gr",
      "a"
    ],
    [
      "wor",
      "th</w>"
    ],
    [
      "p",
      "ick</w>"
    ],
    [
      "stud",
      "ying</w>"
    ],
    [
      "m",
      "id"
    ],
    [
      "sh",
      "o"
    ],
    [
      "g",
      "y</w>"
    ],
    [
      "rel",
      "ation"
    ],
    [
      "relation",
      "shi"
    ],
    [
      "st",
      "ay</w>"
    ],
    [
      "st",
      "and</w>"
    ],
    [
      "blon",
      "de</w>"
    ],
    [
      "w",
      "o"
    ],
    [
      "wor",
      "king</w>"
    ],
    [
      "f",
      "re"
    ],
    [
      "for",
      "tun"
    ],
    [
      "pu",
      "r"
    ],
    [
      "i",
      "an</w>"
    ],
    [
      "rec",
      "ently</w>"
    ],
    [
      "g",
      "oo"
    ],
    [
      "ti",
      "es</w>"
    ],
    [
      "r",
      "ing</w>"
    ],
    [
      "see",
      "m</w>"
    ],
    [
      "mar",
      "ri"
    ],
    [
      "liter",
      "ally</w>"
    ],
    [
      "e",
      "ating</w>"
    ],
    [
      "x",
      "d</w>"
    ],
    [
      "is",
      "o"
    ],
    [
      "z",
      "y</w>"
    ],
    [
      "watch",
      "ed</w>"
    ],
    [
      "summ",
      "er</w>"
    ],
    [
      "cour",
      "se</w>"
    ],
    [
      "v",
      "y</w>"
    ],
    [
      "ex",
      "p"
    ],
    [
      "ee",
      "ping</w>"
    ],
    [
      "t",
      "ac"
    ],
    [
      "hu",
      "g</w>"
    ],
    [
      "u",
      "m</w>"
    ],
    [
      "pre",
      "fer</w>"
    ],
    [
      "fru",
      "it</w>"
    ],
    [
      "us",
      "er</w>"
    ],
    [
      "fun",
      "ny</w>"
    ],
    [
      "so",
      "ci"
    ],
    [
      "l",
      "in"
    ],
    [
      "te",
      "x"
    ],
    [
      "st",
      "re"
    ],
    [
      "w",
      "ear</w>"
    ],
    [
      "b",
      "ar</w>"
    ],
    [
      "cele",
      "br"
    ],
    [
      "de",
      "li"
    ],
    [
      "eci",
      "ally</w>"
    ],
    [
      "for",
      "ward</w>"
    ],
    [
      "co",
      "ld</w>"
    ],
    [
      "so",
      "lu"
    ],
    [
      "sm",
      "all</w>"
    ],
    [
      "s",
      "n"
    ],
    [
      "w",
      "ouldn</w>"
    ],
    [
      "des",
      "cri"
    ],
    [
      "ru",
      "n</w>"
    ],
    [
      "th",
      "ats</w>"
    ],
    [
      "fe",
      "male</w>"
    ],
    [
      "com",
      "pu"
    ],
    [
      "l",
      "and</w>"
    ],
    [
      "re",
      "sp"
    ],
    [
      "z",
      "ed</w>"
    ],
    [
      "1",
      "6</w>"
    ],
    [
      "s",
      "it"
    ],
    [
      "so",
      "on</w>"
    ],
    [
      "opin",
      "ion</w>"
    ],
    [
      "t",
      "v</w>"
    ],
    [
      "sh",
      "ir"
    ],
    [
      "re",
      "st</w>"
    ],
    [
      "f",
      "il"
    ],
    [
      "you",
      "n"
    ],
    [
      "men",
      "ts</w>"
    ],
    [
      "wa",
      "iting</w>"
    ],
    [
      "re",
      "ason</w>"
    ],
    [
      "a",
      "p</w>"
    ],
    [
      "exc",
      "ited</w>"
    ],
    [
      "y",
      "ay</w>"
    ],
    [
      "sp",
      "eak</w>"
    ],
    [
      "mor",
      "ning</w>"
    ],
    [
      "ra",
      "ther</w>"
    ],
    [
      "w",
      "el"
    ],
    [
      "aa",
      "aa"
    ],
    [
      "un",
      "fortun"
    ],
    [
      "go",
      "es</w>"
    ],
    [
      "dre",
      "am</w>"
    ],
    [
      "ar",
      "ing</w>"
    ],
    [
      "a",
      "ke</w>"
    ],
    [
      "si",
      "ve</w>"
    ],
    [
      "st",
      "ic</w>"
    ],
    [
      "li",
      "ght</w>"
    ],
    [
      "es",
      "p"
    ],
    [
      "esp",
      "ecially</w>"
    ],
    [
      "br",
      "o</w>"
    ],
    [
      "i",
      "e</w>"
    ],
    [
      "ep",
      "iso"
    ],
    [
      "/",
      "u/"
    ],
    [
      "ex",
      "per"
    ],
    [
      "po",
      "pu"
    ],
    [
      "k",
      "er</w>"
    ],
    [
      "wri",
      "ting</w>"
    ],
    [
      "call",
      "ed</w>"
    ],
    [
      "was",
      "n</w>"
    ],
    [
      "hon",
      "est"
    ],
    [
      "l",
      "ar"
    ],
    [
      "bab",
      "y</w>"
    ],
    [
      "re",
      "comm"
    ],
    [
      "f",
      "la"
    ],
    [
      "ac",
      "c"
    ],
    [
      "n",
      "ec"
    ],
    [
      "h",
      "in"
    ],
    [
      "2",
      "5</w>"
    ],
    [
      "m",
      "on</w>"
    ],
    [
      "e",
      "w</w>"
    ],
    [
      "al",
      "one</w>"
    ],
    [
      "ren",
      "ce</w>"
    ],
    [
      "wha",
      "ts</w>"
    ],
    [
      "drin",
      "king</w>"
    ],
    [
      "posi",
      "tive</w>"
    ],
    [
      "ch",
      "il"
    ],
    [
      "c",
      "at"
    ],
    [
      "t",
      "oo"
    ],
    [
      "bo",
      "x</w>"
    ],
    [
      "exac",
      "tly</w>"
    ],
    [
      "lat",
      "ely</w>"
    ],
    [
      "bor",
      "ing</w>"
    ],
    [
      "g",
      "am"
    ],
    [
      "m",
      "en</w>"
    ],
    [
      "k",
      "ill</w>"
    ],
    [
      "perf",
      "ect</w>"
    ],
    [
      "lan",
      "gu"
    ],
    [
      "k",
      "it"
    ],
    [
      "i",
      "li"
    ],
    [
      "pa",
      "ren"
    ],
    [
      "jo",
      "ke</w>"
    ],
    [
      "o",
      "ther"
    ],
    [
      "other",
      "wise</w>"
    ],
    [
      "s",
      "po"
    ],
    [
      "f",
      "y</w>"
    ],
    [
      "l",
      "uc"
    ],
    [
      "sh",
      "it"
    ],
    [
      "an",
      "ing</w>"
    ],
    [
      "ton",
      "ight</w>"
    ],
    [
      "s",
      "al"
    ],
    [
      "k",
      "y</w>"
    ],
    [
      "unfortun",
      "ately</w>"
    ],
    [
      "finish",
      "ed</w>"
    ],
    [
      "boo",
      "ks</w>"
    ],
    [
      "st",
      "or"
    ],
    [
      "p",
      "ay</w>"
    ],
    [
      "fri",
      "day</w>"
    ],
    [
      "d",
      "me</w>"
    ],
    [
      "cor",
      "rec"
    ],
    [
      "oo",
      "t</w>"
    ],
    [
      "h",
      "er"
    ],
    [
      "e",
      "m"
    ],
    [
      "to",
      "tally</w>"
    ],
    [
      "th",
      "ers</w>"
    ],
    [
      "lo",
      "ved</w>"
    ],
    [
      "any",
      "body</w>"
    ],
    [
      "1",
      "8</w>"
    ],
    [
      "gott",
      "a</w>"
    ],
    [
      "y",
      "o</w>"
    ],
    [
      "paren",
      "ts</w>"
    ],
    [
      "s",
      "ays</w>"
    ],
    [
      "id",
      "k</w>"
    ],
    [
      "ep",
      "tion"
    ],
    [
      "f",
      "ic</w>"
    ],
    [
      "haik",
      "u</w>"
    ],
    [
      "ar",
      "gu"
    ],
    [
      "f",
      "ic"
    ],
    [
      "upvo",
      "te</w>"
    ],
    [
      "e",
      "t"
    ],
    [
      "wor",
      "st</w>"
    ],
    [
      "on",
      "line</w>"
    ],
    [
      "casu",
      "al</w>"
    ],
    [
      "c",
      "es</w>"
    ],
    [
      "su",
      "p"
    ],
    [
      "sup",
      "po"
    ],
    [
      "lat",
      "er</w>"
    ],
    [
      "gh",
      "ts</w>"
    ],
    [
      "roo",
      "m</w>"
    ],
    [
      "remin",
      "dme</w>"
    ],
    [
      "o",
      "s</w>"
    ],
    [
      "ma",
      "th</w>"
    ],
    [
      "clas",
      "s"
    ],
    [
      "e",
      "m</w>"
    ],
    [
      "ti",
      "v"
    ],
    [
      "y",
      "up</w>"
    ],
    [
      "el",
      "ec"
    ],
    [
      "p",
      "as"
    ],
    [
      "lun",
      "ch</w>"
    ],
    [
      "sha",
      "re</w>"
    ],
    [
      "c",
      "al"
    ],
    [
      "proble",
      "m</w>"
    ],
    [
      "are",
      "n</w>"
    ],
    [
      "al",
      "ity</w>"
    ],
    [
      "ow",
      "n"
    ],
    [
      "out",
      "side</w>"
    ],
    [
      "be",
      "er</w>"
    ],
    [
      "k",
      "en</w>"
    ],
    [
      "cre",
      "am</w>"
    ],
    [
      "h",
      "un"
    ],
    [
      "minu",
      "tes</w>"
    ],
    [
      "reme",
      "mber</w>"
    ],
    [
      "americ",
      "an</w>"
    ],
    [
      "so",
      "ap</w>"
    ],
    [
      "h",
      "ands</w>"
    ],
    [
      "hh",
      "h</w>"
    ],
    [
      "b",
      "at"
    ],
    [
      "l",
      "ma"
    ],
    [
      "lma",
      "o</w>"
    ],
    [
      "lon",
      "ely</w>"
    ],
    [
      "st",
      "ly</w>"
    ],
    [
      "u",
      "t</w>"
    ],
    [
      "be",
      "come</w>"
    ],
    [
      "honest",
      "ly</w>"
    ],
    [
      "mo",
      "ve</w>"
    ],
    [
      "you",
      "tu"
    ],
    [
      "oo",
      "oo"
    ],
    [
      "ca",
      "ke</w>"
    ],
    [
      "b",
      "es</w>"
    ],
    [
      "g",
      "ing</w>"
    ],
    [
      "g",
      "ar"
    ],
    [
      "us",
      "ing</w>"
    ],
    [
      "marri",
      "ed</w>"
    ],
    [
      "ter",
      "ri"
    ],
    [
      "che",
      "ese</w>"
    ],
    [
      "p",
      "en"
    ],
    [
      "i",
      "g"
    ],
    [
      "ad",
      "u"
    ],
    [
      "v",
      "en"
    ],
    [
      "y",
      "ed</w>"
    ],
    [
      "o",
      "o</w>"
    ],
    [
      "ag",
      "es</w>"
    ],
    [
      "par",
      "t"
    ],
    [
      "in",
      "ing</w>"
    ],
    [
      "y",
      "s"
    ],
    [
      "ve",
      "l</w>"
    ],
    [
      "ad",
      "a</w>"
    ],
    [
      "fa",
      "ir</w>"
    ],
    [
      "f",
      "r"
    ],
    [
      "mo",
      "stly</w>"
    ],
    [
      "oo",
      "r</w>"
    ],
    [
      "ell",
      "ow</w>"
    ],
    [
      "h",
      "mm</w>"
    ],
    [
      "happen",
      "ed</w>"
    ],
    [
      "c",
      "ity</w>"
    ],
    [
      "hu",
      "man</w>"
    ],
    [
      "ati",
      "ve</w>"
    ],
    [
      "e",
      "ment</w>"
    ],
    [
      "es",
      "sed</w>"
    ],
    [
      "r",
      "us"
    ],
    [
      "ti",
      "red</w>"
    ],
    [
      "t",
      "ell"
    ],
    [
      "pp",
      "ed</w>"
    ],
    [
      "wor",
      "ks</w>"
    ],
    [
      "lo",
      "st</w>"
    ],
    [
      "t",
      "re"
    ],
    [
      "1",
      "7</w>"
    ],
    [
      "aw",
      "w</w>"
    ],
    [
      "v",
      "ari"
    ],
    [
      "2",
      "3</w>"
    ],
    [
      "under",
      "stand</w>"
    ],
    [
      "fin",
      "ally</w>"
    ],
    [
      "eg",
      "gs</w>"
    ],
    [
      "bas",
      "ically</w>"
    ],
    [
      "wh",
      "ite</w>"
    ],
    [
      "b",
      "an"
    ],
    [
      "d",
      "uc"
    ],
    [
      "your",
      "s</w>"
    ],
    [
      "su",
      "n"
    ],
    [
      "s",
      "ion</w>"
    ],
    [
      "k",
      "ill"
    ],
    [
      "wel",
      "come</w>"
    ],
    [
      "popu",
      "lar</w>"
    ],
    [
      "p",
      "ple</w>"
    ],
    [
      "pl",
      "ans</w>"
    ],
    [
      "mon",
      "ths</w>"
    ],
    [
      "mon",
      "th</w>"
    ],
    [
      "gen",
      "er"
    ],
    [
      "st",
      "ate</w>"
    ],
    [
      "ani",
      "me</w>"
    ],
    [
      "sp",
      "end</w>"
    ],
    [
      "t",
      "ch"
    ],
    [
      "par",
      "ty</w>"
    ],
    [
      "hi",
      "gh"
    ],
    [
      "mom",
      "ent</w>"
    ],
    [
      "re",
      "la"
    ],
    [
      "h",
      "it</w>"
    ],
    [
      "pa",
      "st"
    ],
    [
      "wan",
      "ts</w>"
    ],
    [
      "v",
      "an"
    ],
    [
      "m",
      "as"
    ],
    [
      "f",
      "ace</w>"
    ],
    [
      "can",
      "dy</w>"
    ],
    [
      "brea",
      "k</w>"
    ],
    [
      "ab",
      "solu"
    ],
    [
      "star",
      "ted</w>"
    ],
    [
      "st",
      "op</w>"
    ],
    [
      "me",
      "mes</w>"
    ],
    [
      "u",
      "re</w>"
    ],
    [
      "mis",
      "s</w>"
    ],
    [
      "e",
      "f"
    ],
    [
      "su",
      "g"
    ],
    [
      "m",
      "ing</w>"
    ],
    [
      "k",
      "ies</w>"
    ],
    [
      "e",
      "h</w>"
    ],
    [
      "girl",
      "s</w>"
    ],
    [
      "be",
      "t</w>"
    ],
    [
      "un",
      "less</w>"
    ],
    [
      "de",
      "p"
    ],
    [
      "v",
      "ice</w>"
    ],
    [
      "su",
      "b</w>"
    ],
    [
      "ran",
      "dom</w>"
    ],
    [
      "a",
      "di"
    ],
    [
      "om",
      "g</w>"
    ],
    [
      "u",
      "u"
    ],
    [
      "ro",
      "ss</w>"
    ],
    [
      "t",
      "a</w>"
    ],
    [
      "lo",
      "c"
    ],
    [
      "ye",
      "a</w>"
    ],
    [
      "d",
      "le</w>"
    ],
    [
      "qu",
      "i"
    ],
    [
      "u",
      "h</w>"
    ],
    [
      "j",
      "a"
    ],
    [
      "sur",
      "pri"
    ],
    [
      "li",
      "ves</w>"
    ],
    [
      "h",
      "or"
    ],
    [
      "go",
      "ld</w>"
    ],
    [
      "st",
      "s</w>"
    ],
    [
      "rec",
      "eption"
    ],
    [
      "be",
      "gin</w>"
    ],
    [
      "10",
      "1</w>"
    ],
    [
      "ber",
      "ry</w>"
    ],
    [
      "com",
      "ing</w>"
    ],
    [
      "ac",
      "compli"
    ],
    [
      "n",
      "am"
    ],
    [
      "m",
      "ed</w>"
    ],
    [
      "dea",
      "th</w>"
    ],
    [
      "r",
      "un"
    ],
    [
      "dr",
      "aw</w>"
    ],
    [
      "fi",
      "gu"
    ],
    [
      "ad",
      "dic"
    ],
    [
      "ac",
      "count</w>"
    ],
    [
      "shir",
      "t</w>"
    ],
    [
      "cu",
      "ri"
    ],
    [
      "we",
      "dd"
    ],
    [
      "c",
      "e"
    ],
    [
      "a",
      "st</w>"
    ],
    [
      "sm",
      "ile</w>"
    ],
    [
      "t",
      "able</w>"
    ],
    [
      "end",
      "ed</w>"
    ],
    [
      "s",
      "na"
    ],
    [
      "p",
      "id</w>"
    ],
    [
      "ge",
      "st</w>"
    ],
    [
      "ea",
      "l</w>"
    ],
    [
      "compu",
      "ter</w>"
    ],
    [
      "est",
      "er"
    ],
    [
      "pe",
      "pp"
    ],
    [
      "s",
      "qu"
    ],
    [
      "po",
      "li"
    ],
    [
      "pi",
      "ec"
    ],
    [
      "me",
      "di"
    ],
    [
      "char",
      "ac"
    ],
    [
      "sub",
      "reddit</w>"
    ],
    [
      "br",
      "a"
    ],
    [
      "us",
      "es</w>"
    ],
    [
      "happ",
      "en</w>"
    ],
    [
      "he",
      "al"
    ],
    [
      "in",
      "ess</w>"
    ],
    [
      "h",
      "and</w>"
    ],
    [
      "sor",
      "t</w>"
    ],
    [
      "s",
      "wi"
    ],
    [
      "ver",
      "se</w>"
    ],
    [
      "st",
      "uck</w>"
    ],
    [
      "off",
      "ice</w>"
    ],
    [
      "n",
      "s</w>"
    ],
    [
      "d",
      "ev"
    ],
    [
      "quo",
      "te</w>"
    ],
    [
      "tb",
      "h</w>"
    ],
    [
      "hu",
      "r"
    ],
    [
      "pos",
      "si"
    ],
    [
      "at",
      "tri"
    ],
    [
      "attri",
      "bu"
    ],
    [
      "attribu",
      "te</w>"
    ],
    [
      "str",
      "aw"
    ],
    [
      "il",
      "ing</w>"
    ],
    [
      "de",
      "pres"
    ],
    [
      "pp",
      "ing</w>"
    ],
    [
      "to",
      "ge"
    ],
    [
      "toge",
      "ther</w>"
    ],
    [
      "ta",
      "king</w>"
    ],
    [
      "clu",
      "b</w>"
    ],
    [
      "elec",
      "tr"
    ],
    [
      "exper",
      "ience</w>"
    ],
    [
      "d",
      "es</w>"
    ],
    [
      "m",
      "et</w>"
    ],
    [
      "hu",
      "h</w>"
    ],
    [
      "vi",
      "ew</w>"
    ],
    [
      "sh",
      "es</w>"
    ],
    [
      "hob",
      "by</w>"
    ],
    [
      "en",
      "gli"
    ],
    [
      "co",
      "ke</w>"
    ],
    [
      "can",
      "adi"
    ],
    [
      "j",
      "ect</w>"
    ],
    [
      "me",
      "ant</w>"
    ],
    [
      "1",
      "1</w>"
    ],
    [
      "me",
      "tal</w>"
    ],
    [
      "d",
      "ou"
    ],
    [
      "for",
      "get</w>"
    ],
    [
      "t",
      "ers</w>"
    ],
    [
      "/",
      "r/"
    ],
    [
      "ho",
      "ld</w>"
    ],
    [
      "in",
      "s</w>"
    ],
    [
      "fil",
      "m</w>"
    ],
    [
      "ca",
      "re"
    ],
    [
      "pu",
      "pp"
    ],
    [
      "te",
      "ens</w>"
    ],
    [
      "ma",
      "il</w>"
    ],
    [
      "k",
      "id</w>"
    ],
    [
      "1",
      "99"
    ],
    [
      "f",
      "lo"
    ],
    [
      "op",
      "en</w>"
    ],
    [
      "h",
      "h</w>"
    ],
    [
      "c",
      "ats</w>"
    ],
    [
      "ho",
      "pe"
    ],
    [
      "compl",
      "e"
    ],
    [
      "seri",
      "ously</w>"
    ],
    [
      "chan",
      "ce</w>"
    ],
    [
      "fuc",
      "ked</w>"
    ],
    [
      "we",
      "aring</w>"
    ],
    [
      "1",
      "2"
    ],
    [
      "typ",
      "e</w>"
    ],
    [
      "to",
      "p"
    ],
    [
      "pe",
      "an"
    ],
    [
      "sl",
      "eeping</w>"
    ],
    [
      "di",
      "sa"
    ],
    [
      "comm",
      "un"
    ],
    [
      "be",
      "hin"
    ],
    [
      "behin",
      "d</w>"
    ],
    [
      "dri",
      "ve</w>"
    ],
    [
      "we",
      "st</w>"
    ],
    [
      "s",
      "ad"
    ],
    [
      "s",
      "on</w>"
    ],
    [
      "pin",
      "ea"
    ],
    [
      "le",
      "ts</w>"
    ],
    [
      "hope",
      "fully</w>"
    ],
    [
      "li",
      "ked</w>"
    ],
    [
      "br",
      "ow"
    ],
    [
      "es",
      "si"
    ],
    [
      "ch",
      "ri"
    ],
    [
      "g",
      "y"
    ],
    [
      "pa",
      "st</w>"
    ],
    [
      "g",
      "ers</w>"
    ],
    [
      "st",
      "o"
    ],
    [
      "fo",
      "re"
    ],
    [
      "r",
      "ic"
    ],
    [
      "k",
      "in</w>"
    ],
    [
      "ci",
      "ous</w>"
    ],
    [
      "di",
      "r"
    ],
    [
      "eas",
      "y</w>"
    ],
    [
      "i",
      "se</w>"
    ],
    [
      "uni",
      "vers"
    ],
    [
      "or",
      "an"
    ],
    [
      "sp",
      "or"
    ],
    [
      "what",
      "ever</w>"
    ],
    [
      "chan",
      "g"
    ],
    [
      "t",
      "ou"
    ],
    [
      "pinea",
      "pple</w>"
    ],
    [
      "ne",
      "t"
    ],
    [
      "li",
      "gh"
    ],
    [
      "happ",
      "iness</w>"
    ],
    [
      "p",
      "ower</w>"
    ],
    [
      "correc",
      "t</w>"
    ],
    [
      "enti",
      "re</w>"
    ],
    [
      "el",
      "t</w>"
    ],
    [
      "e",
      "ty</w>"
    ],
    [
      "youn",
      "g</w>"
    ],
    [
      "po",
      "e"
    ],
    [
      "relationshi",
      "ps</w>"
    ],
    [
      "recomm",
      "end</w>"
    ],
    [
      "tin",
      "y</w>"
    ],
    [
      "happ",
      "ens</w>"
    ],
    [
      "s",
      "il"
    ],
    [
      "ab",
      "</w>"
    ],
    [
      "can",
      "ada</w>"
    ],
    [
      "ga",
      "st"
    ],
    [
      "t",
      "own</w>"
    ],
    [
      "n",
      "er"
    ],
    [
      "so",
      "l"
    ],
    [
      "c",
      "are</w>"
    ],
    [
      "ex",
      "am"
    ],
    [
      "un",
      "der</w>"
    ],
    [
      "atu",
      "r"
    ],
    [
      "wedd",
      "ing</w>"
    ],
    [
      "ge",
      "ts</w>"
    ],
    [
      "g",
      "a</w>"
    ],
    [
      "ea",
      "d</w>"
    ],
    [
      "ti",
      "ons</w>"
    ],
    [
      "sc",
      "re"
    ],
    [
      "m",
      "c"
    ],
    [
      "tex",
      "as</w>"
    ],
    [
      "d",
      "ad</w>"
    ],
    [
      "listen",
      "ed</w>"
    ],
    [
      "g",
      "lo"
    ],
    [
      "l",
      "er</w>"
    ],
    [
      "sp",
      "id"
    ],
    [
      "pr",
      "ing"
    ],
    [
      "pring",
      "les</w>"
    ],
    [
      "sen",
      "t"
    ],
    [
      "sent",
      "ence</w>"
    ],
    [
      "dea",
      "d</w>"
    ],
    [
      "ro",
      "ll</w>"
    ],
    [
      "e",
      "mo"
    ],
    [
      "c",
      "er</w>"
    ],
    [
      "nee",
      "ds</w>"
    ],
    [
      "f",
      "lu"
    ],
    [
      "str",
      "ong</w>"
    ],
    [
      "k",
      "is"
    ],
    [
      "dan",
      "g</w>"
    ],
    [
      "won",
      "der</w>"
    ],
    [
      "engli",
      "sh</w>"
    ],
    [
      "pl",
      "an</w>"
    ],
    [
      "tr",
      "ac"
    ],
    [
      "youtu",
      "be</w>"
    ],
    [
      "u",
      "r"
    ],
    [
      "c",
      "k"
    ],
    [
      "fu",
      "ture</w>"
    ],
    [
      "inst",
      "ead</w>"
    ],
    [
      "b",
      "ly</w>"
    ],
    [
      "in",
      "de"
    ],
    [
      "inde",
      "ed</w>"
    ],
    [
      "fir",
      "e</w>"
    ],
    [
      "le",
      "g"
    ],
    [
      "y",
      "y"
    ],
    [
      "any",
      "way</w>"
    ],
    [
      "el",
      "ess</w>"
    ],
    [
      "c",
      "en"
    ],
    [
      "zz",
      "</w>"
    ],
    [
      "resp",
      "on"
    ],
    [
      "univers",
      "ity</w>"
    ],
    [
      "d",
      "n"
    ],
    [
      "l",
      "a</w>"
    ],
    [
      "ep",
      "t</w>"
    ],
    [
      "p",
      "et</w>"
    ],
    [
      "kn",
      "own</w>"
    ],
    [
      "ex",
      "pl"
    ],
    [
      "lau",
      "gh</w>"
    ],
    [
      "i",
      "a</w>"
    ],
    [
      "col",
      "or</w>"
    ],
    [
      "cou",
      "ple</w>"
    ],
    [
      "gen",
      "re</w>"
    ],
    [
      "po",
      "p</w>"
    ],
    [
      "sit",
      "ting</w>"
    ],
    [
      "ani",
      "mal</w>"
    ],
    [
      "gr",
      "ou"
    ],
    [
      "j",
      "ec"
    ],
    [
      "wom",
      "en</w>"
    ],
    [
      "d",
      "own"
    ],
    [
      "mo",
      "m</w>"
    ],
    [
      "mar",
      "t</w>"
    ],
    [
      "sh",
      "i</w>"
    ],
    [
      "te",
      "st</w>"
    ],
    [
      "ran",
      "t</w>"
    ],
    [
      "ca",
      "kes</w>"
    ],
    [
      "is",
      "m</w>"
    ],
    [
      "pa",
      "in"
    ],
    [
      "b",
      "ar"
    ],
    [
      "c",
      "y</w>"
    ],
    [
      "past",
      "a</w>"
    ],
    [
      "reception",
      "ist</w>"
    ],
    [
      "stu",
      "pid</w>"
    ],
    [
      "r",
      "ick</w>"
    ],
    [
      "t",
      "wi"
    ],
    [
      "re",
      "gu"
    ],
    [
      "straw",
      "berry</w>"
    ],
    [
      "absolu",
      "tely</w>"
    ],
    [
      "ev",
      "en"
    ],
    [
      "wo",
      "ke</w>"
    ],
    [
      "charac",
      "ter</w>"
    ],
    [
      "so",
      "c"
    ],
    [
      "l",
      "ev"
    ],
    [
      "h",
      "op"
    ],
    [
      "l",
      "ing</w>"
    ],
    [
      "net",
      "fli"
    ],
    [
      "netfli",
      "x</w>"
    ],
    [
      "i",
      "mag"
    ],
    [
      "u",
      "k</w>"
    ],
    [
      "no",
      "body</w>"
    ],
    [
      "jo",
      "kes</w>"
    ],
    [
      "e",
      "en</w>"
    ],
    [
      "deli",
      "cious</w>"
    ],
    [
      "m",
      "ou"
    ],
    [
      "interest",
      "ed</w>"
    ],
    [
      "s",
      "and"
    ],
    [
      "se",
      "x</w>"
    ],
    [
      "oo",
      "o</w>"
    ],
    [
      "ad",
      "d</w>"
    ],
    [
      "vis",
      "it</w>"
    ],
    [
      "c",
      "le"
    ],
    [
      "cou",
      "ldn</w>"
    ],
    [
      "t",
      "all</w>"
    ],
    [
      "s",
      "aying</w>"
    ],
    [
      "i",
      "ve</w>"
    ],
    [
      "su",
      "gg"
    ],
    [
      "sugg",
      "est"
    ],
    [
      "mu",
      "l"
    ],
    [
      "st",
      "ar</w>"
    ],
    [
      "s",
      "mo"
    ],
    [
      "di",
      "sc"
    ],
    [
      "sh",
      "ows</w>"
    ],
    [
      "pu",
      "b"
    ],
    [
      "re",
      "li"
    ],
    [
      "ori",
      "gin"
    ],
    [
      "n",
      "ear</w>"
    ],
    [
      "th",
      "y</w>"
    ],
    [
      "ap",
      "p</w>"
    ],
    [
      "hu",
      "m"
    ],
    [
      "ol",
      "der</w>"
    ],
    [
      "su",
      "shi</w>"
    ],
    [
      "celebr",
      "ate</w>"
    ],
    [
      "rec",
      "i"
    ],
    [
      "y",
      "/"
    ],
    [
      "kid",
      "s</w>"
    ],
    [
      "t",
      "or"
    ],
    [
      "sen",
      "se</w>"
    ],
    [
      "y",
      "ester"
    ],
    [
      "yester",
      "day</w>"
    ],
    [
      "w",
      "ine</w>"
    ],
    [
      "ph",
      "ys"
    ],
    [
      "il",
      "ed</w>"
    ],
    [
      "/",
      "10</w>"
    ],
    [
      "1",
      "1"
    ],
    [
      "dri",
      "ving</w>"
    ],
    [
      "in",
      "validation</w>"
    ],
    [
      "a",
      "in"
    ],
    [
      "class",
      "ic</w>"
    ],
    [
      "accompli",
      "sh"
    ],
    [
      "cra",
      "zy</w>"
    ],
    [
      "f",
      "ran"
    ],
    [
      "al",
      "d</w>"
    ],
    [
      "be",
      "t"
    ],
    [
      "bet",
      "we"
    ],
    [
      "betwe",
      "en</w>"
    ],
    [
      "in",
      "c"
    ],
    [
      "wor",
      "se</w>"
    ],
    [
      "f",
      "ish</w>"
    ],
    [
      "canadi",
      "an</w>"
    ],
    [
      "imag",
      "ine</w>"
    ],
    [
      "lo",
      "s"
    ],
    [
      "t",
      "an"
    ],
    [
      "for",
      "m"
    ],
    [
      "tur",
      "ned</w>"
    ],
    [
      "4",
      "0</w>"
    ],
    [
      "mb",
      "ers</w>"
    ],
    [
      "r",
      "ice</w>"
    ],
    [
      "g",
      "ion</w>"
    ],
    [
      "vo",
      "d"
    ],
    [
      "vod",
      "ka</w>"
    ],
    [
      "ja",
      "zz</w>"
    ],
    [
      "an",
      "no"
    ],
    [
      "lau",
      "gh"
    ],
    [
      "st",
      "ing</w>"
    ],
    [
      "g",
      "ly</w>"
    ],
    [
      "at",
      "es</w>"
    ],
    [
      "t",
      "ary</w>"
    ],
    [
      "ne",
      "w"
    ],
    [
      "mm",
      "m</w>"
    ],
    [
      "tast",
      "e</w>"
    ],
    [
      "st",
      "ore</w>"
    ],
    [
      "comm",
      "ents</w>"
    ],
    [
      "are",
      "a</w>"
    ],
    [
      "descri",
      "be</w>"
    ],
    [
      "won",
      "der"
    ],
    [
      "ne",
      "y</w>"
    ],
    [
      "f",
      "elt</w>"
    ],
    [
      "ar",
      "ds</w>"
    ],
    [
      "s",
      "at"
    ],
    [
      "bi",
      "g"
    ],
    [
      "re",
      "verse</w>"
    ],
    [
      "a",
      "f</w>"
    ],
    [
      "p",
      "ick"
    ],
    [
      "minu",
      "te</w>"
    ],
    [
      "z",
      "om"
    ],
    [
      "zom",
      "bi"
    ],
    [
      "ver",
      "age</w>"
    ],
    [
      "as",
      "l"
    ],
    [
      "asl",
      "eep</w>"
    ],
    [
      "sand",
      "w"
    ],
    [
      "b",
      "ot</w>"
    ],
    [
      "fla",
      "v"
    ],
    [
      "sm",
      "iling</w>"
    ],
    [
      "user",
      "names</w>"
    ],
    [
      "us",
      "h</w>"
    ],
    [
      "oran",
      "ge</w>"
    ],
    [
      "b",
      "en"
    ],
    [
      "episo",
      "de</w>"
    ],
    [
      "tiv",
      "ity</w>"
    ],
    [
      "au",
      "str"
    ],
    [
      "austr",
      "ali"
    ],
    [
      "ch",
      "oo"
    ],
    [
      "li",
      "c</w>"
    ],
    [
      "in",
      "side</w>"
    ],
    [
      "f",
      "all</w>"
    ],
    [
      "ch",
      "ill</w>"
    ],
    [
      "b",
      "ought</w>"
    ],
    [
      "gy",
      "m</w>"
    ],
    [
      "any",
      "more</w>"
    ],
    [
      "h",
      "y"
    ],
    [
      "exp",
      "ec"
    ],
    [
      "f",
      "oo"
    ],
    [
      "m",
      "ple</w>"
    ],
    [
      "st",
      "an"
    ],
    [
      "h",
      "an"
    ],
    [
      "k",
      "new</w>"
    ],
    [
      "bo",
      "y"
    ],
    [
      "sho",
      "es</w>"
    ],
    [
      "tru",
      "ths</w>"
    ],
    [
      "sug",
      "ar</w>"
    ],
    [
      "1",
      "2</w>"
    ],
    [
      "le",
      "gs</w>"
    ],
    [
      "y",
      "e</w>"
    ],
    [
      "mo",
      "ving</w>"
    ],
    [
      "choo",
      "se</w>"
    ],
    [
      "mon",
      "day</w>"
    ],
    [
      "con",
      "sid"
    ],
    [
      "ou",
      "r"
    ],
    [
      "s",
      "y</w>"
    ],
    [
      "stu",
      "dy</w>"
    ],
    [
      "pan",
      "ts</w>"
    ],
    [
      "d",
      "ele"
    ],
    [
      "chri",
      "st"
    ],
    [
      "st",
      "y"
    ],
    [
      "o",
      "thers</w>"
    ],
    [
      "t",
      "on</w>"
    ],
    [
      "s",
      "ca"
    ],
    [
      "ou",
      "d</w>"
    ],
    [
      "z",
      "ar"
    ],
    [
      "g",
      "as</w>"
    ],
    [
      "5",
      "0</w>"
    ],
    [
      "bu",
      "dd"
    ],
    [
      "budd",
      "y</w>"
    ],
    [
      "mid",
      "dle</w>"
    ],
    [
      "i",
      "i"
    ],
    [
      "ex",
      "</w>"
    ],
    [
      "fri",
      "end"
    ],
    [
      "f",
      "ly</w>"
    ],
    [
      "fe",
      "et</w>"
    ],
    [
      "d",
      "om"
    ],
    [
      "ke",
      "y"
    ],
    [
      "sh",
      "ot</w>"
    ],
    [
      "w",
      "ea"
    ],
    [
      "n",
      "n"
    ],
    [
      "disa",
      "p"
    ],
    [
      "bo",
      "ard</w>"
    ],
    [
      "dr",
      "u"
    ],
    [
      "c",
      "ry</w>"
    ],
    [
      "ee",
      "ee"
    ],
    [
      "fr",
      "on"
    ],
    [
      "r",
      "n</w>"
    ],
    [
      "re",
      "gre"
    ],
    [
      "i",
      "er</w>"
    ],
    [
      "st",
      "a"
    ],
    [
      "f",
      "i</w>"
    ],
    [
      "wa",
      "r</w>"
    ],
    [
      "si",
      "g"
    ],
    [
      "gra",
      "ph"
    ],
    [
      "luc",
      "ky</w>"
    ],
    [
      "congr",
      "atu"
    ],
    [
      "congratu",
      "l"
    ],
    [
      "congratul",
      "ations</w>"
    ],
    [
      "lea",
      "ve</w>"
    ],
    [
      "lo",
      "ts</w>"
    ],
    [
      "ow",
      "l</w>"
    ],
    [
      "nor",
      "mal</w>"
    ],
    [
      "p",
      "ow"
    ],
    [
      "le",
      "y</w>"
    ],
    [
      "m",
      "p</w>"
    ],
    [
      "sp",
      "ace</w>"
    ],
    [
      "boy",
      "friend</w>"
    ],
    [
      "s",
      "it</w>"
    ],
    [
      "dir",
      "ty</w>"
    ],
    [
      "e",
      "u"
    ],
    [
      "coo",
      "kies</w>"
    ],
    [
      "electr",
      "ic</w>"
    ],
    [
      "to",
      "s</w>"
    ],
    [
      "n",
      "e</w>"
    ],
    [
      "b",
      "t"
    ],
    [
      "b",
      "er</w>"
    ],
    [
      "i",
      "gh"
    ],
    [
      "spor",
      "ts</w>"
    ],
    [
      "jo",
      "h"
    ],
    [
      "f",
      "ren"
    ],
    [
      "fren",
      "ch</w>"
    ],
    [
      "to",
      "ld</w>"
    ],
    [
      "run",
      "ning</w>"
    ],
    [
      "te",
      "xt</w>"
    ],
    [
      "c",
      "am"
    ],
    [
      "dr",
      "aw"
    ],
    [
      "person",
      "al</w>"
    ],
    [
      "g",
      "ri"
    ],
    [
      "it",
      "al"
    ],
    [
      "ne",
      "at</w>"
    ],
    [
      "hon",
      "est</w>"
    ],
    [
      "bo",
      "x"
    ],
    [
      "d",
      "en</w>"
    ],
    [
      "so",
      "ft</w>"
    ],
    [
      "ani",
      "mal"
    ],
    [
      "animal",
      "s</w>"
    ],
    [
      "upvo",
      "tes</w>"
    ],
    [
      "o",
      "d"
    ],
    [
      "langu",
      "ages</w>"
    ],
    [
      "se",
      "p"
    ],
    [
      "cu",
      "t</w>"
    ],
    [
      "par",
      "tic"
    ],
    [
      "fi",
      "ed</w>"
    ],
    [
      "ow",
      "ing</w>"
    ],
    [
      "d",
      "ick</w>"
    ],
    [
      "chi",
      "ld</w>"
    ],
    [
      "k",
      "ar"
    ],
    [
      "am",
      "s</w>"
    ],
    [
      "com",
      "b"
    ],
    [
      "go",
      "al</w>"
    ],
    [
      "comm",
      "on</w>"
    ],
    [
      "o",
      "s"
    ],
    [
      "ger",
      "man</w>"
    ],
    [
      "rus",
      "si"
    ],
    [
      "a",
      "po"
    ],
    [
      "ac",
      "tivity</w>"
    ],
    [
      "fron",
      "t</w>"
    ],
    [
      "j",
      "es"
    ],
    [
      "jes",
      "us</w>"
    ],
    [
      "exam",
      "ple</w>"
    ],
    [
      "gr",
      "ab</w>"
    ],
    [
      "he",
      "art</w>"
    ],
    [
      "hand",
      "some</w>"
    ],
    [
      "d",
      "are</w>"
    ],
    [
      "j",
      "er"
    ],
    [
      "ill",
      "en"
    ],
    [
      "de",
      "gre"
    ],
    [
      "her",
      "o</w>"
    ],
    [
      "po",
      "ke"
    ],
    [
      "in",
      "di"
    ],
    [
      "mat",
      "ter</w>"
    ],
    [
      "da",
      "ily</w>"
    ],
    [
      "6",
      "0</w>"
    ],
    [
      "im",
      "o</w>"
    ],
    [
      "l",
      "ow</w>"
    ],
    [
      "li",
      "m"
    ],
    [
      "figu",
      "re</w>"
    ],
    [
      "fi",
      "el"
    ],
    [
      "ac",
      "hi"
    ],
    [
      "ed",
      "it</w>"
    ],
    [
      "th",
      "ou"
    ],
    [
      "pic",
      "ture</w>"
    ],
    [
      "d",
      "un"
    ],
    [
      "app",
      "reci"
    ],
    [
      "in",
      "tro"
    ],
    [
      "v",
      "ent</w>"
    ],
    [
      "con",
      "cer"
    ],
    [
      "in",
      "ation</w>"
    ],
    [
      "d",
      "ge</w>"
    ],
    [
      "pl",
      "o"
    ],
    [
      "bel",
      "ow</w>"
    ],
    [
      "ow",
      "ed</w>"
    ],
    [
      "di",
      "es</w>"
    ],
    [
      "ra",
      "in</w>"
    ],
    [
      "ad",
      "vice</w>"
    ],
    [
      "id",
      "e</w>"
    ],
    [
      "cor",
      "n</w>"
    ],
    [
      "as",
      "h</w>"
    ],
    [
      "ri",
      "es</w>"
    ],
    [
      "me",
      "h</w>"
    ],
    [
      "f",
      "all"
    ],
    [
      "/",
      "s</w>"
    ],
    [
      "c",
      "le</w>"
    ],
    [
      "/",
      "been</w>"
    ],
    [
      "he",
      "ight</w>"
    ],
    [
      "h",
      "oo"
    ],
    [
      "star",
      "ts</w>"
    ],
    [
      "essi",
      "ons</w>"
    ],
    [
      "pu",
      "tting</w>"
    ],
    [
      "reali",
      "zed</w>"
    ],
    [
      "tu",
      "al</w>"
    ],
    [
      "10",
      "0</w>"
    ],
    [
      "d",
      "ly</w>"
    ],
    [
      "ch",
      "ill"
    ],
    [
      "exc",
      "ept</w>"
    ],
    [
      "un",
      "popular</w>"
    ],
    [
      "fre",
      "e"
    ],
    [
      "l",
      "es"
    ],
    [
      "comple",
      "tely</w>"
    ],
    [
      "bo",
      "y</w>"
    ],
    [
      "j",
      "</w>"
    ],
    [
      "ta",
      "kes</w>"
    ],
    [
      "as",
      "ian</w>"
    ],
    [
      "il",
      "s</w>"
    ],
    [
      "sty",
      "le</w>"
    ],
    [
      "grou",
      "p</w>"
    ],
    [
      "suppo",
      "sed</w>"
    ],
    [
      "v",
      "ely</w>"
    ],
    [
      "te",
      "ch"
    ],
    [
      "x",
      "i"
    ],
    [
      "mo",
      "ther</w>"
    ],
    [
      "sep",
      "te"
    ],
    [
      "septe",
      "mber</w>"
    ],
    [
      "stran",
      "ge</w>"
    ],
    [
      "tt",
      "er"
    ],
    [
      "s",
      "s"
    ],
    [
      "for",
      "got</w>"
    ],
    [
      "typ",
      "es</w>"
    ],
    [
      "tu",
      "res</w>"
    ],
    [
      "in",
      "v"
    ],
    [
      "hu",
      "gs</w>"
    ],
    [
      "f",
      "ellow</w>"
    ],
    [
      "gr",
      "y</w>"
    ],
    [
      "fi",
      "gh"
    ],
    [
      "st",
      "ick</w>"
    ],
    [
      "ju",
      "ice</w>"
    ],
    [
      "par",
      "k</w>"
    ],
    [
      "fi",
      "ve</w>"
    ],
    [
      "c",
      "l"
    ],
    [
      "ear",
      "th</w>"
    ],
    [
      "ha",
      "ir"
    ],
    [
      "con",
      "tac"
    ],
    [
      "t",
      "ar"
    ],
    [
      "u",
      "ght</w>"
    ],
    [
      "com",
      "for"
    ],
    [
      "ma",
      "in</w>"
    ],
    [
      "mor",
      "ty</w>"
    ],
    [
      "terri",
      "ble</w>"
    ],
    [
      "regre",
      "t</w>"
    ],
    [
      "m",
      "illen"
    ],
    [
      "ch",
      "ee"
    ],
    [
      "ma",
      "j"
    ],
    [
      "in",
      "ly</w>"
    ],
    [
      "c",
      "ha</w>"
    ],
    [
      "m",
      "ess"
    ],
    [
      "piec",
      "e</w>"
    ],
    [
      "poke",
      "mon</w>"
    ],
    [
      "ser",
      "ies</w>"
    ],
    [
      "me",
      "aning</w>"
    ],
    [
      "plan",
      "ning</w>"
    ],
    [
      "sc",
      "ience</w>"
    ],
    [
      "ad",
      "or"
    ],
    [
      "hu",
      "ge</w>"
    ],
    [
      "cho",
      "ice</w>"
    ],
    [
      "p",
      "ool</w>"
    ],
    [
      "kid",
      "ding</w>"
    ],
    [
      "achi",
      "ev"
    ],
    [
      "j",
      "e"
    ],
    [
      "be",
      "ach</w>"
    ],
    [
      "sad",
      "ly</w>"
    ],
    [
      "ma",
      "ster</w>"
    ],
    [
      "sa",
      "fe</w>"
    ],
    [
      "for",
      "m</w>"
    ],
    [
      "mag",
      "ic</w>"
    ],
    [
      "ne",
      "ither</w>"
    ],
    [
      "down",
      "vo"
    ],
    [
      "usu",
      "al</w>"
    ],
    [
      "st",
      "ed</w>"
    ],
    [
      "en",
      "ty</w>"
    ],
    [
      "fin",
      "ish</w>"
    ],
    [
      "il",
      "la"
    ],
    [
      "hi",
      "p</w>"
    ],
    [
      "pr",
      "om"
    ],
    [
      "ha",
      "ll"
    ],
    [
      "pur",
      "po"
    ],
    [
      "ac",
      "es</w>"
    ],
    [
      "is",
      "su"
    ],
    [
      "d",
      "ating</w>"
    ],
    [
      "h",
      "om"
    ],
    [
      "answ",
      "ers</w>"
    ],
    [
      "1",
      "9</w>"
    ],
    [
      "ter",
      "m</w>"
    ],
    [
      "l",
      "y"
    ],
    [
      "ger",
      "many</w>"
    ],
    [
      "chang",
      "ed</w>"
    ],
    [
      "e",
      "tt"
    ],
    [
      "t",
      "at"
    ],
    [
      "i",
      "ri"
    ],
    [
      "cas",
      "e</w>"
    ],
    [
      "gast",
      "on</w>"
    ],
    [
      "p",
      "oor</w>"
    ],
    [
      "d",
      "r</w>"
    ],
    [
      "argu",
      "e</w>"
    ],
    [
      "m",
      "it</w>"
    ],
    [
      "0",
      "00</w>"
    ],
    [
      "too",
      "k</w>"
    ],
    [
      "rela",
      "x</w>"
    ],
    [
      "t",
      "ch</w>"
    ],
    [
      "ga",
      "ve</w>"
    ],
    [
      "feel",
      "s</w>"
    ],
    [
      "h",
      "ome"
    ],
    [
      "bt",
      "w</w>"
    ],
    [
      "bo",
      "ss</w>"
    ],
    [
      "medi",
      "a</w>"
    ],
    [
      "shit",
      "ty</w>"
    ],
    [
      "g",
      "one</w>"
    ],
    [
      "stran",
      "ger</w>"
    ],
    [
      "s",
      "et</w>"
    ],
    [
      "2",
      "4</w>"
    ],
    [
      "d",
      "w"
    ],
    [
      "or",
      "g"
    ],
    [
      "ag",
      "ed</w>"
    ],
    [
      "dep",
      "ends</w>"
    ],
    [
      "b",
      "all"
    ],
    [
      "pub",
      "lic</w>"
    ],
    [
      "lo",
      "gy</w>"
    ],
    [
      "fiel",
      "d</w>"
    ],
    [
      "m",
      "as</w>"
    ],
    [
      "origin",
      "al</w>"
    ],
    [
      "sid",
      "es</w>"
    ],
    [
      "p",
      "se</w>"
    ],
    [
      "t",
      "ow"
    ],
    [
      "post",
      "ing</w>"
    ],
    [
      "ho",
      "ly</w>"
    ],
    [
      "appreci",
      "ate</w>"
    ],
    [
      "f",
      "ting</w>"
    ],
    [
      "su",
      "p</w>"
    ],
    [
      "y",
      "o"
    ],
    [
      "ar",
      "ti"
    ],
    [
      "or",
      "der</w>"
    ],
    [
      "en",
      "ding</w>"
    ],
    [
      "ic",
      "y</w>"
    ],
    [
      "kar",
      "ma</w>"
    ],
    [
      "w",
      "oo"
    ],
    [
      "o",
      "re"
    ],
    [
      "t",
      "or</w>"
    ],
    [
      "sou",
      "th</w>"
    ],
    [
      "v",
      "ir"
    ],
    [
      "fan",
      "cy</w>"
    ],
    [
      "an",
      "o</w>"
    ],
    [
      "hea",
      "vy</w>"
    ],
    [
      "you",
      "re</w>"
    ],
    [
      "aw",
      "ake</w>"
    ],
    [
      "di",
      "ed</w>"
    ],
    [
      "sel",
      "ves</w>"
    ],
    [
      "cha",
      "ll"
    ],
    [
      "chall",
      "en"
    ],
    [
      "speci",
      "fic</w>"
    ],
    [
      "pepp",
      "er</w>"
    ],
    [
      "tra",
      "vel</w>"
    ],
    [
      "cu",
      "l"
    ],
    [
      "p",
      "ho"
    ],
    [
      "ch",
      "ing</w>"
    ],
    [
      "millen",
      "ni"
    ],
    [
      "accomplish",
      "ed"
    ],
    [
      "accomplished",
      "/been</w>"
    ],
    [
      "gu",
      "e</w>"
    ],
    [
      "af",
      "f"
    ],
    [
      "s",
      "y"
    ],
    [
      "any",
      "where</w>"
    ],
    [
      "ador",
      "able</w>"
    ],
    [
      "in",
      "clu"
    ],
    [
      "proble",
      "ms</w>"
    ],
    [
      "me",
      "mor"
    ],
    [
      "e",
      "ach</w>"
    ],
    [
      "christ",
      "mas</w>"
    ],
    [
      "fe",
      "rence</w>"
    ],
    [
      "he",
      "he</w>"
    ],
    [
      "ob",
      "s"
    ],
    [
      "pu",
      "mp"
    ],
    [
      "thou",
      "ghts</w>"
    ],
    [
      "gener",
      "al</w>"
    ],
    [
      "ca",
      "p"
    ],
    [
      "li",
      "ed</w>"
    ],
    [
      "star",
      "ting</w>"
    ],
    [
      "st",
      "er"
    ],
    [
      "pow",
      "ers</w>"
    ],
    [
      "1",
      "9"
    ],
    [
      "t",
      "ent</w>"
    ],
    [
      "si",
      "mple</w>"
    ],
    [
      "with",
      "in</w>"
    ],
    [
      "ab",
      "ili"
    ],
    [
      "z",
      "one</w>"
    ],
    [
      "ツ",
      "</w>"
    ],
    [
      "ir",
      "e</w>"
    ],
    [
      "pean",
      "ut</w>"
    ],
    [
      "bu",
      "tter</w>"
    ],
    [
      "l",
      "ad"
    ],
    [
      "pre",
      "dic"
    ],
    [
      "as",
      "e</w>"
    ],
    [
      "sca",
      "red</w>"
    ],
    [
      "m",
      "ir"
    ],
    [
      "langu",
      "age</w>"
    ],
    [
      "vari",
      "ety</w>"
    ],
    [
      "drin",
      "ks</w>"
    ],
    [
      "gi",
      "es</w>"
    ],
    [
      "clo",
      "th"
    ],
    [
      "cloth",
      "es</w>"
    ],
    [
      "mas",
      "sive</w>"
    ],
    [
      "glo",
      "be</w>"
    ],
    [
      "reli",
      "gion</w>"
    ],
    [
      "c",
      "ab"
    ],
    [
      "ic",
      "ks</w>"
    ],
    [
      "ba",
      "g</w>"
    ],
    [
      "sh",
      "ouldn</w>"
    ],
    [
      "anno",
      "ying</w>"
    ],
    [
      "h",
      "ec"
    ],
    [
      "soci",
      "al</w>"
    ],
    [
      "ch",
      "y</w>"
    ],
    [
      "w",
      "ars</w>"
    ],
    [
      "s",
      "ide"
    ],
    [
      "new",
      "s</w>"
    ],
    [
      "con",
      "tro"
    ],
    [
      "p",
      "ass</w>"
    ],
    [
      "nam",
      "ed</w>"
    ],
    [
      "gam",
      "ing</w>"
    ],
    [
      "i",
      "al</w>"
    ],
    [
      "l",
      "en"
    ],
    [
      "curi",
      "ous</w>"
    ],
    [
      "heal",
      "thy</w>"
    ],
    [
      "lo",
      "vely</w>"
    ],
    [
      "inter",
      "view</w>"
    ],
    [
      "some",
      "where</w>"
    ],
    [
      "l",
      "ec"
    ],
    [
      "u",
      "lt</w>"
    ],
    [
      "oo",
      "ps</w>"
    ],
    [
      "li",
      "on</w>"
    ],
    [
      "post",
      "s</w>"
    ],
    [
      "e",
      "ff"
    ],
    [
      "1",
      "4</w>"
    ],
    [
      "reali",
      "ze</w>"
    ],
    [
      "partic",
      "u"
    ],
    [
      "har",
      "ry</w>"
    ],
    [
      "sat",
      "is"
    ],
    [
      "bu",
      "n"
    ],
    [
      "o",
      "ve</w>"
    ],
    [
      "nu",
      "mbers</w>"
    ],
    [
      "fore",
      "ver</w>"
    ],
    [
      "gi",
      "ving</w>"
    ],
    [
      "ta",
      "ken</w>"
    ],
    [
      "er",
      "ing</w>"
    ],
    [
      "bro",
      "ther</w>"
    ],
    [
      "th",
      "ird</w>"
    ],
    [
      "b",
      "re"
    ],
    [
      "suc",
      "c"
    ],
    [
      "glas",
      "s</w>"
    ],
    [
      "2",
      "1</w>"
    ],
    [
      "wea",
      "ther</w>"
    ],
    [
      "surpri",
      "sed</w>"
    ],
    [
      "key",
      "board</w>"
    ],
    [
      "m",
      "ach"
    ],
    [
      "ne",
      "u"
    ],
    [
      "ation",
      "al</w>"
    ],
    [
      "to",
      "m</w>"
    ],
    [
      "gu",
      "est"
    ],
    [
      "guest",
      "s</w>"
    ],
    [
      "s",
      "ick</w>"
    ],
    [
      "thr",
      "ow</w>"
    ],
    [
      "or",
      "d</w>"
    ],
    [
      "m",
      "ill</w>"
    ],
    [
      "dis",
      "agree</w>"
    ],
    [
      "war",
      "m</w>"
    ],
    [
      "po",
      "land</w>"
    ],
    [
      "millenni",
      "al</w>"
    ],
    [
      "we",
      "ed</w>"
    ],
    [
      "poli",
      "t"
    ],
    [
      "in",
      "b"
    ],
    [
      "emo",
      "j"
    ],
    [
      "ar",
      "ms</w>"
    ],
    [
      "lear",
      "n</w>"
    ],
    [
      "expl",
      "ain</w>"
    ],
    [
      "mo",
      "bi"
    ],
    [
      "mobi",
      "le</w>"
    ],
    [
      "t",
      "le</w>"
    ],
    [
      "bu",
      "sy</w>"
    ],
    [
      "la",
      "zy</w>"
    ],
    [
      "nee",
      "ded</w>"
    ],
    [
      "plan",
      "ts</w>"
    ],
    [
      "comp",
      "any</w>"
    ],
    [
      "fin",
      "al</w>"
    ],
    [
      "com",
      "es</w>"
    ],
    [
      "post",
      "ed</w>"
    ],
    [
      "pl",
      "es</w>"
    ],
    [
      "chec",
      "king</w>"
    ],
    [
      "relationshi",
      "p</w>"
    ],
    [
      "s",
      "atur"
    ],
    [
      "r",
      "om"
    ],
    [
      "rom",
      "an"
    ],
    [
      "t",
      "ec"
    ],
    [
      "a",
      "v"
    ],
    [
      "y",
      "y</w>"
    ],
    [
      "t",
      "s"
    ],
    [
      "p",
      "t</w>"
    ],
    [
      "bi",
      "zar"
    ],
    [
      "bizar",
      "re</w>"
    ],
    [
      "x",
      "ed</w>"
    ],
    [
      "f",
      "as"
    ],
    [
      "purpo",
      "se</w>"
    ],
    [
      "lar",
      "ge</w>"
    ],
    [
      "_",
      "/</w>"
    ],
    [
      "li",
      "kes</w>"
    ],
    [
      "6",
      "00</w>"
    ],
    [
      "bro",
      "ke</w>"
    ],
    [
      "zombi",
      "e</w>"
    ],
    [
      "figh",
      "ting</w>"
    ],
    [
      "t",
      "ough</w>"
    ],
    [
      "mar",
      "vel</w>"
    ],
    [
      "en",
      "ter"
    ],
    [
      "contac",
      "ts</w>"
    ],
    [
      "su",
      "ck</w>"
    ],
    [
      "eu",
      "ro"
    ],
    [
      "suppo",
      "se</w>"
    ],
    [
      "re",
      "ly</w>"
    ],
    [
      "n",
      "ess</w>"
    ],
    [
      "ill",
      "a</w>"
    ],
    [
      "si",
      "ze</w>"
    ],
    [
      "go",
      "als</w>"
    ],
    [
      "clas",
      "ses</w>"
    ],
    [
      "z",
      "er</w>"
    ],
    [
      "be",
      "at"
    ],
    [
      "l",
      "am"
    ],
    [
      "bas",
      "ement</w>"
    ],
    [
      "t",
      "read"
    ],
    [
      "tread",
      "mill</w>"
    ],
    [
      "regu",
      "lar</w>"
    ],
    [
      "wee",
      "ks</w>"
    ],
    [
      "p",
      "age</w>"
    ],
    [
      "au",
      "tom"
    ],
    [
      "see",
      "ing</w>"
    ],
    [
      "speci",
      "al</w>"
    ],
    [
      "p",
      "hi"
    ],
    [
      "don",
      "ald</w>"
    ],
    [
      "a",
      "head</w>"
    ],
    [
      "mul",
      "ti"
    ],
    [
      "we",
      "ir"
    ],
    [
      "jo",
      "in</w>"
    ],
    [
      "dis",
      "co"
    ],
    [
      "ar",
      "my</w>"
    ],
    [
      "wor",
      "ry</w>"
    ],
    [
      "v",
      "in"
    ],
    [
      "fin",
      "ding</w>"
    ],
    [
      "s",
      "sing</w>"
    ],
    [
      "shi",
      "ft</w>"
    ],
    [
      "brow",
      "sing</w>"
    ],
    [
      "l",
      "o</w>"
    ],
    [
      "dele",
      "ted</w>"
    ],
    [
      "ta",
      "in</w>"
    ],
    [
      "shi",
      "p</w>"
    ],
    [
      "wonder",
      "ful</w>"
    ],
    [
      "c",
      "el"
    ],
    [
      "ke",
      "ts</w>"
    ],
    [
      "l",
      "s</w>"
    ],
    [
      "mil",
      "k</w>"
    ],
    [
      "j",
      "ack</w>"
    ],
    [
      "lon",
      "don</w>"
    ],
    [
      "ag",
      "ain"
    ],
    [
      "again",
      "st</w>"
    ],
    [
      "an",
      "e</w>"
    ],
    [
      "al",
      "though</w>"
    ],
    [
      "redd",
      "it"
    ],
    [
      "sh",
      "ower</w>"
    ],
    [
      "k",
      "ers</w>"
    ],
    [
      "re",
      "qui"
    ],
    [
      "1",
      "3</w>"
    ],
    [
      "ill",
      "s</w>"
    ],
    [
      "ra",
      "di"
    ],
    [
      "c",
      "li"
    ],
    [
      "do",
      "c"
    ],
    [
      "mi",
      "li"
    ],
    [
      "fi",
      "le</w>"
    ],
    [
      "nor",
      "th</w>"
    ],
    [
      "g",
      "ross</w>"
    ],
    [
      "mo",
      "on</w>"
    ],
    [
      "an",
      "ge"
    ],
    [
      "un",
      "ite</w>"
    ],
    [
      "sc",
      "i"
    ],
    [
      "no",
      "ve"
    ],
    [
      "nove",
      "mber</w>"
    ],
    [
      "fru",
      "its</w>"
    ],
    [
      "o",
      "l</w>"
    ],
    [
      "oo",
      "p</w>"
    ],
    [
      "gott",
      "en</w>"
    ],
    [
      "c",
      "ir"
    ],
    [
      "flav",
      "or</w>"
    ],
    [
      "phys",
      "ical</w>"
    ],
    [
      "eg",
      "g</w>"
    ],
    [
      "_",
      "_"
    ],
    [
      "mar",
      "ch</w>"
    ],
    [
      "im",
      "por"
    ],
    [
      "haha",
      "haha</w>"
    ],
    [
      "ne",
      "igh"
    ],
    [
      "what",
      "cha</w>"
    ],
    [
      "hec",
      "k</w>"
    ],
    [
      "at",
      "ic</w>"
    ],
    [
      "f",
      "our</w>"
    ],
    [
      "t",
      "ice</w>"
    ],
    [
      "ar",
      "m</w>"
    ],
    [
      "ac",
      "ks</w>"
    ],
    [
      "consid",
      "er</w>"
    ],
    [
      "d",
      "oor</w>"
    ],
    [
      "atu",
      "re</w>"
    ],
    [
      "episo",
      "des</w>"
    ],
    [
      "s",
      "wee"
    ],
    [
      "et",
      "c</w>"
    ],
    [
      "be",
      "sides</w>"
    ],
    [
      "graph",
      "y</w>"
    ],
    [
      "ali",
      "ve</w>"
    ],
    [
      "h",
      "us"
    ],
    [
      "ta",
      "il</w>"
    ],
    [
      "roman",
      "tic</w>"
    ],
    [
      "at",
      "trac"
    ],
[...]
